{
  "version": "1.0",
  "truncation": null,
  "padding": null,
  "added_tokens": [
    {
      "id": 0,
      "content": "<pad>",
      "single_word": false,
      "lstrip": false,
      "rstrip": false,
      "normalized": false,
      "special": true
    },
    {
      "id": 1,
      "content": "<unk>",
      "single_word": false,
      "lstrip": false,
      "rstrip": false,
      "normalized": false,
      "special": true
    },
    {
      "id": 2,
      "content": "<bos>",
      "single_word": false,
      "lstrip": false,
      "rstrip": false,
      "normalized": false,
      "special": true
    },
    {
      "id": 3,
      "content": "<eos>",
      "single_word": false,
      "lstrip": false,
      "rstrip": false,
      "normalized": false,
      "special": true
    },
    {
      "id": 4,
      "content": "<sep>",
      "single_word": false,
      "lstrip": false,
      "rstrip": false,
      "normalized": false,
      "special": true
    },
    {
      "id": 5,
      "content": "<code>",
      "single_word": false,
      "lstrip": false,
      "rstrip": false,
      "normalized": false,
      "special": true
    }
  ],
  "normalizer": {
    "type": "NFKC"
  },
  "pre_tokenizer": {
    "type": "ByteLevel",
    "add_prefix_space": true,
    "trim_offsets": true,
    "use_regex": true
  },
  "post_processor": null,
  "decoder": {
    "type": "ByteLevel",
    "add_prefix_space": true,
    "trim_offsets": true,
    "use_regex": true
  },
  "model": {
    "type": "BPE",
    "dropout": null,
    "unk_token": "<unk>",
    "continuing_subword_prefix": null,
    "end_of_word_suffix": null,
    "fuse_unk": false,
    "byte_fallback": false,
    "ignore_merges": false,
    "vocab": {
      "<pad>": 0,
      "<unk>": 1,
      "<bos>": 2,
      "<eos>": 3,
      "<sep>": 4,
      "<code>": 5,
      "!": 6,
      "\"": 7,
      "#": 8,
      "$": 9,
      "%": 10,
      "&": 11,
      "'": 12,
      "(": 13,
      ")": 14,
      "*": 15,
      "+": 16,
      ",": 17,
      "-": 18,
      ".": 19,
      "/": 20,
      "0": 21,
      "1": 22,
      "2": 23,
      "3": 24,
      "4": 25,
      "5": 26,
      "6": 27,
      "7": 28,
      "8": 29,
      "9": 30,
      ":": 31,
      ";": 32,
      "<": 33,
      "=": 34,
      ">": 35,
      "?": 36,
      "@": 37,
      "A": 38,
      "B": 39,
      "C": 40,
      "D": 41,
      "E": 42,
      "F": 43,
      "G": 44,
      "H": 45,
      "I": 46,
      "J": 47,
      "K": 48,
      "L": 49,
      "M": 50,
      "N": 51,
      "O": 52,
      "P": 53,
      "Q": 54,
      "R": 55,
      "S": 56,
      "T": 57,
      "U": 58,
      "V": 59,
      "W": 60,
      "X": 61,
      "Y": 62,
      "Z": 63,
      "[": 64,
      "\\": 65,
      "]": 66,
      "^": 67,
      "_": 68,
      "`": 69,
      "a": 70,
      "b": 71,
      "c": 72,
      "d": 73,
      "e": 74,
      "f": 75,
      "g": 76,
      "h": 77,
      "i": 78,
      "j": 79,
      "k": 80,
      "l": 81,
      "m": 82,
      "n": 83,
      "o": 84,
      "p": 85,
      "q": 86,
      "r": 87,
      "s": 88,
      "t": 89,
      "u": 90,
      "v": 91,
      "w": 92,
      "x": 93,
      "y": 94,
      "z": 95,
      "{": 96,
      "|": 97,
      "}": 98,
      "~": 99,
      "¡": 100,
      "¢": 101,
      "£": 102,
      "¤": 103,
      "¥": 104,
      "¦": 105,
      "§": 106,
      "¨": 107,
      "©": 108,
      "ª": 109,
      "«": 110,
      "¬": 111,
      "®": 112,
      "¯": 113,
      "°": 114,
      "±": 115,
      "²": 116,
      "³": 117,
      "´": 118,
      "µ": 119,
      "¶": 120,
      "·": 121,
      "¸": 122,
      "¹": 123,
      "º": 124,
      "»": 125,
      "¼": 126,
      "½": 127,
      "¾": 128,
      "¿": 129,
      "Â": 130,
      "Ã": 131,
      "Ä": 132,
      "Å": 133,
      "Æ": 134,
      "É": 135,
      "Ê": 136,
      "Ë": 137,
      "Ì": 138,
      "Î": 139,
      "Ï": 140,
      "Ð": 141,
      "Ñ": 142,
      "Ò": 143,
      "Ó": 144,
      "Õ": 145,
      "Ö": 146,
      "×": 147,
      "Ø": 148,
      "Ù": 149,
      "Ú": 150,
      "Û": 151,
      "à": 152,
      "á": 153,
      "â": 154,
      "ã": 155,
      "ä": 156,
      "å": 157,
      "æ": 158,
      "ç": 159,
      "è": 160,
      "é": 161,
      "ê": 162,
      "ë": 163,
      "ì": 164,
      "í": 165,
      "ï": 166,
      "ð": 167,
      "ĉ": 168,
      "Ċ": 169,
      "č": 170,
      "Ġ": 171,
      "Ģ": 172,
      "ģ": 173,
      "Ĥ": 174,
      "ĥ": 175,
      "Ħ": 176,
      "ħ": 177,
      "Ĩ": 178,
      "ĩ": 179,
      "Ī": 180,
      "ī": 181,
      "Ĭ": 182,
      "ĭ": 183,
      "Į": 184,
      "į": 185,
      "İ": 186,
      "ı": 187,
      "Ĳ": 188,
      "ĳ": 189,
      "Ĵ": 190,
      "ĵ": 191,
      "Ķ": 192,
      "ķ": 193,
      "ĸ": 194,
      "Ĺ": 195,
      "ĺ": 196,
      "Ļ": 197,
      "ļ": 198,
      "Ľ": 199,
      "ľ": 200,
      "Ŀ": 201,
      "ŀ": 202,
      "Ł": 203,
      "ł": 204,
      "Ń": 205,
      "ĠĠ": 206,
      "ĠĠĠĠ": 207,
      "čĊ": 208,
      "ĠĠĠĠĠĠĠĠ": 209,
      "on": 210,
      "ĠĠĠ": 211,
      "er": 212,
      "in": 213,
      "en": 214,
      "es": 215,
      "at": 216,
      "de": 217,
      "Ġt": 218,
      "or": 219,
      "ar": 220,
      "ĠčĊ": 221,
      "st": 222,
      "Ġc": 223,
      "al": 224,
      "an": 225,
      "re": 226,
      "ĠĠĠĠĠĠĠ": 227,
      "ion": 228,
      "se": 229,
      "le": 230,
      "it": 231,
      "ent": 232,
      "he": 233,
      "as": 234,
      "Ġp": 235,
      "--": 236,
      "ĠÐ": 237,
      "Ġ`": 238,
      "//": 239,
      "ĠĠĠĠĠĠĠĠĠĠĠĠĠĠĠĠ": 240,
      "Ġf": 241,
      "ro": 242,
      "Ġs": 243,
      "ic": 244,
      "am": 245,
      "Ġ\"": 246,
      "Ġi": 247,
      "et": 248,
      "Ġde": 249,
      "Ġa": 250,
      "ãģ": 251,
      "Ġ{": 252,
      "Ð¾": 253,
      "un": 254,
      "pe": 255,
      "ct": 256,
      "Ġ=": 257,
      "ur": 258,
      "ut": 259,
      "ed": 260,
      "Ġ*": 261,
      "Ġe": 262,
      "ing": 263,
      "Ġd": 264,
      "om": 265,
      "lo": 266,
      "Ð°": 267,
      "Ġm": 268,
      "Ðµ": 269,
      "Ġthe": 270,
      "ode": 271,
      "Ġ}": 272,
      "Ġn": 273,
      "ad": 274,
      "ĠĠĠĠĠĠĠĠĠĠĠ": 275,
      "ÑĤ": 276,
      "Ġb": 277,
      "Ġin": 278,
      "Ġo": 279,
      "ype": 280,
      "Ð¸": 281,
      "Ġ#": 282,
      "Ġre": 283,
      "Ġw": 284,
      "ation": 285,
      "la": 286,
      "is": 287,
      "ul": 288,
      "Ġ(": 289,
      "res": 290,
      "qu": 291,
      "ap": 292,
      "Ġ//": 293,
      "----": 294,
      "il": 295,
      "Ð¾Ð": 296,
      "ol": 297,
      "ac": 298,
      "Ġv": 299,
      "ex": 300,
      "em": 301,
      "ãĤ": 302,
      "id": 303,
      "oc": 304,
      "Ð½": 305,
      "ig": 306,
      "Ġcon": 307,
      "est": 308,
      "\":": 309,
      "us": 310,
      "and": 311,
      "ÑĢ": 312,
      "ĠĠĠĠĠĠĠĠĠĠĠĠĠĠĠ": 313,
      "Ġh": 314,
      "ãĥ": 315,
      "ĠS": 316,
      "ĠA": 317,
      "Ġto": 318,
      "=\"": 319,
      "Ġ|": 320,
      "li": 321,
      "pt": 322,
      "ĠT": 323,
      "Ñģ": 324,
      "ot": 325,
      "ate": 326,
      "ce": 327,
      "pon": 328,
      "get": 329,
      "ter": 330,
      "os": 331,
      ");": 332,
      "um": 333,
      "od": 334,
      "Ġse": 335,
      "im": 336,
      "ass": 337,
      "ame": 338,
      "str": 339,
      "ag": 340,
      "**": 341,
      "Ġis": 342,
      "iv": 343,
      "ab": 344,
      "ort": 345,
      "\",": 346,
      "Ġun": 347,
      "Ġ<": 348,
      "pl": 349,
      "urn": 350,
      "el": 351,
      "ers": 352,
      "Ġth": 353,
      "ch": 354,
      "Ġì": 355,
      "..": 356,
      "cl": 357,
      "Ġif": 358,
      "ue": 359,
      "()": 360,
      "end": 361,
      "port": 362,
      "ãĢ": 363,
      "Ð°Ð": 364,
      "Ñĥ": 365,
      "turn": 366,
      "py": 367,
      "==": 368,
      "Type": 369,
      "PI": 370,
      "ĠC": 371,
      "ast": 372,
      "ir": 373,
      "ext": 374,
      "if": 375,
      "ht": 376,
      "ĠP": 377,
      "per": 378,
      "Ġy": 379,
      "ont": 380,
      "ĠI": 381,
      "iz": 382,
      "ĠN": 383,
      "ction": 384,
      "ment": 385,
      "Ġfor": 386,
      "Ġex": 387,
      "ith": 388,
      "Ġpar": 389,
      "Ġcom": 390,
      "Ġ///": 391,
      "Ġl": 392,
      "ĠD": 393,
      "Ġreturn": 394,
      "Ñĸ": 395,
      "ult": 396,
      "Ġres": 397,
      "--------": 398,
      "ra": 399,
      "th": 400,
      "Ġ**": 401,
      "Ġ[": 402,
      "Ġ-": 403,
      "Ã³": 404,
      "ĠE": 405,
      "doc": 406,
      "Ġof": 407,
      "Ġpro": 408,
      "API": 409,
      "Ġen": 410,
      "one": 411,
      "ind": 412,
      "ponse": 413,
      "ĠF": 414,
      "ri": 415,
      "ant": 416,
      "ath": 417,
      "``": 418,
      "ess": 419,
      "ect": 420,
      "Ä±": 421,
      "00": 422,
      "ial": 423,
      "ĠĠĠĠĠĠĠĠĠĠĠĠĠĠĠĠĠĠĠ": 424,
      "Ðº": 425,
      "Ġla": 426,
      "Ã©": 427,
      "Ġqu": 428,
      "lf": 429,
      "Ð»": 430,
      "ption": 431,
      "ly": 432,
      "Ġand": 433,
      "ck": 434,
      "Ġ##": 435,
      "Ġg": 436,
      "Ġel": 437,
      "docs": 438,
      "ve": 439,
      "Ñı": 440,
      "tp": 441,
      "rom": 442,
      "com": 443,
      "gs": 444,
      "ub": 445,
      "up": 446,
      "ver": 447,
      "ä¸": 448,
      "Ġst": 449,
      "ase": 450,
      "Ġdef": 451,
      "ain": 452,
      "par": 453,
      "Ġ```": 454,
      "odel": 455,
      "yn": 456,
      "sion": 457,
      "ile": 458,
      "Ġbe": 459,
      "ĠÐ²": 460,
      "Ġal": 461,
      "\">": 462,
      "Ġlo": 463,
      "Ġĉ": 464,
      "Re": 465,
      "Ġim": 466,
      "ror": 467,
      "type": 468,
      "Ð¼": 469,
      "ÑĮ": 470,
      "use": 471,
      "able": 472,
      "che": 473,
      "app": 474,
      "ke": 475,
      "Ġas": 476,
      "Ã³n": 477,
      "Ġan": 478,
      "our": 479,
      "ãĢĤ": 480,
      "tern": 481,
      "://": 482,
      "ëĭ": 483,
      "rc": 484,
      "ä½": 485,
      "orm": 486,
      "ĠÐ¿": 487,
      "In": 488,
      "iÃ³n": 489,
      "):": 490,
      "ang": 491,
      "Ã¡": 492,
      "lass": 493,
      "ok": 494,
      "astAPI": 495,
      "ire": 496,
      "ie": 497,
      "Ġar": 498,
      "ĠĠĠĠĠĠĠĠĠĠĠĠĠĠĠĠĠĠĠĠĠĠĠ": 499,
      "Ġ&": 500,
      "tr": 501,
      "Ġ:": 502,
      "api": 503,
      "Ġque": 504,
      "ple": 505,
      "Ġ1": 506,
      "ìĿ": 507,
      "Ġfun": 508,
      "ata": 509,
      "íķ": 510,
      "</": 511,
      "De": 512,
      "name": 513,
      "age": 514,
      "con": 515,
      "lient": 516,
      "../": 517,
      "ta": 518,
      "Ġë": 519,
      "clar": 520,
      "tps": 521,
      "Ġval": 522,
      "mb": 523,
      "Ġit": 524,
      "Ex": 525,
      "ĠO": 526,
      "Ġus": 527,
      "Ð²": 528,
      "ost": 529,
      "ack": 530,
      "Ġtr": 531,
      "ĠM": 532,
      "ject": 533,
      "ign": 534,
      "ies": 535,
      "Ð´": 536,
      "Ġget": 537,
      "ma": 538,
      "ĠU": 539,
      "Ġfrom": 540,
      "lags": 541,
      "lin": 542,
      ").": 543,
      "arget": 544,
      "pres": 545,
      "ip": 546,
      "enc": 547,
      "src": 548,
      "def": 549,
      "val": 550,
      "ÑģÑĤ": 551,
      "Ġstr": 552,
      "Ġcont": 553,
      "ert": 554,
      "Ġor": 555,
      "Ġwith": 556,
      "çļ": 557,
      "çļĦ": 558,
      "Ġnot": 559,
      "ternal": 560,
      "Ġself": 561,
      "Ġtype": 562,
      "),": 563,
      "Ġconst": 564,
      "Ġr": 565,
      "op": 566,
      "::": 567,
      "put": 568,
      "all": 569,
      "ymb": 570,
      "ymbol": 571,
      "Ġclass": 572,
      "ĠÑ": 573,
      "ponent": 574,
      "ref": 575,
      "Ġimport": 576,
      "let": 577,
      "code": 578,
      "ĠNone": 579,
      "pend": 580,
      "plic": 581,
      "amet": 582,
      "Ġthat": 583,
      "ĠL": 584,
      "ated": 585,
      "iel": 586,
      "ou": 587,
      "cont": 588,
      "Ġ/": 589,
      "ure": 590,
      "ĠAn": 591,
      "Ġ'": 592,
      "js": 593,
      "ow": 594,
      "Ð°Ñ": 595,
      "ÃŃ": 596,
      "`.": 597,
      "ist": 598,
      "ĠH": 599,
      "te": 600,
      "ts": 601,
      "__": 602,
      "Ġresponse": 603,
      "ular": 604,
      "Ñĭ": 605,
      "ĠĠĠĠĠ": 606,
      "lan": 607,
      "ĠĠĠĠĠĠĠĠĠĠĠĠĠĠĠĠĠĠĠĠĠĠĠĠĠĠĠĠĠĠĠĠ": 608,
      "ĠB": 609,
      "fig": 610,
      "ä»": 611,
      "Res": 612,
      "utor": 613,
      "ield": 614,
      "`,": 615,
      "Ġser": 616,
      "item": 617,
      "Ġne": 618,
      "Ð¾Ð²": 619,
      "claration": 620,
      "Ġthis": 621,
      "Ġes": 622,
      "pro": 623,
      "ore": 624,
      "ust": 625,
      "pression": 626,
      "path": 627,
      "Ġfunction": 628,
      "ty": 629,
      "node": 630,
      "Ġk": 631,
      "ier": 632,
      "dex": 633,
      "ÐµÑĢ": 634,
      "https": 635,
      "cess": 636,
      "çĶ": 637,
      "cri": 638,
      "model": 639,
      "ĠW": 640,
      "ill": 641,
      "ans": 642,
      "Ġtarget": 643,
      "utorial": 644,
      "10": 645,
      "Ã§": 646,
      "Kind": 647,
      "Ġon": 648,
      "Ġwh": 649,
      "out": 650,
      "Ð¿": 651,
      "\")": 652,
      "----------------": 653,
      "Ġuse": 654,
      "ÐµÐ½": 655,
      "fer": 656,
      "to": 657,
      "quest": 658,
      "åı": 659,
      "Ġ0": 660,
      "Ã¼": 661,
      "ãģ®": 662,
      "ari": 663,
      "form": 664,
      "(\"": 665,
      "thon": 666,
      "Ġ2": 667,
      "Ġap": 668,
      "md": 669,
      "ined": 670,
      "JS": 671,
      "ine": 672,
      "Ġ@": 673,
      "====": 674,
      "ib": 675,
      "Ġest": 676,
      "Node": 677,
      "ĠÐ·": 678,
      "tutorial": 679,
      "Ġ###": 680,
      "tax": 681,
      "ault": 682,
      "wor": 683,
      "ive": 684,
      "Ġ==": 685,
      "act": 686,
      "ity": 687,
      "lement": 688,
      "json": 689,
      "ÑĤÐ¸": 690,
      "ĠĠĠĠĠĠĠĠĠĠĠĠĠĠĠĠĠĠĠĠĠĠĠĠĠĠĠ": 691,
      "vic": 692,
      "ource": 693,
      "Ġer": 694,
      "Ġpara": 695,
      "rror": 696,
      "](": 697,
      "Ġ)": 698,
      "Ġ},": 699,
      "Ġli": 700,
      "ize": 701,
      "oun": 702,
      "Flags": 703,
      "ay": 704,
      "å®": 705,
      "int": 706,
      "bject": 707,
      "ãĢģ": 708,
      "ÐµÑĤ": 709,
      "çĶ¨": 710,
      "alse": 711,
      "ener": 712,
      "->": 713,
      "Ġass": 714,
      "St": 715,
      "ãģĻ": 716,
      "yntax": 717,
      "ser": 718,
      "ĠÐ´": 719,
      "ec": 720,
      "link": 721,
      "ëĭ¤": 722,
      "))": 723,
      "ĠIn": 724,
      "Ġĉĉ": 725,
      "aciÃ³n": 726,
      "not": 727,
      "Ġ&&": 728,
      "ument": 729,
      "],": 730,
      "FastAPI": 731,
      "fo": 732,
      "ict": 733,
      "ery": 734,
      "low": 735,
      "ĠĠĠĠĠĠĠĠĠĠĠĠĠĠĠĠĠĠĠĠĠĠĠĠĠĠĠĠĠĠĠ": 736,
      "itle": 737,
      "Pro": 738,
      "astapi": 739,
      "ĠÐ½": 740,
      "oken": 741,
      "ĠÐ¾": 742,
      "Name": 743,
      "Ġwe": 744,
      "ss": 745,
      "ber": 746,
      "ĠPy": 747,
      "heck": 748,
      "Ġad": 749,
      "head": 750,
      "ĠÑģ": 751,
      "uct": 752,
      "Error": 753,
      "ild": 754,
      "defined": 755,
      "self": 756,
      "pec": 757,
      "lock": 758,
      "ON": 759,
      "ãĥ¼": 760,
      "Ġcan": 761,
      "io": 762,
      "sche": 763,
      "ĠType": 764,
      "ide": 765,
      "yntaxKind": 766,
      "âĢ": 767,
      "\"\"": 768,
      "ator": 769,
      "lank": 770,
      "æľ": 771,
      "Ġle": 772,
      "ples": 773,
      "Ġ_": 774,
      "ĠV": 775,
      "blank": 776,
      "clu": 777,
      "Ġê": 778,
      "ĠThe": 779,
      "ule": 780,
      "Ð·": 781,
      "art": 782,
      "ĠR": 783,
      "ere": 784,
      "ations": 785,
      "310": 786,
      "Ġ.": 787,
      "Com": 788,
      "ias": 789,
      "ug": 790,
      "antic": 791,
      "ĠÐº": 792,
      "Ġch": 793,
      "Ġ!": 794,
      "mit": 795,
      "ãĤĴ": 796,
      "pen": 797,
      "key": 798,
      "ual": 799,
      "ne": 800,
      "ĠFastAPI": 801,
      "âĶ": 802,
      "ep": 803,
      "ync": 804,
      "pes": 805,
      "Ġdes": 806,
      "ÑĢÐ¸": 807,
      "Ġå": 808,
      "ave": 809,
      "irect": 810,
      "dantic": 811,
      "Declaration": 812,
      "ace": 813,
      "Ð°Ð½": 814,
      "...": 815,
      "Ġare": 816,
      "uf": 817,
      "ado": 818,
      "ight": 819,
      "Ġ*/": 820,
      "ia": 821,
      "reate": 822,
      "av": 823,
      "atch": 824,
      "Ġyou": 825,
      "ĠSyntaxKind": 826,
      "Ġno": 827,
      "content": 828,
      "Ġassert": 829,
      ">>": 830,
      "amples": 831,
      "Ġ{\"": 832,
      "Par": 833,
      "war": 834,
      "Ġbo": 835,
      "ĠÐ¼": 836,
      "pendenc": 837,
      "Ġundefined": 838,
      "iter": 839,
      "ĠÐ¸": 840,
      "Ð¹": 841,
      "Ġat": 842,
      "po": 843,
      "Ñħ": 844,
      "Expression": 845,
      "Ġ===": 846,
      "../../": 847,
      "ime": 848,
      "Ñĩ": 849,
      "cur": 850,
      "TT": 851,
      "ask": 852,
      "ÑĤÑĮ": 853,
      "Cont": 854,
      "cor": 855,
      "odule": 856,
      "Ð¾Ð»": 857,
      "ient": 858,
      "set": 859,
      "Ġclient": 860,
      "Ġ\"\"\"": 861,
      "ger": 862,
      "Ġhref": 863,
      "ivo": 864,
      "ension": 865,
      "Ġwill": 866,
      "Īëĭ¤": 867,
      "TTP": 868,
      "ĠTh": 869,
      "so": 870,
      "Ġ</": 871,
      "Ġhl": 872,
      "eb": 873,
      "ãģĹ": 874,
      "ence": 875,
      "ãģ¾": 876,
      "ĠG": 877,
      "co": 878,
      "åĲ": 879,
      "Ġ../../": 880,
      "Ġby": 881,
      "ãģ§": 882,
      "ray": 883,
      "Ġinst": 884,
      "eth": 885,
      "Ġ{*": 886,
      "Ġ*}": 887,
      "Ġpr": 888,
      "perty": 889,
      "ëĭĪëĭ¤": 890,
      "gular": 891,
      "Ġtest": 892,
      "ich": 893,
      "Ñİ": 894,
      "uld": 895,
      "._": 896,
      "ameter": 897,
      "atus": 898,
      "ĠÑĤ": 899,
      "Ġpath": 900,
      "ould": 901,
      "user": 902,
      "Ġlos": 903,
      "ance": 904,
      "ise": 905,
      "ature": 906,
      "ak": 907,
      "Ġdo": 908,
      "test": 909,
      "Ġsh": 910,
      "Ar": 911,
      "ptions": 912,
      "read": 913,
      "ary": 914,
      "Ġerror": 915,
      "ifier": 916,
      "items": 917,
      "Ã¶": 918,
      "ĠAPI": 919,
      "Of": 920,
      "Con": 921,
      "ãģ«": 922,
      "rit": 923,
      "fastapi": 924,
      "ä¾": 925,
      "Ġcheck": 926,
      "Ġæ": 927,
      "ific": 928,
      "atic": 929,
      "Ġdel": 930,
      "ëĬ": 931,
      "ĠAr": 932,
      "=\"_": 933,
      "mo": 934,
      "Ġcase": 935,
      "ml": 936,
      "idation": 937,
      "ody": 938,
      "Ġ+": 939,
      "Ã£": 940,
      "ando": 941,
      "Ġstring": 942,
      "Ã£o": 943,
      "Ġso": 944,
      "},": 945,
      "Ġí": 946,
      "Ð¾Ð´": 947,
      "ng": 948,
      "peration": 949,
      "vent": 950,
      "ory": 951,
      "sh": 952,
      "len": 953,
      "ľ¨": 954,
      "ition": 955,
      "min": 956,
      "Ġuna": 957,
      "ä½ł": 958,
      "ptional": 959,
      "Ġnode": 960,
      "Ġcol": 961,
      "ler": 962,
      "íķĺ": 963,
      "ìĹ": 964,
      "gr": 965,
      "external": 966,
      "Ð±": 967,
      "Ġtrue": 968,
      "Ð¾Ð¼": 969,
      "Symbol": 970,
      "Ãª": 971,
      "cal": 972,
      "uth": 973,
      "quire": 974,
      "åħ": 975,
      "Ġset": 976,
      "ä½¿": 977,
      "ample": 978,
      "vice": 979,
      "plication": 980,
      "sp": 981,
      "nd": 982,
      "me": 983,
      "ÄŁ": 984,
      "ach": 985,
      "ÅŁ": 986,
      "ement": 987,
      "ded": 988,
      "ëĬĶ": 989,
      "âĶĢ": 990,
      "ull": 991,
      "ccess": 992,
      "param": 993,
      "ìĦ": 994,
      "empl": 995,
      "Ġvalue": 996,
      "Val": 997,
      "ĭå": 998,
      "Ð¾Ð¶": 999,
      "JSON": 1000,
      "Ġpre": 1001,
      "ithub": 1002,
      "ĠRe": 1003,
      "dev": 1004,
      "ë¥": 1005,
      "Ġ...": 1006,
      "Response": 1007,
      "Ġht": 1008,
      "Ġelse": 1009,
      "File": 1010,
      "util": 1011,
      "pr": 1012,
      "Ġ||": 1013,
      "word": 1014,
      "pre": 1015,
      "ĠAngular": 1016,
      "Ġ->": 1017,
      "ÑĢÐ°Ð": 1018,
      "Ġname": 1019,
      "ðŁ": 1020,
      "Ġread": 1021,
      "github": 1022,
      "ount": 1023,
      "chivo": 1024,
      "response": 1025,
      "ome": 1026,
      "und": 1027,
      "ero": 1028,
      "ces": 1029,
      "Ġ3": 1030,
      "lect": 1031,
      "cript": 1032,
      "ĠThis": 1033,
      "header": 1034,
      "ciÃ³n": 1035,
      "ä¸Ģ": 1036,
      "ard": 1037,
      "Doc": 1038,
      "ÑĤÐµ": 1039,
      "file": 1040,
      "ix": 1041,
      "ãģ¯": 1042,
      "ĠÐ±": 1043,
      "back": 1044,
      "Ġ/*": 1045,
      "extension": 1046,
      "dent": 1047,
      "ĠIf": 1048,
      "open": 1049,
      "der": 1050,
      "Ġsu": 1051,
      "yle": 1052,
      "ethod": 1053,
      "æĸ": 1054,
      "ange": 1055,
      "rent": 1056,
      "ameters": 1057,
      "Ġ?": 1058,
      "ey": 1059,
      "ther": 1060,
      "äº": 1061,
      "iones": 1062,
      "clude": 1063,
      "title": 1064,
      "'s": 1065,
      "Ġ=>": 1066,
      "rue": 1067,
      "Token": 1068,
      "Ð»Ñı": 1069,
      "ĠÐ²Ð¸": 1070,
      "internal": 1071,
      "è¿": 1072,
      "ĠDe": 1073,
      "Ġnew": 1074,
      "ues": 1075,
      "ĠEx": 1076,
      "Ġhas": 1077,
      "ìļ": 1078,
      "struct": 1079,
      "rout": 1080,
      "ada": 1081,
      "plo": 1082,
      "lab": 1083,
      "Ġint": 1084,
      "();": 1085,
      "Ġent": 1086,
      "Ġconfig": 1087,
      "ous": 1088,
      "des": 1089,
      "Ð½Ð¾": 1090,
      "ker": 1091,
      "Ġdefault": 1092,
      "br": 1093,
      "Ġtip": 1094,
      "Ġresult": 1095,
      "index": 1096,
      "Ch": 1097,
      "div": 1098,
      "but": 1099,
      "12": 1100,
      "only": 1101,
      "æĺ": 1102,
      "Ġdata": 1103,
      "æķ": 1104,
      "Ġexport": 1105,
      "que": 1106,
      "Ġcomo": 1107,
      "Str": 1108,
      "Ġcomponent": 1109,
      "ÑĤÐ¾": 1110,
      "========": 1111,
      "ãģ¾ãģĻ": 1112,
      "class": 1113,
      "ìĿ´": 1114,
      "arn": 1115,
      "uild": 1116,
      "Un": 1117,
      "img": 1118,
      "iag": 1119,
      "ãĥ³": 1120,
      "font": 1121,
      "ë¡": 1122,
      "Ġpor": 1123,
      "Ð°Ðº": 1124,
      "penAPI": 1125,
      "Ġinter": 1126,
      "gument": 1127,
      "Ġadd": 1128,
      "ë¥¼": 1129,
      "Ġlet": 1130,
      "ä½¿çĶ¨": 1131,
      "Ġver": 1132,
      "ìĹĲ": 1133,
      "ersion": 1134,
      "ãģ¦": 1135,
      "Ġform": 1136,
      "ĠìĿ": 1137,
      "ypes": 1138,
      "åı¯": 1139,
      "Ġfalse": 1140,
      "Ġelement": 1141,
      "éĢ": 1142,
      "lean": 1143,
      "ä»¥": 1144,
      "ìĬ": 1145,
      "col": 1146,
      "umber": 1147,
      "ainer": 1148,
      "Ġet": 1149,
      "Ġlist": 1150,
      "Ġmodel": 1151,
      "component": 1152,
      "iteral": 1153,
      "ente": 1154,
      "row": 1155,
      "lar": 1156,
      "emplate": 1157,
      "alias": 1158,
      "ĠArchivo": 1159,
      "ff": 1160,
      "sing": 1161,
      "ãĤ¹": 1162,
      "Qu": 1163,
      "ãĤĭ": 1164,
      "ustom": 1165,
      "du": 1166,
      "own": 1167,
      "--------------------------------": 1168,
      "Ġìŀ": 1169,
      "les": 1170,
      "iagn": 1171,
      "list": 1172,
      "âĶĢâĶĢ": 1173,
      "the": 1174,
      "ache": 1175,
      "ostic": 1176,
      "examples": 1177,
      "dict": 1178,
      "for": 1179,
      "iagnostic": 1180,
      "ĠPython": 1181,
      "Ð¾Ð±": 1182,
      "Ġdirect": 1183,
      "Ġz": 1184,
      "ignature": 1185,
      "ash": 1186,
      "return": 1187,
      "ãģ¨": 1188,
      "ible": 1189,
      "åľ¨": 1190,
      "åĢ": 1191,
      "Ð¾Ð³": 1192,
      "html": 1193,
      "An": 1194,
      "ĠSt": 1195,
      "ait": 1196,
      "ll": 1197,
      "Client": 1198,
      "bo": 1199,
      "olo": 1200,
      "ìĿĦ": 1201,
      "Ġdoc": 1202,
      "Ġum": 1203,
      "ÑĪ": 1204,
      "ĠÃ": 1205,
      "tes": 1206,
      "Ġaut": 1207,
      "ped": 1208,
      "åĪ": 1209,
      "',": 1210,
      "ames": 1211,
      "ud": 1212,
      "pla": 1213,
      "Ġwhen": 1214,
      "url": 1215,
      "text": 1216,
      "gro": 1217,
      "ead": 1218,
      "ĠPydantic": 1219,
      "Ġapp": 1220,
      "ĠSie": 1221,
      "ifi": 1222,
      "ĠEn": 1223,
      "upd": 1224,
      "Ser": 1225,
      "ates": 1226,
      "cription": 1227,
      "be": 1228,
      "ë¡ľ": 1229,
      "ribut": 1230,
      "rame": 1231,
      "ings": 1232,
      "umn": 1233,
      "dependenc": 1234,
      "Ġlog": 1235,
      "Ġlas": 1236,
      "amb": 1237,
      "ĠðŁ": 1238,
      "ca": 1239,
      "iles": 1240,
      "æĪ": 1241,
      "value": 1242,
      "Ð°ÑĨ": 1243,
      "Ġext": 1244,
      "data": 1245,
      "status": 1246,
      "vid": 1247,
      "quired": 1248,
      "met": 1249,
      "rite": 1250,
      "ãģĦ": 1251,
      "å¤": 1252,
      "Ġhttps": 1253,
      "Key": 1254,
      "Ġgener": 1255,
      "Ġhave": 1256,
      "cept": 1257,
      "Ð¶": 1258,
      "ãĤĮ": 1259,
      "(\"/": 1260,
      "Ġdat": 1261,
      "ĠÐ·Ð°Ð": 1262,
      "Ġma": 1263,
      "essage": 1264,
      "openapi": 1265,
      "izer": 1266,
      "by": 1267,
      "with": 1268,
      "ference": 1269,
      "Py": 1270,
      "tic": 1271,
      "\"]": 1272,
      "parent": 1273,
      "config": 1274,
      "olean": 1275,
      "lic": 1276,
      "gth": 1277,
      "vir": 1278,
      "Ä±n": 1279,
      "string": 1280,
      "Ġ4": 1281,
      "flags": 1282,
      "ĠOpenAPI": 1283,
      "Ġj": 1284,
      "ÃŃa": 1285,
      "##": 1286,
      "Ð°ÑĤÐ¸": 1287,
      "ulti": 1288,
      "To": 1289,
      "'t": 1290,
      "schema": 1291,
      "ĠNode": 1292,
      "Ġper": 1293,
      "ados": 1294,
      "Īĺ": 1295,
      "client": 1296,
      "Ġyour": 1297,
      "ĠHTTP": 1298,
      "Ġco": 1299,
      "Ġtrans": 1300,
      "ks": 1301,
      "Ġcreate": 1302,
      "irst": 1303,
      "[\"": 1304,
      "ĠÐ¿ÑĢ": 1305,
      "oid": 1306,
      "Ġcode": 1307,
      "()`": 1308,
      "ĠPar": 1309,
      "pons": 1310,
      "iew": 1311,
      "ê³": 1312,
      "Ġtitle": 1313,
      "unction": 1314,
      "load": 1315,
      "tem": 1316,
      "Ġany": 1317,
      "query": 1318,
      "ä¸Ń": 1319,
      "Ġ/**": 1320,
      "Ġdis": 1321,
      "Ġheader": 1322,
      "ĠY": 1323,
      "ĠĠĠĠĠĠĠĠĠ": 1324,
      "Ġall": 1325,
      "Ġĉĉĉ": 1326,
      "Ġout": 1327,
      "Ġfield": 1328,
      "ĠĠĠĠĠĠĠĠĠĠĠĠĠĠĠĠĠĠĠĠĠĠĠĠĠĠĠĠĠĠĠĠĠĠĠĠĠĠĠĠĠĠĠĠĠĠĠĠĠĠĠĠĠĠĠĠĠĠĠĠĠĠĠĠ": 1329,
      "ved": 1330,
      "orn": 1331,
      "Ã¡s": 1332,
      "ĠSer": 1333,
      "Ġserver": 1334,
      "Ġkey": 1335,
      "http": 1336,
      "of": 1337,
      "Ð³": 1338,
      "å¾": 1339,
      "Ġ(!": 1340,
      "Ġbool": 1341,
      "ãģª": 1342,
      "ecut": 1343,
      "Ġwor": 1344,
      "ĠÑĥ": 1345,
      "init": 1346,
      "Model": 1347,
      "æĺ¯": 1348,
      "Or": 1349,
      "Ġcall": 1350,
      "Ġbir": 1351,
      "notated": 1352,
      "String": 1353,
      "():": 1354,
      "Ġav": 1355,
      "Ġ//!": 1356,
      "En": 1357,
      "valid": 1358,
      "ken": 1359,
      "JSDoc": 1360,
      "atement": 1361,
      "Ġfile": 1362,
      "eturn": 1363,
      "Ġrun": 1364,
      "Ġspec": 1365,
      "Element": 1366,
      "arg": 1367,
      "Ġused": 1368,
      "Ġrequest": 1369,
      "ãĥ¼ãĤ": 1370,
      "None": 1371,
      "Ġsub": 1372,
      "tribut": 1373,
      "ãĥĪ": 1374,
      "state": 1375,
      "è¡": 1376,
      "è¦": 1377,
      "Ð»Ð¸": 1378,
      "ê°": 1379,
      "ĠCon": 1380,
      "Ġ--": 1381,
      "?:": 1382,
      "fe": 1383,
      "Context": 1384,
      "loc": 1385,
      "angular": 1386,
      "âĢĻ": 1387,
      ":`": 1388,
      "ures": 1389,
      "vel": 1390,
      "IN": 1391,
      "Ð°Ð»": 1392,
      "ĠUn": 1393,
      "ock": 1394,
      "ĠĠĠĠĠĠĠĠĠĠĠĠĠĠĠĠĠĠĠĠĠĠĠĠĠĠĠĠĠĠĠĠĠĠĠ": 1395,
      "log": 1396,
      "Ġcontext": 1397,
      "ìł": 1398,
      "Ġobject": 1399,
      "Query": 1400,
      "lette": 1401,
      "Literal": 1402,
      "ãģĮ": 1403,
      "idad": 1404,
      "Ġ[`": 1405,
      "Path": 1406,
      "Ġem": 1407,
      "Ð¾Ðº": 1408,
      "line": 1409,
      "Property": 1410,
      "cre": 1411,
      "ĠTest": 1412,
      "token": 1413,
      "01": 1414,
      "Ð¸Ð¼": 1415,
      "ĠÂ": 1416,
      "ĠJSON": 1417,
      "Ã§Ã£o": 1418,
      "work": 1419,
      "ft": 1420,
      "Ġman": 1421,
      "ìŀ": 1422,
      "Ġab": 1423,
      "ores": 1424,
      "ued": 1425,
      "ww": 1426,
      "Ġutil": 1427,
      "\"},": 1428,
      "adev": 1429,
      "arlette": 1430,
      "span": 1431,
      "ãģĵ": 1432,
      "sed": 1433,
      "pos": 1434,
      "Ġej": 1435,
      "ãģŁ": 1436,
      "ÐµÐ¼": 1437,
      "ÐµÐ´": 1438,
      "ĠSe": 1439,
      "size": 1440,
      "Ġgr": 1441,
      "ti": 1442,
      "idd": 1443,
      "Ġdie": 1444,
      "Map": 1445,
      "Component": 1446,
      "inal": 1447,
      "ìĦľ": 1448,
      "gu": 1449,
      "add": 1450,
      "Ġother": 1451,
      "\"/": 1452,
      "Ġpos": 1453,
      "pty": 1454,
      "ĠÐ¼Ð¾Ð¶": 1455,
      "Ġ>>": 1456,
      "For": 1457,
      "Ãº": 1458,
      "Ð¾Ð»ÑĮ": 1459,
      "amente": 1460,
      "Ġshould": 1461,
      "jo": 1462,
      "Ġindex": 1463,
      "ĠPro": 1464,
      "Ġact": 1465,
      "check": 1466,
      "ments": 1467,
      "og": 1468,
      "Ĥ¬": 1469,
      "000": 1470,
      "main": 1471,
      "`:": 1472,
      "HTTP": 1473,
      "Ġ>>>": 1474,
      "cion": 1475,
      "ten": 1476,
      "Ġboolean": 1477,
      "ry": 1478,
      "Ġmod": 1479,
      "æķ°": 1480,
      "></": 1481,
      "viron": 1482,
      "Ð½Ñĭ": 1483,
      "rain": 1484,
      "Ġ__": 1485,
      "ĠJ": 1486,
      "my": 1487,
      "rol": 1488,
      "è¨": 1489,
      "types": 1490,
      "Ġob": 1491,
      "Im": 1492,
      "æľī": 1493,
      "buf": 1494,
      "inst": 1495,
      "¦Ĥ": 1496,
      "Ġusing": 1497,
      "Ġmore": 1498,
      "ception": 1499,
      "field": 1500,
      "mas": 1501,
      "Ġein": 1502,
      "Ġoperation": 1503,
      "ĠìŀĪ": 1504,
      "pu": 1505,
      "ÐºÐ¾": 1506,
      "her": 1507,
      "Ġonly": 1508,
      "Ġwhich": 1509,
      "Ġbase": 1510,
      "Ð½Ñı": 1511,
      "update": 1512,
      "**,": 1513,
      "ìļ©": 1514,
      "16": 1515,
      "Ġcre": 1516,
      "ĠÑĩ": 1517,
      "description": 1518,
      "ÑģÑı": 1519,
      "ptim": 1520,
      "Ġmethod": 1521,
      "Ġaplic": 1522,
      "ĠÑĸ": 1523,
      "ĠCom": 1524,
      "Request": 1525,
      "ora": 1526,
      "mon": 1527,
      "Ġac": 1528,
      "RL": 1529,
      "tail": 1530,
      "));": 1531,
      "org": 1532,
      "ocÃª": 1533,
      "Ġpl": 1534,
      "Ġprop": 1535,
      "ins": 1536,
      "ä¹": 1537,
      "dis": 1538,
      "time": 1539,
      "Ġra": 1540,
      "001": 1541,
      "Parameter": 1542,
      "ds": 1543,
      "mand": 1544,
      "ĥ½": 1545,
      "ail": 1546,
      "µëĭĪëĭ¤": 1547,
      "ender": 1548,
      "wait": 1549,
      "ÐµÐ½Ð¸": 1550,
      "ä½ľ": 1551,
      "Ġvari": 1552,
      "Ġnumber": 1553,
      "Ð¾Ð³Ð¾": 1554,
      "root": 1555,
      "Ġ$": 1556,
      "dic": 1557,
      ":\"": 1558,
      "Ã¨": 1559,
      "step": 1560,
      "Ġstyle": 1561,
      "request": 1562,
      "default": 1563,
      "åı¯ä»¥": 1564,
      "Validation": 1565,
      "Ġ]": 1566,
      "ìĬµëĭĪëĭ¤": 1567,
      "åĬ": 1568,
      "Ġç": 1569,
      "async": 1570,
      "Ġuser": 1571,
      "ĠÐ½Ðµ": 1572,
      "uration": 1573,
      "ĠEl": 1574,
      "optional": 1575,
      "ÑĨ": 1576,
      "ong": 1577,
      "ens": 1578,
      "sub": 1579,
      "assword": 1580,
      "Module": 1581,
      "atures": 1582,
      "Ġve": 1583,
      "Ġcur": 1584,
      "we": 1585,
      "ëĵ": 1586,
      "odes": 1587,
      "ĠÐ°": 1588,
      "Ġbut": 1589,
      "dependencies": 1590,
      "ÑĸÐ´": 1591,
      "man": 1592,
      "ree": 1593,
      "ãĥ¼ãĥ": 1594,
      "\"/>": 1595,
      "Ġvalues": 1596,
      "Ġder": 1597,
      "Ð¾Ð½": 1598,
      "dat": 1599,
      "ien": 1600,
      "Ð¾Ñģ": 1601,
      "emplo": 1602,
      "Ð»ÑĮ": 1603,
      "Python": 1604,
      "LI": 1605,
      "å°": 1606,
      "ĠÑı": 1607,
      "ally": 1608,
      "pect": 1609,
      "Id": 1610,
      "\"}": 1611,
      "error": 1612,
      "source": 1613,
      "Ġmay": 1614,
      "Ġtoken": 1615,
      "python": 1616,
      "ĠFor": 1617,
      "Ġcor": 1618,
      "upport": 1619,
      "ì§": 1620,
      "led": 1621,
      "Ġvis": 1622,
      "ponses": 1623,
      "dentifier": 1624,
      "az": 1625,
      "Ġsrc": 1626,
      "lable": 1627,
      "ĠìĤ¬": 1628,
      "Ġê°": 1629,
      "Options": 1630,
      "Ġsche": 1631,
      "ignal": 1632,
      "*/": 1633,
      "Ġme": 1634,
      "Auth": 1635,
      "Ġresol": 1636,
      "ÐµÑĤÐµ": 1637,
      "lob": 1638,
      "Access": 1639,
      "ced": 1640,
      "Ġstate": 1641,
      "symbol": 1642,
      "plement": 1643,
      "å®ĥ": 1644,
      "ook": 1645,
      "Ġfastapi": 1646,
      "ë¦": 1647,
      "Ð°Ð¼": 1648,
      "Array": 1649,
      "è¦ģ": 1650,
      "body": 1651,
      "Ġdif": 1652,
      "ply": 1653,
      "ĠìĿ´": 1654,
      "Ġcolor": 1655,
      "Ġè": 1656,
      "Ġol": 1657,
      "no": 1658,
      "ner": 1659,
      "Ġcomp": 1660,
      "required": 1661,
      "face": 1662,
      "hen": 1663,
      "Ñī": 1664,
      "Ġreadonly": 1665,
      "Ġpas": 1666,
      "ivate": 1667,
      "ĠTrue": 1668,
      "Ð½Ð¸": 1669,
      "ai": 1670,
      "Ġ>": 1671,
      "Ð¾ÑĢ": 1672,
      "ms": 1673,
      "ĠiÃ§": 1674,
      "Ġvous": 1675,
      "params": 1676,
      "OR": 1677,
      "guments": 1678,
      "Ð°ÑĤÑĮ": 1679,
      "ÐºÐ¸": 1680,
      "ark": 1681,
      "from": 1682,
      "ido": 1683,
      "Ġpy": 1684,
      "create": 1685,
      "Ġpod": 1686,
      "rap": 1687,
      "iagnostics": 1688,
      "ER": 1689,
      "Form": 1690,
      "atar": 1691,
      "ĠSymbol": 1692,
      "**.": 1693,
      "ĠÐĴ": 1694,
      "post": 1695,
      "abled": 1696,
      "kind": 1697,
      "pace": 1698,
      "Ġlen": 1699,
      "ĠTestClient": 1700,
      "ĠDoc": 1701,
      "Ġdependenc": 1702,
      "fter": 1703,
      "ĠData": 1704,
      "ession": 1705,
      "\"`": 1706,
      "Ð¾ÑĤ": 1707,
      "Ġexample": 1708,
      "Ġsource": 1709,
      "ors": 1710,
      "iddle": 1711,
      "object": 1712,
      "ĠâĢ": 1713,
      "bre": 1714,
      "Index": 1715,
      "ized": 1716,
      "Ġvalid": 1717,
      "Ġneed": 1718,
      "ound": 1719,
      "ware": 1720,
      "ÑĶ": 1721,
      "çĽ": 1722,
      "Ġcons": 1723,
      "Tr": 1724,
      "22": 1725,
      "args": 1726,
      "Ġasync": 1727,
      "=\"#": 1728,
      "const": 1729,
      "From": 1730,
      "input": 1731,
      "¸°": 1732,
      "Ġund": 1733,
      "Ġhand": 1734,
      "Ä±r": 1735,
      "yst": 1736,
      "ĠĠĠĠĠĠĠĠĠĠĠĠ": 1737,
      "[]": 1738,
      "Ġmem": 1739,
      "\"><": 1740,
      "è¡Į": 1741,
      "ĠÐŁ": 1742,
      "Ġ\"/": 1743,
      "ress": 1744,
      "Text": 1745,
      "ĠìĪĺ": 1746,
      "pert": 1747,
      "Host": 1748,
      "Ġstart": 1749,
      "ĠK": 1750,
      "tx": 1751,
      "ĠdÃ©": 1752,
      "On": 1753,
      "bytes": 1754,
      "Ã¤": 1755,
      "Script": 1756,
      "ä¸į": 1757,
      "Object": 1758,
      "RE": 1759,
      "ĠÃ©": 1760,
      "Frame": 1761,
      "ĠÐ¾Ð±": 1762,
      "Ð°Ñĩ": 1763,
      "Ġda": 1764,
      "Ġapplication": 1765,
      "ages": 1766,
      "ĠìĤ¬ìļ©": 1767,
      "fore": 1768,
      "Types": 1769,
      "ãĤĬ": 1770,
      "ocket": 1771,
      "ge": 1772,
      "ĠÂ«": 1773,
      "Ġ`/": 1774,
      "point": 1775,
      "curity": 1776,
      "ĠÐ´Ð»Ñı": 1777,
      "length": 1778,
      "Ġíķ": 1779,
      "Result": 1780,
      "åŃ": 1781,
      "è¯": 1782,
      "ìĿĺ": 1783,
      "Ġblock": 1784,
      "ä¸ª": 1785,
      "Ġles": 1786,
      "kip": 1787,
      "With": 1788,
      "ume": 1789,
      "Ġcas": 1790,
      "ĠcÃ³": 1791,
      "Ġ``": 1792,
      "åŀ": 1793,
      "Ġ5": 1794,
      "å¼": 1795,
      "ÑĥÐ²": 1796,
      "lat": 1797,
      "Ã±": 1798,
      "©ëĭĪëĭ¤": 1799,
      "Ã¼r": 1800,
      "Ġone": 1801,
      "Ġdon": 1802,
      "adata": 1803,
      "Ġmode": 1804,
      "action": 1805,
      "Ġsim": 1806,
      "ê°Ģ": 1807,
      "Ġautom": 1808,
      "Ġover": 1809,
      "Ġinput": 1810,
      "EN": 1811,
      "vide": 1812,
      "info": 1813,
      "ĠmÃ¡s": 1814,
      "ĠÑĢ": 1815,
      "Ġcurrent": 1816,
      "().": 1817,
      "Ġprocess": 1818,
      "rl": 1819,
      "ê³ł": 1820,
      "ë¦¬": 1821,
      "png": 1822,
      "Ġ`@": 1823,
      "aciones": 1824,
      "perties": 1825,
      "]:": 1826,
      "lay": 1827,
      "context": 1828,
      "////": 1829,
      "ql": 1830,
      "True": 1831,
      "Se": 1832,
      "ì§Ģ": 1833,
      "Base": 1834,
      "Ġsame": 1835,
      "ĠÑĦ": 1836,
      "Ġ200": 1837,
      "ĠFalse": 1838,
      "Ġemit": 1839,
      "ĠvocÃª": 1840,
      "ĠAnnotated": 1841,
      "ST": 1842,
      "Ġpued": 1843,
      "image": 1844,
      "je": 1845,
      "los": 1846,
      "ãģĹãģ¦": 1847,
      "abil": 1848,
      "ground": 1849,
      "xis": 1850,
      "loat": 1851,
      "ams": 1852,
      "actory": 1853,
      "Ġsymbol": 1854,
      "Ð¾Ð·": 1855,
      "Ġdocument": 1856,
      "Ġcontain": 1857,
      "åĽ": 1858,
      "custom": 1859,
      "Ġìķ": 1860,
      "map": 1861,
      "ML": 1862,
      "ote": 1863,
      "Ġend": 1864,
      "Ð°Ð´": 1865,
      "vicorn": 1866,
      "ĠYou": 1867,
      "application": 1868,
      "lause": 1869,
      "cope": 1870,
      "Ã¶n": 1871,
      "task": 1872,
      "Ġinfo": 1873,
      "Url": 1874,
      "target": 1875,
      "ros": 1876,
      "Ġinclu": 1877,
      "fault": 1878,
      "rag": 1879,
      "Ġoper": 1880,
      "ãĥª": 1881,
      "mod": 1882,
      "Ġsin": 1883,
      "umns": 1884,
      "ãĥĩ": 1885,
      "ÑģÐ¿": 1886,
      "\"],": 1887,
      "cop": 1888,
      "ç¨": 1889,
      "ven": 1890,
      "Ġitem": 1891,
      "Ġparse": 1892,
      "èĥ½": 1893,
      "Ġ[\"": 1894,
      "ream": 1895,
      "ĠâĶ": 1896,
      "velo": 1897,
      "mem": 1898,
      "Ġdeclar": 1899,
      "aria": 1900,
      "Ġê²": 1901,
      "ãĤ¯": 1902,
      "dd": 1903,
      "=_": 1904,
      "ung": 1905,
      "ern": 1906,
      "Source": 1907,
      "shot": 1908,
      "router": 1909,
      "Ġparent": 1910,
      "æŃ": 1911,
      "agger": 1912,
      "ĠÐ²Ñĭ": 1913,
      "Ġcl": 1914,
      "127": 1915,
      "åĲĮ": 1916,
      "ps": 1917,
      "pends": 1918,
      "Ð¾Ð»ÑĮÐ·": 1919,
      "mente": 1920,
      "ĠReturn": 1921,
      "operation": 1922,
      "ice": 1923,
      "aÃ§Ã£o": 1924,
      "dig": 1925,
      "Ġ%": 1926,
      "lobal": 1927,
      "ãĢĮ": 1928,
      "ãĢį": 1929,
      "Ġ////": 1930,
      "åĩ": 1931,
      "Ġ#[": 1932,
      "ĠEst": 1933,
      "trans": 1934,
      "){": 1935,
      "Ġdict": 1936,
      "xy": 1937,
      "Ġusar": 1938,
      "8000": 1939,
      "================": 1940,
      "Class": 1941,
      "64": 1942,
      "Ġmis": 1943,
      "íķľ": 1944,
      "new": 1945,
      "uple": 1946,
      "hand": 1947,
      "Block": 1948,
      "Ð°Ð½Ð¸": 1949,
      "å®ļ": 1950,
      "run": 1951,
      "ization": 1952,
      "Ġfol": 1953,
      "Ġvoid": 1954,
      "List": 1955,
      "ambi": 1956,
      "ĠiÃ§in": 1957,
      "Ð½Ñĸ": 1958,
      "At": 1959,
      "Ġtu": 1960,
      "ãĤ¤": 1961,
      "Ġtask": 1962,
      "Info": 1963,
      "){.": 1964,
      "Ð¾ÑģÑĤ": 1965,
      "hr": 1966,
      "ĠAl": 1967,
      "ating": 1968,
      "ãģĻãĤĭ": 1969,
      "view": 1970,
      "annot": 1971,
      "Ġversion": 1972,
      "ãģķ": 1973,
      "wagger": 1974,
      "ê²": 1975,
      "(),": 1976,
      "ä¼": 1977,
      "ullan": 1978,
      "ÑĢÐ¸ÑģÑĤ": 1979,
      "current": 1980,
      "éĸ": 1981,
      "ĠestÃ¡": 1982,
      "('": 1983,
      "this": 1984,
      "ÐµÐ½ÑĤ": 1985,
      "Ġtypes": 1986,
      "Ġalg": 1987,
      "ÑĹ": 1988,
      "Ass": 1989,
      "Config": 1990,
      "Ġìł": 1991,
      "itional": 1992,
      "Ġmap": 1993,
      "fn": 1994,
      "=\"/": 1995,
      "iddleware": 1996,
      "abbr": 1997,
      "ackage": 1998,
      "åº": 1999,
      "ified": 2000,
      "18": 2001,
      "itial": 2002,
      "declaration": 2003,
      "responses": 2004,
      "02": 2005,
      "Ð°Ð¹": 2006,
      "sole": 2007,
      "({": 2008,
      "Ġraise": 2009,
      "arning": 2010,
      "angu": 2011,
      "Ġsi": 2012,
      "Item": 2013,
      "(&": 2014,
      "Ġtime": 2015,
      "())": 2016,
      "Ð°Ð²": 2017,
      "ik": 2018,
      "ffect": 2019,
      "Ġinform": 2020,
      "ĠÐ½Ð°": 2021,
      "Tag": 2022,
      "Ġalso": 2023,
      "ĠÐ±Ñĥ": 2024,
      "QL": 2025,
      "reg": 2026,
      "aut": 2027,
      "allet": 2028,
      "ush": 2029,
      "Ã©n": 2030,
      "attr": 2031,
      "angolo": 2032,
      "ãĥĹ": 2033,
      "Service": 2034,
      "AT": 2035,
      "security": 2036,
      "ful": 2037,
      "Ġpub": 2038,
      "Ġparameter": 2039,
      "ÑĢÑĥ": 2040,
      "ĠURL": 2041,
      "ValidationError": 2042,
      "ĠTypeFlags": 2043,
      "Ġsupport": 2044,
      "Th": 2045,
      "ake": 2046,
      "array": 2047,
      "tiangolo": 2048,
      "ãģį": 2049,
      "call": 2050,
      "ëı": 2051,
      "ables": 2052,
      "aset": 2053,
      "vironment": 2054,
      "ales": 2055,
      "Keyword": 2056,
      "ìĿĢ": 2057,
      "css": 2058,
      "Ġ!=": 2059,
      "ìĸ": 2060,
      "Ġevent": 2061,
      "Ð°ÑĪ": 2062,
      "Ġejemplo": 2063,
      "core": 2064,
      "Ä±z": 2065,
      "pan": 2066,
      "copes": 2067,
      "Ġfn": 2068,
      "ãĥ©": 2069,
      "Ġpour": 2070,
      "roup": 2071,
      "och": 2072,
      "ĠWe": 2073,
      "base": 2074,
      "ater": 2075,
      "schemas": 2076,
      "Ġdoes": 2077,
      "components": 2078,
      "pydantic": 2079,
      "Ã©s": 2080,
      "validation": 2081,
      "ĠÑĨ": 2082,
      "ãģĨ": 2083,
      "ÑĦ": 2084,
      "qual": 2085,
      "99": 2086,
      "ĠÑī": 2087,
      "Rout": 2088,
      "ica": 2089,
      "æī": 2090,
      "nection": 2091,
      "ike": 2092,
      "kt": 2093,
      "Ġu": 2094,
      "Ġkullan": 2095,
      "Ġcu": 2096,
      "ignment": 2097,
      "inding": 2098,
      "Ð°ÑĨÑĸ": 2099,
      "ĠÑıÐº": 2100,
      "ĠÐ¿ÑĢÐ¸": 2101,
      "anguage": 2102,
      "nap": 2103,
      "rop": 2104,
      "extra": 2105,
      "è®": 2106,
      "expression": 2107,
      "Ġload": 2108,
      "server": 2109,
      "íķł": 2110,
      "uch": 2111,
      "`)": 2112,
      "Ġbuild": 2113,
      "Signature": 2114,
      "ĠĠĠĠĠĠĠĠĠĠĠĠĠĠĠĠĠĠĠĠĠĠĠĠĠĠĠĠĠĠĠĠĠĠĠĠĠĠĠ": 2115,
      "11": 2116,
      "parameters": 2117,
      "ÑĢÐ°Ð¼": 2118,
      "32": 2119,
      "Reference": 2120,
      "ìĭ": 2121,
      "ĠX": 2122,
      "headers": 2123,
      "æľĥ": 2124,
      "vo": 2125,
      "group": 2126,
      "Ġtemplate": 2127,
      "Resol": 2128,
      "err": 2129,
      "Ġcomple": 2130,
      "ĠçļĦ": 2131,
      "/\"": 2132,
      "ĠÑį": 2133,
      "Ð°ÑĨÐ¸": 2134,
      "Get": 2135,
      "Ġexist": 2136,
      "napshot": 2137,
      "Value": 2138,
      "><": 2139,
      "ĠResponse": 2140,
      "ãģĭ": 2141,
      "Ġlin": 2142,
      "down": 2143,
      "red": 2144,
      "ĠLa": 2145,
      "foo": 2146,
      "Â»": 2147,
      "gram": 2148,
      "ning": 2149,
      "ĠìĦ": 2150,
      "Ġstruct": 2151,
      "Ġstd": 2152,
      "prec": 2153,
      "ador": 2154,
      "ĠìŀĪìĬµëĭĪëĭ¤": 2155,
      "åĢĭ": 2156,
      "èĩ": 2157,
      "ĠÑģÑĤ": 2158,
      "Ð¾Ð¿": 2159,
      "Ġfirst": 2160,
      "unc": 2161,
      "start": 2162,
      "Ġ],": 2163,
      "Ġmain": 2164,
      "Ð°Ð¿": 2165,
      "Ġmet": 2166,
      "Statement": 2167,
      "ä¾Ŀ": 2168,
      "ĠDataFrame": 2169,
      "dir": 2170,
      "ãģĿ": 2171,
      "attern": 2172,
      "Ġprob": 2173,
      "ĠIt": 2174,
      "its": 2175,
      "Ġx": 2176,
      "orch": 2177,
      "ify": 2178,
      "åŀĭ": 2179,
      "ĠSeries": 2180,
      "UL": 2181,
      "Ġtext": 2182,
      "gener": 2183,
      "mut": 2184,
      "detail": 2185,
      "ĠAny": 2186,
      "ëĲ": 2187,
      "ante": 2188,
      "Data": 2189,
      "ĠĠĠĠĠĠĠĠĠĠĠĠĠ": 2190,
      "opt": 2191,
      "tl": 2192,
      "lias": 2193,
      "den": 2194,
      "ite": 2195,
      "over": 2196,
      "ols": 2197,
      "ìĹĲìĦľ": 2198,
      "ĠÃł": 2199,
      "Like": 2200,
      "ÑģÐ¿Ð¾Ð»ÑĮÐ·": 2201,
      "att": 2202,
      "strain": 2203,
      "è¿Ļ": 2204,
      "ÑĥÐ½": 2205,
      "ÐµÐ¹": 2206,
      "ormal": 2207,
      "Ġmatch": 2208,
      "instance": 2209,
      "False": 2210,
      "block": 2211,
      "jet": 2212,
      "max": 2213,
      "da": 2214,
      "yield": 2215,
      "tribute": 2216,
      "ë©": 2217,
      "ĠÐ¿ÐµÑĢ": 2218,
      "Ġsome": 2219,
      "wend": 2220,
      "Ġrequ": 2221,
      "ĠÑĤÐ°Ðº": 2222,
      "Loc": 2223,
      "istr": 2224,
      "iniz": 2225,
      "Ġed": 2226,
      "ron": 2227,
      "Ġfe": 2228,
      "wargs": 2229,
      "color": 2230,
      "ÐºÐ¾ÑĢÐ¸ÑģÑĤ": 2231,
      "module": 2232,
      "ative": 2233,
      "Function": 2234,
      "Ð°Ñģ": 2235,
      "digo": 2236,
      "OM": 2237,
      "Ġfunc": 2238,
      "ãģĤ": 2239,
      "èĢ": 2240,
      "Ġson": 2241,
      "guide": 2242,
      "Ġallow": 2243,
      "gn": 2244,
      "sync": 2245,
      "TypeNode": 2246,
      "hel": 2247,
      "æİ": 2248,
      "ultiple": 2249,
      "tings": 2250,
      "ãĤĤ": 2251,
      "auth": 2252,
      "·¸": 2253,
      "arch": 2254,
      "ager": 2255,
      "åĻ": 2256,
      "iler": 2257,
      "åĻ¨": 2258,
      "Ġprovide": 2259,
      "ĠĠĠĠĠĠ": 2260,
      "do": 2261,
      "illa": 2262,
      "Ġmodule": 2263,
      "sum": 2264,
      "Message": 2265,
      "ystem": 2266,
      "æı": 2267,
      "\");": 2268,
      "Ġeach": 2269,
      "ux": 2270,
      "ĠCLI": 2271,
      "Ap": 2272,
      "lif": 2273,
      "include": 2274,
      "allow": 2275,
      "ends": 2276,
      "Ġdefin": 2277,
      "ìľ": 2278,
      ":`_": 2279,
      "Identifier": 2280,
      "Ġurl": 2281,
      "ä¿": 2282,
      "ique": 2283,
      "lam": 2284,
      "rq": 2285,
      "ĠÐ¼Ð¾Ð¶ÐµÑĤÐµ": 2286,
      "encia": 2287,
      "Ġwork": 2288,
      "adas": 2289,
      "Ġë°": 2290,
      "sx": 2291,
      "Ġter": 2292,
      "Ġthen": 2293,
      "ĠDiagnostics": 2294,
      "ĵį": 2295,
      "éĢĻ": 2296,
      "tag": 2297,
      "CA": 2298,
      "æŀ": 2299,
      "Ġfollow": 2300,
      "Ġoutput": 2301,
      "ied": 2302,
      "ping": 2303,
      "æ³": 2304,
      "Ġâ": 2305,
      "Ð¸Ñģ": 2306,
      "å¸": 2307,
      "ãĥ«": 2308,
      "ĠVal": 2309,
      "TML": 2310,
      "Ġespec": 2311,
      "Ġdatos": 2312,
      "Import": 2313,
      "æ¨": 2314,
      "ìĬ¤": 2315,
      "active": 2316,
      "Ġabout": 2317,
      "corator": 2318,
      "bin": 2319,
      "ical": 2320,
      "Ġë§": 2321,
      "{\"": 2322,
      "Ġ{}": 2323,
      "ãĤī": 2324,
      "ĠIm": 2325,
      "Ġag": 2326,
      "mis": 2327,
      "ãĥ¡": 2328,
      "Ġselect": 2329,
      "ging": 2330,
      "Ġte": 2331,
      "Ġcount": 2332,
      "eader": 2333,
      "clo": 2334,
      "lib": 2335,
      "ĠcÃ³digo": 2336,
      "version": 2337,
      "Ġproperty": 2338,
      "Ġdocs": 2339,
      "msg": 2340,
      "Ġ),": 2341,
      "Ġarray": 2342,
      "Export": 2343,
      "Ð°ÑĶ": 2344,
      "Ġ!==": 2345,
      "Ġprovid": 2346,
      "Ġup": 2347,
      "nect": 2348,
      "####": 2349,
      "Ġdeclaration": 2350,
      "event": 2351,
      "section": 2352,
      "SS": 2353,
      "åĨ": 2354,
      "www": 2355,
      "ax": 2356,
      "ÐµÑģ": 2357,
      "State": 2358,
      "----------------------------------------------------------------": 2359,
      "Ġid": 2360,
      "users": 2361,
      "ê¸°": 2362,
      "Ġcal": 2363,
      "Ġmax": 2364,
      "cu": 2365,
      "ÑĸÐ²": 2366,
      "password": 2367,
      "ä»¶": 2368,
      "ĠaplicaciÃ³n": 2369,
      "Line": 2370,
      "Ġave": 2371,
      "èĩª": 2372,
      "Ġpode": 2373,
      "Ġoptions": 2374,
      "åĮ": 2375,
      "ç«": 2376,
      "sched": 2377,
      "nen": 2378,
      "Field": 2379,
      "Iter": 2380,
      "Ġconfigur": 2381,
      "bug": 2382,
      "ese": 2383,
      "Ġreg": 2384,
      "Ġmust": 2385,
      "Ġwas": 2386,
      "ĠÐ¸ÑģÐ¿Ð¾Ð»ÑĮÐ·": 2387,
      "example": 2388,
      "Ne": 2389,
      "dfn": 2390,
      "ÐºÐ°": 2391,
      "ÐºÐ»": 2392,
      "refix": 2393,
      "Ġnull": 2394,
      "spec": 2395,
      "Ġtry": 2396,
      "Ġmit": 2397,
      "Ġnum": 2398,
      "ior": 2399,
      "Ġro": 2400,
      "Ð¸Ð½": 2401,
      "Ġcontainer": 2402,
      "Set": 2403,
      "mult": 2404,
      "era": 2405,
      "local": 2406,
      "Ġthan": 2407,
      "Ġactual": 2408,
      "build": 2409,
      "tra": 2410,
      "Ġden": 2411,
      "used": 2412,
      ">.": 2413,
      "Ġist": 2414,
      "Ġwould": 2415,
      "âĶĢâĶĢâĶĢâĶĢ": 2416,
      "console": 2417,
      "Inter": 2418,
      "ãĥ¼ãĤ¿": 2419,
      "Ġbody": 2420,
      "Out": 2421,
      "Ġnote": 2422,
      "amespace": 2423,
      "Ġ--------": 2424,
      "ĲĨ": 2425,
      "Ġits": 2426,
      "Ġinto": 2427,
      "Mod": 2428,
      "Ġwrite": 2429,
      "bar": 2430,
      "other": 2431,
      "çĲĨ": 2432,
      "Ġupdate": 2433,
      "old": 2434,
      "å¯": 2435,
      "andard": 2436,
      "oo": 2437,
      "options": 2438,
      "structor": 2439,
      "cciÃ³n": 2440,
      "ivos": 2441,
      "ateg": 2442,
      "ric": 2443,
      "é¡": 2444,
      "`]": 2445,
      "web": 2446,
      "PU": 2447,
      "Ð¾Ð¹": 2448,
      "Ġ})": 2449,
      "ĠCont": 2450,
      "Ġzu": 2451,
      "ĠStarlette": 2452,
      "ariable": 2453,
      "ĠĠĠĠĠĠĠĠĠĠ": 2454,
      "ution": 2455,
      "ios": 2456,
      "asic": 2457,
      "ÅŁt": 2458,
      "ĠÐ²Ð¸ÐºÐ¾ÑĢÐ¸ÑģÑĤ": 2459,
      "Ģì": 2460,
      "output": 2461,
      "ë³": 2462,
      "Ð½Ð°Ñĩ": 2463,
      "num": 2464,
      "erson": 2465,
      "ĠÐ±ÑĥÐ´": 2466,
      "Hel": 2467,
      "ÑĤÐ¾ÑĢ": 2468,
      "ha": 2469,
      "Ð¼ÐµÐ½ÑĤ": 2470,
      "tributes": 2471,
      "Ġwir": 2472,
      "Ġinstance": 2473,
      "ìŀħ": 2474,
      "Ġstatic": 2475,
      "æĪĲ": 2476,
      "cache": 2477,
      "çĤ": 2478,
      "Ġtab": 2479,
      "rect": 2480,
      "ida": 2481,
      "background": 2482,
      "files": 2483,
      "Ġsee": 2484,
      "Ġgu": 2485,
      "ãĤĪ": 2486,
      "Ġback": 2487,
      "Check": 2488,
      "ìĦ±": 2489,
      "Read": 2490,
      "å¼ı": 2491,
      "Ġmin": 2492,
      "80": 2493,
      "íķ´": 2494,
      "Ġdans": 2495,
      "ãģı": 2496,
      "ä¸ĭ": 2497,
      "write": 2498,
      "LE": 2499,
      "any": 2500,
      "Ġlogin": 2501,
      "æĽ": 2502,
      "Ġlocal": 2503,
      "import": 2504,
      "å¤ļ": 2505,
      "men": 2506,
      "Ġ[]": 2507,
      "ĠÐ·Ð°Ð¿": 2508,
      "mar": 2509,
      "ĠSi": 2510,
      "ĠkÃ¶n": 2511,
      "inter": 2512,
      "Ġop": 2513,
      "19": 2514,
      "ĠÐ¿Ð°": 2515,
      "14": 2516,
      "wit": 2517,
      "ĠWhen": 2518,
      "Ġlike": 2519,
      "Arguments": 2520,
      "Ġorig": 2521,
      "ilter": 2522,
      "Any": 2523,
      "ding": 2524,
      "are": 2525,
      "ãĤ¢": 2526,
      "way": 2527,
      "ä¸º": 2528,
      "Ġetc": 2529,
      "ases": 2530,
      "Ġ(`": 2531,
      "002": 2532,
      "ĠÐ¾ÑĤ": 2533,
      "Trans": 2534,
      "Ġsig": 2535,
      "Ġinterface": 2536,
      "ìľ¼": 2537,
      "·¯": 2538,
      "lection": 2539,
      "TypeOf": 2540,
      "Mem": 2541,
      "Ġëĭ¤": 2542,
      "ĠÐ·Ð°": 2543,
      "ÑĢÐ°Ð¼ÐµÑĤ": 2544,
      "Ġlab": 2545,
      "ted": 2546,
      "wrap": 2547,
      "Alias": 2548,
      "ĠìĹ": 2549,
      "Exception": 2550,
      "Ġerr": 2551,
      "æĸĩ": 2552,
      "ifiers": 2553,
      "ieren": 2554,
      "Pos": 2555,
      "äºĨ": 2556,
      "first": 2557,
      "place": 2558,
      "ptimizer": 2559,
      "Mode": 2560,
      "Ġdur": 2561,
      "Ġ\\": 2562,
      "Ġhow": 2563,
      "Ġexpression": 2564,
      "äºĽ": 2565,
      "ãģķãĤĮ": 2566,
      "')": 2567,
      "Ġos": 2568,
      "Ġvar": 2569,
      "ÐµÐ½Ð½Ñı": 2570,
      "ME": 2571,
      "ÐºÑĥ": 2572,
      "éģ": 2573,
      "CF": 2574,
      "igger": 2575,
      "Ð°Ð·": 2576,
      "models": 2577,
      "Ġuma": 2578,
      "Ġ:=": 2579,
      "ĠUvicorn": 2580,
      "has": 2581,
      "ĠÃ§": 2582,
      "ĠJSDoc": 2583,
      "Ġnon": 2584,
      "Ġinstall": 2585,
      "count": 2586,
      "Ġ..": 2587,
      ".__": 2588,
      "Ġafter": 2589,
      "ob": 2590,
      "ä¸Ģä¸ª": 2591,
      "';": 2592,
      "Is": 2593,
      "Ġvalor": 2594,
      "ting": 2595,
      "Ġune": 2596,
      "Ġcontent": 2597,
      "Ġ####": 2598,
      "ëıĦ": 2599,
      "!(": 2600,
      "ingle": 2601,
      "mary": 2602,
      "éĥ": 2603,
      "ico": 2604,
      "ested": 2605,
      "indow": 2606,
      "Ġaxis": 2607,
      "å·": 2608,
      "Ġpres": 2609,
      "Ġremo": 2610,
      "comp": 2611,
      "Ġlabel": 2612,
      "åĳ": 2613,
      "ãĥī": 2614,
      "Ġbefore": 2615,
      "ules": 2616,
      "ĠSee": 2617,
      "FO": 2618,
      "anc": 2619,
      "Ġpart": 2620,
      "ĠÐµ": 2621,
      "uede": 2622,
      "ferenc": 2623,
      "ÑĢÐ°Ð·": 2624,
      "ren": 2625,
      "ider": 2626,
      "istem": 2627,
      "ID": 2628,
      "Ġdies": 2629,
      "Ġcomput": 2630,
      "Ġvisible": 2631,
      "éĥ¨": 2632,
      "æĮ": 2633,
      "reak": 2634,
      "ãĥĥ": 2635,
      "ë§": 2636,
      "ĠÐ²Ð°ÑĪ": 2637,
      "olic": 2638,
      "__(": 2639,
      "íķĺëĬĶ": 2640,
      "itor": 2641,
      "Ġnext": 2642,
      "Ġimplement": 2643,
      "ãģ§ãģį": 2644,
      "ions": 2645,
      "precated": 2646,
      "straint": 2647,
      "iento": 2648,
      "Ġcontrol": 2649,
      "rate": 2650,
      "Ġlast": 2651,
      "Ġë³": 2652,
      "04": 2653,
      "Ġproto": 2654,
      "Return": 2655,
      "Ġfiles": 2656,
      "ÑĥÑİ": 2657,
      "Body": 2658,
      "resol": 2659,
      "æĸ¹": 2660,
      "Ġpass": 2661,
      "Ð¸ÑĤÑĮ": 2662,
      "ĠRead": 2663,
      "ini": 2664,
      "Not": 2665,
      "ĠTo": 2666,
      "Ġcommand": 2667,
      "chema": 2668,
      "Ġign": 2669,
      "anti": 2670,
      "host": 2671,
      "ploy": 2672,
      "function": 2673,
      "Ġhost": 2674,
      "Ġservice": 2675,
      "Ġavec": 2676,
      "direct": 2677,
      "ret": 2678,
      "ambiÃ©n": 2679,
      "])": 2680,
      "termy": 2681,
      "ely": 2682,
      "Ext": 2683,
      "Container": 2684,
      "CK": 2685,
      "Clause": 2686,
      "Ńī": 2687,
      "ĠÐ¢": 2688,
      "Ġprotobuf": 2689,
      "ÑĢÐ¸Ð¼": 2690,
      "ipe": 2691,
      "ëŁ": 2692,
      "olotl": 2693,
      "Dis": 2694,
      "IG": 2695,
      "bers": 2696,
      "ell": 2697,
      "ose": 2698,
      "Ġĉĉĉĉ": 2699,
      "·¯å¾": 2700,
      "æĥ": 2701,
      "irs": 2702,
      "Ġwhere": 2703,
      "íķ©ëĭĪëĭ¤": 2704,
      "ä½łåı¯ä»¥": 2705,
      "User": 2706,
      "Ġtien": 2707,
      "Ġpuede": 2708,
      "iente": 2709,
      "Ġthere": 2710,
      "izar": 2711,
      "ëĵľ": 2712,
      "å¿": 2713,
      "Ġsignal": 2714,
      "Ġwant": 2715,
      "ãĤ³": 2716,
      "007": 2717,
      "ãģĹãģ¾ãģĻ": 2718,
      "kwargs": 2719,
      "íĦ": 2720,
      "Ġìĭ": 2721,
      "Ġparameters": 2722,
      "project": 2723,
      "åĽŀ": 2724,
      "tab": 2725,
      "ick": 2726,
      "Ã¡tic": 2727,
      "13": 2728,
      "Ġ\"#": 2729,
      "Ġbu": 2730,
      "ld": 2731,
      "pac": 2732,
      "Ġtrain": 2733,
      "Ġchange": 2734,
      "Ġsize": 2735,
      "wo": 2736,
      "Lin": 2737,
      "ÐµÐ·": 2738,
      "Ġëª": 2739,
      "Ġinstead": 2740,
      "steps": 2741,
      "card": 2742,
      "ĠãĤĴ": 2743,
      "Ġdas": 2744,
      "Ġquery": 2745,
      "ë©´": 2746,
      ":#": 2747,
      "can": 2748,
      "Ð¸ÑĤ": 2749,
      "iven": 2750,
      "Ġexecut": 2751,
      "sql": 2752,
      "endo": 2753,
      "Ġanim": 2754,
      "Child": 2755,
      "æİ¥": 2756,
      ">`": 2757,
      "åĭ": 2758,
      "æĶ": 2759,
      "ĠÅŁ": 2760,
      "Ġpa": 2761,
      "ĠPara": 2762,
      "med": 2763,
      "Ł¥": 2764,
      "Ġvon": 2765,
      "username": 2766,
      "olume": 2767,
      "Ġalias": 2768,
      "Ġformat": 2769,
      "ãģĵãģ¨": 2770,
      "iy": 2771,
      "åħ¶": 2772,
      "Ġcomponente": 2773,
      "nown": 2774,
      "andb": 2775,
      "Ġ):": 2776,
      "īį": 2777,
      "last": 2778,
      "result": 2779,
      "exclude": 2780,
      "Ġaccess": 2781,
      "æ±": 2782,
      "process": 2783,
      "åĲĪ": 2784,
      "ciones": 2785,
      "ç¤": 2786,
      "Ġbuf": 2787,
      "stru": 2788,
      "part": 2789,
      "ç»": 2790,
      "Ġdev": 2791,
      "Ġinitial": 2792,
      "ä¼ļ": 2793,
      "/*": 2794,
      "15": 2795,
      "ives": 2796,
      "present": 2797,
      "Ġfollowing": 2798,
      "Pr": 2799,
      "van": 2800,
      "Ġthey": 2801,
      "AD": 2802,
      "Ã©r": 2803,
      "oder": 2804,
      "cond": 2805,
      "ä¾ĭå": 2806,
      ">(": 2807,
      "Ã©c": 2808,
      "refer": 2809,
      "cause": 2810,
      "gen": 2811,
      "fix": 2812,
      "side": 2813,
      "Ġline": 2814,
      "ĠWeb": 2815,
      "ä¹Ł": 2816,
      "ë¶": 2817,
      "oth": 2818,
      "pected": 2819,
      "Ġpe": 2820,
      "iva": 2821,
      "Hand": 2822,
      "go": 2823,
      "ĠOAuth": 2824,
      "Ref": 2825,
      "avatar": 2826,
      "Ġweb": 2827,
      "Ġfloat": 2828,
      "anges": 2829,
      "matic": 2830,
      "Ġ`.": 2831,
      "Ġbecause": 2832,
      "dependency": 2833,
      "style": 2834,
      "Reg": 2835,
      "Spec": 2836,
      "æĢ": 2837,
      "éĩ": 2838,
      "Pre": 2839,
      "íĦ°": 2840,
      "Col": 2841,
      "sa": 2842,
      "feature": 2843,
      "quence": 2844,
      "Ġê·¸": 2845,
      "Count": 2846,
      "Ġsa": 2847,
      "Ġdtype": 2848,
      "Call": 2849,
      "plit": 2850,
      "Ġeste": 2851,
      "ç¤º": 2852,
      "æ¡": 2853,
      ">,": 2854,
      "Ġlora": 2855,
      "OT": 2856,
      "Ġwandb": 2857,
      "\")]": 2858,
      "åħ¥": 2859,
      "Ġavatar": 2860,
      "Ġdf": 2861,
      "ÐµÐ»": 2862,
      "Ð°Ð½Ð½Ñı": 2863,
      "ttp": 2864,
      "usercontent": 2865,
      "ready": 2866,
      "githubusercontent": 2867,
      "Ġutilis": 2868,
      "ĠUI": 2869,
      "Ġlevel": 2870,
      "Parameters": 2871,
      "ä¸Ĭ": 2872,
      "ĠĠĠĠĠĠĠĠĠĠĠĠĠĠĠĠĠĠĠĠĠĠĠĠĠĠĠĠĠĠĠĠĠĠĠĠĠĠĠĠĠĠĠĠĠĠĠĠĠĠĠĠĠĠĠĠĠĠĠĠĠĠĠĠĠĠĠĠĠĠĠĠĠĠĠĠĠĠĠĠĠĠĠĠĠĠĠĠĠĠĠĠĠĠĠĠĠĠĠĠĠĠĠĠĠĠĠĠĠĠĠĠĠĠĠĠĠĠĠĠĠĠĠĠĠĠĠĠ": 2873,
      "gine": 2874,
      "right": 2875,
      "((": 2876,
      "fs": 2877,
      "Ġcap": 2878,
      "ĩī": 2879,
      "ÑģÑĤÑĮ": 2880,
      "ĠavatarUrl": 2881,
      "çĤº": 2882,
      "inc": 2883,
      "amed": 2884,
      "ura": 2885,
      "Ġ\"#/": 2886,
      "avatars": 2887,
      "ĵįä½ľ": 2888,
      "ube": 2889,
      "ched": 2890,
      "SE": 2891,
      "ui": 2892,
      "Ġcustom": 2893,
      "çµ": 2894,
      "Ġstatus": 2895,
      "Ġiter": 2896,
      "vers": 2897,
      "Ġnormal": 2898,
      "Ġsince": 2899,
      "mt": 2900,
      "è·¯å¾": 2901,
      "íĻ": 2902,
      "fl": 2903,
      "Ġparam": 2904,
      "íĬ": 2905,
      "¬¸": 2906,
      "ĠHTML": 2907,
      "ferent": 2908,
      "ãģ§ãģĻ": 2909,
      "ĠÐ¿ÑĢÐ¾": 2910,
      "eta": 2911,
      "Ð¾Ð¼Ñĥ": 2912,
      "Gener": 2913,
      "wise": 2914,
      "ĠAp": 2915,
      "tegr": 2916,
      "Event": 2917,
      "})": 2918,
      "Ġsistem": 2919,
      "Ġreport": 2920,
      "Ġthem": 2921,
      "ãĥĳ": 2922,
      "ÑĢÐ°Ð¼ÐµÑĤÑĢ": 2923,
      "Ġsobre": 2924,
      "Assignment": 2925,
      "summary": 2926,
      "Header": 2927,
      "til": 2928,
      "Ġgroup": 2929,
      "pare": 2930,
      "ĠÑīÐ¾": 2931,
      "ÑĥÐ½Ðº": 2932,
      "æŀľ": 2933,
      "Ãµ": 2934,
      "epoch": 2935,
      "anim": 2936,
      "Ġpo": 2937,
      "Web": 2938,
      "ĠkÃ¶nnen": 2939,
      "20": 2940,
      "template": 2941,
      "Ġerrors": 2942,
      "This": 2943,
      "Ãµes": 2944,
      "cle": 2945,
      "ish": 2946,
      "Īĩ": 2947,
      "ĠPor": 2948,
      "ĠModel": 2949,
      "plications": 2950,
      "gin": 2951,
      "ons": 2952,
      "Ġty": 2953,
      "Ġisinstance": 2954,
      "ibil": 2955,
      "Ġlibr": 2956,
      "Ġpytest": 2957,
      "ç¢": 2958,
      "select": 2959,
      "Ġright": 2960,
      "stable": 2961,
      "ãĥĨ": 2962,
      "Router": 2963,
      "è©": 2964,
      "Ġhttp": 2965,
      "db": 2966,
      "ifile": 2967,
      "Ġcontin": 2968,
      "æĵįä½ľ": 2969,
      "ëł": 2970,
      "vez": 2971,
      "Be": 2972,
      "ĠÐĿ": 2973,
      "multifile": 2974,
      "æĻ": 2975,
      "ario": 2976,
      "200": 2977,
      "ross": 2978,
      "CH": 2979,
      "gers": 2980,
      "Ġsign": 2981,
      "properties": 2982,
      "Ġbreak": 2983,
      "values": 2984,
      "Ġempty": 2985,
      "vert": 2986,
      "vanced": 2987,
      "Ġperson": 2988,
      "Ġseg": 2989,
      "éĿ": 2990,
      "Ġpuedes": 2991,
      "Ġret": 2992,
      "por": 2993,
      "Ġopen": 2994,
      "åĭķ": 2995,
      "okie": 2996,
      "Default": 2997,
      "func": 2998,
      "Ŀ¼": 2999,
      "label": 3000,
      "íĬ¸": 3001,
      "Ġprim": 3002,
      "Ġposs": 3003,
      "mer": 3004,
      "åį": 3005,
      "ÑĥÐ²Ð°ÑĤÐ¸": 3006,
      "Ġtag": 3007,
      "ãĥķ": 3008,
      "ĠâĢĶ": 3009,
      "ann": 3010,
      "Ġfinal": 3011,
      "Ġmake": 3012,
      "AN": 3013,
      "»º": 3014,
      "ĠSymbolFlags": 3015,
      "mp": 3016,
      "éľ": 3017,
      "ride": 3018,
      "rowser": 3019,
      "witch": 3020,
      "oad": 3021,
      "Ġpou": 3022,
      "Ġprogram": 3023,
      "Ġrender": 3024,
      "weight": 3025,
      "åĲ«": 3026,
      "Code": 3027,
      "è§": 3028,
      "plicit": 3029,
      "fields": 3030,
      "txt": 3031,
      "cap": 3032,
      "Ġmu": 3033,
      "ãĢģ`": 3034,
      "Ġjust": 3035,
      "Ð½Ð°": 3036,
      "Ġëį": 3037,
      "ez": 3038,
      "tre": 3039,
      "container": 3040,
      "ìľ¼ë¡ľ": 3041,
      "éľĢ": 3042,
      "Ġnp": 3043,
      "ĠÐºÐ¾": 3044,
      "sol": 3045,
      "like": 3046,
      "aÃ§": 3047,
      "annotation": 3048,
      "].": 3049,
      "Ġinclude": 3050,
      "ãĤŃ": 3051,
      "ecto": 3052,
      "ä¾ĭ": 3053,
      "éł": 3054,
      "amos": 3055,
      "Ġoptional": 3056,
      "Ġextends": 3057,
      "Ð¾ÐºÑĥ": 3058,
      "ENT": 3059,
      "Ġnom": 3060,
      "ccessful": 3061,
      "ìķ": 3062,
      "ĠÑĤÐ¸": 3063,
      "ending": 3064,
      "ĠâĶĤ": 3065,
      "IT": 3066,
      "Su": 3067,
      "ULL": 3068,
      "Optional": 3069,
      "date": 3070,
      "socket": 3071,
      "Ġmessage": 3072,
      "Ġprodu": 3073,
      "asse": 3074,
      "Ġìĺ": 3075,
      "ailable": 3076,
      "arÃ¡": 3077,
      "ĠNot": 3078,
      "ĠForm": 3079,
      "ĠĠĠĠĠĠĠĠĠĠĠĠĠĠĠĠĠĠĠĠĠĠĠĠĠĠĠĠĠĠĠĠĠĠĠĠĠĠĠĠĠĠĠ": 3080,
      "tual": 3081,
      "Ġsnapshot": 3082,
      "Pod": 3083,
      "`ãĢĤ": 3084,
      "ãĥŃ": 3085,
      "Ġreturns": 3086,
      "å¸¸": 3087,
      "Ġot": 3088,
      "ĠÐºÐ¾Ð´": 3089,
      "17": 3090,
      "Ġtem": 3091,
      "ĠSet": 3092,
      "ef": 3093,
      "25": 3094,
      "hether": 3095,
      "ĠCh": 3096,
      "Select": 3097,
      "Ð°ÑĤ": 3098,
      "Ġindic": 3099,
      "ãĥ§": 3100,
      "ãĥ¬": 3101,
      "Ġvalidation": 3102,
      "ĠObject": 3103,
      "Ġconten": 3104,
      "wh": 3105,
      "ÑĥÐ½ÐºÑĨ": 3106,
      "ÐµÐº": 3107,
      "Ä±nd": 3108,
      "curs": 3109,
      "DE": 3110,
      "ĠLos": 3111,
      "æĪĳ": 3112,
      "166": 3113,
      "ç¨ĭå": 3114,
      "ĠImport": 3115,
      "ĠÐºÐ°Ðº": 3116,
      "Ġauto": 3117,
      "aract": 3118,
      "Ġcache": 3119,
      "ĠÐ²Ñģ": 3120,
      "Man": 3121,
      "å¦Ĥ": 3122,
      "Ġtra": 3123,
      "CT": 3124,
      "bit": 3125,
      "Ġdos": 3126,
      "Ġrepresent": 3127,
      "Ġvers": 3128,
      "ìĸ´": 3129,
      "Ġcould": 3130,
      "ling": 3131,
      "level": 3132,
      "Ð¾Ð²Ð°ÑĤÑĮ": 3133,
      "Ġaus": 3134,
      "very": 3135,
      "mm": 3136,
      "nc": 3137,
      "entic": 3138,
      "èª": 3139,
      "ÑĥÑĤ": 3140,
      "Ð¿ÐµÑĢ": 3141,
      "loud": 3142,
      "ru": 3143,
      "Ġnil": 3144,
      "ton": 3145,
      "æł": 3146,
      "ĠTr": 3147,
      "Ġusu": 3148,
      "ava": 3149,
      "Params": 3150,
      "ING": 3151,
      "////////": 3152,
      "æ±Ĥ": 3153,
      "AR": 3154,
      "Test": 3155,
      "çī": 3156,
      "Ġ6": 3157,
      "irsiniz": 3158,
      "ture": 3159,
      "------": 3160,
      "Ġtod": 3161,
      "ÐµÐ½Ð¸Ñı": 3162,
      "veloper": 3163,
      "The": 3164,
      "element": 3165,
      "ĠÃ¼": 3166,
      "urs": 3167,
      "uler": 3168,
      "ĠItem": 3169,
      "columns": 3170,
      "Ġsched": 3171,
      "ÑĥÑĶ": 3172,
      "Emit": 3173,
      "message": 3174,
      "Ġreal": 3175,
      "åĬł": 3176,
      "ĠÐ²Ð¸ÐºÐ¾ÑĢÐ¸ÑģÑĤÐ¾Ð²": 3177,
      "Hero": 3178,
      "Ġprint": 3179,
      "Ġperform": 3180,
      "æĽ´": 3181,
      "fin": 3182,
      "var": 3183,
      "estion": 3184,
      "Ġfields": 3185,
      "ĠÑĩÑĤÐ¾": 3186,
      "Ġ`<": 3187,
      "cord": 3188,
      "003": 3189,
      "velop": 3190,
      "Ġê²ĥ": 3191,
      "34": 3192,
      "await": 3193,
      "Ġthese": 3194,
      "riter": 3195,
      "Ġskip": 3196,
      "Ġhere": 3197,
      "([": 3198,
      "cpu": 3199,
      "lich": 3200,
      "æĦ": 3201,
      "ëĿ¼": 3202,
      "Ġ\"$": 3203,
      "Ġrequired": 3204,
      "Only": 3205,
      "`).": 3206,
      "scopes": 3207,
      "Ġeine": 3208,
      "omitem": 3209,
      "lines": 3210,
      "Ġdifferent": 3211,
      "omitempty": 3212,
      "å¹": 3213,
      "ĠAss": 3214,
      "èµ": 3215,
      "ĠBe": 3216,
      "ification": 3217,
      "æķ¸": 3218,
      "urity": 3219,
      "lace": 3220,
      "ä½Ĩ": 3221,
      "pack": 3222,
      "Ġ10": 3223,
      "Ġ/>": 3224,
      "åºĶ": 3225,
      "quals": 3226,
      "unu": 3227,
      "adient": 3228,
      "Ġwhile": 3229,
      "ãĥ§ãĥ³": 3230,
      "env": 3231,
      "Ġusando": 3232,
      "route": 3233,
      "Ġdec": 3234,
      "ÐµÑģÑĤ": 3235,
      "ptr": 3236,
      "Ġcolumns": 3237,
      "ĠError": 3238,
      "antes": 3239,
      "ä»ĸ": 3240,
      "dr": 3241,
      "ph": 3242,
      "tags": 3243,
      "ëį": 3244,
      "eric": 3245,
      "Ġce": 3246,
      "Union": 3247,
      "æĿ": 3248,
      "Ġdepend": 3249,
      "ãģ¤": 3250,
      "Ġdu": 3251,
      "pytest": 3252,
      "Ð¶Ðµ": 3253,
      "æĩī": 3254,
      "è³": 3255,
      "amp": 3256,
      "ÃŃas": 3257,
      "Ä±nÄ±": 3258,
      "ĠReturns": 3259,
      "samples": 3260,
      "etes": 3261,
      "](../": 3262,
      "å®¹": 3263,
      "pool": 3264,
      "Ġtransform": 3265,
      "Direct": 3266,
      "åŃĺ": 3267,
      "Template": 3268,
      "decor": 3269,
      "ĠCheck": 3270,
      "testing": 3271,
      "éĸ¢": 3272,
      "æīĢ": 3273,
      "ged": 3274,
      "ctx": 3275,
      "ĠNote": 3276,
      "Ã©t": 3277,
      "Ġneces": 3278,
      "Chain": 3279,
      "Ġvariable": 3280,
      "ãĤģ": 3281,
      "metadata": 3282,
      "Ġfon": 3283,
      "enn": 3284,
      "wenden": 3285,
      "ĠÑĤÐ¸Ð¿": 3286,
      "ìŀħëĭĪëĭ¤": 3287,
      "icht": 3288,
      "Ġhab": 3289,
      "Ġlanguage": 3290,
      "\".": 3291,
      "Ġgiven": 3292,
      "callback": 3293,
      "Wor": 3294,
      "true": 3295,
      "Ġkind": 3296,
      "Status": 3297,
      "ĠDefault": 3298,
      "Ġtipo": 3299,
      "007166": 3300,
      "ÑĸÐ»ÑĮ": 3301,
      "ä»£": 3302,
      "prop": 3303,
      "alÄ±": 3304,
      "Ġåľ¨": 3305,
      "Ġprev": 3306,
      "Len": 3307,
      "SyntaxKind": 3308,
      "ats": 3309,
      "ĠSchema": 3310,
      "parameter": 3311,
      "Ġfuncion": 3312,
      "ĠGet": 3313,
      "çĽ¸": 3314,
      "æıĲ": 3315,
      "SG": 3316,
      "Ġflags": 3317,
      "åĪ°": 3318,
      "Ġ});": 3319,
      "Ġow": 3320,
      "uster": 3321,
      "ĠExpression": 3322,
      "éĢļ": 3323,
      "ãģ£": 3324,
      "ä¸ĢåĢĭ": 3325,
      "ÐµÐ½Ð¸Ðµ": 3326,
      "New": 3327,
      "teger": 3328,
      "ĠíĮ": 3329,
      "Ñĳ": 3330,
      "atically": 3331,
      "Ġsuch": 3332,
      "ĠUse": 3333,
      "Jsx": 3334,
      "LO": 3335,
      "ek": 3336,
      "next": 3337,
      "ÑģÐº": 3338,
      "Ġ100": 3339,
      "Ġworker": 3340,
      "Ġalready": 3341,
      "åı¯èĥ½": 3342,
      "Annotated": 3343,
      "aten": 3344,
      "Ġobjet": 3345,
      "Target": 3346,
      "iem": 3347,
      "ĠfunciÃ³n": 3348,
      "ä½łçļĦ": 3349,
      "ãģ§ãģįãģ¾ãģĻ": 3350,
      "./": 3351,
      "Le": 3352,
      "Ġ8": 3353,
      "**:": 3354,
      "icro": 3355,
      "Ġeval": 3356,
      "Add": 3357,
      "batch": 3358,
      "swagger": 3359,
      "ĠfÃ¼r": 3360,
      "è¨Ń": 3361,
      "IP": 3362,
      "Ġcopy": 3363,
      "Ġrunning": 3364,
      "Build": 3365,
      "cli": 3366,
      "å»º": 3367,
      "Cache": 3368,
      "imum": 3369,
      "vis": 3370,
      "ÑĪÐµ": 3371,
      "*.": 3372,
      "hash": 3373,
      "ramework": 3374,
      "train": 3375,
      "Ġenc": 3376,
      "indows": 3377,
      "By": 3378,
      "iza": 3379,
      "Ð¾ÐºÑĥÐ¼ÐµÐ½ÑĤ": 3380,
      "aw": 3381,
      "method": 3382,
      "ĴĮ": 3383,
      "ways": 3384,
      "Ġëª¨": 3385,
      "05": 3386,
      "ì²": 3387,
      "Ġfactory": 3388,
      "try": 3389,
      "Ġorder": 3390,
      "åıĸ": 3391,
      "Ã¢": 3392,
      "ared": 3393,
      "Ġlong": 3394,
      "lated": 3395,
      "ĮĢ": 3396,
      "left": 3397,
      "Ġrece": 3398,
      "lag": 3399,
      "igned": 3400,
      "âĢľ": 3401,
      "Ġconfiguration": 3402,
      "æį": 3403,
      "ĠextHost": 3404,
      "ba": 3405,
      "Ð¸Ñħ": 3406,
      "Ġ+=": 3407,
      "Ġproject": 3408,
      "ynam": 3409,
      "ìĿ¸": 3410,
      "ugin": 3411,
      "son": 3412,
      "Ġdependency": 3413,
      "æĦı": 3414,
      "itu": 3415,
      "Ð°ÑĢ": 3416,
      "Ġcuando": 3417,
      "tect": 3418,
      "Ġcla": 3419,
      "Ġmut": 3420,
      "ãĤ£": 3421,
      "hes": 3422,
      "entro": 3423,
      "Ġnue": 3424,
      "Ġbet": 3425,
      "chain": 3426,
      "Ġchild": 3427,
      "Ġpouvez": 3428,
      "lation": 3429,
      "meth": 3430,
      "mark": 3431,
      "ĠÐ¿Ð¾": 3432,
      "ĠLe": 3433,
      "ĠHTTPS": 3434,
      "lt": 3435,
      "ĠÑģÐ¿": 3436,
      "Ġparams": 3437,
      "ĠUser": 3438,
      "Nodes": 3439,
      "ention": 3440,
      "Ġreference": 3441,
      "æĻĤ": 3442,
      "iert": 3443,
      "uel": 3444,
      "ĠStr": 3445,
      "ĠNo": 3446,
      "æĹ": 3447,
      "LS": 3448,
      "Ġsingle": 3449,
      "Ġmo": 3450,
      "Ġou": 3451,
      "Variable": 3452,
      "export": 3453,
      "ublic": 3454,
      "Ġbeh": 3455,
      "å®£": 3456,
      "ED": 3457,
      "ãĤ¹ãĥĪ": 3458,
      "Ġge": 3459,
      "ister": 3460,
      "ÑīÐ¾": 3461,
      "ìĭľ": 3462,
      "Ġref": 3463,
      "Ġverwenden": 3464,
      "åł": 3465,
      "Ġinject": 3466,
      "ecurity": 3467,
      "æĢ§": 3468,
      "known": 3469,
      "lease": 3470,
      "keys": 3471,
      "Ġdifer": 3472,
      "Ġoriginal": 3473,
      "ape": 3474,
      "Ġcual": 3475,
      "ĠSQL": 3476,
      "æľ¬": 3477,
      "Ġsuper": 3478,
      "ìļĶ": 3479,
      "Ġsolo": 3480,
      "iling": 3481,
      "Ġllam": 3482,
      "åıĤ": 3483,
      "emplates": 3484,
      "ynamic": 3485,
      "Socket": 3486,
      "Ð¸ÑĤÐ¸": 3487,
      "play": 3488,
      "HTTPValidationError": 3489,
      "':": 3490,
      "å¢": 3491,
      "ialize": 3492,
      "ìĿ¼": 3493,
      "ĠÐ¿Ð°ÑĢÐ°Ð¼ÐµÑĤÑĢ": 3494,
      "Log": 3495,
      "Tra": 3496,
      "Ġke": 3497,
      "andom": 3498,
      "Ġq": 3499,
      "ĠBu": 3500,
      "ãĥ³ãĥĪ": 3501,
      "Location": 3502,
      "?.": 3503,
      "Session": 3504,
      "());": 3505,
      "ëŁ¬": 3506,
      "checkpoint": 3507,
      "ĠDocker": 3508,
      "03": 3509,
      "Ġauth": 3510,
      "property": 3511,
      "Ð°Ð»ÑĮ": 3512,
      "Ġresolve": 3513,
      "/#": 3514,
      "ICA": 3515,
      "Ġãģĵ": 3516,
      "ints": 3517,
      "ĠÃº": 3518,
      "ĠÑĸÐ½": 3519,
      "jection": 3520,
      "ĠSome": 3521,
      "Ġìľ": 3522,
      "Ġplant": 3523,
      "ĠÐŀ": 3524,
      "çĶŁ": 3525,
      "Ġignore": 3526,
      "Ð½ÑĭÐµ": 3527,
      "limit": 3528,
      "æĺİ": 3529,
      "ĠServer": 3530,
      "SGI": 3531,
      "Ġargument": 3532,
      "Ġelements": 3533,
      "ires": 3534,
      "Ġpip": 3535,
      "Ã©es": 3536,
      "Ġattribute": 3537,
      "ä¾ĭå¦Ĥ": 3538,
      "27": 3539,
      "igh": 3540,
      "Ġpermit": 3541,
      "Ġspecified": 3542,
      "Ġcalled": 3543,
      "±»": 3544,
      "åŁ": 3545,
      "ĠDet": 3546,
      "Inst": 3547,
      "Ġ7": 3548,
      "ious": 3549,
      "settings": 3550,
      "cret": 3551,
      "];": 3552,
      "aN": 3553,
      "NA": 3554,
      "ìĻ": 3555,
      "aph": 3556,
      "aÃ±": 3557,
      "ĠIN": 3558,
      "raw": 3559,
      "termin": 3560,
      "ĠExamples": 3561,
      "arness": 3562,
      "Ð°Ð¼Ð¸": 3563,
      "iedad": 3564,
      "Ġsol": 3565,
      "null": 3566,
      "static": 3567,
      "Ġãģ®": 3568,
      "ä»¬": 3569,
      "Pydantic": 3570,
      "åĩ½": 3571,
      "}\")": 3572,
      "è£": 3573,
      "ĠtambiÃ©n": 3574,
      "ĠÐ¡": 3575,
      "Ġìĥ": 3576,
      "ÑĥÑĩ": 3577,
      "ĠID": 3578,
      "ais": 3579,
      "arer": 3580,
      "ĠÐ²ÑĸÐ´": 3581,
      "Ð²Ð¸": 3582,
      "/{": 3583,
      "depend": 3584,
      "Ġfind": 3585,
      "ĠAdd": 3586,
      "Reply": 3587,
      "Ã¡met": 3588,
      "larÄ±": 3589,
      "MA": 3590,
      "ja": 3591,
      "Ġroot": 3592,
      "ãĤ¨": 3593,
      "Ġcallback": 3594,
      "Ġwird": 3595,
      "mos": 3596,
      "entes": 3597,
      "Ġ`\"": 3598,
      "ĠMod": 3599,
      "forms": 3600,
      "box": 3601,
      "engine": 3602,
      "ÑĸÐ½": 3603,
      "Ġglobal": 3604,
      "Ã¶r": 3605,
      "Ġelemento": 3606,
      "net": 3607,
      "ras": 3608,
      "Ġmultiple": 3609,
      "Ġ};": 3610,
      "igr": 3611,
      "Ġejecut": 3612,
      "acc": 3613,
      "aster": 3614,
      "parse": 3615,
      "hero": 3616,
      "ãģĹãģŁ": 3617,
      "Ġprovided": 3618,
      "Ġview": 3619,
      "Ġenvironment": 3620,
      "Input": 3621,
      "ç½": 3622,
      "ë²": 3623,
      "Ġawait": 3624,
      "Ġrange": 3625,
      "ĠÑĪ": 3626,
      "ê³¼": 3627,
      "ĠÑĨÐµ": 3628,
      "oper": 3629,
      "Ã¼m": 3630,
      "Ġsigu": 3631,
      "Ġtorch": 3632,
      "Ġpackage": 3633,
      "ãĥ¥": 3634,
      "Ð½ÑĭÑħ": 3635,
      "cmd": 3636,
      "æĬ": 3637,
      "Ġmight": 3638,
      "ĠRequest": 3639,
      "Ġíķĺ": 3640,
      "Ġëı": 3641,
      "pdate": 3642,
      "apping": 3643,
      "Ġ---": 3644,
      "cp": 3645,
      "float": 3646,
      "´åĲĪ": 3647,
      "avaScript": 3648,
      "cb": 3649,
      "Ġcada": 3650,
      "ragment": 3651,
      "ĠAs": 3652,
      "Server": 3653,
      "US": 3654,
      "}.": 3655,
      "·ãĥ§ãĥ³": 3656,
      "Ġstatement": 3657,
      "ĠÐ´Ð°Ð½": 3658,
      "Ġpueden": 3659,
      "æŃ¤": 3660,
      "ãĤĪãģĨ": 3661,
      "åĮħ": 3662,
      "ICAg": 3663,
      "Ġupd": 3664,
      "ä½ķ": 3665,
      "initial": 3666,
      "Ġinformation": 3667,
      "umentation": 3668,
      "routers": 3669,
      "vider": 3670,
      "ET": 3671,
      "ÐµÐ¶": 3672,
      "Ġforma": 3673,
      "aryExpression": 3674,
      "Ġcorrect": 3675,
      "Ġmetadata": 3676,
      "Each": 3677,
      "Ġheaders": 3678,
      "ional": 3679,
      "ĠÐĹ": 3680,
      "ounter": 3681,
      "Ġextra": 3682,
      "ĠRes": 3683,
      "Ġens": 3684,
      "Ð°ÑĨÐ¸Ð¸": 3685,
      "td": 3686,
      "adores": 3687,
      "++": 3688,
      "Ġpassed": 3689,
      "Ġconnection": 3690,
      "Ġhac": 3691,
      "mall": 3692,
      "connect": 3693,
      "ä¾Ľ": 3694,
      "äºİ": 3695,
      "Ġbas": 3696,
      "aclass": 3697,
      "hell": 3698,
      "Ġway": 3699,
      "iled": 3700,
      "Ġinstal": 3701,
      "Ġgenerate": 3702,
      "cepts": 3703,
      "skip": 3704,
      "stack": 3705,
      "ĠEs": 3706,
      "Ġsignature": 3707,
      "Ġloc": 3708,
      "ources": 3709,
      "Ð°Ñħ": 3710,
      "ĠðŁ¤": 3711,
      "dicate": 3712,
      "Ġproble": 3713,
      "24": 3714,
      "bed": 3715,
      "ĠSignature": 3716,
      "Region": 3717,
      "dp": 3718,
      "Ð°Ð³": 3719,
      "Ġwithout": 3720,
      "ĠÑįÑĤÐ¾": 3721,
      "ë§Į": 3722,
      "child": 3723,
      "ĠDes": 3724,
      "ubern": 3725,
      "ĠConfig": 3726,
      "Ġ>=": 3727,
      "olicy": 3728,
      "Async": 3729,
      "multi": 3730,
      "Ġservic": 3731,
      "Ð°ÑĨÑĸÑĹ": 3732,
      "å¢ĥ": 3733,
      "Range": 3734,
      "Ġfin": 3735,
      "ignatures": 3736,
      "Ġ-->": 3737,
      "Ãºn": 3738,
      "zilla": 3739,
      "ĠnÃ£o": 3740,
      "Equals": 3741,
      "less": 3742,
      "push": 3743,
      "ves": 3744,
      "esca": 3745,
      "Accessor": 3746,
      "Ġba": 3747,
      "istent": 3748,
      "Argument": 3749,
      "Ġ...,": 3750,
      "Change": 3751,
      "Ġdirectly": 3752,
      "ĠÑĦÑĥÐ½ÐºÑĨ": 3753,
      "SourceFile": 3754,
      "ĠIP": 3755,
      "ĠOptional": 3756,
      "ä¾Ĩ": 3757,
      "utils": 3758,
      "Ġdataset": 3759,
      "éľĢè¦ģ": 3760,
      "ICAgICAg": 3761,
      "stream": 3762,
      "respon": 3763,
      "andid": 3764,
      "chn": 3765,
      "Ġpartic": 3766,
      "Ġreturned": 3767,
      "æĸ°": 3768,
      "ToString": 3769,
      "================================": 3770,
      "æ³ķ": 3771,
      "ĠvisibleRegion": 3772,
      "Method": 3773,
      "Non": 3774,
      "ĠÐ»": 3775,
      "Ð»Ðµ": 3776,
      "ĠðŁĺ": 3777,
      "na": 3778,
      "ubernetes": 3779,
      "ĶĦ": 3780,
      "orig": 3781,
      "Ġil": 3782,
      "Ġident": 3783,
      "ÑİÑĩ": 3784,
      "af": 3785,
      "scope": 3786,
      "Start": 3787,
      "Ġnow": 3788,
      "copy": 3789,
      "ĭåĪ": 3790,
      "Ð³Ð¾": 3791,
      "serv": 3792,
      "Ġtransaction": 3793,
      "Ġresolved": 3794,
      "advanced": 3795,
      "Ġentre": 3796,
      "Ġtwo": 3797,
      "ãģ¦ãģĦ": 3798,
      "Ä±nÄ±z": 3799,
      "ruct": 3800,
      "utdown": 3801,
      "otre": 3802,
      "Ġê¸°": 3803,
      "çĽ´": 3804,
      "patch": 3805,
      "torch": 3806,
      "ĠNULL": 3807,
      "Ġdependencies": 3808,
      "medi": 3809,
      "And": 3810,
      "¡åŀĭ": 3811,
      "Ġjson": 3812,
      "Ġmed": 3813,
      "quier": 3814,
      "space": 3815,
      "ÐºÐ»Ð°Ð´": 3816,
      "resolved": 3817,
      "ibility": 3818,
      "ĠÐ·Ð½Ð°Ñĩ": 3819,
      "drop": 3820,
      "tot": 3821,
      "Ġsp": 3822,
      "Content": 3823,
      "aterial": 3824,
      "å¿ħ": 3825,
      "ES": 3826,
      "No": 3827,
      "some": 3828,
      "ĠDOM": 3829,
      "åĢĳ": 3830,
      ")]": 3831,
      "Ġoption": 3832,
      "ãĥĿ": 3833,
      "ains": 3834,
      "ìĿĮ": 3835,
      "23": 3836,
      "oot": 3837,
      "};": 3838,
      "Ġdetail": 3839,
      "elf": 3840,
      "ÃŃf": 3841,
      "ĠBase": 3842,
      "price": 3843,
      "ëĵ¤": 3844,
      "èĪĩ": 3845,
      "ende": 3846,
      "ĠMap": 3847,
      "ĠÐ¾Ð´": 3848,
      "Time": 3849,
      "oauth": 3850,
      "ram": 3851,
      "imal": 3852,
      "ãĤ¿": 3853,
      "Ġrest": 3854,
      "ãģ§ãģ¯": 3855,
      "ÑĢÐ°Ð±": 3856,
      "Ġold": 3857,
      "ĠÐ´Ð¾ÐºÑĥÐ¼ÐµÐ½ÑĤ": 3858,
      "Ä±l": 3859,
      "Ġhandler": 3860,
      "ãĤĬãģ¾ãģĻ": 3861,
      "Ġmodelo": 3862,
      "æ¬": 3863,
      "łí": 3864,
      "ĠDeb": 3865,
      "ãģĿãģ®": 3866,
      "ys": 3867,
      "ither": 3868,
      "OpenAPI": 3869,
      "Ġfull": 3870,
      "ìŀĲ": 3871,
      "append": 3872,
      "Ð²Ð¾": 3873,
      "ĠDepends": 3874,
      "Successful": 3875,
      "urgers": 3876,
      "Ġdocumentation": 3877,
      "Ð°ÐµÑĤ": 3878,
      "Ġgo": 3879,
      "ĠOn": 3880,
      "ators": 3881,
      "Ġleft": 3882,
      "Ġcorrespon": 3883,
      "ored": 3884,
      "ÑĤÐ¾Ð¼": 3885,
      "Ġvotre": 3886,
      "Ġbeen": 3887,
      "BaseModel": 3888,
      "`](": 3889,
      "vari": 3890,
      "itive": 3891,
      "abase": 3892,
      "Ġstep": 3893,
      "Ġvisit": 3894,
      "iar": 3895,
      "Ġpattern": 3896,
      "Ġdass": 3897,
      "Ġnames": 3898,
      "Ġ<<": 3899,
      "Ġargs": 3900,
      "Modifier": 3901,
      "ĠparÃ¡met": 3902,
      "Length": 3903,
      "55": 3904,
      "environ": 3905,
      "={\"": 3906,
      "cr": 3907,
      "late": 3908,
      "Ġam": 3909,
      "ä¸¦": 3910,
      "Ġalgun": 3911,
      "<'": 3912,
      "Ġhe": 3913,
      "Ġtheir": 3914,
      "Ġboth": 3915,
      "Ġarchivo": 3916,
      "Ġweight": 3917,
      "Command": 3918,
      "ÑĤÑĮÑģÑı": 3919,
      "Ã©tod": 3920,
      "Open": 3921,
      "Ġdire": 3922,
      "ĠList": 3923,
      "validations": 3924,
      "generate": 3925,
      "lr": 3926,
      "starlette": 3927,
      "Ġcommon": 3928,
      "pose": 3929,
      "ê²Į": 3930,
      "Ġile": 3931,
      "etime": 3932,
      "common": 3933,
      "ĠValue": 3934,
      "RA": 3935,
      "ances": 3936,
      "req": 3937,
      "Ġlook": 3938,
      "ĠÐ¼Ð¾Ð´": 3939,
      "quirements": 3940,
      "Ġgenerated": 3941,
      "geb": 3942,
      "ãģł": 3943,
      "Ġavailable": 3944,
      "åıĤæķ°": 3945,
      "now": 3946,
      "ilar": 3947,
      "chron": 3948,
      "Ġproces": 3949,
      "Ð¼Ð¸": 3950,
      "åıĥ": 3951,
      "Ġå¦Ĥ": 3952,
      "Enum": 3953,
      "older": 3954,
      "anged": 3955,
      "Ġatt": 3956,
      "è¿Ķ": 3957,
      "ween": 3958,
      "Ġcontinue": 3959,
      "Hub": 3960,
      "Sub": 3961,
      "ben": 3962,
      "cs": 3963,
      "åīį": 3964,
      "Ġtutorial": 3965,
      "ãģĳ": 3966,
      "Ġavoid": 3967,
      "animations": 3968,
      "ëŀ": 3969,
      "ĠCSS": 3970,
      "ĠModule": 3971,
      "ĠLog": 3972,
      "Errors": 3973,
      "ĠVer": 3974,
      "Ġresults": 3975,
      "åĢ¼": 3976,
      "Ġbehav": 3977,
      "Ġsus": 3978,
      "romise": 3979,
      "ĠÑĤÐ°": 3980,
      "PT": 3981,
      "anÄ±": 3982,
      "icos": 3983,
      "Ġimpl": 3984,
      "Ð²ÐµÑĢ": 3985,
      "Ġprivate": 3986,
      "åĪĨ": 3987,
      "########": 3988,
      "dtype": 3989,
      "lash": 3990,
      "pill": 3991,
      "Ļķ": 3992,
      "ĠdeÄŁ": 3993,
      "ĠPath": 3994,
      "ëĤ": 3995,
      "ìħ": 3996,
      "ĠëĮĢ": 3997,
      "ward": 3998,
      "Ġtiene": 3999,
      "Handler": 4000,
      "eded": 4001,
      "rr": 4002,
      "\">`": 4003,
      "ä»»": 4004,
      "middleware": 4005,
      "flow": 4006,
      "Ð½Ð¾Ð³Ð¾": 4007,
      "ĠCol": 4008,
      "ĠÑģÐ»": 4009,
      "configuration": 4010,
      "ãĥ¼ãĥī": 4011,
      "idos": 4012,
      "ĠInter": 4013,
      "lice": 4014,
      "ãģŁãĤģ": 4015,
      "operationId": 4016,
      "èĢħ": 4017,
      "Rel": 4018,
      "ĠQuery": 4019,
      "resh": 4020,
      "Ġremove": 4021,
      "full": 4022,
      "itHub": 4023,
      "Ġmer": 4024,
      "ials": 4025,
      "Comment": 4026,
      "å¹¶": 4027,
      "Ġsav": 4028,
      "Ġdest": 4029,
      "Ġê°Ģ": 4030,
      "ferences": 4031,
      "æį®": 4032,
      "Pl": 4033,
      "lers": 4034,
      "aliz": 4035,
      "ĠVous": 4036,
      "ugh": 4037,
      "Ġconsider": 4038,
      "Det": 4039,
      "light": 4040,
      "íĸ": 4041,
      "ãģĽ": 4042,
      "Ġmat": 4043,
      "Depends": 4044,
      "è³ĩ": 4045,
      "Http": 4046,
      "OD": 4047,
      "Ã¼n": 4048,
      "\"),": 4049,
      "Binding": 4050,
      "developer": 4051,
      "icas": 4052,
      "puted": 4053,
      "basic": 4054,
      "lu": 4055,
      "alle": 4056,
      "Ġfs": 4057,
      "ÑĥÑĤÐ¸": 4058,
      "proxy": 4059,
      "location": 4060,
      "ĠINFO": 4061,
      "Ġeffect": 4062,
      "çł": 4063,
      "Ġoff": 4064,
      "Extension": 4065,
      "ĠZ": 4066,
      "rio": 4067,
      "Hello": 4068,
      "çľ": 4069,
      "Ġgradient": 4070,
      "Ġpropiedad": 4071,
      "ĢìĪĺ": 4072,
      "Ġä¸Ń": 4073,
      "lose": 4074,
      "Ġmen": 4075,
      "ĠgetType": 4076,
      "ĠÐºÐ¾Ð½": 4077,
      "Ġcolumn": 4078,
      "leri": 4079,
      "Ġspecific": 4080,
      "Ã¨s": 4081,
      "ĠautomÃ¡tic": 4082,
      "Ġpossible": 4083,
      "è§£": 4084,
      "°ìĿ´": 4085,
      "ë°": 4086,
      "Ġca": 4087,
      "amiento": 4088,
      "Ð½Ð¾Ð²": 4089,
      "Ġchain": 4090,
      "aracter": 4091,
      "(`": 4092,
      "cd": 4093,
      "ÑĢÐ°Ð²": 4094,
      "ëĲĺ": 4095,
      "missing": 4096,
      "ulam": 4097,
      "apter": 4098,
      "arios": 4099,
      "ĠÐ¸Ð·": 4100,
      "Ġentr": 4101,
      "Ġcomponents": 4102,
      "ĠÐĶ": 4103,
      "Ġunder": 4104,
      "Ġì²": 4105,
      "ÑĤÐµÐ»ÑĮ": 4106,
      "ãĥĹãĥŃ": 4107,
      "Ġ9": 4108,
      "ermin": 4109,
      "Common": 4110,
      "Ġcompat": 4111,
      "rough": 4112,
      "omb": 4113,
      "ĠPued": 4114,
      "Ġprue": 4115,
      "ION": 4116,
      "Ġì§": 4117,
      "Ġpropor": 4118,
      "eq": 4119,
      "¼ı": 4120,
      "Ġmy": 4121,
      "å®ī": 4122,
      "aveg": 4123,
      "Ġformular": 4124,
      ")ãĢĤ": 4125,
      "`</": 4126,
      "package": 4127,
      "Ġ`--": 4128,
      "Ġusa": 4129,
      "ĠÐ·Ð°Ð²": 4130,
      "help": 4131,
      "Ð°Ñİ": 4132,
      "Ġkeys": 4133,
      "ookie": 4134,
      "Ġmemory": 4135,
      "deploy": 4136,
      "rior": 4137,
      "ĠIndex": 4138,
      "ìļ°": 4139,
      "Ð°Ð»Ð¸": 4140,
      "å°±": 4141,
      "ç«¯": 4142,
      "Hash": 4143,
      "gre": 4144,
      "Ġwithin": 4145,
      "dataset": 4146,
      "errors": 4147,
      "å·¥": 4148,
      "æĥħ": 4149,
      "Ġproporcion": 4150,
      "½Ķ": 4151,
      "éĹ": 4152,
      "Ġauf": 4153,
      "Ġmark": 4154,
      "ĠUnion": 4155,
      "26": 4156,
      "ĠÐ¿Ð¾Ð»": 4157,
      "ê²½": 4158,
      "Ġmar": 4159,
      "Ġenv": 4160,
      "ĠâĶľ": 4161,
      "Ġë§¤": 4162,
      "toc": 4163,
      "ÑĬ": 4164,
      "dec": 4165,
      "iciÃ³n": 4166,
      "ĠÐĴÐ¸": 4167,
      "ÑĤÐ¾ÑĢÑĭ": 4168,
      "iod": 4169,
      "ĠÑĢÐ°Ð·": 4170,
      "Ġpd": 4171,
      "ãĤĵ": 4172,
      "Ġadded": 4173,
      "auto": 4174,
      "ìĻĢ": 4175,
      "Wallet": 4176,
      "ç±»": 4177,
      "Ħ¶": 4178,
      "ìĦ¸": 4179,
      "Ġitems": 4180,
      "Ġdoesn": 4181,
      "defer": 4182,
      "åĨħ": 4183,
      "ĠìĹ¬": 4184,
      "*,": 4185,
      "As": 4186,
      "mask": 4187,
      "espan": 4188,
      "Ġmuch": 4189,
      "Ġinv": 4190,
      "ONF": 4191,
      "Output": 4192,
      "ĠÐ¿Ð¾ÑĤ": 4193,
      "format": 4194,
      "åħ¨": 4195,
      "AccessExpression": 4196,
      "Ġfill": 4197,
      "Ġnicht": 4198,
      "LA": 4199,
      "SQL": 4200,
      "dition": 4201,
      "ving": 4202,
      "ĠÐĲ": 4203,
      "Static": 4204,
      "ĠInst": 4205,
      "Builder": 4206,
      "ìħĺ": 4207,
      "Ġcert": 4208,
      "Ġelif": 4209,
      "using": 4210,
      "aba": 4211,
      "APIRouter": 4212,
      "åıª": 4213,
      "actor": 4214,
      "ĠGener": 4215,
      "æĸĻ": 4216,
      "ãĥķãĤ": 4217,
      "Ġpad": 4218,
      "ĠmÃ©tod": 4219,
      "Ġinline": 4220,
      "ÑĢÐ¾Ð²": 4221,
      "Ġmean": 4222,
      "ÑĢÐ°Ð±Ð¾ÑĤ": 4223,
      "ĠPuedes": 4224,
      "Global": 4225,
      "Ġ[{\"": 4226,
      "Ġdescription": 4227,
      "ilerOptions": 4228,
      "çłģ": 4229,
      "Ġuses": 4230,
      "larak": 4231,
      "Ġplus": 4232,
      "memory": 4233,
      "=[": 4234,
      "Signatures": 4235,
      "ĠÐĺ": 4236,
      "Ġoptimizer": 4237,
      "æĪĸ": 4238,
      "Ġtermin": 4239,
      "29": 4240,
      "ĠÑģÐµÑĢ": 4241,
      "Ġlogging": 4242,
      "Ġvez": 4243,
      "åıĥæķ¸": 4244,
      "ĠâĶľâĶĢâĶĢ": 4245,
      "off": 4246,
      "ye": 4247,
      "ĠrÃ©": 4248,
      "lete": 4249,
      "number": 4250,
      "zer": 4251,
      "Ġsample": 4252,
      "Ġlinks": 4253,
      "Load": 4254,
      "Ġdentro": 4255,
      "Ð²Ð¾ÑĢ": 4256,
      "Ġservid": 4257,
      "ìĸ¸": 4258,
      "Ġwarning": 4259,
      "ĠAb": 4260,
      "Ġchanges": 4261,
      "incip": 4262,
      "36": 4263,
      "Ġscal": 4264,
      "Ġstill": 4265,
      "ynchron": 4266,
      "Ġimage": 4267,
      "åĽł": 4268,
      "Number": 4269,
      "hÃ¤": 4270,
      "leg": 4271,
      "ÑĢÐ¾Ð±": 4272,
      "ÑģÐ»Ð¸": 4273,
      "Ġthread": 4274,
      "ĠIh": 4275,
      "Ġëĭ¤ìĿĮ": 4276,
      "æĮģ": 4277,
      "Ġsur": 4278,
      "Ġwie": 4279,
      "tools": 4280,
      "Control": 4281,
      "ĠÂ»": 4282,
      "çŃī": 4283,
      "ãģĪ": 4284,
      "Ġmes": 4285,
      "Ġë¬¸": 4286,
      "ĠÐºÐ»": 4287,
      "Ġlink": 4288,
      ">)": 4289,
      "End": 4290,
      "service": 4291,
      "cookie": 4292,
      "workers": 4293,
      "âĶĢâĶĢâĶĢâĶĢâĶĢâĶĢâĶĢâĶĢ": 4294,
      "Names": 4295,
      "ĠIter": 4296,
      "Ġinstanti": 4297,
      "features": 4298,
      "Ġlength": 4299,
      "inline": 4300,
      "Ġher": 4301,
      "lik": 4302,
      "warded": 4303,
      "signature": 4304,
      "Ġwer": 4305,
      "ugar": 4306,
      "Ġê²½": 4307,
      "Ġselector": 4308,
      "sg": 4309,
      "ze": 4310,
      "Ġolarak": 4311,
      "Ġrec": 4312,
      "email": 4313,
      "Ð°Ð¶": 4314,
      "Ġarguments": 4315,
      "ĠWor": 4316,
      "ĠÐ½Ð°Ð¿": 4317,
      "åĩº": 4318,
      "ktion": 4319,
      "èĢĮ": 4320,
      "axolotl": 4321,
      "Manager": 4322,
      "iqu": 4323,
      "Ġscope": 4324,
      "Provider": 4325,
      "è¡¨": 4326,
      "Ġpodr": 4327,
      "factory": 4328,
      "rust": 4329,
      "ı¬": 4330,
      "ival": 4331,
      "testclient": 4332,
      "Ġoperations": 4333,
      "æĹ¶": 4334,
      "Sh": 4335,
      "hn": 4336,
      "ãģ©": 4337,
      "ÐºÐ¾Ð²": 4338,
      "paths": 4339,
      "Ġlimit": 4340,
      "ĠaddReply": 4341,
      "Tuple": 4342,
      "oin": 4343,
      "Ġyield": 4344,
      "íķĺê³ł": 4345,
      "rows": 4346,
      "ĠStart": 4347,
      "Ġcontains": 4348,
      "Al": 4349,
      "Ġconstru": 4350,
      "ĠRun": 4351,
      "ÑĩÐ¸": 4352,
      "Ġbytes": 4353,
      "åĤ": 4354,
      "æ¯": 4355,
      "Ġequ": 4356,
      "mozilla": 4357,
      "ãĥ¼ãĤ·ãĥ§ãĥ³": 4358,
      "ĠProperty": 4359,
      "Ġmissing": 4360,
      "PO": 4361,
      "ĠWindows": 4362,
      "Ġesta": 4363,
      "æľĢ": 4364,
      "å½": 4365,
      "éĻ": 4366,
      "ĠÐ¶": 4367,
      "Ġoptim": 4368,
      "å®Ł": 4369,
      "links": 4370,
      "ĠTypeScript": 4371,
      "istrib": 4372,
      "ina": 4373,
      "Ġtuple": 4374,
      "Ġcambi": 4375,
      "access": 4376,
      "Debug": 4377,
      "pedType": 4378,
      "Ġmais": 4379,
      "çĽ´æİ¥": 4380,
      "Ġå¦Ĥæŀľ": 4381,
      "ONFIG": 4382,
      "Ġflow": 4383,
      "oci": 4384,
      "Ġcomment": 4385,
      "ually": 4386,
      "Ġtipos": 4387,
      "Ġautomatically": 4388,
      "Diagnostic": 4389,
      "lis": 4390,
      "izaciÃ³n": 4391,
      "ĠÐ¿Ð¾Ð²": 4392,
      "Ġdesar": 4393,
      "Ġprincip": 4394,
      "ç¨ĭå¼ı": 4395,
      "Ġtiem": 4396,
      "roll": 4397,
      "Ð¾Ð·Ð´": 4398,
      "decoration": 4399,
      "ĠDebug": 4400,
      "PE": 4401,
      "ctions": 4402,
      "avig": 4403,
      "ìłķ": 4404,
      "idden": 4405,
      "ĠÑĦÐ°Ð¹": 4406,
      "ĠconfiguraciÃ³n": 4407,
      ")`": 4408,
      "Ġinternal": 4409,
      "lied": 4410,
      "Ġqui": 4411,
      "Ġ'./": 4412,
      "Ġrequests": 4413,
      "typescript": 4414,
      "Ġduring": 4415,
      "Rest": 4416,
      "unique": 4417,
      "Ð»Ð¾Ð¶": 4418,
      "ãĥ©ãĥ¡": 4419,
      "ãĥ©ãĥ¡ãĥ¼ãĤ¿": 4420,
      "28": 4421,
      "gress": 4422,
      "ĠLas": 4423,
      "Ġnecesit": 4424,
      "°ìĿ´íĦ°": 4425,
      "essages": 4426,
      "Ð»ÑıÑħ": 4427,
      "ÑĪÐ¸": 4428,
      "ê°ľ": 4429,
      "-------": 4430,
      "secret": 4431,
      "ĠÐ³": 4432,
      "ÑĤÑĥ": 4433,
      "Ä±k": 4434,
      "Ġfunctions": 4435,
      "íķĺê¸°": 4436,
      "åŃĹ": 4437,
      "Local": 4438,
      "acts": 4439,
      "Ġcannot": 4440,
      "Ġattributes": 4441,
      "ãģĮãģĤ": 4442,
      "false": 4443,
      "ivas": 4444,
      "Ġproy": 4445,
      "Ġproperties": 4446,
      "Ġ${": 4447,
      "scal": 4448,
      "Ġdeprecated": 4449,
      "execut": 4450,
      "ensor": 4451,
      "Ġschematic": 4452,
      "æıĲä¾Ľ": 4453,
      "Ã¢met": 4454,
      ")\"": 4455,
      "Create": 4456,
      "np": 4457,
      "session": 4458,
      "Ġswitch": 4459,
      "ĠString": 4460,
      "Red": 4461,
      "case": 4462,
      "ĺë¦¬": 4463,
      "Ġinfer": 4464,
      "imple": 4465,
      "Ġthose": 4466,
      "Ġannot": 4467,
      "ãĥĩãĥ¼ãĤ¿": 4468,
      ">:": 4469,
      "çĻ": 4470,
      "ÐµÐ²": 4471,
      "Ġdefine": 4472,
      "Ġbetween": 4473,
      "Ġdetails": 4474,
      "ãĤ±": 4475,
      "Ġenum": 4476,
      "ìłľ": 4477,
      "ãĥ¼ãĥ«": 4478,
      "ãĥĳãĥ©ãĥ¡ãĥ¼ãĤ¿": 4479,
      "CE": 4480,
      "ever": 4481,
      "Ġscript": 4482,
      "Ġvir": 4483,
      "ĠNaN": 4484,
      "ityName": 4485,
      "å°Ĩ": 4486,
      "ditional": 4487,
      "multiple": 4488,
      "Ġng": 4489,
      "Ġlugar": 4490,
      "docker": 4491,
      "Ġvalores": 4492,
      "ĠespecÃŃf": 4493,
      "ĠÐ¸ÑģÐ¿Ð¾Ð»ÑĮÐ·Ð¾Ð²Ð°ÑĤÑĮ": 4494,
      "ç§": 4495,
      "Ã©m": 4496,
      "ĠOption": 4497,
      "Ġcreated": 4498,
      "solid": 4499,
      "ĠTrans": 4500,
      "mode": 4501,
      "ķĮ": 4502,
      "Ġnaveg": 4503,
      "LiteralType": 4504,
      "Ġfound": 4505,
      "ĠPr": 4506,
      "Ġbeing": 4507,
      "Constructor": 4508,
      "ĠinformaciÃ³n": 4509,
      "Foo": 4510,
      "yg": 4511,
      "Ġcr": 4512,
      "Ġins": 4513,
      "Ġwrit": 4514,
      "ides": 4515,
      "iver": 4516,
      "Ġcomme": 4517,
      "ulta": 4518,
      "ĠÐ¿Ð¾Ð´": 4519,
      "Ġbased": 4520,
      "ĠparamÃ¨": 4521,
      "ĠDo": 4522,
      "ĠJsx": 4523,
      "Ġcases": 4524,
      "ãĤ¤ãĥ³": 4525,
      "Ġben": 4526,
      "applications": 4527,
      "ellen": 4528,
      "prev": 4529,
      "ORS": 4530,
      "tion": 4531,
      "hed": 4532,
      "Decorator": 4533,
      "mek": 4534,
      "declarations": 4535,
      "Specifier": 4536,
      "ĠModifier": 4537,
      "arm": 4538,
      "ural": 4539,
      "Ġiss": 4540,
      "ĠÐ±Ñĭ": 4541,
      "Ġcomponentes": 4542,
      "Ġwerden": 4543,
      "50": 4544,
      "`-": 4545,
      "ailed": 4546,
      "save": 4547,
      "Ġbinding": 4548,
      "TypeArguments": 4549,
      "ÑģÑĤÐ°Ð½": 4550,
      "proj": 4551,
      "Member": 4552,
      "ĠÃ§alÄ±": 4553,
      "Ġbuffer": 4554,
      "Ġbehavior": 4555,
      "order": 4556,
      "Ġ{\\": 4557,
      "Ġlearning": 4558,
      "åħ·": 4559,
      "Ð½Ð¾ÑģÑĤ": 4560,
      "Ġì²ĺë¦¬": 4561,
      "21": 4562,
      "Ġfilter": 4563,
      "Ġmost": 4564,
      "Ġya": 4565,
      "Ġalways": 4566,
      "ĠOk": 4567,
      "Ġexcept": 4568,
      "æķ°æį®": 4569,
      "Dot": 4570,
      "éĥ½": 4571,
      "Ġpero": 4572,
      "Ġsave": 4573,
      "Ġ*,": 4574,
      "Ġemb": 4575,
      "Ġvs": 4576,
      "ÑĸÐ±": 4577,
      "Ä±ÄŁ": 4578,
      "Ġgre": 4579,
      "soft": 4580,
      "Constraint": 4581,
      "ĠĠĠĠĠĠĠĠĠĠĠĠĠĠ": 4582,
      "Ġmismo": 4583,
      "ĠìĺĪ": 4584,
      "escaped": 4585,
      "Ġtiempo": 4586,
      "ĠÐ¿ÑĸÐ´": 4587,
      "Ġcaso": 4588,
      "std": 4589,
      "External": 4590,
      "__.": 4591,
      "Ð½Ð¸Ð¹": 4592,
      "Ġpublic": 4593,
      "100": 4594,
      "gt": 4595,
      "}}": 4596,
      "uture": 4597,
      "Ġevery": 4598,
      "Ġna": 4599,
      "ãĤ»": 4600,
      "Ġëĵ": 4601,
      "ĠEsto": 4602,
      "ãĥĹãĥª": 4603,
      "Option": 4604,
      "nested": 4605,
      "print": 4606,
      "HTTPException": 4607,
      "abilirsiniz": 4608,
      "aÃ§Ãµes": 4609,
      "Group": 4610,
      "WT": 4611,
      "ç´": 4612,
      "ĠCode": 4613,
      "asets": 4614,
      "å¾Ĺ": 4615,
      "duct": 4616,
      "arts": 4617,
      "Ġbrowser": 4618,
      "ãĤµ": 4619,
      "ãĥĲ": 4620,
      "ived": 4621,
      "ency": 4622,
      "\"\"\"": 4623,
      "OfType": 4624,
      "æĸ¼": 4625,
      "Ġhandle": 4626,
      "Ġguide": 4627,
      "Version": 4628,
      "uv": 4629,
      "eren": 4630,
      "Ġinic": 4631,
      "ÑģÐ¸": 4632,
      "Ð¿ÑĢ": 4633,
      "Ġbind": 4634,
      "ĠSource": 4635,
      "Ġsequence": 4636,
      "ĠFile": 4637,
      "ĠVocÃª": 4638,
      "Ġcheckpoint": 4639,
      "è¨Ģ": 4640,
      "Ġê°Ļ": 4641,
      "Ġnombre": 4642,
      "ì¡": 4643,
      "ilir": 4644,
      "cls": 4645,
      "thread": 4646,
      "Inject": 4647,
      "ĠEnt": 4648,
      "ĠÐ¾Ð±ÑĬ": 4649,
      "åĳĬ": 4650,
      "hook": 4651,
      "Ġsystem": 4652,
      "Ġgib": 4653,
      "mak": 4654,
      "Ġlogger": 4655,
      "Ġíķ¨": 4656,
      "websocket": 4657,
      "Ġë³´": 4658,
      "Ġsistema": 4659,
      "If": 4660,
      "Ġpage": 4661,
      "clus": 4662,
      "Ã¡n": 4663,
      "Ãªme": 4664,
      "ìłģ": 4665,
      "addr": 4666,
      "App": 4667,
      "Write": 4668,
      "mes": 4669,
      "names": 4670,
      "xolotl": 4671,
      "Ġ(\"": 4672,
      "ãĥ¢": 4673,
      "Ġparte": 4674,
      "004": 4675,
      "ĠParameter": 4676,
      "Ġ----------": 4677,
      "ategy": 4678,
      "Ġtyping": 4679,
      "pip": 4680,
      "Ġcb": 4681,
      "Ġwhether": 4682,
      "ulation": 4683,
      "ĠÑģÐ°Ð¼": 4684,
      "uff": 4685,
      "details": 4686,
      "è³ĩæĸĻ": 4687,
      "OK": 4688,
      "Table": 4689,
      "Tree": 4690,
      "ĠìķĬ": 4691,
      "Files": 4692,
      "åĴĮ": 4693,
      "ilt": 4694,
      "ries": 4695,
      "Decor": 4696,
      "crib": 4697,
      "Ãªnc": 4698,
      "bool": 4699,
      "');": 4700,
      "nÃ©es": 4701,
      "device": 4702,
      "ident": 4703,
      "ignore": 4704,
      "Ġmethods": 4705,
      "venv": 4706,
      "Ġcualquier": 4707,
      "DB": 4708,
      "mail": 4709,
      "åĲį": 4710,
      "åĲİ": 4711,
      "Format": 4712,
      "Private": 4713,
      "Ġplantilla": 4714,
      "38": 4715,
      "void": 4716,
      "ars": 4717,
      "okies": 4718,
      "Ġinputs": 4719,
      "ĠJavaScript": 4720,
      "anyOf": 4721,
      "æĿ¥": 4722,
      "UT": 4723,
      "Volume": 4724,
      "burgers": 4725,
      "signal": 4726,
      "uciÃ³n": 4727,
      "Ġfaz": 4728,
      "Ġadic": 4729,
      "Ġshow": 4730,
      "tokens": 4731,
      "Ġsupported": 4732,
      "events": 4733,
      "prefix": 4734,
      "su": 4735,
      "atis": 4736,
      "ices": 4737,
      "ĠSwagger": 4738,
      "Ġarg": 4739,
      "Ġpreview": 4740,
      "ĠNodeArray": 4741,
      "ĠParameters": 4742,
      "Ġpydantic": 4743,
      "Namespace": 4744,
      "ìĪĺ": 4745,
      "Ġintegr": 4746,
      "Ġoc": 4747,
      "ilen": 4748,
      "Ġthrough": 4749,
      "Ġstandard": 4750,
      "ÑģÑĤÐ¾Ñģ": 4751,
      "Ġbuilder": 4752,
      "ç¢¼": 4753,
      "Ð¾Ñĩ": 4754,
      "ĠSh": 4755,
      "AL": 4756,
      "Ng": 4757,
      "fg": 4758,
      "pod": 4759,
      "sv": 4760,
      "Ġ);": 4761,
      "ĠAut": 4762,
      "strong": 4763,
      "Prop": 4764,
      "Ð½ÑĭÐ¹": 4765,
      "Ġpresent": 4766,
      "ĠìľĦ": 4767,
      "ĠÑĪÐ»ÑıÑħ": 4768,
      "aclasses": 4769,
      "endet": 4770,
      "ycle": 4771,
      "dem": 4772,
      "orization": 4773,
      "Int": 4774,
      "ower": 4775,
      "ä¿¡": 4776,
      "ighlight": 4777,
      "95": 4778,
      "Ġrouter": 4779,
      "Ġcam": 4780,
      "unic": 4781,
      "Ġeither": 4782,
      "Ð½Ð¸Ð¼": 4783,
      "ĠTLS": 4784,
      "ĠIdentifier": 4785,
      "Ġarch": 4786,
      "Parent": 4787,
      "dentials": 4788,
      "Ent": 4789,
      "Ð¾ÑĢÐ¼": 4790,
      "ÐºÐ»ÑİÑĩ": 4791,
      "è·¯å¾Ħ": 4792,
      "Oper": 4793,
      "PAT": 4794,
      "RO": 4795,
      "Ġfail": 4796,
      "Ġsepar": 4797,
      "undle": 4798,
      "åĥ": 4799,
      "ãģ°": 4800,
      "assert": 4801,
      "stract": 4802,
      "ĠÑħ": 4803,
      "ametr": 4804,
      "akes": 4805,
      "å¤ĸ": 4806,
      "ĠÐ°Ð²": 4807,
      "ense": 4808,
      "etwork": 4809,
      "expr": 4810,
      "exception": 4811,
      "encoder": 4812,
      "æĸĩä»¶": 4813,
      "Ġsignific": 4814,
      "ĠValueError": 4815,
      "'re": 4816,
      "va": 4817,
      "une": 4818,
      "Ð½Ðµ": 4819,
      "ĠìĿĺ": 4820,
      "ogle": 4821,
      "ĠÐ±ÑĥÐ´ÐµÑĤ": 4822,
      "Ġsds": 4823,
      "etch": 4824,
      "unto": 4825,
      "Ġinside": 4826,
      "ĠDaten": 4827,
      "Ġ'@": 4828,
      "ĠGitHub": 4829,
      "graph": 4830,
      "æŃ£": 4831,
      "erram": 4832,
      "Ġservidor": 4833,
      "06": 4834,
      "loss": 4835,
      "Ġnodes": 4836,
      "ãĤĭå": 4837,
      "Ð¾Ð±Ñĭ": 4838,
      "join": 4839,
      "ĠìĦ¤": 4840,
      "kle": 4841,
      "éļ": 4842,
      "Ġdefined": 4843,
      "Ġalt": 4844,
      "ë³ĢìĪĺ": 4845,
      "ë¶Ģ": 4846,
      "Ġown": 4847,
      "ĠÑĦÐ°Ð¹Ð»": 4848,
      "View": 4849,
      "ĠforEach": 4850,
      "comment": 4851,
      "Ġdesde": 4852,
      "ĠíĶĦ": 4853,
      "Ġdirective": 4854,
      "wendung": 4855,
      "ãĤŃãĥ¥": 4856,
      ".\"": 4857,
      "AI": 4858,
      "Null": 4859,
      "holder": 4860,
      "Ġìļ": 4861,
      "ĠparÃ¢met": 4862,
      "ĠÐ±ÐµÐ·": 4863,
      "install": 4864,
      "Ð¾Ð¿ÐµÑĢ": 4865,
      "ç®": 4866,
      "statement": 4867,
      "Ġsup": 4868,
      "ute": 4869,
      "ĠAPIs": 4870,
      "PropertyName": 4871,
      "Ġprefix": 4872,
      "oding": 4873,
      "Ġstream": 4874,
      "ä¾Ŀèµ": 4875,
      "ĠíĮĮ": 4876,
      "ä¾Ŀèµĸ": 4877,
      "Ġ()": 4878,
      "embed": 4879,
      "Initial": 4880,
      "ĠAnd": 4881,
      "Ġæ¨": 4882,
      "Ġdirectory": 4883,
      "reference": 4884,
      "Scope": 4885,
      "iÄŁ": 4886,
      "lask": 4887,
      "æŁ¥": 4888,
      "Ġexp": 4889,
      "ector": 4890,
      "ternat": 4891,
      "ĠLin": 4892,
      "ĠBy": 4893,
      "JSONResponse": 4894,
      "Ġagain": 4895,
      "ãĤ¢ãĥĹãĥª": 4896,
      "Ġtodos": 4897,
      "Security": 4898,
      "tal": 4899,
      "íħ": 4900,
      "ä¸İ": 4901,
      "ĠHand": 4902,
      "ê°ľë³ĢìĪĺ": 4903,
      "çŁ¥": 4904,
      "ĠÐ¹": 4905,
      "iss": 4906,
      "å¾Į": 4907,
      "Ġpython": 4908,
      "Ġexisting": 4909,
      "Intersection": 4910,
      "velopment": 4911,
      "NAME": 4912,
      "201": 4913,
      "ĠDis": 4914,
      "keit": 4915,
      "Ġ20": 4916,
      "æľį": 4917,
      "ç¨ĭ": 4918,
      "Bearer": 4919,
      "ran": 4920,
      "table": 4921,
      "}\"": 4922,
      "ĠÐ´Ð¾": 4923,
      "Ġtests": 4924,
      "Ġtraining": 4925,
      "è·¯å¾ĳ": 4926,
      "åĮħåĲ«": 4927,
      "cast": 4928,
      "watch": 4929,
      "Ġele": 4930,
      "Ġbest": 4931,
      "ively": 4932,
      "parametr": 4933,
      "close": 4934,
      "æ¡Ī": 4935,
      "Ġfonction": 4936,
      "Ed": 4937,
      "iendo": 4938,
      "Ġìĸ": 4939,
      "ĠFunction": 4940,
      "ĠæĪ": 4941,
      "Ġæĸ": 4942,
      "disabled": 4943,
      "Ġschema": 4944,
      "hello": 4945,
      "Ġkeep": 4946,
      "ĠCPU": 4947,
      "Ġapr": 4948,
      "Ġ./": 4949,
      "Ġfeatures": 4950,
      "Ġpersonaliz": 4951,
      "åĤ³": 4952,
      "pop": 4953,
      "Ġcompar": 4954,
      "Ġloop": 4955,
      "Ġlibrary": 4956,
      "Ġë§¤ê°ľë³ĢìĪĺ": 4957,
      "ë¯": 4958,
      "Ġsal": 4959,
      "Ġprom": 4960,
      "çĶ±": 4961,
      "å¤§": 4962,
      "ygulam": 4963,
      "/\")": 4964,
      "Dir": 4965,
      "«ĭ": 4966,
      "Ġãģ«": 4967,
      "ÑĢÐ¾Ñģ": 4968,
      "Ġexemplo": 4969,
      "Ð¸Ð¼Ð¾ÑģÑĤ": 4970,
      "íĻĺ": 4971,
      "æĬĬ": 4972,
      "ĥĢ": 4973,
      "ĠtanÄ±": 4974,
      "ÑĸÑĢ": 4975,
      "ä¸Ķ": 4976,
      "abilit": 4977,
      "Ġsiguiente": 4978,
      "fÃ¼": 4979,
      "standard": 4980,
      "Ġscopes": 4981,
      "Ġdete": 4982,
      "Ġiny": 4983,
      "ĠëķĮ": 4984,
      "Undefined": 4985,
      "éĢģ": 4986,
      "Ġusername": 4987,
      "Ġsimilar": 4988,
      "ĠÐ¸ÑģÐ¿Ð¾Ð»ÑĮÐ·Ñĥ": 4989,
      "parametrize": 4990,
      "${": 4991,
      "Diagnostics": 4992,
      "OS": 4993,
      "å¥": 4994,
      "005": 4995,
      "ientes": 4996,
      "move": 4997,
      "Ġspecial": 4998,
      "Ġfeature": 4999,
      "ian": 5000,
      "Ġconf": 5001,
      "ĠCustom": 5002,
      "Ã©e": 5003,
      "idades": 5004,
      "Ġmeans": 5005,
      "æĥ³": 5006,
      "Ġìĭ¤": 5007,
      "Ġëį°ìĿ´íĦ°": 5008,
      "filter": 5009,
      "arry": 5010,
      "Ġplace": 5011,
      "aces": 5012,
      "ĠCloud": 5013,
      "attention": 5014,
      "Ġentrada": 5015,
      "§ĭ": 5016,
      "rec": 5017,
      "Ġdecorator": 5018,
      "rompt": 5019,
      "Ġstartup": 5020,
      "åģ": 5021,
      "asy": 5022,
      "ĠÐ£": 5023,
      "imiento": 5024,
      "Ġliteral": 5025,
      "Ġrq": 5026,
      "Ġestado": 5027,
      "Ġelementos": 5028,
      "ãĤĪãģĨãģ«": 5029,
      "svg": 5030,
      "Next": 5031,
      "UN": 5032,
      "alloc": 5033,
      "requ": 5034,
      "ump": 5035,
      "ĠClient": 5036,
      "verse": 5037,
      "virtual": 5038,
      "Resolved": 5039,
      "33": 5040,
      "Ġrelat": 5041,
      "ãĤ·": 5042,
      "ĠÐ²ÐµÑĢ": 5043,
      "Ġtrack": 5044,
      "Predicate": 5045,
      "Ac": 5046,
      "ÑĤÐµÑĢ": 5047,
      "Ġwarn": 5048,
      "ison": 5049,
      "ificar": 5050,
      "undo": 5051,
      "material": 5052,
      "ç¯": 5053,
      "Ġour": 5054,
      "iment": 5055,
      "Ġexamples": 5056,
      "Ġnever": 5057,
      "åĮĸ": 5058,
      "íĸī": 5059,
      "85": 5060,
      "µ¬": 5061,
      "ĠResult": 5062,
      "uring": 5063,
      "Ġwallet": 5064,
      "åıĳ": 5065,
      "Stream": 5066,
      "Ä±nda": 5067,
      "Root": 5068,
      "allable": 5069,
      "Ġeven": 5070,
      "oment": 5071,
      "ĠSo": 5072,
      "Ġcontaining": 5073,
      "æ¬¡": 5074,
      "Fe": 5075,
      "shell": 5076,
      "ĠÐ¿ÑĥÑĤÐ¸": 5077,
      "Ġìłķ": 5078,
      "ĠÐ·Ð°Ð¿Ñĥ": 5079,
      "Ġclase": 5080,
      "!--": 5081,
      "Over": 5082,
      "match": 5083,
      "ĠÐļ": 5084,
      "Ġhay": 5085,
      "Ð¿Ð¾Ð²": 5086,
      "Valid": 5087,
      "ë¥¸": 5088,
      "INFO": 5089,
      "Ġneeds": 5090,
      "ĠcÃ³mo": 5091,
      "Ġusuario": 5092,
      "Ġensure": 5093,
      "07": 5094,
      "cus": 5095,
      "Ġrecurs": 5096,
      "Ġobjects": 5097,
      "handler": 5098,
      "ãģĭãĤī": 5099,
      "åł´åĲĪ": 5100,
      "[_": 5101,
      "¢«": 5102,
      "è½": 5103,
      "Ġsession": 5104,
      "idx": 5105,
      "plete": 5106,
      "è¯·": 5107,
      "ĠÐ¿ÐµÑĢÐµÐ´": 5108,
      "ë¶Ħ": 5109,
      "script": 5110,
      "ĠTe": 5111,
      "Ġzur": 5112,
      "åħ¶ä»ĸ": 5113,
      "OAuth": 5114,
      "ics": 5115,
      "ĠÐ¸Ð½": 5116,
      "ndo": 5117,
      "Iterator": 5118,
      "éĿŀ": 5119,
      "Ġlocation": 5120,
      "snapshot": 5121,
      "ãĤĦ": 5122,
      "Ġyap": 5123,
      "âĢĲ": 5124,
      "anÄ±z": 5125,
      "Ġsplit": 5126,
      "Ġdados": 5127,
      "ĠASGI": 5128,
      "ĠField": 5129,
      "Ġstrict": 5130,
      "Ġshape": 5131,
      "Ġmane": 5132,
      "Ġeinen": 5133,
      "Ġagreg": 5134,
      "erve": 5135,
      "ĠBut": 5136,
      "Ġmodels": 5137,
      "bove": 5138,
      "crement": 5139,
      "Ġgram": 5140,
      "æ³¨": 5141,
      "ÑģÑĤÐ°Ð½Ð¾Ð²": 5142,
      "è¼": 5143,
      "éĤ": 5144,
      "ito": 5145,
      "laciÃ³n": 5146,
      "Ġ<!--": 5147,
      "Ġì¶": 5148,
      "ĠgÃ¶": 5149,
      "Ġ!(": 5150,
      "Ġalgor": 5151,
      "ĠÑĪÐ»ÑıÑħÑĥ": 5152,
      "ki": 5153,
      "Ġdrop": 5154,
      "imes": 5155,
      "ersistent": 5156,
      "ĠasÃŃ": 5157,
      "Ġart": 5158,
      "redoc": 5159,
      "Ġframework": 5160,
      "ãĤ°": 5161,
      "ÑıÐ²": 5162,
      "ãģ¾ãģĽ": 5163,
      "Docker": 5164,
      "ÐºÐ¸Ð¹": 5165,
      "Ð¸ÑģÐ¸Ð¼Ð¾ÑģÑĤ": 5166,
      "ÑĢÐ¸Ð¼ÐµÑĢ": 5167,
      "ĠWebSocket": 5168,
      "riority": 5169,
      "ãģ¾ãģĽãĤĵ": 5170,
      "Ob": 5171,
      "au": 5172,
      "æĭ": 5173,
      "acy": 5174,
      "Ġparamet": 5175,
      "Ġneeded": 5176,
      "Ġentry": 5177,
      "clients": 5178,
      "Ġdispon": 5179,
      "Ġìĭľ": 5180,
      "Facts": 5181,
      "MD": 5182,
      "split": 5183,
      "report": 5184,
      "Ġredu": 5185,
      "Resource": 5186,
      "ĠâĢĵ": 5187,
      "ĠâĢŀ": 5188,
      "Ġhacer": 5189,
      "åĥı": 5190,
      "Ġauch": 5191,
      "ĠmÃªme": 5192,
      "Ġanother": 5193,
      "ä¾ĿåŃĺ": 5194,
      "Ġprevious": 5195,
      "ç½®": 5196,
      ":`.": 5197,
      "Lab": 5198,
      "Pattern": 5199,
      "aded": 5200,
      "non": 5201,
      "none": 5202,
      "Ġmulti": 5203,
      "Ġals": 5204,
      "Ġgeneral": 5205,
      "arge": 5206,
      "ì§Ģë§Į": 5207,
      "ĠÐ·Ð°ÑģÑĤÐ¾Ñģ": 5208,
      "ĠðŁ¤ĵ": 5209,
      "75": 5210,
      "96": 5211,
      "Factory": 5212,
      "bas": 5213,
      "Ġãģ¯": 5214,
      "enter": 5215,
      "Ġvia": 5216,
      "Ġstop": 5217,
      "grad": 5218,
      "login": 5219,
      "ÑĥÐ²Ð°Ð½Ð½Ñı": 5220,
      "ĠdonnÃ©es": 5221,
      "æ¸": 5222,
      "rem": 5223,
      "Ġio": 5224,
      "libr": 5225,
      "ĠDiagnostic": 5226,
      "command": 5227,
      "Ġtrigger": 5228,
      "ìłĦ": 5229,
      "ĠÐ¿ÑĢÐ¸Ð»Ð¾Ð¶": 5230,
      "Ġotros": 5231,
      "hÃ¤ng": 5232,
      "è¢«": 5233,
      "Ð¸ÑĤÐµ": 5234,
      "emple": 5235,
      "term": 5236,
      "ĠCall": 5237,
      "Ä±y": 5238,
      "Ġusers": 5239,
      "ĠWenn": 5240,
      "Ġaddress": 5241,
      "ĠÐºÐ¾ÑĤÐ¾ÑĢÑĭ": 5242,
      "Ġobjeto": 5243,
      "LM": 5244,
      "Update": 5245,
      "cis": 5246,
      "Ġdep": 5247,
      "âĢĿ": 5248,
      "private": 5249,
      "ãģĹãģ¦ãģĦ": 5250,
      "rics": 5251,
      "losing": 5252,
      "ĠÐ¾Ð¿ÐµÑĢ": 5253,
      "boolean": 5254,
      "logger": 5255,
      "Route": 5256,
      "ç¢º": 5257,
      "ĠÃ¼ber": 5258,
      "']": 5259,
      "wallet": 5260,
      "Ġabove": 5261,
      "tras": 5262,
      "Ġwhat": 5263,
      "tocol": 5264,
      "axis": 5265,
      "yml": 5266,
      "Ġä½¿çĶ¨": 5267,
      "Ġä½łåı¯ä»¥": 5268,
      "Ġsure": 5269,
      "ĠCT": 5270,
      "Ġíģ": 5271,
      "Ġcls": 5272,
      "ëıĻ": 5273,
      "total": 5274,
      "He": 5275,
      "after": 5276,
      "invalid": 5277,
      "Ġsent": 5278,
      "Ġdem": 5279,
      "Ġrefer": 5280,
      "ango": 5281,
      "ãĢģ**": 5282,
      "Series": 5283,
      "Ġotherwise": 5284,
      "ubelet": 5285,
      "assets": 5286,
      "multipart": 5287,
      "Middleware": 5288,
      "Ġport": 5289,
      "Ġsich": 5290,
      "ÑĤÐ¾Ð±Ñĭ": 5291,
      "isp": 5292,
      "Ð½Ñĥ": 5293,
      "ĠĠĠĠĠĠĠĠĠĠĠĠĠĠĠĠĠĠĠĠĠĠĠĠĠĠĠĠĠĠĠĠĠĠĠĠĠĠĠĠĠĠĠĠĠĠĠĠ": 5294,
      "Ġapply": 5295,
      "Ð°Ð½Ð´": 5296,
      "warn": 5297,
      "insert": 5298,
      "Ġdeclarar": 5299,
      "environments": 5300,
      "94": 5301,
      "EL": 5302,
      "Ġpassword": 5303,
      "may": 5304,
      "ugins": 5305,
      "Ġutiliser": 5306,
      "cx": 5307,
      "çİ": 5308,
      "çķ": 5309,
      "Ġè¿Ļ": 5310,
      "Ĵ°": 5311,
      "Ġmiddleware": 5312,
      "anto": 5313,
      "sions": 5314,
      "Ġorg": 5315,
      "need": 5316,
      "register": 5317,
      "ëĲľ": 5318,
      "è¨Ńå®ļ": 5319,
      "ĠëıĻ": 5320,
      "xim": 5321,
      "å±": 5322,
      "esome": 5323,
      "Ġfu": 5324,
      "exp": 5325,
      "empt": 5326,
      "ĠCu": 5327,
      "Ġuso": 5328,
      "ibles": 5329,
      "curr": 5330,
      "Ġsimple": 5331,
      "ëĤĺ": 5332,
      "kl": 5333,
      "vol": 5334,
      "declar": 5335,
      "Ġfix": 5336,
      "Ġay": 5337,
      "ĠClass": 5338,
      "ista": 5339,
      "ĠExt": 5340,
      "playst": 5341,
      "playstyle": 5342,
      "requirements": 5343,
      "ĠÐŃ": 5344,
      "Ġsend": 5345,
      "ãĥĸ": 5346,
      "ÃŃs": 5347,
      "Ġutiliz": 5348,
      "Ġvalidate": 5349,
      "igration": 5350,
      "orage": 5351,
      "Ġwrap": 5352,
      "Ġlr": 5353,
      "ĠÐ¸Ð¼": 5354,
      "Ġmanera": 5355,
      "ãģĿãĤĮ": 5356,
      "ç«ĭ": 5357,
      "Run": 5358,
      "]]": 5359,
      "rodu": 5360,
      "Ġproxy": 5361,
      "Ð²ÐµÑĤ": 5362,
      "Ġruntime": 5363,
      "Ġìłľ": 5364,
      "Transaction": 5365,
      "Ġvscode": 5366,
      "Ad": 5367,
      "ym": 5368,
      "inner": 5369,
      "ĠðŁļ": 5370,
      "argv": 5371,
      "ĠProxy": 5372,
      "displaystyle": 5373,
      "Ġvariables": 5374,
      "ĠÐĴÑĭ": 5375,
      "Ġdeclare": 5376,
      "Ð°Ð¹ÑĤÐµ": 5377,
      "ĠÑīÐ¾Ð±": 5378,
      "ĠÐ¦": 5379,
      "ĠÐĨ": 5380,
      "unktion": 5381,
      "ĠUs": 5382,
      "scheduler": 5383,
      "ì¡´": 5384,
      "/`": 5385,
      "Ġintern": 5386,
      "ĠëĤ": 5387,
      "ĠÐºÐ¾Ð¼": 5388,
      "Ġcrear": 5389,
      "ĠíķĦ": 5390,
      "Ġhaben": 5391,
      ":\\": 5392,
      "ason": 5393,
      "Ġdevice": 5394,
      "Ġreq": 5395,
      "andas": 5396,
      "ĠDep": 5397,
      "Ġknow": 5398,
      "Ã¼ck": 5399,
      "ĠRE": 5400,
      "Ġĉĉĉĉĉ": 5401,
      ".,": 5402,
      "Await": 5403,
      "æº": 5404,
      "ĠéĢĻ": 5405,
      "anz": 5406,
      "Ġinit": 5407,
      "ãĥ¼ãĤ¹": 5408,
      "Ġdisplay": 5409,
      "Ð°Ð½Ð¸Ðµ": 5410,
      "Attribute": 5411,
      "Ġprovides": 5412,
      "Ġlabels": 5413,
      "78": 5414,
      "cak": 5415,
      "Ġrecom": 5416,
      "Unset": 5417,
      "ãĥ³ãĤ¹": 5418,
      "outputs": 5419,
      "ĠModifierFlags": 5420,
      "hÃ¤ngig": 5421,
      "las": 5422,
      "£°": 5423,
      "åķ": 5424,
      "peed": 5425,
      "ulk": 5426,
      "ĠÐ¿Ð¾Ð¼": 5427,
      "Ð·Ð½Ð°Ñĩ": 5428,
      "ĠdoÄŁ": 5429,
      "ĠÐ¿ÑĢÐ¾ÑģÑĤ": 5430,
      "Ġblocks": 5431,
      "LOCK": 5432,
      "Meta": 5433,
      "éĽ": 5434,
      "ocom": 5435,
      "ĠPod": 5436,
      "ãĥ¼ãĥĪ": 5437,
      "orno": 5438,
      "Ġmember": 5439,
      "\";": 5440,
      "hal": 5441,
      "zel": 5442,
      "Ġä½Ĩ": 5443,
      "Ġtree": 5444,
      "Ð°Ñı": 5445,
      "Ġexclude": 5446,
      "Ġln": 5447,
      "gua": 5448,
      "tasks": 5449,
      "30": 5450,
      "Lock": 5451,
      "small": 5452,
      "ydr": 5453,
      "correct": 5454,
      "Ġsoport": 5455,
      "allel": 5456,
      "Ġformulario": 5457,
      "All": 5458,
      "Ġau": 5459,
      "Ġbatch": 5460,
      "éĩį": 5461,
      "ĠÐ²ÑģÐµ": 5462,
      "ivalent": 5463,
      "?;": 5464,
      "Ġfr": 5465,
      "empty": 5466,
      "Ð°ÑĤÐ¸Ñĩ": 5467,
      "ãĤ³ãĥ¼ãĥī": 5468,
      "initializer": 5469,
      "cul": 5470,
      "fr": 5471,
      "iÅŁ": 5472,
      "ĠÃ¶": 5473,
      "Ġsom": 5474,
      "images": 5475,
      "iales": 5476,
      "ãĢĤðŁ": 5477,
      "Const": 5478,
      "ached": 5479,
      "ĠÐ·Ð°Ð»": 5480,
      "ĠìłĦ": 5481,
      "Back": 5482,
      "inaryExpression": 5483,
      "usage": 5484,
      "ĠAd": 5485,
      "å®Į": 5486,
      "column": 5487,
      "ãĤ¯ãĤ¨": 5488,
      "Instance": 5489,
      "£°æĺİ": 5490,
      "URL": 5491,
      "Ġfo": 5492,
      "Ġsay": 5493,
      "Ġtop": 5494,
      "ÑĸÑĹ": 5495,
      "Ġclasses": 5496,
      ")))": 5497,
      "Ġconfigure": 5498,
      "Ġproviders": 5499,
      "obj": 5500,
      "home": 5501,
      "é«": 5502,
      "Ġantes": 5503,
      "Ġexper": 5504,
      "cribe": 5505,
      "Ġestable": 5506,
      "Ġhash": 5507,
      "member": 5508,
      "æ¨¡åŀĭ": 5509,
      "æ¡£": 5510,
      "35": 5511,
      "iden": 5512,
      "Ġ|=": 5513,
      "Ġexpected": 5514,
      "Ġserve": 5515,
      "Position": 5516,
      "Ġtags": 5517,
      "ĠìĥĿ": 5518,
      "='": 5519,
      "Cookie": 5520,
      "fast": 5521,
      "Ġä½ł": 5522,
      "ids": 5523,
      "Ġgere": 5524,
      "ĠComponent": 5525,
      "retro": 5526,
      "icrosoft": 5527,
      "ĠãģĵãĤĮ": 5528,
      "Ġnamespace": 5529,
      "emo": 5530,
      "****": 5531,
      "TypeParameter": 5532,
      "ĠÐ²Ð°Ð¼": 5533,
      "Ð¾Ð»Ð¾Ð²": 5534,
      "ìĿ´ìħĺ": 5535,
      "ponsor": 5536,
      "Ãºl": 5537,
      "transform": 5538,
      "attn": 5539,
      "compat": 5540,
      "çī¹": 5541,
      "cbNode": 5542,
      "½Ķëĵľ": 5543,
      "Ġren": 5544,
      "additional": 5545,
      "Ġcomplete": 5546,
      "Ġarchivos": 5547,
      "65": 5548,
      "Effect": 5549,
      "YPE": 5550,
      "range": 5551,
      "stand": 5552,
      "ĠAt": 5553,
      "ĠëĲ": 5554,
      "Ġchar": 5555,
      "valueDeclaration": 5556,
      "ĠAlso": 5557,
      "æĮĩ": 5558,
      "ĭåĪ¥": 5559,
      "/\",": 5560,
      "Password": 5561,
      "nodes": 5562,
      "}},": 5563,
      "enabled": 5564,
      "ĠaÃ±": 5565,
      "Ġconstruct": 5566,
      "uego": 5567,
      "ĠFlask": 5568,
      "conds": 5569,
      "profile": 5570,
      "ĠWh": 5571,
      "Environment": 5572,
      "startup": 5573,
      "ãĥ¡ãĥ³ãĥĪ": 5574,
      "Ãºlti": 5575,
      "find": 5576,
      "jango": 5577,
      "¼Ģ": 5578,
      "ë¬¸": 5579,
      "aban": 5580,
      "Ġadditional": 5581,
      "Ġworks": 5582,
      "éĿ¢": 5583,
      "Ð¿Ð¾Ð²ÑĸÐ´": 5584,
      "}`": 5585,
      "ĠQ": 5586,
      "deprecated": 5587,
      "strap": 5588,
      "ĠElement": 5589,
      "Ġanter": 5590,
      "Def": 5591,
      "Ġuygulam": 5592,
      "ãģ£ãģ¦": 5593,
      "Ġproyecto": 5594,
      "Ĵ°å¢ĥ": 5595,
      "Flow": 5596,
      "MP": 5597,
      "tz": 5598,
      "çĦ¶": 5599,
      "è¾": 5600,
      "Ĥ¤": 5601,
      "oto": 5602,
      "Ġdefecto": 5603,
      "Ġserial": 5604,
      "Ð±Ð¾": 5605,
      "Ġstructure": 5606,
      "ĠApp": 5607,
      "AB": 5608,
      "ential": 5609,
      "ically": 5610,
      "Ġexpres": 5611,
      "Ð°Ñī": 5612,
      "ÑĢÐ¸ÐºÐ»Ð°Ð´": 5613,
      "ĠÃĸ": 5614,
      "Ġmayor": 5615,
      "Ġdiese": 5616,
      "ĠìĹ¬ëŁ¬": 5617,
      "ĠìļĶ": 5618,
      "IS": 5619,
      "ê·¸": 5620,
      "ĠTy": 5621,
      "els": 5622,
      "Ġexception": 5623,
      "ynÄ±": 5624,
      "åĪ¥": 5625,
      "Ð¾Ð·Ð²": 5626,
      "ĠCLIENT": 5627,
      "ìķ¼": 5628,
      "Ġë¬¸ìĦľ": 5629,
      ",\"": 5630,
      "Buf": 5631,
      "Pf": 5632,
      "rt": 5633,
      "łìĸ¸": 5634,
      "Ġcos": 5635,
      "strict": 5636,
      "ä¹ĭå": 5637,
      "ĠdÃ©pend": 5638,
      "ãĤ¯ãĥ©": 5639,
      "ä¿Ĥ": 5640,
      "Ġevalu": 5641,
      "'ll": 5642,
      "sig": 5643,
      "Ġamb": 5644,
      "Ġ`__": 5645,
      "Ġtotal": 5646,
      "about": 5647,
      "Ġexemple": 5648,
      "ÃŃst": 5649,
      "ugg": 5650,
      "ething": 5651,
      "ãģªãģĦ": 5652,
      "ĠìĦłìĸ¸": 5653,
      "Dict": 5654,
      "ambÃ©m": 5655,
      "ĠCons": 5656,
      "Ġcasos": 5657,
      "ĠÐ¶Ðµ": 5658,
      "Ġadicion": 5659,
      ">;": 5660,
      "ci": 5661,
      "Ġcpu": 5662,
      "alar": 5663,
      "Ġpop": 5664,
      "Ġsie": 5665,
      "ĠìŀĪëĬĶ": 5666,
      "ä¸įæĺ¯": 5667,
      "éĸ¢æķ°": 5668,
      "Related": 5669,
      "Harness": 5670,
      "Pipe": 5671,
      "`]:": 5672,
      "bound": 5673,
      "Ġsort": 5674,
      "Ð¹ÑĤÐµ": 5675,
      "////////////////": 5676,
      "å®£åĳĬ": 5677,
      "['": 5678,
      "eur": 5679,
      "seg": 5680,
      "Ġdiv": 5681,
      "Ġì½Ķëĵľ": 5682,
      "concepts": 5683,
      "ĠOb": 5684,
      "Ãªte": 5685,
      "é¡¹": 5686,
      "Ġimplementation": 5687,
      "ODO": 5688,
      "recap": 5689,
      "emon": 5690,
      "Ġunion": 5691,
      "Ã³du": 5692,
      "button": 5693,
      "duÄŁ": 5694,
      "Mapper": 5695,
      "[];": 5696,
      "ancia": 5697,
      "Ġpaqu": 5698,
      "efik": 5699,
      "Ġíķ¨ìĪĺ": 5700,
      "_,": 5701,
      "`),": 5702,
      "templates": 5703,
      "ĠÃ¡": 5704,
      "ĠÐľ": 5705,
      "edType": 5706,
      "Ġdown": 5707,
      "ĠPer": 5708,
      "viders": 5709,
      "ëĵł": 5710,
      "Resolution": 5711,
      "å®£è¨Ģ": 5712,
      "IL": 5713,
      "Task": 5714,
      "nb": 5715,
      "Ġstarlette": 5716,
      "Invalid": 5717,
      "servable": 5718,
      "mediate": 5719,
      "ĠLinux": 5720,
      "ban": 5721,
      "jor": 5722,
      "exit": 5723,
      "ãĤ§": 5724,
      "Ġunique": 5725,
      "Ġexplicit": 5726,
      "outer": 5727,
      "eca": 5728,
      "ÑħÐ¾Ð´": 5729,
      "Ġolu": 5730,
      "Ġincludes": 5731,
      "èĩªåĭķ": 5732,
      "localhost": 5733,
      "Links": 5734,
      "íĻĶ": 5735,
      "ĠÐ·Ð°Ð»ÐµÐ¶": 5736,
      "aml": 5737,
      "ãģĺ": 5738,
      "iser": 5739,
      "Ġnecess": 5740,
      "Ġactiv": 5741,
      "ĠìķĦ": 5742,
      "ÅŁtur": 5743,
      "åĩ½æķ°": 5744,
      "accÃ¨s": 5745,
      "Br": 5746,
      "Bind": 5747,
      "ij": 5748,
      "ones": 5749,
      "aries": 5750,
      "unt": 5751,
      "uridad": 5752,
      "Ġwere": 5753,
      "rest": 5754,
      "Ġconvert": 5755,
      "Ġoperator": 5756,
      "Attributes": 5757,
      "iki": 5758,
      "ATE": 5759,
      "Ð°ÑĨÐ¸Ñı": 5760,
      "=[\"": 5761,
      "signed": 5762,
      "Ġhide": 5763,
      "ĠHash": 5764,
      "](#": 5765,
      "ĠTypeNode": 5766,
      "ĠåĽ": 5767,
      "Ġcollection": 5768,
      "ĠìŀĲ": 5769,
      "buffer": 5770,
      "ÑĨÐ¸": 5771,
      "ãģĻãĤĭãģĵãģ¨": 5772,
      "Ġcontenido": 5773,
      "ÐµÐºÑĤ": 5774,
      "tected": 5775,
      "ì¡´ìĦ±": 5776,
      "OL": 5777,
      "Per": 5778,
      "é»": 5779,
      "Ġ-------": 5780,
      "debug": 5781,
      "ĠWith": 5782,
      "Ġprovider": 5783,
      "ãĥīãĤŃãĥ¥": 5784,
      "public": 5785,
      "unwrap": 5786,
      "Ð°ÑģÑĤ": 5787,
      "ĠNOT": 5788,
      "Ġåħ": 5789,
      "READ": 5790,
      "éĸĭ": 5791,
      "ynchronous": 5792,
      "37": 5793,
      "Ġpindex": 5794,
      "Ġflag": 5795,
      "ÑģÑĤÑĢÑĥ": 5796,
      "ĠÑĤÐ¾": 5797,
      "Ġæı": 5798,
      "Ġdirector": 5799,
      "\"])": 5800,
      "æīĢæľī": 5801,
      "cer": 5802,
      "integer": 5803,
      "Ġche": 5804,
      "ily": 5805,
      "ĠCre": 5806,
      "_{": 5807,
      "zen": 5808,
      "ĺĲ": 5809,
      "ĠÐķ": 5810,
      "ãĤ¸": 5811,
      "connection": 5812,
      "ĠRed": 5813,
      "Ġëĭ¤ë¥¸": 5814,
      "æł·": 5815,
      "Ġì¶Ķ": 5816,
      "DK": 5817,
      "Policy": 5818,
      "abe": 5819,
      "Ġ16": 5820,
      "Ġtrad": 5821,
      "Ð°Ð½Ð¸Ñħ": 5822,
      "ëį¸": 5823,
      "ĠCuando": 5824,
      "39": 5825,
      "Met": 5826,
      "uses": 5827,
      "Ġ<=": 5828,
      "ĠNe": 5829,
      "Ä±m": 5830,
      "ĠUm": 5831,
      "Ġdesc": 5832,
      "ÑĨÐµÑģ": 5833,
      "Ġ{}}},": 5834,
      "--------------------------------------------------------------------------------------------------------------------------------": 5835,
      "specific": 5836,
      "Ġê²½ìļ°": 5837,
      "Ġgrammar": 5838,
      "ãĥīãĤŃãĥ¥ãĥ¡ãĥ³ãĥĪ": 5839,
      ";\">": 5840,
      "Did": 5841,
      "[],": 5842,
      "optim": 5843,
      "ìĺ": 5844,
      "ĠQu": 5845,
      "del": 5846,
      "Ġtx": 5847,
      "ete": 5848,
      "ÐµÐ±": 5849,
      "admin": 5850,
      "Ġred": 5851,
      "Ġexce": 5852,
      "ĠHttp": 5853,
      "ualType": 5854,
      "Ġshared": 5855,
      "pload": 5856,
      "Enabled": 5857,
      "QueryParams": 5858,
      "ĠiÃ§inde": 5859,
      "Ġmapper": 5860,
      "Ġissue": 5861,
      "422": 5862,
      "fa": 5863,
      "ĶĮ": 5864,
      "Ġconstraint": 5865,
      "Ġha": 5866,
      "posed": 5867,
      "Column": 5868,
      "Ġpoint": 5869,
      "Ġdiferentes": 5870,
      "ëŀĺ": 5871,
      "Ġæĸĩ": 5872,
      "ydration": 5873,
      "clause": 5874,
      "ç¾": 5875,
      "ãģ¿": 5876,
      "Ġoder": 5877,
      "ĠTip": 5878,
      "Ġresource": 5879,
      "ÐµÑĢÐ¶": 5880,
      "adoperation": 5881,
      "Param": 5882,
      "udo": 5883,
      "ãĥ¼ãĤ¸": 5884,
      "ails": 5885,
      "Ġtasks": 5886,
      "Ġrota": 5887,
      "éĸ¢ä¿Ĥ": 5888,
      "HTML": 5889,
      "Ġtake": 5890,
      "Ġnorm": 5891,
      "Ġconstructor": 5892,
      "ĠSelf": 5893,
      "Ġesto": 5894,
      "Starlette": 5895,
      "itions": 5896,
      "Angular": 5897,
      "modules": 5898,
      "override": 5899,
      "çĶŁæĪĲ": 5900,
      "tree": 5901,
      "stellen": 5902,
      "unk": 5903,
      "Ġcondition": 5904,
      "Ġtodo": 5905,
      "**ãĢĤ": 5906,
      "clamp": 5907,
      "ĠBody": 5908,
      "ãĥĩãĥ«": 5909,
      "ĠEste": 5910,
      "Level": 5911,
      "å®Łè¡Į": 5912,
      "Fix": 5913,
      "wer": 5914,
      "inject": 5915,
      "Ġsem": 5916,
      "Ġ!!": 5917,
      "Ġsua": 5918,
      "ĠÐŃÑĤÐ¾": 5919,
      "Ġfmt": 5920,
      "Ġseu": 5921,
      "Ġstack": 5922,
      "Stack": 5923,
      "cut": 5924,
      "©Ł": 5925,
      "arrow": 5926,
      "Ġfall": 5927,
      "exist": 5928,
      "íķ¨": 5929,
      "è¿ĩ": 5930,
      "Ġ422": 5931,
      "Ġëª¨ëį¸": 5932,
      "ĠÐ¿Ð¾ÑĤÑĢ": 5933,
      "ãĥ¢ãĥĩãĥ«": 5934,
      "Ab": 5935,
      "ended": 5936,
      "ativo": 5937,
      "Ġtable": 5938,
      "ionary": 5939,
      "ÐµÐ»ÑĮ": 5940,
      "ãĤª": 5941,
      "ĠTODO": 5942,
      "Ġsection": 5943,
      "ĠgetNode": 5944,
      "oug": 5945,
      "ĠÐ¾Ð³": 5946,
      "Ġprevent": 5947,
      "puÃ©s": 5948,
      "Ġmembers": 5949,
      "Ġsignals": 5950,
      "iyon": 5951,
      "andidate": 5952,
      "Ãºltiples": 5953,
      "={": 5954,
      "SI": 5955,
      "]=\"": 5956,
      "lÄ±": 5957,
      "ÃŁ": 5958,
      "çĴ°å¢ĥ": 5959,
      "ãģ¹": 5960,
      "ÑĭÐ²": 5961,
      "scheme": 5962,
      "ĠGu": 5963,
      "Ġactive": 5964,
      "ĠAssert": 5965,
      "ispiel": 5966,
      "hÃ¤ngigkeit": 5967,
      "ns": 5968,
      "ĠÐ¯": 5969,
      "ĠÑĤÐµ": 5970,
      "Ġverw": 5971,
      "åĬ¨": 5972,
      ")):": 5973,
      "Po": 5974,
      "simple": 5975,
      "è«ĭ": 5976,
      "ĠĠĠĠĠĠĠĠĠĠĠĠĠĠĠĠĠ": 5977,
      "ĠnÃº": 5978,
      "()`,": 5979,
      "ĠWhether": 5980,
      "Ġ201": 5981,
      "Ġatribut": 5982,
      "Connection": 5983,
      "shutdown": 5984,
      "Ð¾Ð»ÑĮÐºÐ¾": 5985,
      "menu": 5986,
      "ĠBaseModel": 5987,
      "cdk": 5988,
      "Operator": 5989,
      "\").": 5990,
      "bind": 5991,
      "ilos": 5992,
      "second": 5993,
      "Ġ`'": 5994,
      "abases": 5995,
      "Ð´Ð°": 5996,
      "ĠHeader": 5997,
      "Ġuseful": 5998,
      "ĠGo": 5999,
      "Ġcookie": 6000,
      "hren": 6001,
      "ĵįåºĶ": 6002,
      "checkpointing": 6003,
      "Ġparticular": 6004,
      "ĠíĶĦë¡ľ": 6005,
      "Has": 6006,
      "Some": 6007,
      "nan": 6008,
      "Ġcri": 6009,
      "Ġdist": 6010,
      "Ġdistrib": 6011,
      "lot": 6012,
      "ĠSin": 6013,
      "Ġgen": 6014,
      "Ġese": 6015,
      "Ġ!!(": 6016,
      "ä»£çłģ": 6017,
      "ĠæıĲ": 6018,
      "(_": 6019,
      "Co": 6020,
      "Head": 6021,
      "fmt": 6022,
      "ĠtambÃ©m": 6023,
      "Ġsum": 6024,
      "unset": 6025,
      "Ġdone": 6026,
      "exper": 6027,
      "Ġenabled": 6028,
      "Ġger": 6029,
      "ĠUnd": 6030,
      "Ġassoci": 6031,
      "ìŀĳ": 6032,
      "lifespan": 6033,
      "ä¿Ŀ": 6034,
      "ÅŁtÄ±r": 6035,
      "ĠÐ²Ð¸ÐºÐ¾ÑĢÐ¸ÑģÑĤÐ¾Ð²ÑĥÐ²Ð°ÑĤÐ¸": 6036,
      "åĩ½å¼ı": 6037,
      "Ġpruebas": 6038,
      "ìĦ¸ìļĶ": 6039,
      "è·¯å¾Ħæĵįä½ľ": 6040,
      "ä¾ĿåŃĺéĸ¢ä¿Ĥ": 6041,
      "pid": 6042,
      "ord": 6043,
      "lex": 6044,
      "cho": 6045,
      "ĠPre": 6046,
      "Ġlay": 6047,
      "Ġspecify": 6048,
      "ĠÑĢÐ¾Ð·": 6049,
      "cloud": 6050,
      "Ġauthentic": 6051,
      "Ġå¦Ĥæŀľä½ł": 6052,
      "ĠìĿĺì¡´ìĦ±": 6053,
      "ç¶": 6054,
      "-----": 6055,
      "Ġmany": 6056,
      "Ġobt": 6057,
      "ĠÑĩÑĤÐ¾Ð±Ñĭ": 6058,
      "manager": 6059,
      "Ġincluding": 6060,
      "ĠÐ·Ð°Ð²Ð¸ÑģÐ¸Ð¼Ð¾ÑģÑĤ": 6061,
      "Ġìĭ¤íĸī": 6062,
      "ĳëĭ": 6063,
      "Ġextension": 6064,
      "iene": 6065,
      "çĽ®": 6066,
      "ĠìĤ¬ìļ©íķĺ": 6067,
      "ĠOnly": 6068,
      "ĠparÃ¡metro": 6069,
      "Ġìĸ´": 6070,
      "ĠìĥĿìĦ±": 6071,
      "EX": 6072,
      "Part": 6073,
      "si": 6074,
      "¤ĩ": 6075,
      "Ġdeploy": 6076,
      "Ġinvalid": 6077,
      "ĠgetSymbol": 6078,
      "ĠÐ½Ð°Ð´": 6079,
      "mean": 6080,
      "Ġprecis": 6081,
      "meta": 6082,
      "Ġcalls": 6083,
      "Interface": 6084,
      "è¯·æ±Ĥ": 6085,
      "ĠÐ·Ð°ÑģÑĤÐ¾ÑģÑĥÐ½": 6086,
      "Space": 6087,
      "ationTypes": 6088,
      "ige": 6089,
      "Ġtraba": 6090,
      "contain": 6091,
      "Ġíı¬": 6092,
      "loading": 6093,
      "Ġaccept": 6094,
      "Â».": 6095,
      "åºĶçĶ¨": 6096,
      "æĩīçĶ¨": 6097,
      "awesome": 6098,
      "Ġíģ´": 6099,
      "eval": 6100,
      "mpty": 6101,
      "alone": 6102,
      "itect": 6103,
      "Ġwell": 6104,
      "Arg": 6105,
      "ìĹ¬": 6106,
      "Ġdatasets": 6107,
      "éĥ¨åĪĨ": 6108,
      "Work": 6109,
      "Ġnuevo": 6110,
      "ĠÐ²ÑĸÐ´Ð¿Ð¾Ð²ÑĸÐ´": 6111,
      "ÑĤÐ¾Ð¼Ð°ÑĤÐ¸Ñĩ": 6112,
      "Ġmeaning": 6113,
      "asyon": 6114,
      "Act": 6115,
      "bd": 6116,
      "Ġconj": 6117,
      "Ġë²": 6118,
      "Ġrandom": 6119,
      "Ġess": 6120,
      "Ġnested": 6121,
      "Ġwait": 6122,
      "Ġ((": 6123,
      "igen": 6124,
      "ãģ«ãģ¯": 6125,
      "ĠService": 6126,
      "builder": 6127,
      "Directive": 6128,
      "Ġfsdp": 6129,
      "Ġì¶Ķê°Ģ": 6130,
      "zip": 6131,
      "inde": 6132,
      "ets": 6133,
      "urrent": 6134,
      "added": 6135,
      "ÑĸÐº": 6136,
      "Execut": 6137,
      "ãģ¨ãģĹãģ¦": 6138,
      "defaults": 6139,
      "Ġlengua": 6140,
      "ÑĦÐ¸": 6141,
      "ãĥ¬ãĤ¹": 6142,
      "deployment": 6143,
      "å·¥åħ·": 6144,
      "Pfadoperation": 6145,
      "send": 6146,
      "vit": 6147,
      "stop": 6148,
      "Ġemail": 6149,
      "Ġrelated": 6150,
      "pts": 6151,
      "ÑĸÐ·": 6152,
      "ÑıÐ·": 6153,
      "Ġtesting": 6154,
      "Ġâľ¨": 6155,
      "ĠSourceFile": 6156,
      "ĠzurÃ¼ck": 6157,
      "84": 6158,
      "VE": 6159,
      "must": 6160,
      "environment": 6161,
      "Ð¸Ð¹": 6162,
      "Ġisso": 6163,
      "ÑĸÑĤÑĮ": 6164,
      "Ġimportlib": 6165,
      "ĠThere": 6166,
      "Ġsetting": 6167,
      "Ġ??": 6168,
      "è¿Ľ": 6169,
      "Ġcalling": 6170,
      "sourceFile": 6171,
      "ĠdocumentaciÃ³n": 6172,
      "ãĥĩãĤ£": 6173,
      "ë³´": 6174,
      "'`": 6175,
      "Size": 6176,
      "`'": 6177,
      "pk": 6178,
      "stit": 6179,
      "clone": 6180,
      "ignable": 6181,
      "ĠÑĹ": 6182,
      "tsk": 6183,
      "ayÄ±": 6184,
      "ĠÐ´Ð¾Ð¿": 6185,
      "Ġchat": 6186,
      "Ġaplicaciones": 6187,
      "Ġdependencias": 6188,
      "closing": 6189,
      "Ġcomputed": 6190,
      "è©²": 6191,
      "Selector": 6192,
      "ĠÐ´Ð°Ð½Ð½ÑĭÑħ": 6193,
      "(*": 6194,
      "31": 6195,
      ":%": 6196,
      "Tx": 6197,
      "Ġdok": 6198,
      "ĠÐ¸Ð»Ð¸": 6199,
      "MappedType": 6200,
      "åĲĮçļĦ": 6201,
      "Generic": 6202,
      "æĪĳä»¬": 6203,
      "Worker": 6204,
      "pattern": 6205,
      "wiki": 6206,
      "yles": 6207,
      "rece": 6208,
      "enta": 6209,
      "Ġsyntax": 6210,
      "editor": 6211,
      "estra": 6212,
      "Ð»ÐµÐ½": 6213,
      "Ġespac": 6214,
      "Ġ202": 6215,
      "Properties": 6216,
      "ëĬ¥": 6217,
      "è¿½": 6218,
      "Assert": 6219,
      "Ð°ÑĨÑĸÑı": 6220,
      "groups": 6221,
      "Ġperformance": 6222,
      "Ġwarnings": 6223,
      "56": 6224,
      "lang": 6225,
      "Ľå»º": 6226,
      "stat": 6227,
      "Ġpol": 6228,
      "Ġsolic": 6229,
      "Ġrequire": 6230,
      "ema": 6231,
      "ÑĸÐ¼": 6232,
      "ĠOther": 6233,
      "tool": 6234,
      "ë¦¬ì": 6235,
      "ê²½ë¡ľ": 6236,
      "ãĤ±ãĥ¼ãĤ·ãĥ§ãĥ³": 6237,
      "Height": 6238,
      "optimizer": 6239,
      "Ġmac": 6240,
      "Ð¸ÑģÑĤ": 6241,
      "Ġvolume": 6242,
      "ãĥł": 6243,
      "Ġì¤": 6244,
      "ĠCreate": 6245,
      "typing": 6246,
      "Ġnous": 6247,
      "Ġstrings": 6248,
      "rypt": 6249,
      "safe": 6250,
      "éĢļå¸¸": 6251,
      "è·¯å¾ĳæĵįä½ľ": 6252,
      "ĥĢìŀħ": 6253,
      "Ġalgorit": 6254,
      "ĠoluÅŁtur": 6255,
      "bu": 6256,
      "ole": 6257,
      "ĠEt": 6258,
      "ĠEmit": 6259,
      "Ð¾Ð»Ð¸": 6260,
      "ä»¥ä¸ĭ": 6261,
      "Ġmodifiers": 6262,
      "Ð½Ð¸Ðº": 6263,
      "latest": 6264,
      "Ġtrav": 6265,
      "Ġupdated": 6266,
      "ough": 6267,
      "bigger": 6268,
      "arse": 6269,
      "Ġdiagnostic": 6270,
      "Ð½Ð¾Ð¹": 6271,
      "otstrap": 6272,
      "Ġloss": 6273,
      "ä½ĵ": 6274,
      "Ð¾Ð²Ð°": 6275,
      "æĪ·": 6276,
      "subs": 6277,
      "ĠìĤ¬ìļ©íķł": 6278,
      "ÑĦÐ¾ÑĢÐ¼": 6279,
      "Ġexecution": 6280,
      "avigation": 6281,
      "\"{": 6282,
      "gra": 6283,
      "ities": 6284,
      "Ġpipe": 6285,
      "loop": 6286,
      "ÑĥÐ¿": 6287,
      "Ġresponses": 6288,
      "raise": 6289,
      "ä½į": 6290,
      "Ġå°": 6291,
      "queue": 6292,
      "Ġverb": 6293,
      "ffic": 6294,
      "åĪĹ": 6295,
      "udio": 6296,
      "Ġíķ´": 6297,
      "Ġallowed": 6298,
      "matics": 6299,
      "Ġprincipal": 6300,
      "Ġê°ĻìĿĢ": 6301,
      "CP": 6302,
      "Match": 6303,
      "Ä°": 6304,
      "åľ": 6305,
      "æ®": 6306,
      "decorator": 6307,
      "ĠisType": 6308,
      "upload": 6309,
      "ĠLiteral": 6310,
      "Ġkwargs": 6311,
      "Comments": 6312,
      "disable": 6313,
      "Vari": 6314,
      "·è¡Į": 6315,
      "ilirsiniz": 6316,
      "acker": 6317,
      "routing": 6318,
      "æĸ¹æ³ķ": 6319,
      "ĠÐ¢Ðµ": 6320,
      "ĠbaÅŁ": 6321,
      "Ġchemin": 6322,
      "ploadFile": 6323,
      "è¿½åĬł": 6324,
      "Custom": 6325,
      "hora": 6326,
      "Ġdefer": 6327,
      "okumentation": 6328,
      "formation": 6329,
      "Ġporque": 6330,
      "æŃ¥": 6331,
      "Ġrequires": 6332,
      "Ġallows": 6333,
      "æ¨Ļ": 6334,
      "origin": 6335,
      "erramient": 6336,
      "ĠÐ¾Ð³Ð¾Ð»": 6337,
      "Des": 6338,
      "WW": 6339,
      "just": 6340,
      "ley": 6341,
      "Ð¸Ð²": 6342,
      "worker": 6343,
      "ĠÐ´Ð¾Ð´": 6344,
      "Comp": 6345,
      "ÑĢÑĥÐ³": 6346,
      "Ġë°ĺ": 6347,
      "ombia": 6348,
      "Ġgibi": 6349,
      "ç¾©": 6350,
      "ĳëĭµ": 6351,
      "íĺ": 6352,
      "ÑĢÐ°Ñī": 6353,
      "implement": 6354,
      "Ġcombin": 6355,
      "thing": 6356,
      "ĠOpen": 6357,
      "jsx": 6358,
      "ĠJWT": 6359,
      "ĠÐ¢Ð°Ðº": 6360,
      "Ä±ndan": 6361,
      "ĠversiÃ³n": 6362,
      "ĠmÃ©todo": 6363,
      "ĠðŁļĢ": 6364,
      "RI": 6365,
      "cen": 6366,
      "free": 6367,
      "ı¾": 6368,
      "Ġtus": 6369,
      "Ġtener": 6370,
      "Ġconsole": 6371,
      "ĠTemplate": 6372,
      "ĠMore": 6373,
      "ÐµÐ½ÐµÑĢ": 6374,
      "before": 6375,
      "ĠestÃ¡n": 6376,
      "DataFrame": 6377,
      "ĠextHostTypes": 6378,
      "ä»»ä½ķ": 6379,
      "Plugin": 6380,
      "Ġvirtual": 6381,
      "Dat": 6382,
      "your": 6383,
      "Ġroute": 6384,
      "uman": 6385,
      "Ġapplications": 6386,
      "begin": 6387,
      "dataclasses": 6388,
      "Ġfunciones": 6389,
      "æĶ¶": 6390,
      "ĠdependÃªnc": 6391,
      "Ġdetection": 6392,
      "uvicorn": 6393,
      "yaml": 6394,
      "æª": 6395,
      "Ĥ¨": 6396,
      "Ġexact": 6397,
      "Ġcomando": 6398,
      "006": 6399,
      "Ð¼Ðµ": 6400,
      "ĠserÃ¡": 6401,
      "ĠdÃ©clar": 6402,
      "runtime": 6403,
      "ĠÐ¯Ðº": 6404,
      "entry": 6405,
      "Ð½ÑĮ": 6406,
      "ĠAll": 6407,
      "lies": 6408,
      "celer": 6409,
      "ĠIs": 6410,
      "ĠMicrosoft": 6411,
      "è¯¥": 6412,
      "ãģķãģĦ": 6413,
      "++)": 6414,
      "`ãĢģ`": 6415,
      "æµ": 6416,
      "inf": 6417,
      "Ġbar": 6418,
      "expected": 6419,
      "ferred": 6420,
      "ĠÐ´Ð°Ð½Ð¸Ñħ": 6421,
      "neÄŁ": 6422,
      "Ġrequis": 6423,
      "ĠÑĤÐ°ÐºÐ¾Ð¶": 6424,
      "æ¨£": 6425,
      "ICAgICAgICAgICAg": 6426,
      "faces": 6427,
      "klar": 6428,
      "å£°æĺİ": 6429,
      "èŃ": 6430,
      "ãĤı": 6431,
      "ĠToken": 6432,
      "ĠDas": 6433,
      "Ã³g": 6434,
      "ather": 6435,
      "ÐµÑĢÐµÐ´": 6436,
      "åħĪ": 6437,
      "ĠÐ±Ð°Ð·": 6438,
      "Ġ--->": 6439,
      "redirect": 6440,
      "Link": 6441,
      "ĠObjectFlags": 6442,
      "Ġpermite": 6443,
      "Ġcorresponding": 6444,
      "global": 6445,
      "åĸ": 6446,
      "Ġpot": 6447,
      "ëĭ¨": 6448,
      "Ġonce": 6449,
      "Ġestos": 6450,
      "ĠÑģÐ¾Ð·Ð´": 6451,
      "æľŁ": 6452,
      "Ġtokenizer": 6453,
      "ORT": 6454,
      "ëĲ©ëĭĪëĭ¤": 6455,
      "Ġtodas": 6456,
      "variant": 6457,
      "ç±»åŀĭ": 6458,
      "(/*": 6459,
      "Ġpost": 6460,
      "omain": 6461,
      "except": 6462,
      "pth": 6463,
      "Ġunknown": 6464,
      "ĠMulti": 6465,
      "Computed": 6466,
      "ãģĵãĤĮ": 6467,
      "Ġdonde": 6468,
      "Resolve": 6469,
      "æĸ¹å¼ı": 6470,
      "è¿ĶåĽŀ": 6471,
      "ĠÐ¿Ð¾Ð²ÐµÑĢ": 6472,
      "PATH": 6473,
      "ĠdoÄŁr": 6474,
      "Ġíı¬íķ¨": 6475,
      "³»": 6476,
      "ëª": 6477,
      "integr": 6478,
      "quer": 6479,
      "ÑĥÐ¶": 6480,
      "Init": 6481,
      "puest": 6482,
      "Ġoverride": 6483,
      "ë¦¬ê³ł": 6484,
      "HttpClient": 6485,
      "Loader": 6486,
      "Ġcambios": 6487,
      "ĠÐ¦Ðµ": 6488,
      "Sp": 6489,
      "ls": 6490,
      "èŃī": 6491,
      "Ġwenn": 6492,
      "ullable": 6493,
      "ĠPero": 6494,
      "ĠDat": 6495,
      "Ġgetattr": 6496,
      "ĠLO": 6497,
      "ĠHow": 6498,
      "Ġ====": 6499,
      "Ð¸Ð¼Ð¸": 6500,
      "ĠmodÃ¨": 6501,
      "Ġmodelos": 6502,
      "é¡ŀ": 6503,
      "ĠÐ¿ÑĢÐ¾ÑĨÐµÑģ": 6504,
      "ĠÃºn": 6505,
      "dependant": 6506,
      "ë¯¸": 6507,
      "éĤ£": 6508,
      "'.": 6509,
      "KE": 6510,
      "master": 6511,
      "èĻķ": 6512,
      "Ġ,": 6513,
      "Ġfragment": 6514,
      "ĠInternal": 6515,
      "Ġê³": 6516,
      "Ġdirectamente": 6517,
      "ĠÐ°Ð±Ð¾": 6518,
      "å®ļç¾©": 6519,
      "ë©°": 6520,
      "Ġespecific": 6521,
      "ãģıãģł": 6522,
      "Ġowner": 6523,
      "Port": 6524,
      "Syn": 6525,
      "ade": 6526,
      "rat": 6527,
      "{{": 6528,
      "Ġfue": 6529,
      "ãģĬ": 6530,
      "quÃŃ": 6531,
      "ÑĸÐ»": 6532,
      "Ġbelow": 6533,
      "Ġ19": 6534,
      "ĠgetTypeOf": 6535,
      "ĠÑĶ": 6536,
      "ĠÐ·Ð¼": 6537,
      "Ġdirectiva": 6538,
      "Ã¨re": 6539,
      "qlora": 6540,
      "å¯¹": 6541,
      "ãĥĿãĥ³ãĤ¹": 6542,
      "łíĶĮ": 6543,
      "å®īè£": 6544,
      "¼ĢìĿ´ìħĺ": 6545,
      "ë¦¬ì¼ĢìĿ´ìħĺ": 6546,
      "ãģıãģłãģķãģĦ": 6547,
      "łíĶĮë¦¬ì¼ĢìĿ´ìħĺ": 6548,
      "Close": 6549,
      "aÄŁ": 6550,
      "ĠÄ°": 6551,
      "enum": 6552,
      "ungs": 6553,
      "undefined": 6554,
      "idth": 6555,
      "igInt": 6556,
      "Ġexit": 6557,
      "pared": 6558,
      "ĠMar": 6559,
      "ĠíĥĢìŀħ": 6560,
      "ĠExample": 6561,
      "ë¡Ŀ": 6562,
      "ãĤĭãģĵãģ¨": 6563,
      "datetime": 6564,
      "Ġdaha": 6565,
      "Ġtexto": 6566,
      "æ¯ı": 6567,
      "Case": 6568,
      "OF": 6569,
      "di": 6570,
      "support": 6571,
      "Ġdetermin": 6572,
      "estruct": 6573,
      "ĠCONFIG": 6574,
      "ÑĸÐ¹": 6575,
      "vices": 6576,
      "ÑħÐµÐ¼": 6577,
      "ponsors": 6578,
      "Ġkeyword": 6579,
      "Ġdefinir": 6580,
      "æĪĳåĢĳ": 6581,
      "ĠÑĦÑĥÐ½ÐºÑĨÐ¸": 6582,
      "geben": 6583,
      "Ġpadr": 6584,
      "fd": 6585,
      "oir": 6586,
      "writ": 6587,
      "search": 6588,
      "Ġdebug": 6589,
      "Ġlif": 6590,
      "Document": 6591,
      "modifiers": 6592,
      "Ġloading": 6593,
      "andidates": 6594,
      "Ġannotation": 6595,
      "ãĤ¢ãĥĹãĥªãĤ±ãĥ¼ãĤ·ãĥ§ãĥ³": 6596,
      "ãĥ¬ãĤ¹ãĥĿãĥ³ãĤ¹": 6597,
      "bol": 6598,
      "pha": 6599,
      "enu": 6600,
      "idas": 6601,
      "()`.": 6602,
      "ĠÐ¿Ð¾Ñģ": 6603,
      "Ġusage": 6604,
      "pending": 6605,
      "Ġesper": 6606,
      "ounts": 6607,
      "åĢ¤": 6608,
      "versions": 6609,
      "PUT": 6610,
      "ĠðŁĺİ": 6611,
      "ĠmÃ¶": 6612,
      "ÐµÐ»Ð¸": 6613,
      "Ġinner": 6614,
      "umes": 6615,
      "Ġprof": 6616,
      "Ġquer": 6617,
      "typeParameters": 6618,
      "ĠUsing": 6619,
      "ĠIntern": 6620,
      "ĠìĿĳëĭµ": 6621,
      "single": 6622,
      "olog": 6623,
      "ê³µ": 6624,
      "\"})": 6625,
      "packing": 6626,
      "TYPE": 6627,
      "sor": 6628,
      "ìĨ": 6629,
      "sel": 6630,
      "Ġ\"_": 6631,
      "omic": 6632,
      "Ġproduct": 6633,
      "ternative": 6634,
      "ĠOr": 6635,
      "Ã§Ãµes": 6636,
      "Ġlib": 6637,
      "eps": 6638,
      "routes": 6639,
      "Ġlista": 6640,
      "creen": 6641,
      "åĬ¡": 6642,
      "Ġpoder": 6643,
      "Ġconsulta": 6644,
      "EqualsToken": 6645,
      "ĠhideCode": 6646,
      "ĠÐķÑģÐ»Ð¸": 6647,
      "Ġassociated": 6648,
      "dings": 6649,
      "æ©Ł": 6650,
      "enas": 6651,
      "issing": 6652,
      "Ġherramient": 6653,
      "umulation": 6654,
      "Ġsea": 6655,
      "ĠDate": 6656,
      "Ð¼ÐµÐ½": 6657,
      "ĠMais": 6658,
      "ĠBir": 6659,
      "ĠÑģÐ¾": 6660,
      "ãĤĴä½¿": 6661,
      "Ġchecks": 6662,
      "Ãªtre": 6663,
      "ä¸ĢäºĽ": 6664,
      "board": 6665,
      "Ġapplied": 6666,
      "argo": 6667,
      "åĲĮãģĺ": 6668,
      "Ġevents": 6669,
      "ìĭł": 6670,
      "Ġë°©": 6671,
      "Ġsistemas": 6672,
      "Ġsamples": 6673,
      "ĠaynÄ±": 6674,
      "Ġexternal": 6675,
      "Ġimp": 6676,
      "Ġarqu": 6677,
      "databases": 6678,
      "Ġcompil": 6679,
      "ĠEsta": 6680,
      "allowed": 6681,
      "Ġlibrer": 6682,
      "ĠColombia": 6683,
      "npm": 6684,
      "ĠÐ¾Ð±ÑĬÑıÐ²": 6685,
      "/).": 6686,
      "luster": 6687,
      "Ġ~": 6688,
      "Ġok": 6689,
      "acional": 6690,
      "ÑĢÐ°": 6691,
      "Ġextern": 6692,
      "Profile": 6693,
      "ĠÐ¾Ñģ": 6694,
      "ãĤĴä½¿çĶ¨": 6695,
      "ĠÐ²Ð¸Ðº": 6696,
      "ä½ľæĪĲ": 6697,
      "ãĤ¤ãĥ«": 6698,
      "paces": 6699,
      "Ġgroups": 6700,
      "å®¹åĻ¨": 6701,
      "Basic": 6702,
      "Flag": 6703,
      "Ġcar": 6704,
      "Ġsind": 6705,
      "Ġmicro": 6706,
      "agma": 6707,
      "Ġcompare": 6708,
      "ÃŃan": 6709,
      "Chat": 6710,
      "eading": 6711,
      "Ġraw": 6712,
      "Never": 6713,
      "library": 6714,
      "lush": 6715,
      "more": 6716,
      "rides": 6717,
      "Īæľ¬": 6718,
      "Ġhub": 6719,
      "conn": 6720,
      "Ġserialize": 6721,
      "ĠìĿ¼": 6722,
      "linear": 6723,
      "Ġtokens": 6724,
      "ĠìķłíĶĮë¦¬ì¼ĢìĿ´ìħĺ": 6725,
      "Ġmisma": 6726,
      "Ġactually": 6727,
      "Ġdesarrol": 6728,
      "Ġnavegador": 6729,
      "44": 6730,
      "Amb": 6731,
      "Leading": 6732,
      "][": 6733,
      "¹Ħ": 6734,
      "into": 6735,
      "arly": 6736,
      "ĠĠĠĠĠĠĠĠĠĠĠĠĠĠĠĠĠĠ": 6737,
      "Ġidentifier": 6738,
      "una": 6739,
      "Ġuntil": 6740,
      "ÑĸÑģ": 6741,
      "ÐµÑĤÑģÑı": 6742,
      "argin": 6743,
      "Trailing": 6744,
      "ĠÐºÐ¾Ð½ÑĤÐµ": 6745,
      "Gu": 6746,
      "Writer": 6747,
      "è¤ĩ": 6748,
      "izing": 6749,
      "ĠThese": 6750,
      "åĪ©": 6751,
      "Ð½Ð¸Ñħ": 6752,
      "ĠConfiguration": 6753,
      "ĠvisitNode": 6754,
      "Fragment": 6755,
      "pindex": 6756,
      "prompt": 6757,
      "Ġnamed": 6758,
      "Ġinteger": 6759,
      "ocus": 6760,
      "elig": 6761,
      "ĠErr": 6762,
      "ĠëĺĲ": 6763,
      "ibli": 6764,
      "ancel": 6765,
      "åĢĭå": 6766,
      "åĨį": 6767,
      "ferenced": 6768,
      "ì²Ń": 6769,
      "ĠWorld": 6770,
      "Ð¸ÑģÑĤÐµÐ¼": 6771,
      "hase": 6772,
      "kubernetes": 6773,
      "arguments": 6774,
      "Ġvery": 6775,
      "ĠTambiÃ©n": 6776,
      "izes": 6777,
      "Ã¡l": 6778,
      "åıĹ": 6779,
      "Ġappe": 6780,
      "readonly": 6781,
      "book": 6782,
      "ĠrequÃªte": 6783,
      "Ġë§Į": 6784,
      "ÅŁtir": 6785,
      "ĠÐ±ÑĥÐ´Ðµ": 6786,
      "ĠÐ·Ð°Ð¿ÑĢÐ¾Ñģ": 6787,
      "ãģķãĤĮãģ¾ãģĻ": 6788,
      "ĠpaÃŃs": 6789,
      "ĠÐĿÐ°Ð¿": 6790,
      "08": 6791,
      "Err": 6792,
      "Min": 6793,
      "Signal": 6794,
      "]);": 6795,
      "tuple": 6796,
      "ĠÃ¶r": 6797,
      "ites": 6798,
      "Ġwarm": 6799,
      "else": 6800,
      "Ġyet": 6801,
      "ĠMas": 6802,
      "encode": 6803,
      "prepared": 6804,
      "è¿Ĳ": 6805,
      "ĠÐ·Ð°Ð¼": 6806,
      "ĠNodeFlags": 6807,
      "ä¹ī": 6808,
      "Ġ50": 6809,
      "Ġretorn": 6810,
      "ĠDetails": 6811,
      "ĠgrammarError": 6812,
      "\"):": 6813,
      "Termin": 6814,
      "crit": 6815,
      "cannot": 6816,
      "hndo": 6817,
      "pa": 6818,
      "ķĻ": 6819,
      "atform": 6820,
      "Ġcet": 6821,
      "als": 6822,
      "also": 6823,
      "Ġpan": 6824,
      "Ġep": 6825,
      "imin": 6826,
      "Ġuno": 6827,
      "Ġquit": 6828,
      "ÃŃn": 6829,
      "å¤ī": 6830,
      "Ġobj": 6831,
      "Readonly": 6832,
      "decay": 6833,
      "ĠIhre": 6834,
      "hndoe": 6835,
      "After": 6836,
      "tcx": 6837,
      "ç³»": 6838,
      "Ġten": 6839,
      "Ġclause": 6840,
      "Ġdevelopment": 6841,
      "iger": 6842,
      "Ġcliente": 6843,
      "ĠDependenc": 6844,
      "å¾Ī": 6845,
      "johndoe": 6846,
      "Ġeinem": 6847,
      "ĠÑĨÑĮ": 6848,
      "å·²": 6849,
      "exports": 6850,
      "åŁ·è¡Į": 6851,
      "Ġverwendet": 6852,
      "ĠÐ¯ÐºÑīÐ¾": 6853,
      "Press": 6854,
      "render": 6855,
      "Ġhelp": 6856,
      "ster": 6857,
      "unct": 6858,
      "ilde": 6859,
      "Ġless": 6860,
      "ÐºÑĢ": 6861,
      "Ġimports": 6862,
      "ĠåĲ": 6863,
      "ãģ§ãģĤ": 6864,
      "ngine": 6865,
      "ĠDeclaration": 6866,
      "rowFunction": 6867,
      "Ä±na": 6868,
      ">]": 6869,
      "AS": 6870,
      "æŁ": 6871,
      "remove": 6872,
      "quant": 6873,
      "ĠIss": 6874,
      "Ġcomm": 6875,
      "Ġ->>": 6876,
      "ĠFlow": 6877,
      "ä¸»": 6878,
      "pute": 6879,
      "Ġinteract": 6880,
      "Ġzum": 6881,
      "Ġposition": 6882,
      "\"}]": 6883,
      "ãĤ¯ãĥĪ": 6884,
      "lama": 6885,
      "å¿ħè¦ģ": 6886,
      "ĠparÃ¡metros": 6887,
      "ĠdeÄŁer": 6888,
      "execution": 6889,
      "Effective": 6890,
      "ĠÐ¿Ð¾ÑĤÑĢÑĸÐ±": 6891,
      "yi": 6892,
      "Ġao": 6893,
      "Ġdynamic": 6894,
      "isk": 6895,
      "Ð½ÐµÑĢ": 6896,
      "Ġhapp": 6897,
      "Ġsele": 6898,
      "ĠDie": 6899,
      "verage": 6900,
      "Ġlock": 6901,
      "aving": 6902,
      "shared": 6903,
      "åŀĭåĪ¥": 6904,
      "ability": 6905,
      "Exports": 6906,
      "ĠÐ·Ð°Ð¿Ð¸ÑĤ": 6907,
      "Ġcontents": 6908,
      "æĶ¯": 6909,
      "ä¹Łåı¯ä»¥": 6910,
      "Ġrepresents": 6911,
      "ĠÑģÐµÑĢÐ²ÐµÑĢ": 6912,
      "ĠtravÃ©s": 6913,
      "è¿Ĳè¡Į": 6914,
      "Self": 6915,
      "¦Ŀ": 6916,
      "Ġaffect": 6917,
      "Ġconver": 6918,
      "ĠÐ¼Ð¸": 6919,
      "coped": 6920,
      "ĠíĻķ": 6921,
      "Ġdefaults": 6922,
      "Ġrequested": 6923,
      "Ġedit": 6924,
      "ãĥķãĤ¡": 6925,
      "ĠÐ°Ð²ÑĤÐ¾Ð¼Ð°ÑĤÐ¸Ñĩ": 6926,
      "ĠíĮĮìĿ¼": 6927,
      "Ġtradu": 6928,
      "Us": 6929,
      "ìĥ": 6930,
      "igu": 6931,
      "ĠAg": 6932,
      "Ġsecurity": 6933,
      "ĠIS": 6934,
      "Ã¡rio": 6935,
      "tact": 6936,
      "ĠArray": 6937,
      "Ġgran": 6938,
      "Than": 6939,
      "ĠìĦľ": 6940,
      "è¿ĻäºĽ": 6941,
      "ReturnType": 6942,
      "ĠÅŁek": 6943,
      "ĠApplication": 6944,
      "ĠcrÃ©": 6945,
      "ĠparamÃ¨tre": 6946,
      "Bar": 6947,
      "NE": 6948,
      "NS": 6949,
      "option": 6950,
      "ãĤ¦": 6951,
      "ĠSecurity": 6952,
      "ĠAlias": 6953,
      "Internal": 6954,
      "cludes": 6955,
      "Ð¹Ð½ÐµÑĢ": 6956,
      "Contain": 6957,
      "Ġìŀĳ": 6958,
      "Ġmehr": 6959,
      "Ġë°ĺíĻĺ": 6960,
      ")),": 6961,
      "77": 6962,
      "GET": 6963,
      "cat": 6964,
      "hi": 6965,
      "åĵįåºĶ": 6966,
      "Ġcaracter": 6967,
      "Ġsync": 6968,
      "Ġide": 6969,
      "ĠmÃ³du": 6970,
      "ĠmÃºltiples": 6971,
      "resource": 6972,
      "Ġtout": 6973,
      "trins": 6974,
      "ĠëĶ": 6975,
      "ĠMy": 6976,
      "ĠÐ´ÑĢÑĥÐ³": 6977,
      "OfNode": 6978,
      "ĠìĿ¸": 6979,
      "Ġcompiler": 6980,
      "Ġeditor": 6981,
      "ĠopciÃ³n": 6982,
      "ĠSQLModel": 6983,
      "ĠAbhÃ¤ngigkeit": 6984,
      "Public": 6985,
      "drag": 6986,
      "Ķæ¡Ī": 6987,
      "Ġpla": 6988,
      "ĠSub": 6989,
      "ters": 6990,
      "press": 6991,
      "usted": 6992,
      "](/": 6993,
      "ERR": 6994,
      "istral": 6995,
      "èªį": 6996,
      "CommonQueryParams": 6997,
      "ãĥķãĤ©": 6998,
      "offset": 6999,
      "ĠExtension": 7000,
      "KEY": 7001,
      "System": 7002,
      "language": 7003,
      "Ġfich": 7004,
      "laim": 7005,
      "Ġì»": 7006,
      "Ð´Ðµ": 7007,
      "illas": 7008,
      "åıĬ": 7009,
      "achine": 7010,
      "ĠÐ·Ð°Ð³": 7011,
      "layer": 7012,
      "ãĥªãĤ¯ãĤ¨": 7013,
      "Ð°Ð½Ð¸Ñı": 7014,
      "Iterable": 7015,
      "ĠCTRL": 7016,
      "ãĥªãĤ¯ãĤ¨ãĤ¹ãĥĪ": 7017,
      "42": 7018,
      "Ġãģ¨": 7019,
      "Ġclic": 7020,
      "ĠSignal": 7021,
      "``,": 7022,
      "Ġneur": 7023,
      "ãģĻãģ¹": 7024,
      "Ġhasattr": 7025,
      "Ġdatabase": 7026,
      "tica": 7027,
      "directly": 7028,
      "ì²´": 7029,
      "Ġfinish": 7030,
      "websockets": 7031,
      "EntityName": 7032,
      "ĠparÃ¢metro": 7033,
      "neÄŁin": 7034,
      "(()": 7035,
      "VI": 7036,
      "gi": 7037,
      "rar": 7038,
      "za": 7039,
      "éª": 7040,
      "Ġå®ĥ": 7041,
      "repl": 7042,
      "ÑģÑĤÐ²": 7043,
      "ĠÑģÐ¸ÑģÑĤÐµÐ¼": 7044,
      "Ġleast": 7045,
      "Parse": 7046,
      "Ġclients": 7047,
      "shape": 7048,
      "åŃĲ": 7049,
      "ĠContainer": 7050,
      "resolve": 7051,
      "Ã©cn": 7052,
      "Generator": 7053,
      "Ġcached": 7054,
      "ĠÐ¹Ð¾Ð³Ð¾": 7055,
      "Post": 7056,
      "Promise": 7057,
      "Swagger": 7058,
      "tres": 7059,
      "ºı": 7060,
      "ĠÃ¶n": 7061,
      "ĠdÃ¶": 7062,
      "Ġhat": 7063,
      "alles": 7064,
      "Ġstarted": 7065,
      "ĠÑĢÐµ": 7066,
      "Ġversions": 7067,
      "rammar": 7068,
      "çľĭ": 7069,
      "ĠpadrÃ£o": 7070,
      "cent": 7071,
      "oria": 7072,
      "separ": 7073,
      "height": 7074,
      "ctor": 7075,
      "emos": 7076,
      "imit": 7077,
      "ĠìĬ": 7078,
      "Ġitself": 7079,
      "ĠHere": 7080,
      "provide": 7081,
      "cores": 7082,
      "Ġíĺ": 7083,
      "cessed": 7084,
      "cional": 7085,
      "ä¹ĭ": 7086,
      "requests": 7087,
      "weise": 7088,
      "Authorization": 7089,
      "Ġdictionary": 7090,
      "numeric": 7091,
      "ĠÐ¾ÑĤÑĢÐ¸Ð¼": 7092,
      "ĠÑĸÐ½ÑĪ": 7093,
      "Ġprompt": 7094,
      "Ġmanej": 7095,
      "Ġìłľê³µ": 7096,
      "ĠgrammarErrorOn": 7097,
      "Do": 7098,
      "bj": 7099,
      "æ²": 7100,
      "Ġfree": 7101,
      "Ġlater": 7102,
      "uble": 7103,
      "angle": 7104,
      "maid": 7105,
      "works": 7106,
      "Args": 7107,
      "Strategy": 7108,
      "Ð¾Ð³ÑĢÐ°Ð¼": 7109,
      "(\"/\")": 7110,
      "ksiyon": 7111,
      "job": 7112,
      "ĠaplicaÃ§Ã£o": 7113,
      "èµ·": 7114,
      "Ġfuncional": 7115,
      "Ġsomething": 7116,
      "Ġìĸ´ë": 7117,
      "ãĥķãĤ¡ãĤ¤ãĥ«": 7118,
      "Use": 7119,
      "pol": 7120,
      "when": 7121,
      "£¼": 7122,
      "edAccess": 7123,
      "Ġconoc": 7124,
      "usal": 7125,
      "ĠTrain": 7126,
      "ĠUpdate": 7127,
      "linux": 7128,
      "å¤Ħ": 7129,
      "ĠÐ¿ÑĢÐµÐ´": 7130,
      "Ð°ÑĨÑĸÑİ": 7131,
      "ĠValid": 7132,
      "Ġopciones": 7133,
      "Ġseguridad": 7134,
      "Initializer": 7135,
      "Ġanterior": 7136,
      "trinsic": 7137,
      "Json": 7138,
      "NO": 7139,
      "determin": 7140,
      "Ġcach": 7141,
      "ĠpÃ¡": 7142,
      "Ġmm": 7143,
      "ably": 7144,
      "ĠÐ²Ð°Ñģ": 7145,
      "StringLiteral": 7146,
      "ìĬ¤íĬ¸": 7147,
      "Directory": 7148,
      "accumulation": 7149,
      "Ġparticip": 7150,
      "Ġalgunos": 7151,
      "Detail": 7152,
      "Ġproporciona": 7153,
      "ÑģÑĤÑĢÑĥÐ¼ÐµÐ½ÑĤ": 7154,
      "æĵ": 7155,
      "entity": 7156,
      "Ġpu": 7157,
      "Ġmon": 7158,
      "Ġvol": 7159,
      "TypeReference": 7160,
      "TypeParameters": 7161,
      "Ġprove": 7162,
      "world": 7163,
      "activ": 7164,
      "Ġcurrently": 7165,
      "ãĤ³ãĥ³": 7166,
      "Ġê·¸ë¦¬ê³ł": 7167,
      "################": 7168,
      "DI": 7169,
      "dynamic": 7170,
      "ëĦ": 7171,
      "Ġtre": 7172,
      "rez": 7173,
      "ĠCo": 7174,
      "ĠlÃŃ": 7175,
      "plicate": 7176,
      "Ã¼z": 7177,
      "ãģªãģ©": 7178,
      "Implement": 7179,
      "ĠComp": 7180,
      "ĠÐŁÐ¾": 7181,
      "transaction": 7182,
      "ĠëįĶ": 7183,
      "crimin": 7184,
      "hooks": 7185,
      "Ġneuron": 7186,
      "ĠìĬ¤": 7187,
      "cel": 7188,
      "Ġsecond": 7189,
      "ĠES": 7190,
      "Ġæĺ": 7191,
      "Ġaddr": 7192,
      "Ġversionadded": 7193,
      "Api": 7194,
      "ĠÐµÐ³Ð¾": 7195,
      "epochs": 7196,
      "ë²Ħ": 7197,
      "BJ": 7198,
      "Lo": 7199,
      "[:": 7200,
      "fit": 7201,
      "åħ§": 7202,
      "ĠUna": 7203,
      "Ġvariant": 7204,
      "ĠolduÄŁ": 7205,
      "ĠsourceFile": 7206,
      "ĠÑĤÐ°ÐºÐ¶Ðµ": 7207,
      "Ġremoved": 7208,
      "Ġcela": 7209,
      "ĠÐ·Ð½Ð°ÑĩÐµÐ½Ð½Ñı": 7210,
      "ĠÐºÐ»Ð°Ñģ": 7211,
      "ĠìļĶì²Ń": 7212,
      "Mut": 7213,
      "Num": 7214,
      "Render": 7215,
      "Warning": 7216,
      "best": 7217,
      "hip": 7218,
      "æģ": 7219,
      "ç¬": 7220,
      "ĽĲ": 7221,
      "Ġflash": 7222,
      "union": 7223,
      "Ġ}}": 7224,
      "rix": 7225,
      "ä»¤": 7226,
      "iber": 7227,
      "Ġchecking": 7228,
      "ä¸ŃçļĦ": 7229,
      "Image": 7230,
      "ĠèĪĩ": 7231,
      "è®¤": 7232,
      "å®īåħ¨": 7233,
      "ãģĮãģĤãĤĬãģ¾ãģĻ": 7234,
      "(|": 7235,
      "]`": 7236,
      "bres": 7237,
      "git": 7238,
      "random": 7239,
      "éĮ": 7240,
      "ink": 7241,
      "å®ļä¹ī": 7242,
      "fixture": 7243,
      "å¦Ĥæŀľ": 7244,
      "ĠÐ²Ð¸ÐºÐ¾ÑĢÐ¸ÑģÑĤÐ¾Ð²ÑĥÑĶ": 7245,
      "Ġëĵ¤": 7246,
      "Label": 7247,
      "pciÃ³n": 7248,
      "zy": 7249,
      "æĤ¨": 7250,
      "Ġcir": 7251,
      "Ġfuture": 7252,
      "Ġotras": 7253,
      "ĠCallable": 7254,
      "Ġqual": 7255,
      "Ġestruct": 7256,
      "å®ŀ": 7257,
      "ungen": 7258,
      "Ġcluster": 7259,
      "ĠkullanÄ±": 7260,
      "åĳ¼": 7261,
      "åĽŀåĤ³": 7262,
      "éĩı": 7263,
      "ĠStarted": 7264,
      "88": 7265,
      "Empty": 7266,
      "cfg": 7267,
      "ì¹": 7268,
      "enable": 7269,
      "Ġdebe": 7270,
      "utm": 7271,
      "apis": 7272,
      "ÑĢÐ¾Ðº": 7273,
      "change": 7274,
      "Ã¡ri": 7275,
      "providers": 7276,
      "aking": 7277,
      "Ġforms": 7278,
      "ObjectType": 7279,
      "Children": 7280,
      "Ġwebsocket": 7281,
      "ĠBeispiel": 7282,
      "callbacks": 7283,
      "Ġëª¨ëĵł": 7284,
      "çĻ¼": 7285,
      "Ġembed": 7286,
      "Ambient": 7287,
      "74": 7288,
      "UID": 7289,
      "harry": 7290,
      "ness": 7291,
      "Ġpat": 7292,
      "ÐµÐµ": 7293,
      "char": 7294,
      "Ä±s": 7295,
      "0000": 7296,
      "Ġesqu": 7297,
      "ÐµÑĤÑĮ": 7298,
      "validate": 7299,
      "Ġcontainers": 7300,
      "LikeDeclaration": 7301,
      "ARN": 7302,
      "ãĥĿãĥ¼ãĥĪ": 7303,
      "ĠÅŁekilde": 7304,
      "60": 7305,
      "Bo": 7306,
      "EM": 7307,
      "FA": 7308,
      "lations": 7309,
      "sq": 7310,
      "slice": 7311,
      "uation": 7312,
      "é¢": 7313,
      "Ð¸Ð»": 7314,
      "Ġrepla": 7315,
      "ãĥ¦": 7316,
      "ĠPR": 7317,
      "ĠPromise": 7318,
      "``.": 7319,
      "ĠÐ½ÑĥÐ¶": 7320,
      "ĠdespuÃ©s": 7321,
      "INT": 7322,
      "å°ĩ": 7323,
      "ĠÑıÐºÐ¸Ð¹": 7324,
      "mutex": 7325,
      "canner": 7326,
      "ĠÐ¿Ð¾Ð»ÑĥÑĩ": 7327,
      "tamente": 7328,
      "èĻ": 7329,
      "Ġinference": 7330,
      "plits": 7331,
      "document": 7332,
      "Ð¼Ð¾": 7333,
      "Declar": 7334,
      "ĠÐ¼Ñĭ": 7335,
      "Ð¾Ð³Ð´Ð°": 7336,
      "straints": 7337,
      "Ġworkers": 7338,
      "elements": 7339,
      "Ġmostr": 7340,
      "Ġgeli": 7341,
      "ExternalModule": 7342,
      "ilename": 7343,
      "UploadFile": 7344,
      "cid": 7345,
      "ka": 7346,
      "wan": 7347,
      "é©": 7348,
      "Ġ^": 7349,
      "dep": 7350,
      "Ġcop": 7351,
      "Ġmas": 7352,
      "Ġregular": 7353,
      "Ġconn": 7354,
      "comple": 7355,
      "chemy": 7356,
      "ĠåĴĮ": 7357,
      "Forwarded": 7358,
      "Ġincluded": 7359,
      "wrapped": 7360,
      "Ġproduction": 7361,
      "Ġíķĺì§Ģë§Į": 7362,
      "Ġmesmo": 7363,
      "implementation": 7364,
      "Menu": 7365,
      "Ġrow": 7366,
      "Ġcle": 7367,
      "Ġir": 7368,
      "Ġmount": 7369,
      "ãĥĢ": 7370,
      "Exp": 7371,
      "ĠVariable": 7372,
      "wares": 7373,
      "points": 7374,
      "Ġ32": 7375,
      "Ġdisabled": 7376,
      "LiteralExpression": 7377,
      "Ġeiner": 7378,
      "modifier": 7379,
      "Application": 7380,
      "å¯Ĩ": 7381,
      "ç¨ĭåºı": 7382,
      "çĽ¸ä¾Ŀ": 7383,
      "Ġservicio": 7384,
      "ĠÐ»Ð¸": 7385,
      "printf": 7386,
      "åĸ®": 7387,
      "AG": 7388,
      "First": 7389,
      "Mapping": 7390,
      "Schema": 7391,
      "fect": 7392,
      "gal": 7393,
      "ħį": 7394,
      "Ġcateg": 7395,
      "see": 7396,
      "Ġdet": 7397,
      "Ġbound": 7398,
      "Ġinjection": 7399,
      "Ð°Ð±": 7400,
      "Ġlat": 7401,
      "ÑĸÑĶ": 7402,
      "ReDoc": 7403,
      "plements": 7404,
      "Ġlearn": 7405,
      "ugging": 7406,
      "Ġdirectives": 7407,
      "Ġgeneric": 7408,
      "Ġ(!(": 7409,
      "Ġmejor": 7410,
      "voy": 7411,
      "Ġscheduler": 7412,
      "izaje": 7413,
      "Ġæ¨¡åŀĭ": 7414,
      "Accept": 7415,
      ".\"\"\"": 7416,
      "202": 7417,
      "54": 7418,
      "`(": 7419,
      "dump": 7420,
      "gg": 7421,
      "erved": 7422,
      "---": 7423,
      "Ġsch": 7424,
      "ques": 7425,
      "elle": 7426,
      "Ġexpect": 7427,
      "ecciÃ³n": 7428,
      "tests": 7429,
      "iddlewares": 7430,
      "ĠdocumentaÃ§Ã£o": 7431,
      "Ð°ÑĶÑĤÐµ": 7432,
      "Ġindices": 7433,
      "ĠResource": 7434,
      "ĠÑģÐ»ÑĥÑĩ": 7435,
      "Ġequivalent": 7436,
      "ç¨ĭå¼ıç¢¼": 7437,
      ">ãĢĤ": 7438,
      "itos": 7439,
      "ãĥŀ": 7440,
      "endizaje": 7441,
      "Ġreset": 7442,
      "Ġadapter": 7443,
      "raph": 7444,
      "Settings": 7445,
      "Modifiers": 7446,
      "éłĲ": 7447,
      "ĠAutom": 7448,
      "TLS": 7449,
      "car": 7450,
      "ustr": 7451,
      "Ġfoo": 7452,
      "Ġmoment": 7453,
      "ĠAccess": 7454,
      "ivel": 7455,
      "ÑĸÑģÑĤ": 7456,
      "ĠíĻ": 7457,
      "ĠDef": 7458,
      "ĠÐ¾ÑĤÐ²ÐµÑĤ": 7459,
      "Callback": 7460,
      "original": 7461,
      "escapedName": 7462,
      "ĠëĤ´": 7463,
      "èĻķçĲĨ": 7464,
      "IO": 7465,
      "UP": 7466,
      "ĠÃªtre": 7467,
      "Ġhero": 7468,
      "endif": 7469,
      "ontend": 7470,
      "classes": 7471,
      "Ġtranslation": 7472,
      "Ġbackground": 7473,
      "Ġbuilt": 7474,
      "è©¦": 7475,
      "Ġotro": 7476,
      "ĠÐĲÐ»Ðµ": 7477,
      "ä¾Ŀèµĸé¡¹": 7478,
      "ĠpÃ¡gin": 7479,
      "PL": 7480,
      "UE": 7481,
      "Vis": 7482,
      "Ġplan": 7483,
      "edor": 7484,
      "idual": 7485,
      "ÑĢÐ¾": 7486,
      "ĠAsync": 7487,
      "ateur": 7488,
      "imer": 7489,
      "iff": 7490,
      "ĠOR": 7491,
      "ĠMem": 7492,
      "::{": 7493,
      "ecycle": 7494,
      "mermaid": 7495,
      "DotToken": 7496,
      "åģļ": 7497,
      "é©Ĺ": 7498,
      "Ġrela": 7499,
      "ĠIhr": 7500,
      "ĠMan": 7501,
      "ONE": 7502,
      "ãĥ³ãĥī": 7503,
      "ĠÑįÑĤ": 7504,
      "overload": 7505,
      "æıĽ": 7506,
      "ĠÐµÑģÐ»Ð¸": 7507,
      "paca": 7508,
      "ëł¤": 7509,
      "ĠautomÃ¡ticamente": 7510,
      "klarieren": 7511,
      "Nullable": 7512,
      "Wh": 7513,
      "fos": 7514,
      "rf": 7515,
      "Ġtar": 7516,
      "reater": 7517,
      "Ġpatch": 7518,
      "Ġhan": 7519,
      "Ġhook": 7520,
      "ĠTermin": 7521,
      "ima": 7522,
      "Ġforce": 7523,
      "Ġappend": 7524,
      "berry": 7525,
      "Ġchanged": 7526,
      "íķĺì§Ģ": 7527,
      "leanup": 7528,
      "ArrayType": 7529,
      "ĠdÃ©f": 7530,
      "Ġ\\(": 7531,
      "ĠemptyArray": 7532,
      "where": 7533,
      "Ġupdates": 7534,
      "chnical": 7535,
      "ãģĪãģ°": 7536,
      ")!": 7537,
      "Span": 7538,
      "blob": 7539,
      "cciones": 7540,
      "ĠÐł": 7541,
      "Ġ18": 7542,
      "ãģ¾ãģŁ": 7543,
      "ĠÑĸÐ·": 7544,
      "Ġalgo": 7545,
      "Ġ[];": 7546,
      "Ġrelative": 7547,
      "compatible": 7548,
      "Bed": 7549,
      "Cre": 7550,
      "sort": 7551,
      "arma": 7552,
      "Ġces": 7553,
      "alanc": 7554,
      "ament": 7555,
      "Ġequal": 7556,
      "ismo": 7557,
      "Ġsearch": 7558,
      "ĠCe": 7559,
      "Ð¼Ð¾Ð´": 7560,
      "schematics": 7561,
      "ĠDev": 7562,
      "Ġentire": 7563,
      "ĠðŁİ": 7564,
      "Ġdiff": 7565,
      "Ġdosy": 7566,
      "ncron": 7567,
      "å»ºç«ĭ": 7568,
      "Ġãģĵãģ®": 7569,
      "Ġgreen": 7570,
      "å¥½": 7571,
      "ĠåĽł": 7572,
      "Mer": 7573,
      "frame": 7574,
      "fake": 7575,
      "wt": 7576,
      "æ§ĭ": 7577,
      "Ġãģ§": 7578,
      "ĶâĶĢâĶĢ": 7579,
      "inja": 7580,
      "ÑģÑĮ": 7581,
      "ÑĥÑĤÑĮ": 7582,
      "ĠPost": 7583,
      "ired": 7584,
      "ĠÐ´Ð¾Ð±": 7585,
      "Ð°Ð½Ð¾": 7586,
      "beh": 7587,
      "herit": 7588,
      "ĠâĶĶâĶĢâĶĢ": 7589,
      "Ġloader": 7590,
      "Ġmuestra": 7591,
      "uffle": 7592,
      "Decorations": 7593,
      "LL": 7594,
      "åİ": 7595,
      "Ġsont": 7596,
      "ĠSE": 7597,
      "pler": 7598,
      "ĠDies": 7599,
      "iere": 7600,
      "Ð¿Ð°Ð´": 7601,
      "Ġinstancia": 7602,
      "äºº": 7603,
      "force": 7604,
      "Ġcookies": 7605,
      "Ġcreating": 7606,
      "Ġconsum": 7607,
      "ernary": 7608,
      "Ð°ÑĨÐ¸Ñİ": 7609,
      "Ġorigin": 7610,
      "éģİ": 7611,
      "ĠmÃ©todos": 7612,
      "æľįåĬ¡": 7613,
      "ĠÐ¿ÑĢÐ¾ÑģÑĤÐ¾": 7614,
      "ocomplete": 7615,
      "æŁĲ": 7616,
      "Missing": 7617,
      "NG": 7618,
      "browser": 7619,
      "framework": 7620,
      "mero": 7621,
      "messages": 7622,
      "pi": 7623,
      "íĤ¤": 7624,
      "Ġpack": 7625,
      "acity": 7626,
      "ĠEd": 7627,
      "Ġacross": 7628,
      "Transform": 7629,
      "ãĥĥãĤ¯": 7630,
      "projects": 7631,
      "Instanti": 7632,
      "Ġsteps": 7633,
      "atisf": 7634,
      "Ok": 7635,
      "final": 7636,
      "mat": 7637,
      "pet": 7638,
      "vant": 7639,
      "ì¤": 7640,
      "Ġcost": 7641,
      "Ġpending": 7642,
      "utf": 7643,
      "Ġtoo": 7644,
      "Ġexpl": 7645,
      "Ġengine": 7646,
      "constructor": 7647,
      "ĠBen": 7648,
      "activate": 7649,
      "ĠÐ¼Ð¾Ð¶Ðµ": 7650,
      "Ġíķ©ëĭĪëĭ¤": 7651,
      "ĠÑıÐºÑīÐ¾": 7652,
      "Ġmatches": 7653,
      "ãĤĪãĤĬ": 7654,
      "ExtHost": 7655,
      "ituent": 7656,
      "ĠforEachChild": 7657,
      "ĠÐºÐ¾Ð½ÑĤÐµÐ¹Ð½ÐµÑĢ": 7658,
      "Long": 7659,
      "Ty": 7660,
      "zero": 7661,
      "Ġprefer": 7662,
      "Ġunter": 7663,
      "erscores": 7664,
      "Expected": 7665,
      "Ġkod": 7666,
      "Ð¿Ð¾ÑĢ": 7667,
      "Orig": 7668,
      "ĠÑıÐºÑĸ": 7669,
      "Ġexists": 7670,
      "ĠìĹĨ": 7671,
      "ĠpodrÃŃa": 7672,
      "ratio": 7673,
      "ãģĻãģ¹ãģ¦": 7674,
      "ĠdÃ¶nd": 7675,
      "dÄ±r": 7676,
      "gacy": 7677,
      "Ġfil": 7678,
      "Ġdetect": 7679,
      "Ġmask": 7680,
      "idir": 7681,
      "Ġseen": 7682,
      "Ġcomport": 7683,
      "Ġluego": 7684,
      "ĠgÃ©n": 7685,
      "ĠWrite": 7686,
      "cookies": 7687,
      "ĠÐ·Ð°Ð´": 7688,
      "ÐµÐ½Ð¸Ð¹": 7689,
      "Ġespecial": 7690,
      "æĸĩæ¡£": 7691,
      "Ġpeut": 7692,
      "super": 7693,
      "Ġgerek": 7694,
      "ĠíĻķìĿ¸": 7695,
      "Ġæĺ¯": 7696,
      "BigInt": 7697,
      "Language": 7698,
      "Sem": 7699,
      "Ġtare": 7700,
      "Ġdid": 7701,
      "Ġremain": 7702,
      "ÑĤÐ¸Ð²": 7703,
      "Store": 7704,
      "Ð¾Ð»Ð½Ð¸": 7705,
      "åĪĽå»º": 7706,
      "è¯ķ": 7707,
      "Resolver": 7708,
      "Ġdeclarations": 7709,
      "Ã©cut": 7710,
      "çµĦ": 7711,
      "unuz": 7712,
      "VariableDeclaration": 7713,
      "Ġdesarroll": 7714,
      "Ġcampo": 7715,
      "Ġwarmup": 7716,
      "Pub": 7717,
      "Uvicorn": 7718,
      "uce": 7719,
      "ale": 7720,
      "alpha": 7721,
      "itÃ©": 7722,
      "Ð¾ÑĪ": 7723,
      "ĠIl": 7724,
      "ildcard": 7725,
      "ugment": 7726,
      "Ġintercept": 7727,
      "Ġzero": 7728,
      "PropertyAssignment": 7729,
      "Ġçī": 7730,
      "ĠìĿ´ë¥¼": 7731,
      "Ġinitializer": 7732,
      "ĠtanÄ±m": 7733,
      "ecause": 7734,
      "è«ĭæ±Ĥ": 7735,
      "TS": 7736,
      "iÃ³": 7737,
      "pers": 7738,
      "amw": 7739,
      "Ġindent": 7740,
      "Ð¸Ðµ": 7741,
      "ĠTernary": 7742,
      "Ġexpr": 7743,
      "Ġapenas": 7744,
      "serial": 7745,
      "ĠcheckMode": 7746,
      "Ġejec": 7747,
      "Ð¾Ð»ÑĮÐ·Ð¾Ð²Ð°": 7748,
      "Ġmatching": 7749,
      "æ¨¡": 7750,
      "ë³¸": 7751,
      "Ġbackend": 7752,
      "++;": 7753,
      "ĠÐ±ÐµÐ·Ð¿": 7754,
      "é©ĹèŃī": 7755,
      "WARN": 7756,
      "onDid": 7757,
      "delete": 7758,
      "Ġcli": 7759,
      "Ġ{@": 7760,
      "Ġmigration": 7761,
      "ÑĤÑģÑı": 7762,
      "odo": 7763,
      "ĠName": 7764,
      "ĠMethod": 7765,
      "Ġestim": 7766,
      "thetic": 7767,
      "arga": 7768,
      "HTTPS": 7769,
      "ãĤĤãģ®": 7770,
      "reportErrors": 7771,
      "ĠíķĦìļĶ": 7772,
      "Spread": 7773,
      "ĠInternet": 7774,
      "404": 7775,
      "cmp": 7776,
      "fill": 7777,
      "Ġpal": 7778,
      "urar": 7779,
      "losed": 7780,
      "Ġmult": 7781,
      "Ġharness": 7782,
      "ãĥĻ": 7783,
      "trace": 7784,
      "ĠfunÃ§Ã£o": 7785,
      "Ġesp": 7786,
      "Ġkom": 7787,
      "ĠÐ¾Ð¿": 7788,
      "preempt": 7789,
      "ãģĹãģ¦ãģıãģłãģķãģĦ": 7790,
      "attrs": 7791,
      "compilerOptions": 7792,
      "hesized": 7793,
      "Ġchildren": 7794,
      "ĠgrammarErrorOnNode": 7795,
      "æģ¯": 7796,
      ">[": 7797,
      "TE": 7798,
      "ony": 7799,
      "ino": 7800,
      "Ġpandas": 7801,
      "road": 7802,
      "Ġsegu": 7803,
      "Ġyer": 7804,
      "Ġcomb": 7805,
      "parallel": 7806,
      "ayload": 7807,
      "Ġå¯": 7808,
      "ãģĹãģĭ": 7809,
      "Ã¶yle": 7810,
      "Conn": 7811,
      "ĠÐ¼Ð¾Ð¶ÐµÑĤ": 7812,
      "ãĥ¼ãĥĲ": 7813,
      "Ġresolver": 7814,
      "ÑĶÐº": 7815,
      "Ġautomatic": 7816,
      "Ġregister": 7817,
      "Ġnumeric": 7818,
      "åįķ": 7819,
      "Ġusuarios": 7820,
      "Address": 7821,
      "Ġcompatibility": 7822,
      "Ġcertific": 7823,
      "Ġartific": 7824,
      "ĠmacOS": 7825,
      "Ġëĵ¤ìĸ´": 7826,
      ")}": 7827,
      "Js": 7828,
      "how": 7829,
      "kaban": 7830,
      "onger": 7831,
      "ena": 7832,
      "arak": 7833,
      "Ġside": 7834,
      "Ġeli": 7835,
      "Ġreferences": 7836,
      "Ġwon": 7837,
      "Ġcomments": 7838,
      "lying": 7839,
      "ĠÐ´Ðµ": 7840,
      "ĠComo": 7841,
      "operator": 7842,
      "ĠëıĦ": 7843,
      "Injector": 7844,
      "ĠOtherwise": 7845,
      "separate": 7846,
      "66": 7847,
      "CONFIG": 7848,
      "CORS": 7849,
      "attributes": 7850,
      "ĠsÃ£o": 7851,
      "omit": 7852,
      "ãĥ¯": 7853,
      "ota": 7854,
      "ĠÐ²ÑĸÐ½": 7855,
      "ibly": 7856,
      "Ġintersection": 7857,
      "åĽŀæĩī": 7858,
      "çµĲ": 7859,
      "ĠÐĿÐ¾": 7860,
      "ĠÃ¶zel": 7861,
      "emove": 7862,
      "ĠÐ·Ð°Ð»ÐµÐ¶Ð½Ð¾ÑģÑĤ": 7863,
      "Ġnecessary": 7864,
      "Single": 7865,
      "rep": 7866,
      "Ġframe": 7867,
      "Ġnetwork": 7868,
      "Ġvista": 7869,
      "Ġtools": 7870,
      "Ġenclosing": 7871,
      "Ġalternat": 7872,
      "erte": 7873,
      "ÃŃc": 7874,
      "Ġæİ": 7875,
      "ifications": 7876,
      "Ġsettings": 7877,
      "eya": 7878,
      "Ð½Ð¾Ðµ": 7879,
      "Keys": 7880,
      "Ġperiod": 7881,
      "Ġhandlers": 7882,
      "Ġâľ": 7883,
      "å¯¦": 7884,
      "ë§Ī": 7885,
      "ĠĠĠĠĠĠĠĠĠĠĠĠĠĠĠĠĠĠĠĠĠĠĠĠĠĠĠĠĠĠĠĠĠĠĠĠĠĠĠĠĠĠĠĠĠĠĠĠĠĠĠĠĠĠĠĠĠĠĠĠĠĠĠĠĠĠĠĠĠĠĠĠĠĠĠĠĠĠĠĠĠĠĠĠĠĠĠĠĠĠĠĠĠĠĠĠĠĠĠĠĠĠĠĠĠĠĠĠĠĠĠĠĠĠĠĠĠĠĠĠĠĠĠĠĠĠĠĠĠĠĠĠĠĠĠĠĠĠĠĠĠĠĠĠĠĠĠĠĠĠĠĠĠĠĠĠĠĠĠĠĠĠĠĠĠĠĠĠĠĠĠĠĠĠĠĠĠĠĠĠĠĠĠĠĠĠĠĠĠĠĠĠĠĠĠĠĠĠĠĠĠĠĠĠĠĠĠĠĠĠĠĠĠĠĠĠĠĠĠĠĠĠĠĠĠĠĠĠĠĠĠĠĠĠĠĠĠĠĠĠĠĠĠĠĠĠĠĠĠĠĠĠĠĠĠĠ": 7886,
      "Ġê²ĥìŀħëĭĪëĭ¤": 7887,
      "Ġweights": 7888,
      "ĠparamÃ¨tres": 7889,
      "ĠÃ§alÄ±ÅŁ": 7890,
      "ç´°": 7891,
      "æºĸ": 7892,
      "pkg": 7893,
      "tw": 7894,
      "éħį": 7895,
      "Ġtemplates": 7896,
      "Ġsmall": 7897,
      "Ġdeber": 7898,
      "Ġdeklarieren": 7899,
      "Ġnos": 7900,
      "Ġbot": 7901,
      "Ġrecord": 7902,
      "Ġunit": 7903,
      "rase": 7904,
      "Ġ12": 7905,
      "\"))": 7906,
      "serde": 7907,
      "ĠçĽ": 7908,
      "Members": 7909,
      "Ġcontinu": 7910,
      "Ġfonksiyon": 7911,
      "Ġplantillas": 7912,
      "Ġmerged": 7913,
      "Ġrecib": 7914,
      "POST": 7915,
      "éļĽ": 7916,
      "Ġexplicitly": 7917,
      "Ġdesarrollo": 7918,
      "89": 7919,
      "Multi": 7920,
      "hub": 7921,
      "ience": 7922,
      "lish": 7923,
      "æ·": 7924,
      "éĶ": 7925,
      "Ġä¾ĭå¦Ĥ": 7926,
      "lem": 7927,
      "ÐµÑĩ": 7928,
      "Ġnivel": 7929,
      "ÑĥÐ¼": 7930,
      "Ġlonger": 7931,
      "Ð¿ÑĢÐ°Ð²": 7932,
      "è¨¼": 7933,
      "è®¾": 7934,
      "ĠÐ¿ÐµÑĢÐµÐ²": 7935,
      "Ġexpressions": 7936,
      "ãģķãĤĮãģ¦ãģĦ": 7937,
      "Ġproceso": 7938,
      "Ġprueba": 7939,
      "ä¹ĭåīį": 7940,
      "Fixture": 7941,
      "grade": 7942,
      ":/": 7943,
      ">`.": 7944,
      "cing": 7945,
      "Ĩµ": 7946,
      "Ġsocket": 7947,
      "ici": 7948,
      "Ġinf": 7949,
      "Ġreplace": 7950,
      "Ġveya": 7951,
      "ĠTra": 7952,
      "Ġexc": 7953,
      "Ġresources": 7954,
      "typeof": 7955,
      "Ð¼Ð¾Ð¶": 7956,
      "Ġanal": 7957,
      "ĠMark": 7958,
      "Ġneg": 7959,
      "criptor": 7960,
      "Ġintrodu": 7961,
      "ìĹĲëĬĶ": 7962,
      "Ġdeclared": 7963,
      "Ġexecute": 7964,
      "ãĤ»ãĤ¹": 7965,
      "Metadata": 7966,
      "åľ°": 7967,
      "ibliot": 7968,
      "Max": 7969,
      "\\)": 7970,
      "norm": 7971,
      "ĳĲ": 7972,
      "Ġtf": 7973,
      "Ġtanto": 7974,
      "Ġclose": 7975,
      "Ġ{{": 7976,
      "Ġnat": 7977,
      "Ġrespost": 7978,
      "Star": 7979,
      "OfDeclaration": 7980,
      "ãĤ¹ãĥĨ": 7981,
      "Ġincluy": 7982,
      "Ġopenapi": 7983,
      "what": 7984,
      "Ġinstantiate": 7985,
      "Ġinicial": 7986,
      "Buffer": 7987,
      "Ġepoch": 7988,
      "éªĮ": 7989,
      "cc": 7990,
      "êµ¬": 7991,
      "Ġcamb": 7992,
      "Ġcrate": 7993,
      "Ġmant": 7994,
      "Ġconnect": 7995,
      "TypeFlags": 7996,
      "Ġencont": 7997,
      "Dev": 7998,
      "ĠUsa": 7999,
      "Ġrend": 8000,
      "ĠLo": 8001,
      "ĠÐ¼Ð°ÑĶ": 8002,
      "äºĭ": 8003,
      "ĠÐ²Ð¸Ð¿Ð°Ð´": 8004,
      "Ġautomat": 8005,
      "Ð¾ÑģÑĤÑĥÐ¿": 8006,
      "ĠÐºÐ¾Ð´Ð°": 8007,
      "TestClient": 8008,
      "Ġproblema": 8009,
      "escapedText": 8010,
      "íħĮ": 8011,
      "çī¹å®ļ": 8012,
      "æ®µ": 8013,
      "åĪ©çĶ¨": 8014,
      "09": 8015,
      "79": 8016,
      "Grammar": 8017,
      "SH": 8018,
      "lm": 8019,
      "same": 8020,
      "ĠÑĢÐ°Ð±Ð¾ÑĤ": 8021,
      "ene": 8022,
      "stone": 8023,
      "Ġput": 8024,
      "ĠsÃŃ": 8025,
      "utzer": 8026,
      "Ġnur": 8027,
      "Ġopt": 8028,
      "ĠNow": 8029,
      "ĠDa": 8030,
      "ĠÐ²ÐºÐ»ÑİÑĩ": 8031,
      "define": 8032,
      "Ġ![": 8033,
      "ArrowFunction": 8034,
      "Ġlogic": 8035,
      "å¼Ģ": 8036,
      "Ġmaximum": 8037,
      "Modules": 8038,
      "ĠÐµÑģÑĤÑĮ": 8039,
      "Ġignored": 8040,
      "ãĥĳãĤ¹": 8041,
      "åŁº": 8042,
      "dropout": 8043,
      "ë°ĺ": 8044,
      "Ġì§ģ": 8045,
      "Ġscalar": 8046,
      "demÃ¡s": 8047,
      "èŃĺ": 8048,
      "unctuation": 8049,
      "gun": 8050,
      "plif": 8051,
      "ç¡": 8052,
      "Ġtam": 8053,
      "entr": 8054,
      "roy": 8055,
      "Ġaj": 8056,
      "Ġbien": 8057,
      "ifies": 8058,
      "ÐºÐ°Ð·": 8059,
      "ĠÐ·Ð½": 8060,
      "ĠTypeReference": 8061,
      "mous": 8062,
      "ĠException": 8063,
      "éĢ²": 8064,
      "å°į": 8065,
      "Ġmapped": 8066,
      "ìĭĿ": 8067,
      "ĠæĪĸ": 8068,
      "ãĤ¸ãĤ§": 8069,
      "ĠÑĹÑħ": 8070,
      "Prefix": 8071,
      "VER": 8072,
      "wd": 8073,
      "zar": 8074,
      "Ġsys": 8075,
      "Ġnd": 8076,
      "Ð½ÑĥÑİ": 8077,
      "ĠSch": 8078,
      "impl": 8079,
      "ĠĠĠĠĠĠĠĠĠĠĠĠĠĠĠĠĠĠĠĠĠĠĠĠĠĠĠĠĠĠĠĠĠĠĠĠĠĠĠĠĠĠĠĠĠĠĠ": 8080,
      "Ġready": 8081,
      "forwarded": 8082,
      "ìŀ¥": 8083,
      "Ãºs": 8084,
      "handlers": 8085,
      "ÐµÑģÐºÐ¸": 8086,
      "Ġnpm": 8087,
      "Ġreceive": 8088,
      "Ġsiguientes": 8089,
      "ĠÃ§alÄ±ÅŁtÄ±r": 8090,
      "cribir": 8091,
      "Edit": 8092,
      "RelatedTo": 8093,
      "Ġpaquete": 8094,
      "ĠGoogle": 8095,
      "ì¹ĺ": 8096,
      "69": 8097,
      "Named": 8098,
      "fol": 8099,
      "native": 8100,
      "Ġti": 8101,
      "Ġtri": 8102,
      "unstable": 8103,
      "Ġrelease": 8104,
      "Ġsets": 8105,
      "ifdef": 8106,
      "Ġresume": 8107,
      "Decl": 8108,
      "Ġknown": 8109,
      "Ã§a": 8110,
      "Ġpredetermin": 8111,
      "Ġutilizar": 8112,
      "trained": 8113,
      "ĠÅŁey": 8114,
      "Ġsignatures": 8115,
      "Ġsignifica": 8116,
      "Background": 8117,
      "Implemented": 8118,
      "ĠÐ´Ð¾Ð±Ð°Ð²": 8119,
      "Current": 8120,
      "SR": 8121,
      "Yield": 8122,
      "bf": 8123,
      "cÄ±": 8124,
      "iner": 8125,
      "Ġreason": 8126,
      "isType": 8127,
      "ulate": 8128,
      "ĠSession": 8129,
      "chen": 8130,
      "changed": 8131,
      "ĠDE": 8132,
      "Ġstand": 8133,
      "Tools": 8134,
      "ĠÑĥÐ¼": 8135,
      "position": 8136,
      "Ġclasse": 8137,
      "BlockIndex": 8138,
      "ãģĿãģĹãģ¦": 8139,
      "Ġanimations": 8140,
      "Ġmuy": 8141,
      "Ġnuev": 8142,
      "ĠÐ¾Ð´Ð¸Ð½": 8143,
      "Dockerfile": 8144,
      "Ġtrabajo": 8145,
      "Ġsolicit": 8146,
      "CLI": 8147,
      "ln": 8148,
      "ohn": 8149,
      "rbol": 8150,
      "tom": 8151,
      "uz": 8152,
      "Ñį": 8153,
      "è±": 8154,
      "inity": 8155,
      "Ġsuf": 8156,
      "Ġsponsor": 8157,
      "ĠwÃ¼r": 8158,
      "Ð½ÑĥÑĤ": 8159,
      "ÑĢÐ¾Ð½": 8160,
      "plicable": 8161,
      "ÑĭÐ¹": 8162,
      "Ġsuccessful": 8163,
      "adding": 8164,
      "Ġpropag": 8165,
      "mapper": 8166,
      "Ġworkspace": 8167,
      "Lines": 8168,
      "Ġìĥģ": 8169,
      "Ġproblemas": 8170,
      "âĶĢâĶĢâĶĢâĶĢâĶĢâĶĢâĶĢâĶĢâĶĢâĶĢâĶĢâĶĢâĶĢâĶĢâĶĢâĶĢ": 8171,
      "scale": 8172,
      "signals": 8173,
      "Ġagregar": 8174,
      "Dataset": 8175,
      "ĠÐ¾ÑģÐ½Ð¾Ð²": 8176,
      "å¤ĦçĲĨ": 8177,
      "_.": 8178,
      "aire": 8179,
      "pass": 8180,
      "sample": 8181,
      "ìĤ¬": 8182,
      "alh": 8183,
      "Ġdecor": 8184,
      "Ġaxolotl": 8185,
      "Ġmsg": 8186,
      "Ġblo": 8187,
      "ĠScript": 8188,
      "ĠEj": 8189,
      "Ġimmediate": 8190,
      "ences": 8191,
      "Ġæ³": 8192,
      "Ġprobable": 8193,
      "çĤ¹": 8194,
      "aracters": 8195,
      "ĠInterface": 8196,
      "Ġpropiedades": 8197,
      "Ġagainst": 8198,
      "ABLE": 8199,
      "ĠlÃŃne": 8200,
      "onymous": 8201,
      "Es": 8202,
      "One": 8203,
      "TH": 8204,
      "iet": 8205,
      "±°": 8206,
      "ì¶": 8207,
      "Ġhead": 8208,
      "erate": 8209,
      "atik": 8210,
      "Ġ`[": 8211,
      "Ġdir": 8212,
      "Ġbf": 8213,
      "Ġindiv": 8214,
      "reset": 8215,
      "ĠAxis": 8216,
      "------------------------": 8217,
      "Proxy": 8218,
      "ualified": 8219,
      "Ġdescri": 8220,
      "Ð°Ð½Ñĸ": 8221,
      "callable": 8222,
      "å®ĥä»¬": 8223,
      "handle": 8224,
      "Â»,": 8225,
      "éĢĻäºĽ": 8226,
      "Ġcompute": 8227,
      "partial": 8228,
      "Ġfazla": 8229,
      "Tasks": 8230,
      "é»ĺ": 8231,
      "Ġì¤ĳ": 8232,
      "æªĶæ¡Ī": 8233,
      "BU": 8234,
      "cement": 8235,
      "rÄ±": 8236,
      "Ġhel": 8237,
      "Ġëĭ¨": 8238,
      "Ġbes": 8239,
      "expect": 8240,
      "Ġenable": 8241,
      "Ġimpro": 8242,
      "Deps": 8243,
      "ĠHel": 8244,
      "ä»İ": 8245,
      "ãģ®ãĤĪãģĨãģ«": 8246,
      "ĠTypeParameter": 8247,
      "ificaciÃ³n": 8248,
      "shm": 8249,
      "Ġentorno": 8250,
      "singContext": 8251,
      "Ġjed": 8252,
      "Ġsubgraph": 8253,
      "Ġdependencia": 8254,
      "based": 8255,
      "Ġiterator": 8256,
      "Ġmerge": 8257,
      "ĠìľĦíķ´": 8258,
      "Ġsalida": 8259,
      "creenshot": 8260,
      "ĠejecuciÃ³n": 8261,
      "Ġæ³¨": 8262,
      "Tensor": 8263,
      "kit": 8264,
      "çı¾": 8265,
      "Ġdann": 8266,
      "ãĥĬ": 8267,
      "TypeFrom": 8268,
      "ĠFe": 8269,
      "008": 8270,
      "Ġalloc": 8271,
      "Ġlead": 8272,
      "ãĤĴæĮģ": 8273,
      "ĠNodeBuilder": 8274,
      "Ġdispos": 8275,
      "Entry": 8276,
      "Ġable": 8277,
      "ĠSelect": 8278,
      "Ġresolution": 8279,
      "ĠÐŁÐµÑĢ": 8280,
      "Ġcomplex": 8281,
      "Ġtek": 8282,
      "Ġdurante": 8283,
      "ãģ£ãģ¦ãģĦ": 8284,
      "Ġëĵ±": 8285,
      "imental": 8286,
      "Ġespacio": 8287,
      "Ġdeferred": 8288,
      "BinaryExpression": 8289,
      "MIN": 8290,
      "nel": 8291,
      "Ġant": 8292,
      "Ġolan": 8293,
      "Ġredes": 8294,
      "cluster": 8295,
      "commit": 8296,
      "ĠÐ²Ð¾Ð½": 8297,
      "ĠAnwendung": 8298,
      "Ġkern": 8299,
      "ĠInform": 8300,
      "Ġêµ¬": 8301,
      "iseÃ±": 8302,
      "Ġpermis": 8303,
      "ĠHTTPException": 8304,
      "ãĥ¼ãĤ¯": 8305,
      "Ġè¯": 8306,
      "Ð°Ð½Ð¸Ñİ": 8307,
      "Ġminimum": 8308,
      "Ġtienes": 8309,
      "rupt": 8310,
      "Ġschedule": 8311,
      "Ġsaves": 8312,
      "ç®¡": 8313,
      "Ġcosine": 8314,
      "ĠNOTE": 8315,
      "ĠnÃºmero": 8316,
      "Headers": 8317,
      "ĠLOCK": 8318,
      "Ġherramientas": 8319,
      "ãģĹãģĭãģĹ": 8320,
      "rÃ³n": 8321,
      "learn": 8322,
      "ãģļ": 8323,
      "Ð¾ÑĤÐ¸": 8324,
      "ĠmÃ¡": 8325,
      "ision": 8326,
      "Ġhuman": 8327,
      "enden": 8328,
      "izado": 8329,
      "ÑĸÑģÑĤÑĮ": 8330,
      "Ã¼k": 8331,
      "udan": 8332,
      "ĠÐ¿ÑĢÐ¾Ð³ÑĢÐ°Ð¼": 8333,
      "ÑĢÑĥÐ¶": 8334,
      "Ġregistr": 8335,
      "ĠkÃ¶nn": 8336,
      "ĠrÃ©ponse": 8337,
      "ĠæıĲç¤º": 8338,
      "ĠÐ·Ð°Ð³Ð¾Ð»Ð¾Ð²": 8339,
      "é»ĺè®¤": 8340,
      "cir": 8341,
      "ĳľ": 8342,
      "Ġsyn": 8343,
      "Ġdar": 8344,
      "Ġrem": 8345,
      "Ġwriter": 8346,
      "ĠCWallet": 8347,
      "ĠÐ¿Ð¾Ð»ÑĮÐ·Ð¾Ð²Ð°": 8348,
      "Ġë©": 8349,
      "ĠBuild": 8350,
      "ientras": 8351,
      "ebook": 8352,
      "íķĺë©´": 8353,
      "íķĺìĦ¸ìļĶ": 8354,
      "Ãªtes": 8355,
      "Unknown": 8356,
      "åĪ¶": 8357,
      "ĠEnum": 8358,
      "Ġsupports": 8359,
      "Checks": 8360,
      "Ġcommands": 8361,
      "Ð°ÑĢÑĤ": 8362,
      "Ġinsert": 8363,
      "ĠæĪĳ": 8364,
      "éĿŀå¸¸": 8365,
      "Execute": 8366,
      "stitution": 8367,
      "CON": 8368,
      "normal": 8369,
      "pg": 8370,
      "tu": 8371,
      "íģ": 8372,
      "Ġing": 8373,
      "sequence": 8374,
      "Ġpref": 8375,
      "ĠSu": 8376,
      "Ġthrow": 8377,
      "ĠFunktion": 8378,
      "Ġestas": 8379,
      "ĠÐ¸Ñħ": 8380,
      "123": 8381,
      "ãģªãĤĬãģ¾ãģĻ": 8382,
      "è¦ĭ": 8383,
      "\"}],": 8384,
      "ĠÐ¸ÑģÐ¿Ð¾Ð»ÑĮÐ·Ð¾Ð²": 8385,
      "CHE": 8386,
      "Ġservices": 8387,
      "Ġparametre": 8388,
      "ĠpÃ¡gina": 8389,
      "shmallow": 8390,
      ")(": 8391,
      "48": 8392,
      ">\"": 8393,
      "PRE": 8394,
      "Tip": 8395,
      "flat": 8396,
      "mount": 8397,
      "Ġ{},": 8398,
      "umb": 8399,
      "elen": 8400,
      "veral": 8401,
      "Dependenc": 8402,
      "Ġassume": 8403,
      "ĠExport": 8404,
      "Question": 8405,
      "ĠStandard": 8406,
      "ĠÑģÑĤÐ²Ð¾ÑĢ": 8407,
      "Ġdurum": 8408,
      "porter": 8409,
      "ĠÐºÐ¾ÑĢÐ¸ÑģÑĤ": 8410,
      "ĭåĪ°": 8411,
      "ĠUnionType": 8412,
      "ìłģìľ¼ë¡ľ": 8413,
      "scripts": 8414,
      "ĠëıĻìĿ¼": 8415,
      "Ġcette": 8416,
      "ĠIsso": 8417,
      ":**": 8418,
      "CL": 8419,
      "SC": 8420,
      "rary": 8421,
      "Ġtom": 8422,
      "icamente": 8423,
      "icense": 8424,
      "Ġautor": 8425,
      "ĠDon": 8426,
      "ÑıÐº": 8427,
      "computed": 8428,
      "ĠWait": 8429,
      "Protocol": 8430,
      "ifik": 8431,
      "cape": 8432,
      "Ġgrup": 8433,
      "Ġbutton": 8434,
      "handling": 8435,
      "running": 8436,
      "ULT": 8437,
      "ãģķãĤĮãģŁ": 8438,
      "ç½²": 8439,
      "è¡¨ç¤º": 8440,
      "Decorators": 8441,
      "ĠtanÄ±ml": 8442,
      "remote": 8443,
      "ĠHowever": 8444,
      "ĠlibrerÃŃa": 8445,
      "Ġndarray": 8446,
      "è±¡": 8447,
      "([\"": 8448,
      "cular": 8449,
      "highlight": 8450,
      "°¡": 8451,
      "Ġbun": 8452,
      "Ġhist": 8453,
      "extHost": 8454,
      "Ġreturning": 8455,
      "ĠEr": 8456,
      "Ð¼ÐµÑĢ": 8457,
      "ĠgetGlobal": 8458,
      "ĠBinding": 8459,
      "Ġerstellen": 8460,
      "ĠVersion": 8461,
      "Ġcham": 8462,
      "ÑİÑĶ": 8463,
      "Ġplugins": 8464,
      "timeout": 8465,
      "({\"": 8466,
      "Ġprobably": 8467,
      "Ġë°Ľ": 8468,
      "Ġanimaciones": 8469,
      "ëįĶ": 8470,
      "Ġbetter": 8471,
      "MAX": 8472,
      "Ġê¸°ë³¸": 8473,
      "Ġembargo": 8474,
      "requires": 8475,
      "Ġconfigured": 8476,
      "AM": 8477,
      "OP": 8478,
      "tip": 8479,
      "icol": 8480,
      "**'": 8481,
      "ĠPl": 8482,
      "ĠDans": 8483,
      "Ġloaded": 8484,
      "ĠOut": 8485,
      "ĠÑģÑħÐµÐ¼": 8486,
      "ĠÐ±ÑĸÐ»ÑĮ": 8487,
      "Ġadding": 8488,
      "ensitive": 8489,
      "Ġê°Ĵ": 8490,
      "ĠìĪĺëıĦ": 8491,
      "ĠdÃ©fin": 8492,
      "ObjectFlags": 8493,
      "ĠìĤ¬ìļ©íķĺëĬĶ": 8494,
      "Held": 8495,
      "labels": 8496,
      "Ð½Ð°Ñı": 8497,
      "uelve": 8498,
      "Ġorgan": 8499,
      "needs": 8500,
      "é«ĺ": 8501,
      "ĠAssertLock": 8502,
      "uploadfile": 8503,
      "ëĦĪ": 8504,
      "ĠdÃ©faut": 8505,
      "Ġpalab": 8506,
      "SIG": 8507,
      "dist": 8508,
      "inue": 8509,
      "Ġfailed": 8510,
      "ĠTensor": 8511,
      "Ã³s": 8512,
      "ialect": 8513,
      "ĠÐ²ÑģÑĤÐ°Ð½Ð¾Ð²": 8514,
      "ĠÐ¿Ð¾Ðº": 8515,
      "Infos": 8516,
      "Ġestar": 8517,
      "ĠÐºÑĸÐ»ÑĮ": 8518,
      "Ġattr": 8519,
      "Ġerrores": 8520,
      "ĠentÃ£o": 8521,
      "ambda": 8522,
      "ĠÐ¼Ð¾Ð¶Ð½Ð¾": 8523,
      "ĠKubernetes": 8524,
      "marks": 8525,
      "å¦Ĥä½ķ": 8526,
      "å½ĵ": 8527,
      "Ġseparate": 8528,
      "ĠìĹ¬ëŁ¬ë¶Ħ": 8529,
      "(...": 8530,
      "JavaScript": 8531,
      "pipe": 8532,
      "}/": 8533,
      "íı¬": 8534,
      "stats": 8535,
      "Ġcross": 8536,
      "alcon": 8537,
      "repr": 8538,
      "Ġdue": 8539,
      "empre": 8540,
      "usr": 8541,
      "ĠIA": 8542,
      "ĠNA": 8543,
      "ãģĻãĤĭå": 8544,
      "Ġattem": 8545,
      "ffinity": 8546,
      "ãĤĮãģ¾ãģĻ": 8547,
      "ContextualType": 8548,
      "Ġmanager": 8549,
      "Ġseealso": 8550,
      "ç§į": 8551,
      "klearn": 8552,
      "cussions": 8553,
      "Ð½ÑĮÐ¾": 8554,
      "ĠmodÃ¨le": 8555,
      "Ġìĸ´ëĸ": 8556,
      "=%": 8557,
      "ROM": 8558,
      "baz": 8559,
      "wright": 8560,
      "¤ĸ": 8561,
      "¯å¢ĥ": 8562,
      "Ġcast": 8563,
      "uning": 8564,
      "Ġek": 8565,
      "omin": 8566,
      "Ġisn": 8567,
      "Ġcommit": 8568,
      "ĠDec": 8569,
      "ĠDokumentation": 8570,
      "Ġ15": 8571,
      "convert": 8572,
      "Ġë¹Ħ": 8573,
      "ä»į": 8574,
      "Ġesa": 8575,
      "produ": 8576,
      "Ã¼tz": 8577,
      "ĠÐ¾Ð½": 8578,
      "è¿°": 8579,
      "ĠÐ¿ÑĢÐ¾Ð²": 8580,
      "Ġacces": 8581,
      "ĠìĿ´ëĬĶ": 8582,
      "ĠãĤĴä½¿": 8583,
      "Ġconsidered": 8584,
      "Features": 8585,
      "ĠÐºÐ¾ÑĤÐ¾ÑĢÑĭÐµ": 8586,
      "halten": 8587,
      "éłĲè¨Ń": 8588,
      "Last": 8589,
      "cest": 8590,
      "iÃ¨re": 8591,
      "Ġdeterm": 8592,
      "unque": 8593,
      "ÑĢÐµÐ´": 8594,
      "ĠText": 8595,
      "imo": 8596,
      "plan": 8597,
      "ĠCORS": 8598,
      "Ð»Ð¾": 8599,
      "ĠMo": 8600,
      "Ġcontro": 8601,
      "ecret": 8602,
      "notation": 8603,
      "ĠÑĤÐµÑģÑĤ": 8604,
      "Conditional": 8605,
      "Ġsetup": 8606,
      "ndar": 8607,
      "Ġintelig": 8608,
      "forward": 8609,
      "Ġdirectivas": 8610,
      "å¾ħ": 8611,
      "FromClause": 8612,
      "Scripts": 8613,
      "members": 8614,
      "éĸĵ": 8615,
      "ĠÑģÑĤÐ°Ð½Ð´": 8616,
      "overrides": 8617,
      "author": 8618,
      "æ¯Ķ": 8619,
      "ĠìĺĪë¥¼": 8620,
      "Ð¾Ð·Ð²ÑĢÐ°Ñī": 8621,
      "Ġesquema": 8622,
      "Ġæ³¨æĦı": 8623,
      "DN": 8624,
      "jwt": 8625,
      "mine": 8626,
      "tg": 8627,
      "inin": 8628,
      "Ġsparse": 8629,
      "apic": 8630,
      "cha": 8631,
      "ract": 8632,
      "rome": 8633,
      "Ġkann": 8634,
      "Process": 8635,
      "Ġcha": 8636,
      "ĠÐ¼ÐµÑĤ": 8637,
      "ä»¥åıĬ": 8638,
      "collection": 8639,
      "validator": 8640,
      "autom": 8641,
      "voke": 8642,
      "éĥ¨ç½²": 8643,
      "Ġtienen": 8644,
      "Ġencoding": 8645,
      "ĠÐŀÐ±": 8646,
      "çľĭåĪ°": 8647,
      "Ġmenos": 8648,
      "Ġauthentication": 8649,
      "Ġrequisi": 8650,
      "Ġpotential": 8651,
      "'ve": 8652,
      "Me": 8653,
      "dot": 8654,
      "ges": 8655,
      "çº": 8656,
      "inary": 8657,
      "sejo": 8658,
      "Ġotra": 8659,
      "Ð½Ð°Ð¿": 8660,
      "Ġtool": 8661,
      "ivia": 8662,
      "click": 8663,
      "endr": 8664,
      "asta": 8665,
      "Ð´ÐµÐ»": 8666,
      "encias": 8667,
      "ĠBlock": 8668,
      "Ġ{\"$": 8669,
      "Ġinstances": 8670,
      "Connect": 8671,
      "Ġhtml": 8672,
      "Ð³Ð»Ñı": 8673,
      "workflow": 8674,
      "Ġdefines": 8675,
      "íķ´ìķ¼": 8676,
      "AND": 8677,
      "ĠAssignment": 8678,
      "totype": 8679,
      "Ġmatrix": 8680,
      "IntersectionType": 8681,
      "ĠëĲ©ëĭĪëĭ¤": 8682,
      "Active": 8683,
      "Ġrelacion": 8684,
      "Ġâľħ": 8685,
      "<&": 8686,
      "Engine": 8687,
      "aj": 8688,
      "df": 8689,
      "lru": 8690,
      "namespace": 8691,
      "ĠResolved": 8692,
      "icial": 8693,
      "ÑĢÐ¾Ð²Ð°ÑĤÑĮ": 8694,
      "chten": 8695,
      "Ã©ment": 8696,
      "Ġimag": 8697,
      "Ð¼ÐµÑģÑĤ": 8698,
      "unda": 8699,
      "metrics": 8700,
      "åĬŁ": 8701,
      "cuent": 8702,
      "Ġavez": 8703,
      "Ã¡tica": 8704,
      "Ġprograma": 8705,
      "ĠìĦ¤ìłķ": 8706,
      "Ġaprendizaje": 8707,
      "Ġatributo": 8708,
      "Ġconjunto": 8709,
      "alancer": 8710,
      "Ġë©Ķ": 8711,
      "apicloud": 8712,
      "Ident": 8713,
      "mac": 8714,
      "sent": 8715,
      "switch": 8716,
      "ìĽ": 8717,
      "ł´åĲĪ": 8718,
      "onical": 8719,
      "Ġdb": 8720,
      "ĠAI": 8721,
      "Ġsein": 8722,
      "Ġì£¼": 8723,
      "ĠDjango": 8724,
      "constraint": 8725,
      "enclosing": 8726,
      "Ġkur": 8727,
      "JSX": 8728,
      "Progress": 8729,
      "avg": 8730,
      "ÑĩÐ°Ð½Ð¸Ñİ": 8731,
      "Ð¾Ð»ÑĩÐ°Ð½Ð¸Ñİ": 8732,
      "Ġuint": 8733,
      "ĠÐ¿ÐµÑĢÐµ": 8734,
      "Ġcommons": 8735,
      "åĽłæŃ¤": 8736,
      "TupleType": 8737,
      "ersistentVolume": 8738,
      "ĠforEachChildIn": 8739,
      "ãĤ¸ãĤ§ãĤ¯ãĥĪ": 8740,
      "ĠÑĥÐ¼Ð¾Ð»ÑĩÐ°Ð½Ð¸Ñİ": 8741,
      ".\",": 8742,
      "/\":": 8743,
      "Claim": 8744,
      "Func": 8745,
      "river": 8746,
      "Ġ{%": 8747,
      "ĠmÃ¼": 8748,
      "igher": 8749,
      "ĠSpec": 8750,
      "ĠSDK": 8751,
      "ĠAct": 8752,
      "ëĭ¹": 8753,
      "tyle": 8754,
      "ÐµÐ½ÑĮ": 8755,
      "should": 8756,
      "ÑĤÐµÐ¼": 8757,
      "byte": 8758,
      ":`~": 8759,
      "ĠÑĩÐ°ÑģÑĤ": 8760,
      "ĠÑįÑĤÐ¸": 8761,
      "ä¾ĭãģĪãģ°": 8762,
      "children": 8763,
      "Ġservicios": 8764,
      "Ġparametres": 8765,
      "ĠìŀĲëıĻ": 8766,
      "Ġæĸĩä»¶": 8767,
      "epspeed": 8768,
      "Declared": 8769,
      "'d": 8770,
      ">();": 8771,
      "My": 8772,
      "NaN": 8773,
      "Pending": 8774,
      "cross": 8775,
      "ç¼": 8776,
      "Ġomit": 8777,
      "inz": 8778,
      "ĠĠĠĠĠĠĠĠĠĠĠĠĠĠĠĠĠĠĠĠĠĠ": 8779,
      "Ġsitu": 8780,
      "Ġ\"\"": 8781,
      "Ġdate": 8782,
      "Ġmill": 8783,
      "ÐµÐ³Ð¾": 8784,
      "lap": 8785,
      "exec": 8786,
      "lie": 8787,
      "ĠTuple": 8788,
      "porte": 8789,
      "ÑĥÑģ": 8790,
      "ĠNamed": 8791,
      "ĠMet": 8792,
      "ĠLet": 8793,
      "ÑĭÑĩ": 8794,
      "Ġsera": 8795,
      "outine": 8796,
      "Declarations": 8797,
      "Ð¾Ð´ÐµÑĢÐ¶": 8798,
      "Ġ42": 8799,
      "ĠContent": 8800,
      "CHED": 8801,
      "ĠFormat": 8802,
      "Ġaussi": 8803,
      "velopers": 8804,
      "Ġconnections": 8805,
      "ĠgetTypeFrom": 8806,
      "ĠHandler": 8807,
      "ĠÐ¢ÐµÐ¿ÐµÑĢ": 8808,
      "ĠÐ¿Ð¾ÑĤÑĢÑĸÐ±Ð½Ð¾": 8809,
      "ĠespaÃ±": 8810,
      "Ġæľĥ": 8811,
      "leave": 8812,
      "unsigned": 8813,
      "ÐµÑĨÐ¸": 8814,
      "ises": 8815,
      "Ġvor": 8816,
      "ieurs": 8817,
      "conf": 8818,
      "ĠtypeArguments": 8819,
      "Ġrate": 8820,
      "ierung": 8821,
      "çĶ¢": 8822,
      "FileName": 8823,
      "utilis": 8824,
      "ĠConsejo": 8825,
      "Ð½ÑĭÐ¼": 8826,
      "ĠÐŁÐ¾Ð´": 8827,
      "ĠestÃ¡ndar": 8828,
      "ĠURLs": 8829,
      "Ġprimera": 8830,
      "ÑĸÐ»ÑĮÐºÐ¸": 8831,
      "ĠÐ¼Ð¾Ð´ÐµÐ»": 8832,
      "ĠcbNodes": 8833,
      "ĠÐ¾Ð³Ð¾Ð»Ð¾ÑĪ": 8834,
      "ç¡®": 8835,
      "ualifiedName": 8836,
      "ĠÐºÐ¾ÑĢÐ¸ÑģÑĤÑĥÐ²": 8837,
      ".\")": 8838,
      "57": 8839,
      "Bulk": 8840,
      "was": 8841,
      "depends": 8842,
      "ionales": 8843,
      "Ġsab": 8844,
      "igrate": 8845,
      "ira": 8846,
      "ĠNumber": 8847,
      "ÑĸÑı": 8848,
      "ä¸²": 8849,
      "Ġë¶": 8850,
      "ĠÐ½Ð¾Ð²": 8851,
      "Ð¾Ð»Ð¶": 8852,
      "Symbols": 8853,
      "forb": 8854,
      "uda": 8855,
      "Ġscheme": 8856,
      "Ð½ÑĸÑģÑĤÑĮ": 8857,
      "ĠÐ¿ÑĢÐ¸Ð¼ÐµÑĢ": 8858,
      "Ġlines": 8859,
      "Ġcertain": 8860,
      "Ġëĭ¤ìĿĮê³¼": 8861,
      "Ġnecesitas": 8862,
      "declare": 8863,
      "Runtime": 8864,
      "behind": 8865,
      "PF": 8866,
      "Skip": 8867,
      "_(": 8868,
      "lora": 8869,
      "uer": 8870,
      "ĠãģĮ": 8871,
      "ama": 8872,
      "ĠiÅŁ": 8873,
      "ĠdiseÃ±": 8874,
      "Ġhace": 8875,
      "ivamente": 8876,
      "ĠNum": 8877,
      "Ġquier": 8878,
      "ĠÐ²Ð½ÑĥÑĤ": 8879,
      "ĠrÃ¡": 8880,
      "ĠAncak": 8881,
      "servers": 8882,
      "aki": 8883,
      "Ġresulting": 8884,
      "Ġgrad": 8885,
      "è¨ĺ": 8886,
      "Ġkullanabilirsiniz": 8887,
      "blocks": 8888,
      "ãĤīãģ®": 8889,
      "Ġupload": 8890,
      "Ġanimation": 8891,
      "Ġprimer": 8892,
      "ÑĤÑĥÐ°Ð»ÑĮ": 8893,
      "ĠDiagnosticMessage": 8894,
      "ĠÐºÐ¾Ð¼Ð°Ð½Ð´": 8895,
      "Fr": 8896,
      "]\"": 8897,
      "Ġ`*": 8898,
      "Ġaseg": 8899,
      "Ð°ÑĢÐ°Ð¼ÐµÑĤÑĢ": 8900,
      "Ġhier": 8901,
      "ĠNg": 8902,
      "Ġ**`": 8903,
      "keep": 8904,
      "oph": 8905,
      "viction": 8906,
      "available": 8907,
      "Ġpragma": 8908,
      "ÑĢÐ°Ð´": 8909,
      "ãģĦãģ¦": 8910,
      "PropertyDeclaration": 8911,
      "crets": 8912,
      "Ġê°ľ": 8913,
      "aires": 8914,
      "ç¨®": 8915,
      "Ġê²Ģì": 8916,
      "Assignable": 8917,
      "Ġpartir": 8918,
      "Ġprimary": 8919,
      "Super": 8920,
      "ĠautomÃ¡tica": 8921,
      "Ġcompatible": 8922,
      "ç¯Ħ": 8923,
      "ĠðŁİī": 8924,
      "ĠdÃ¶ndÃ¼r": 8925,
      "Ġelimin": 8926,
      "729": 8927,
      "Sync": 8928,
      "bash": 8929,
      "Ġinplace": 8930,
      "ĠlÃ³g": 8931,
      "Ġqueue": 8932,
      "ĠUtil": 8933,
      "ÑĭÐµ": 8934,
      "Ġadamw": 8935,
      "ĠæĬ": 8936,
      "larÄ±n": 8937,
      "ãģĮãģ§ãģįãģ¾ãģĻ": 8938,
      "credentials": 8939,
      "Ġcompi": 8940,
      "ĠìĤ¬ìļ©ìŀĲ": 8941,
      "Ġrequer": 8942,
      "Ġoutputs": 8943,
      "ĠnextToken": 8944,
      "ĠsaÄŁ": 8945,
      "propri": 8946,
      "Bytes": 8947,
      "ÑĢÐ°Ð±Ð¾ÑĤÑĩÐ¸": 8948,
      "ĠÐ±ÑĭÑĤÑĮ": 8949,
      "embeddings": 8950,
      "ĠcaracterÃŃst": 8951,
      "ãĤ³ãĥ³ãĥĨ": 8952,
      "Loop": 8953,
      "raphQL": 8954,
      "Ð¾Ð»Ð½Ð¸ÑĤÐµÐ»ÑĮ": 8955,
      "Ġæİ¥": 8956,
      "ALI": 8957,
      "cla": 8958,
      "math": 8959,
      "splits": 8960,
      "wind": 8961,
      "¿ħ": 8962,
      "èĬ": 8963,
      "Ġrows": 8964,
      "sets": 8965,
      "ceptions": 8966,
      "gether": 8967,
      "platform": 8968,
      "ĠEvent": 8969,
      "Ġalle": 8970,
      "concurrent": 8971,
      "Ġrules": 8972,
      "ĠHas": 8973,
      "program": 8974,
      "show": 8975,
      "ĠìķĮ": 8976,
      "ĠÐ±ÑĥÑĤÐ¸": 8977,
      "ãĥ«ãĥĪ": 8978,
      "Ġcallable": 8979,
      "ĠContext": 8980,
      "fixed": 8981,
      "çµ±": 8982,
      "clear": 8983,
      "ãĥĨãĤ£": 8984,
      "éĢļè¿ĩ": 8985,
      "ĠÃºtil": 8986,
      "ĠspÃ©c": 8987,
      "ĠparÃ¢metros": 8988,
      "ĠdÃ©pendances": 8989,
      "(**": 8990,
      "CSS": 8991,
      "Up": 8992,
      "nal": 8993,
      "íŀ": 8994,
      "Ġtakes": 8995,
      "Ġ=================================": 8996,
      "edores": 8997,
      "ĠCookie": 8998,
      "ift": 8999,
      "ĠPass": 9000,
      "\"></": 9001,
      "ops": 9002,
      "Ġeso": 9003,
      "Ġkl": 9004,
      "åıĺ": 9005,
      "readthe": 9006,
      "Off": 9007,
      "Ġchecked": 9008,
      "fork": 9009,
      "ĠðŁķĻ": 9010,
      "ãģĵãģ®": 9011,
      "Ġpods": 9012,
      "ãĥĩãĥķãĤ©": 9013,
      "Specification": 9014,
      "weights": 9015,
      "çīĪæľ¬": 9016,
      "Ġevals": 9017,
      "Addr": 9018,
      "ä¿¡æģ¯": 9019,
      "çİ°": 9020,
      "cdkD": 9021,
      "experts": 9022,
      "sterisk": 9023,
      "ĠÃ¶nce": 9024,
      "uggingface": 9025,
      "PubKey": 9026,
      "readthedocs": 9027,
      "ãĥĩãĥķãĤ©ãĥ«ãĥĪ": 9028,
      "46": 9029,
      "58": 9030,
      "glich": 9031,
      "jas": 9032,
      "tuel": 9033,
      "stan": 9034,
      "ently": 9035,
      "pez": 9036,
      "oll": 9037,
      "idle": 9038,
      "ÑĸÑİ": 9039,
      "Ġprov": 9040,
      "ĠtypeParameters": 9041,
      "Ġkon": 9042,
      "ĠÐ¾Ñĩ": 9043,
      "ĠÑģÐ¾Ð´ÐµÑĢÐ¶": 9044,
      "Comple": 9045,
      "è¿ĺ": 9046,
      "ãĤ¹ãĤ¿": 9047,
      "Ġcover": 9048,
      "ìłĳ": 9049,
      "Ġmanually": 9050,
      "Ġutilise": 9051,
      "ĠCommon": 9052,
      "ĠçĦ¶": 9053,
      "azÄ±": 9054,
      "Authentic": 9055,
      "Ã¤ch": 9056,
      "æĽ¸": 9057,
      "éģ¸": 9058,
      "UnionType": 9059,
      "Ġnueva": 9060,
      "Opening": 9061,
      "ãģŁãĤģãģ«": 9062,
      "Ġplaceholder": 9063,
      "ç¯Ģ": 9064,
      "Ġdisponibles": 9065,
      "Ġfrontend": 9066,
      "ĠNew": 9067,
      "ĠmÃ³dulo": 9068,
      "Ġparticipant": 9069,
      "nt": 9070,
      "íĶĦ": 9071,
      "Ġtimes": 9072,
      "Ġcatch": 9073,
      "replace": 9074,
      "asÄ±": 9075,
      "Ġpur": 9076,
      "ĠfÃ¡": 9077,
      "Ð¾Ðµ": 9078,
      "Ġinclus": 9079,
      "Ġwatch": 9080,
      "ĠEach": 9081,
      "chemin": 9082,
      "Ã¡ct": 9083,
      "çĶ¨äºİ": 9084,
      "serve": 9085,
      "ëĭ¤ë©´": 9086,
      "pedia": 9087,
      "ÐµÐ¼ÐµÐ½": 9088,
      "Ġtimeout": 9089,
      "ĠreportErrors": 9090,
      "fastapicloud": 9091,
      "AssignableTo": 9092,
      "Ġ=================================================================": 9093,
      ".)": 9094,
      "/?": 9095,
      "Net": 9096,
      "gres": 9097,
      "lard": 9098,
      "mgr": 9099,
      "ç°¡": 9100,
      "è°": 9101,
      "ĢĮ": 9102,
      "ĠÐĳ": 9103,
      "Ġfast": 9104,
      "ĠsÃ©": 9105,
      "Ġdin": 9106,
      "Ġincorrect": 9107,
      "Ġredirect": 9108,
      "Ġrequirements": 9109,
      "ãĤĩ": 9110,
      "strip": 9111,
      "ĠDNS": 9112,
      "documentation": 9113,
      "Ġbecom": 9114,
      "__`": 9115,
      "question": 9116,
      "Ġadmin": 9117,
      "éĢī": 9118,
      "loader": 9119,
      "Ġcontextual": 9120,
      "Ġgraph": 9121,
      "Ġcorre": 9122,
      "ĠÐ¾Ð±ÑĢÐ°Ð·": 9123,
      "translate": 9124,
      "generator": 9125,
      "è¿Ļä¸ª": 9126,
      "æ³ģ": 9127,
      "ìĬ¤íħ": 9128,
      "solute": 9129,
      "Ġtransactions": 9130,
      "Ġsaving": 9131,
      "å·¥ä½ľ": 9132,
      "integrations": 9133,
      "ĠÑģÑĤÐ°Ð½Ð´Ð°ÑĢÑĤ": 9134,
      "íŀĪ": 9135,
      "FCF": 9136,
      "ccion": 9137,
      "mal": 9138,
      "Ġ80": 9139,
      "Ġsql": 9140,
      "Ġmakes": 9141,
      "Ġnavigation": 9142,
      "chmarks": 9143,
      "rie": 9144,
      "Ġgar": 9145,
      "ÑıÐ¼": 9146,
      "ĠOperation": 9147,
      "Ġusw": 9148,
      "Ã¼man": 9149,
      "tutorials": 9150,
      "ĠÐ½Ð°Ð·": 9151,
      "ĠÑĤÐ¾Ð³Ð¾": 9152,
      "åħ³": 9153,
      "Ġinterfaces": 9154,
      "argc": 9155,
      "Ġendpoint": 9156,
      "èĩªåĬ¨": 9157,
      "ĠÐ¿Ð°ÑĢ": 9158,
      "Before": 9159,
      "Ġproduce": 9160,
      "ĠgeÃ§": 9161,
      "éĹ®": 9162,
      "åĨħå®¹": 9163,
      "ĠTransform": 9164,
      "Ġreduce": 9165,
      "ĠdÃ©clarer": 9166,
      "Ġarquivo": 9167,
      ">]</": 9168,
      "ĠÐ»Ð¸ÑĪÐµ": 9169,
      ">[</": 9170,
      "<()": 9171,
      "COM": 9172,
      "Fn": 9173,
      "SA": 9174,
      "Side": 9175,
      "Scopes": 9176,
      "most": 9177,
      "æ§": 9178,
      "Ġ\"\\": 9179,
      "Ġrect": 9180,
      "ĠSon": 9181,
      "ĠAst": 9182,
      "rib": 9183,
      "ĠÐ²Ð¾Ð·Ð²ÑĢÐ°Ñī": 9184,
      "intext": 9185,
      "Construct": 9186,
      "JSDocType": 9187,
      "ĠÑĩÐ°Ñģ": 9188,
      "Ġclases": 9189,
      "tls": 9190,
      "æİ¥æĶ¶": 9191,
      "ibilidad": 9192,
      "Ġrendering": 9193,
      "Ġcallbacks": 9194,
      "çŁ¥èŃĺ": 9195,
      "uggestion": 9196,
      "Ġdirectories": 9197,
      "ĠÐ²Ð¸ÐºÐ¾Ð½": 9198,
      "ĠlÃŃnea": 9199,
      "ZE": 9200,
      "lÃ¼": 9201,
      "ç·": 9202,
      "attribute": 9203,
      "Ġdeb": 9204,
      "Ġmientras": 9205,
      "Ġnas": 9206,
      "exc": 9207,
      "ĠAuth": 9208,
      "Ġthings": 9209,
      "Ġparsed": 9210,
      "Ġquote": 9211,
      "Ġgle": 9212,
      "Ġvaleur": 9213,
      "ĠLoc": 9214,
      "Ġå¤": 9215,
      "Ġshort": 9216,
      "Strict": 9217,
      "Ġmodo": 9218,
      "jekt": 9219,
      "ĠâĪ": 9220,
      "Ġâı": 9221,
      "åĨµ": 9222,
      "Ġlocale": 9223,
      "æĶ¹": 9224,
      "Ġcapt": 9225,
      "BindingElement": 9226,
      "Ġmarks": 9227,
      "ĠÃĸr": 9228,
      "roadcast": 9229,
      "ãĤĩãģĨ": 9230,
      "(!": 9231,
      "47": 9232,
      "Can": 9233,
      "cancel": 9234,
      "named": 9235,
      "ano": 9236,
      "Ġrele": 9237,
      "ationToken": 9238,
      "ird": 9239,
      "Ġenviron": 9240,
      "Ġstyles": 9241,
      "Ã¡nd": 9242,
      "ĠMake": 9243,
      "Ġimportant": 9244,
      "ĠBo": 9245,
      "ĠÐ´Ð¾ÑģÑĤÑĥÐ¿": 9246,
      "ĠThat": 9247,
      "ãģĹãĤĩãģĨ": 9248,
      "prim": 9249,
      "äºĴ": 9250,
      "Struct": 9251,
      "Ġmodify": 9252,
      "åº¦": 9253,
      "tagName": 9254,
      "Ġdevol": 9255,
      "Ġsafe": 9256,
      "Ġsegundo": 9257,
      "æĽ´æĸ°": 9258,
      "ãĤĪãģĨãģª": 9259,
      "Ġoffset": 9260,
      "å°±æĺ¯": 9261,
      "æĥħåĨµ": 9262,
      "issues": 9263,
      "ĠinyecciÃ³n": 9264,
      "ĠTyp": 9265,
      "Ġë²Ħ": 9266,
      "Ġlenguaje": 9267,
      "fficient": 9268,
      "ĠmÃ¶chten": 9269,
      "ìĥģ": 9270,
      "ĠåĽłæŃ¤": 9271,
      "40": 9272,
      "PA": 9273,
      "nement": 9274,
      "ools": 9275,
      "ê±°": 9276,
      "ĉĉ": 9277,
      "ĠãģĿãģ®": 9278,
      "ines": 9279,
      "Ġfac": 9280,
      "Ġdig": 9281,
      "Ġmot": 9282,
      "Ġnet": 9283,
      "Ġinstru": 9284,
      "Ġwel": 9285,
      "Ġseveral": 9286,
      "period": 9287,
      "ĠFROM": 9288,
      "Ġorden": 9289,
      "Ġtypeof": 9290,
      "ĠÑģÐ²Ð¾": 9291,
      "Ð°ÐºÐµÑĤ": 9292,
      "RequestForm": 9293,
      "Ġhandling": 9294,
      "RES": 9295,
      "ãģĻãĤĭãģ¨": 9296,
      "CheckFlags": 9297,
      "LECT": 9298,
      "WebSocket": 9299,
      "ĠItems": 9300,
      "chainman": 9301,
      "ĠÐ¼Ð¾Ð´ÐµÐ»ÑĮ": 9302,
      "Redirect": 9303,
      "PrivateIdentifier": 9304,
      "Ġrecursos": 9305,
      "çİ¯å¢ĥ": 9306,
      "é«Ķ": 9307,
      "PasswordRequestForm": 9308,
      "ĠÑĤÐ¾ÑīÐ¾": 9309,
      "ĠGuide": 9310,
      "subscribe": 9311,
      "Ġcompilador": 9312,
      "galement": 9313,
      "icolon": 9314,
      "!(\"": 9315,
      "Scoped": 9316,
      "coder": 9317,
      "»åĬł": 9318,
      "ond": 9319,
      "Ġctx": 9320,
      "Ġcounter": 9321,
      "Ġ\"<": 9322,
      "Ð¾Ñī": 9323,
      "iggers": 9324,
      "Ġhinz": 9325,
      "antasyon": 9326,
      "ĠMin": 9327,
      "ĠtypeToString": 9328,
      "ĠÐ¾Ðº": 9329,
      "ĠTypeFacts": 9330,
      "ashboard": 9331,
      "ĠçŃī": 9332,
      "è¯ģ": 9333,
      "ëıĦë¡Ŀ": 9334,
      "Ġdiesem": 9335,
      "processing": 9336,
      "æĽ´å¤ļ": 9337,
      "Ã¼mantasyon": 9338,
      "ĠÐ´Ð¾ÐºÑĥÐ¼ÐµÐ½ÑĤÐ°ÑĨÐ¸Ð¸": 9339,
      "éĹľ": 9340,
      "ĠmayorÃŃa": 9341,
      "Ġë§Įëĵ¤": 9342,
      "Ġfichier": 9343,
      "Ġclear": 9344,
      "ĠAutomatically": 9345,
      "æľįåĬ¡åĻ¨": 9346,
      "Ġartificial": 9347,
      "FE": 9348,
      "IC": 9349,
      "counter": 9350,
      "hl": 9351,
      "}\",": 9352,
      "èĪ": 9353,
      "Ġclosed": 9354,
      "Ġaber": 9355,
      "ãģ³": 9356,
      "loy": 9357,
      "Ð¸Ð»Ð¸": 9358,
      "ished": 9359,
      "ĠAc": 9360,
      "Ġlang": 9361,
      "Ġges": 9362,
      "ased": 9363,
      "trigger": 9364,
      "çĶ¨æĪ·": 9365,
      "ĠRender": 9366,
      "nek": 9367,
      "warm": 9368,
      "Ġíħ": 9369,
      "Ġíĳľ": 9370,
      "bobox": 9371,
      "Ġoutside": 9372,
      "å®ĥåĢĳ": 9373,
      "Search": 9374,
      "STR": 9375,
      "è®Ĭ": 9376,
      "ç«ł": 9377,
      "flict": 9378,
      "Ġpool": 9379,
      "vision": 9380,
      "ÑĢÐ¾Ð²Ð°Ð½": 9381,
      "scalar": 9382,
      "Ð¿ÑĢÐµÐ´": 9383,
      "ĠEntÃ£o": 9384,
      "ĠÐºÐ¾ÑĤÐ¾ÑĢÑĭÐ¹": 9385,
      "ĠÃ¡rbol": 9386,
      "Ġnormally": 9387,
      "containers": 9388,
      "ĠÐ´Ð¾Ð¿Ð¾Ð¼": 9389,
      "Ġì§ģìłĳ": 9390,
      "Ġindividual": 9391,
      "Ġmillones": 9392,
      "*)": 9393,
      "pc": 9394,
      "tain": 9395,
      "uro": 9396,
      "wen": 9397,
      "arÄ±": 9398,
      "Ġci": 9399,
      "Ġscanner": 9400,
      "unlock": 9401,
      "Ġbases": 9402,
      "Ġvb": 9403,
      "Ġcomun": 9404,
      "Ġanderen": 9405,
      "Extra": 9406,
      "Ð¿Ð¾Ð»": 9407,
      "ssen": 9408,
      "owner": 9409,
      "Ġplugin": 9410,
      "ĠÐ½ÐµÐ¾Ð±": 9411,
      "ĠèĢĮ": 9412,
      "éĩĮ": 9413,
      "Ġindicates": 9414,
      "Ġskipna": 9415,
      "Ġdirekt": 9416,
      "ĠIntersection": 9417,
      "æĥħæ³ģ": 9418,
[...]
