{
  "version": "1.0",
  "truncation": null,
  "padding": null,
  "added_tokens": [
    {
      "id": 0,
      "content": "<pad>",
      "single_word": false,
      "lstrip": false,
      "rstrip": false,
      "normalized": false,
      "special": true
    },
    {
      "id": 1,
      "content": "<unk>",
      "single_word": false,
      "lstrip": false,
      "rstrip": false,
      "normalized": false,
      "special": true
    },
    {
      "id": 2,
      "content": "<bos>",
      "single_word": false,
      "lstrip": false,
      "rstrip": false,
      "normalized": false,
      "special": true
    },
    {
      "id": 3,
      "content": "<eos>",
      "single_word": false,
      "lstrip": false,
      "rstrip": false,
      "normalized": false,
      "special": true
    },
    {
      "id": 4,
      "content": "<sep>",
      "single_word": false,
      "lstrip": false,
      "rstrip": false,
      "normalized": false,
      "special": true
    },
    {
      "id": 5,
      "content": "<code>",
      "single_word": false,
      "lstrip": false,
      "rstrip": false,
      "normalized": false,
      "special": true
    }
  ],
  "normalizer": {
    "type": "NFKC"
  },
  "pre_tokenizer": {
    "type": "ByteLevel",
    "add_prefix_space": true,
    "trim_offsets": true,
    "use_regex": true
  },
  "post_processor": null,
  "decoder": {
    "type": "ByteLevel",
    "add_prefix_space": true,
    "trim_offsets": true,
    "use_regex": true
  },
  "model": {
    "type": "BPE",
    "dropout": null,
    "unk_token": "<unk>",
    "continuing_subword_prefix": null,
    "end_of_word_suffix": null,
    "fuse_unk": false,
    "byte_fallback": false,
    "ignore_merges": false,
    "vocab": {
      "<pad>": 0,
      "<unk>": 1,
      "<bos>": 2,
      "<eos>": 3,
      "<sep>": 4,
      "<code>": 5,
      "!": 6,
      "\"": 7,
      "#": 8,
      "$": 9,
      "%": 10,
      "&": 11,
      "'": 12,
      "(": 13,
      ")": 14,
      "*": 15,
      "+": 16,
      ",": 17,
      "-": 18,
      ".": 19,
      "/": 20,
      "0": 21,
      "1": 22,
      "2": 23,
      "3": 24,
      "4": 25,
      "5": 26,
      "6": 27,
      "7": 28,
      "8": 29,
      "9": 30,
      ":": 31,
      ";": 32,
      "<": 33,
      "=": 34,
      ">": 35,
      "?": 36,
      "@": 37,
      "A": 38,
      "B": 39,
      "C": 40,
      "D": 41,
      "E": 42,
      "F": 43,
      "G": 44,
      "H": 45,
      "I": 46,
      "J": 47,
      "K": 48,
      "L": 49,
      "M": 50,
      "N": 51,
      "O": 52,
      "P": 53,
      "Q": 54,
      "R": 55,
      "S": 56,
      "T": 57,
      "U": 58,
      "V": 59,
      "W": 60,
      "X": 61,
      "Y": 62,
      "Z": 63,
      "[": 64,
      "\\": 65,
      "]": 66,
      "^": 67,
      "_": 68,
      "`": 69,
      "a": 70,
      "b": 71,
      "c": 72,
      "d": 73,
      "e": 74,
      "f": 75,
      "g": 76,
      "h": 77,
      "i": 78,
      "j": 79,
      "k": 80,
      "l": 81,
      "m": 82,
      "n": 83,
      "o": 84,
      "p": 85,
      "q": 86,
      "r": 87,
      "s": 88,
      "t": 89,
      "u": 90,
      "v": 91,
      "w": 92,
      "x": 93,
      "y": 94,
      "z": 95,
      "{": 96,
      "|": 97,
      "}": 98,
      "~": 99,
      "¡": 100,
      "¢": 101,
      "£": 102,
      "¤": 103,
      "¥": 104,
      "¦": 105,
      "§": 106,
      "¨": 107,
      "©": 108,
      "ª": 109,
      "«": 110,
      "¬": 111,
      "®": 112,
      "¯": 113,
      "°": 114,
      "±": 115,
      "²": 116,
      "³": 117,
      "´": 118,
      "µ": 119,
      "¶": 120,
      "·": 121,
      "¸": 122,
      "¹": 123,
      "º": 124,
      "»": 125,
      "¼": 126,
      "½": 127,
      "¾": 128,
      "¿": 129,
      "Â": 130,
      "Ã": 131,
      "Ä": 132,
      "Å": 133,
      "Æ": 134,
      "Ç": 135,
      "È": 136,
      "É": 137,
      "Ê": 138,
      "Ë": 139,
      "Ì": 140,
      "Í": 141,
      "Î": 142,
      "Ï": 143,
      "Ð": 144,
      "Ñ": 145,
      "Ò": 146,
      "Ó": 147,
      "Ô": 148,
      "Õ": 149,
      "Ö": 150,
      "×": 151,
      "Ø": 152,
      "Ù": 153,
      "Ú": 154,
      "Û": 155,
      "Ü": 156,
      "Ý": 157,
      "Þ": 158,
      "ß": 159,
      "à": 160,
      "á": 161,
      "â": 162,
      "ã": 163,
      "ä": 164,
      "å": 165,
      "æ": 166,
      "ç": 167,
      "è": 168,
      "é": 169,
      "ê": 170,
      "ë": 171,
      "ì": 172,
      "í": 173,
      "î": 174,
      "ï": 175,
      "ð": 176,
      "ñ": 177,
      "ò": 178,
      "ó": 179,
      "Ā": 180,
      "ā": 181,
      "Ă": 182,
      "ă": 183,
      "ą": 184,
      "Ċ": 185,
      "č": 186,
      "Đ": 187,
      "Ė": 188,
      "ě": 189,
      "Ġ": 190,
      "ġ": 191,
      "Ģ": 192,
      "ģ": 193,
      "Ĥ": 194,
      "ĥ": 195,
      "Ħ": 196,
      "ħ": 197,
      "Ĩ": 198,
      "ĩ": 199,
      "Ī": 200,
      "ī": 201,
      "Ĭ": 202,
      "ĭ": 203,
      "Į": 204,
      "į": 205,
      "İ": 206,
      "ı": 207,
      "Ĳ": 208,
      "ĳ": 209,
      "Ĵ": 210,
      "ĵ": 211,
      "Ķ": 212,
      "ķ": 213,
      "ĸ": 214,
      "Ĺ": 215,
      "ĺ": 216,
      "Ļ": 217,
      "ļ": 218,
      "Ľ": 219,
      "ľ": 220,
      "Ŀ": 221,
      "ŀ": 222,
      "Ł": 223,
      "ł": 224,
      "Ń": 225,
      "er": 226,
      "en": 227,
      "on": 228,
      "in": 229,
      "Ġt": 230,
      "es": 231,
      "or": 232,
      "at": 233,
      "el": 234,
      "Ġs": 235,
      "Ġa": 236,
      "Ġd": 237,
      "Ġc": 238,
      "as": 239,
      "re": 240,
      "al": 241,
      "ar": 242,
      "Ġ=": 243,
      "he": 244,
      "Ġp": 245,
      "an": 246,
      "is": 247,
      "Ġl": 248,
      "ti": 249,
      "ed": 250,
      "Ġf": 251,
      "ro": 252,
      "ut": 253,
      "Ġde": 254,
      "Ġm": 255,
      "it": 256,
      "od": 257,
      "os": 258,
      "elf": 259,
      "un": 260,
      "Ġ\"": 261,
      "id": 262,
      "le": 263,
      "ic": 264,
      "ing": 265,
      "Ġo": 266,
      "Ġthe": 267,
      "ad": 268,
      "Ġin": 269,
      "ent": 270,
      "et": 271,
      "Ġn": 272,
      "st": 273,
      "Ġb": 274,
      "ac": 275,
      "am": 276,
      "ur": 277,
      "Ġw": 278,
      "im": 279,
      "ig": 280,
      "qu": 281,
      "ec": 282,
      "Ġself": 283,
      "ex": 284,
      "čĊ": 285,
      "ion": 286,
      "tion": 287,
      "ch": 288,
      "Ġh": 289,
      "est": 290,
      "om": 291,
      "Ġre": 292,
      "se": 293,
      "Ġ{": 294,
      "if": 295,
      "Ġto": 296,
      "iz": 297,
      "em": 298,
      "ul": 299,
      "Ġ(": 300,
      "Ġan": 301,
      "ass": 302,
      "Ġv": 303,
      "Ġcon": 304,
      "lo": 305,
      "tr": 306,
      "put": 307,
      "--": 308,
      "()": 309,
      "Ġ#": 310,
      "il": 311,
      "Ġ}": 312,
      "pe": 313,
      "Ġr": 314,
      "ag": 315,
      "ab": 316,
      "Ġof": 317,
      "Ġ1": 318,
      "Ġg": 319,
      "Ġth": 320,
      "ot": 321,
      "\",": 322,
      "ue": 323,
      "ol": 324,
      "ĠT": 325,
      "Ġla": 326,
      "Ġen": 327,
      "Ġy": 328,
      "Ġel": 329,
      "ert": 330,
      "us": 331,
      "one": 332,
      "um": 333,
      "):": 334,
      "to": 335,
      "ation": 336,
      "Ġand": 337,
      "odel": 338,
      "ĠA": 339,
      "ĠN": 340,
      "Ġfor": 341,
      "ce": 342,
      "th": 343,
      "ate": 344,
      "Ã³": 345,
      "ãģ": 346,
      "ĠS": 347,
      "fig": 348,
      "Ġ'": 349,
      "Ġif": 350,
      "Ġis": 351,
      "__": 352,
      "ay": 353,
      "self": 354,
      "ers": 355,
      "ĠC": 356,
      "urn": 357,
      "ap": 358,
      "con": 359,
      "Ġdef": 360,
      "Ġqu": 361,
      "up": 362,
      "ort": 363,
      "oc": 364,
      "ter": 365,
      "Ġim": 366,
      "Ġun": 367,
      "\":": 368,
      "ize": 369,
      "Ġ0": 370,
      "ir": 371,
      "Ġ.": 372,
      "ten": 373,
      "ess": 374,
      "Ġ-": 375,
      "00": 376,
      "rom": 377,
      "pl": 378,
      "Ġ<": 379,
      "turn": 380,
      "ect": 381,
      "ken": 382,
      "ame": 383,
      "ĠL": 384,
      "ĠP": 385,
      "orm": 386,
      "port": 387,
      "ith": 388,
      "age": 389,
      "ĠI": 390,
      "ype": 391,
      "Ġreturn": 392,
      "and": 393,
      "lass": 394,
      "Ġ2": 395,
      "ain": 396,
      "Ġe": 397,
      "den": 398,
      "ĠNone": 399,
      "Ġ,": 400,
      "Ġas": 401,
      "ĠE": 402,
      "ÃŃ": 403,
      "Ġcom": 404,
      "Ġse": 405,
      "Ġex": 406,
      "ve": 407,
      "orch": 408,
      "Ġque": 409,
      "ke": 410,
      "ist": 411,
      "ode": 412,
      "),": 413,
      "out": 414,
      "Ġtr": 415,
      "arg": 416,
      "Ġ|": 417,
      "Ã³n": 418,
      "op": 419,
      "all": 420,
      "Ġal": 421,
      ");": 422,
      "ip": 423,
      "size": 424,
      "ĠM": 425,
      "ext": 426,
      "de": 427,
      "Ġpar": 428,
      "Ġpro": 429,
      "ew": 430,
      "Ġ[": 431,
      "assert": 432,
      "==": 433,
      "iÃ³n": 434,
      "Ã©": 435,
      "ãĥ": 436,
      "ĠF": 437,
      "val": 438,
      "Ġ*": 439,
      "Ã¡": 440,
      "ib": 441,
      "ĠD": 442,
      "ãĤ": 443,
      "pro": 444,
      "idden": 445,
      "Ġwith": 446,
      "ĠÐ": 447,
      "ht": 448,
      "Ġfrom": 449,
      "----": 450,
      "\"\"": 451,
      "config": 452,
      "ror": 453,
      "Ġat": 454,
      "unk": 455,
      "ast": 456,
      "ask": 457,
      "ow": 458,
      "ĠB": 459,
      "atch": 460,
      "Ġnot": 461,
      "=\"": 462,
      "Ġst": 463,
      "ath": 464,
      "Ġ)": 465,
      "Ġbe": 466,
      "ver": 467,
      "str": 468,
      "ck": 469,
      "io": 470,
      "Ġimport": 471,
      "res": 472,
      "ult": 473,
      "ub": 474,
      "ens": 475,
      "ĠR": 476,
      "end": 477,
      "tention": 478,
      "Ġlos": 479,
      "int": 480,
      "',": 481,
      "Ġ@": 482,
      "ight": 483,
      "form": 484,
      "ine": 485,
      "Ġmodel": 486,
      "unc": 487,
      "ans": 488,
      "puts": 489,
      "Ġthis": 490,
      "\")": 491,
      "ates": 492,
      "iv": 493,
      "type": 494,
      "Ġor": 495,
      "par": 496,
      "ĠO": 497,
      "emb": 498,
      "cess": 499,
      "ase": 500,
      "model": 501,
      "ment": 502,
      "],": 503,
      "uc": 504,
      "ile": 505,
      "Ġon": 506,
      "Ġ/": 507,
      "Ġ_": 508,
      "Ġwh": 509,
      "ia": 510,
      "Ġtorch": 511,
      "ding": 512,
      "Ð¾": 513,
      "ang": 514,
      "token": 515,
      "enc": 516,
      "Ġes": 517,
      "ack": 518,
      "ĠH": 519,
      "oder": 520,
      "ple": 521,
      "âĢ": 522,
      "Ġres": 523,
      "Ġtest": 524,
      "(\"": 525,
      "able": 526,
      "key": 527,
      "ient": 528,
      "ant": 529,
      "ict": 530,
      "Ġclass": 531,
      "qual": 532,
      "))": 533,
      "Ġdel": 534,
      "Ġit": 535,
      "Ġì": 536,
      "In": 537,
      "Ġthat": 538,
      "ly": 539,
      "ata": 540,
      "len": 541,
      "test": 542,
      "name": 543,
      "ep": 544,
      "Ġlo": 545,
      "ĠW": 546,
      "ice": 547,
      "states": 548,
      "ure": 549,
      "cl": 550,
      "ject": 551,
      "tic": 552,
      "Ġar": 553,
      "Tr": 554,
      "ĠG": 555,
      "ire": 556,
      "rror": 557,
      "ind": 558,
      "ha": 559,
      "..": 560,
      "pos": 561,
      "Equal": 562,
      "Ġhe": 563,
      "ou": 564,
      "Ġ+": 565,
      ">>": 566,
      "pt": 567,
      "per": 568,
      "ids": 569,
      "get": 570,
      "der": 571,
      "pon": 572,
      "ial": 573,
      "Ġest": 574,
      "hidden": 575,
      "Ð°": 576,
      "Ðµ": 577,
      "Ġconfig": 578,
      "mask": 579,
      "Ġout": 580,
      "text": 581,
      "Error": 582,
      "ition": 583,
      "ard": 584,
      "embed": 585,
      "ĠThe": 586,
      "Ġ`": 587,
      "alse": 588,
      "args": 589,
      "ff": 590,
      "ud": 591,
      "Con": 592,
      "ide": 593,
      "._": 594,
      "Ġval": 595,
      "ax": 596,
      "ÑĤ": 597,
      "ix": 598,
      "Ġ3": 599,
      "ensor": 600,
      "gr": 601,
      "Ġby": 602,
      "assertEqual": 603,
      "aciÃ³n": 604,
      "ule": 605,
      "ĠU": 606,
      "pre": 607,
      "Ġ==": 608,
      "lay": 609,
      ").": 610,
      "che": 611,
      "ere": 612,
      "Ġus": 613,
      "Ġ\"\"\"": 614,
      "ener": 615,
      "unction": 616,
      "our": 617,
      "::": 618,
      "ob": 619,
      "Ġu": 620,
      "po": 621,
      "Ġ->": 622,
      "tim": 623,
      "art": 624,
      "ore": 625,
      "av": 626,
      "pec": 627,
      "Ð¸": 628,
      "Ġstr": 629,
      "odule": 630,
      "ace": 631,
      "act": 632,
      "attention": 633,
      "Ġac": 634,
      "ence": 635,
      "ef": 636,
      "Ġlas": 637,
      "izer": 638,
      "ues": 639,
      "py": 640,
      "gth": 641,
      "und": 642,
      "com": 643,
      "torch": 644,
      "els": 645,
      "til": 646,
      "ĠV": 647,
      "ado": 648,
      "ais": 649,
      "Ġno": 650,
      "ÃŃa": 651,
      "ãĢ": 652,
      "Ġk": 653,
      "Ġelse": 654,
      "pr": 655,
      "ill": 656,
      "Ġwas": 657,
      "num": 658,
      "Ġpor": 659,
      "ug": 660,
      "IN": 661,
      "Ġpr": 662,
      "Ġpre": 663,
      "Ġch": 664,
      "are": 665,
      "ust": 666,
      "ER": 667,
      "cr": 668,
      "Ġtoken": 669,
      "ĠIn": 670,
      "Ġdes": 671,
      "vice": 672,
      "ign": 673,
      "class": 674,
      "--------": 675,
      "Ġ===": 676,
      "Ġ//": 677,
      "dict": 678,
      "Ġ=>": 679,
      "oo": 680,
      "input": 681,
      "\"]": 682,
      "Tensor": 683,
      "ual": 684,
      "Ġsh": 685,
      "te": 686,
      "ies": 687,
      "we": 688,
      "Ġnum": 689,
      "Ġuna": 690,
      "ail": 691,
      "Ġ&": 692,
      "ance": 693,
      "Ð¾Ð": 694,
      "iew": 695,
      "ull": 696,
      ".__": 697,
      "ie": 698,
      "eat": 699,
      "set": 700,
      "app": 701,
      "ave": 702,
      "Ġob": 703,
      "hape": 704,
      "path": 705,
      "ias": 706,
      "16": 707,
      "Ġad": 708,
      "Ġget": 709,
      "image": 710,
      "Ġsu": 711,
      "ault": 712,
      "ption": 713,
      "ct": 714,
      "ON": 715,
      "loat": 716,
      "Ġë": 717,
      "True": 718,
      "Ġwe": 719,
      "length": 720,
      "Ġj": 721,
      "ĠÄ": 722,
      "Ġle": 723,
      "head": 724,
      "cal": 725,
      "mo": 726,
      "Ġhidden": 727,
      "ĠTr": 728,
      "ache": 729,
      "Ġvar": 730,
      "âĢĭ": 731,
      "ĠÄł": 732,
      "Ġinput": 733,
      "ansform": 734,
      "log": 735,
      "Ð½": 736,
      "ÑĢ": 737,
      "low": 738,
      "ated": 739,
      "[\"": 740,
      "cessor": 741,
      "ser": 742,
      "ord": 743,
      "Ġper": 744,
      "Ġint": 745,
      "Ġ4": 746,
      "ĠJ": 747,
      "ong": 748,
      "Ġpos": 749,
      "init": 750,
      "Ġconst": 751,
      "ier": 752,
      "rop": 753,
      "Model": 754,
      "('": 755,
      "Ġ:": 756,
      "Ġare": 757,
      "wargs": 758,
      "Ġi": 759,
      "Ġimage": 760,
      "pect": 761,
      "Ġcont": 762,
      "')": 763,
      "ann": 764,
      "Ġpara": 765,
      "Ġsup": 766,
      "fer": 767,
      "ach": 768,
      "output": 769,
      "iti": 770,
      "Ġdis": 771,
      "Ġser": 772,
      "Ġdo": 773,
      "Ġfunction": 774,
      "oul": 775,
      "ìĿ": 776,
      "value": 777,
      "its": 778,
      "train": 779,
      "Ġ},": 780,
      "Ġcl": 781,
      "Ñģ": 782,
      "tern": 783,
      "ite": 784,
      "error": 785,
      "Ġnew": 786,
      "íķ": 787,
      "ange": 788,
      "ak": 789,
      "Ġro": 790,
      "ory": 791,
      "Ġcomo": 792,
      "ich": 793,
      "ould": 794,
      "doc": 795,
      "Ġgr": 796,
      "ific": 797,
      "ente": 798,
      "yn": 799,
      "iones": 800,
      "dec": 801,
      "PI": 802,
      "10": 803,
      "Ġ...": 804,
      "ense": 805,
      "Ġlet": 806,
      "ary": 807,
      "ator": 808,
      "Ġ__": 809,
      "ĠPy": 810,
      "ity": 811,
      "ument": 812,
      "Ġuse": 813,
      "ive": 814,
      "ev": 815,
      "Ø§": 816,
      "co": 817,
      "Ġass": 818,
      "Ġap": 819,
      "Ġz": 820,
      "ada": 821,
      "Ã¡s": 822,
      "eg": 823,
      "Ġvalue": 824,
      "of": 825,
      "values": 826,
      "ðŁ": 827,
      "param": 828,
      "trib": 829,
      "Ġ!": 830,
      "ma": 831,
      "ool": 832,
      "ra": 833,
      "ations": 834,
      "lock": 835,
      "ros": 836,
      "ock": 837,
      "Ġx": 838,
      "Ġ>>": 839,
      "uto": 840,
      "own": 841,
      "file": 842,
      "tens": 843,
      "dim": 844,
      "roup": 845,
      "Ġenc": 846,
      "tn": 847,
      "ision": 848,
      "idad": 849,
      "ëĭ": 850,
      "ost": 851,
      "from": 852,
      "embedding": 853,
      "ell": 854,
      "##": 855,
      "Ġarg": 856,
      "Test": 857,
      "Ã±": 858,
      "Ġ>>>": 859,
      "inputs": 860,
      "Ãº": 861,
      "ward": 862,
      "icense": 863,
      "Ġset": 864,
      "AT": 865,
      "lab": 866,
      "Ġattention": 867,
      "Ġoutput": 868,
      "Ġ5": 869,
      "batch": 870,
      "plic": 871,
      "ĠTh": 872,
      "\">": 873,
      "Ġyou": 874,
      "ll": 875,
      "que": 876,
      "32": 877,
      "ios": 878,
      "layer": 879,
      "uct": 880,
      "Ġrequ": 881,
      "eth": 882,
      "AL": 883,
      "nd": 884,
      "ery": 885,
      "read": 886,
      "arget": 887,
      "ÙĦ": 888,
      "ied": 889,
      "inal": 890,
      "ä¸": 891,
      "weight": 892,
      "shape": 893,
      "Config": 894,
      "Ġent": 895,
      "Ġcan": 896,
      "Ġ19": 897,
      "tiv": 898,
      "ores": 899,
      "])": 900,
      "Ġ\\": 901,
      "Ġall": 902,
      "data": 903,
      "point": 904,
      "add": 905,
      "ages": 906,
      "amb": 907,
      "urr": 908,
      "kwargs": 909,
      "ĠEn": 910,
      "Ġdec": 911,
      "heck": 912,
      "Ġname": 913,
      "tribut": 914,
      "ĠUn": 915,
      "this": 916,
      "ero": 917,
      "ica": 918,
      "Ġcre": 919,
      "ty": 920,
      "12": 921,
      "norm": 922,
      "Ġhas": 923,
      "Ġlog": 924,
      "For": 925,
      "ther": 926,
      "Ġpl": 927,
      "rc": 928,
      "ãĢĤ": 929,
      "fo": 930,
      "Éµ": 931,
      "unt": 932,
      "alue": 933,
      "ET": 934,
      "Ġtype": 935,
      "no": 936,
      "pen": 937,
      "ij": 938,
      "__(": 939,
      "Ġhis": 940,
      "col": 941,
      "Ġme": 942,
      "ures": 943,
      "sh": 944,
      "();": 945,
      "View": 946,
      "Ġkey": 947,
      "ement": 948,
      "back": 949,
      "device": 950,
      "tokens": 951,
      "Ġab": 952,
      "Ġmay": 953,
      "**": 954,
      "iel": 955,
      "Ġform": 956,
      "ork": 957,
      "def": 958,
      "ando": 959,
      "ome": 960,
      "ĠK": 961,
      "Ġassert": 962,
      "Ġlen": 963,
      "tensor": 964,
      "To": 965,
      "ular": 966,
      "quence": 967,
      "ados": 968,
      "Ð°Ð": 969,
      "bu": 970,
      "ST": 971,
      "Pro": 972,
      "ning": 973,
      "pected": 974,
      ".âĢĭ": 975,
      "stance": 976,
      "min": 977,
      "ĠLicense": 978,
      "Type": 979,
      "load": 980,
      "Ñĥ": 981,
      "ber": 982,
      "sp": 983,
      "ansformers": 984,
      "Ġso": 985,
      "state": 986,
      "Ġpass": 987,
      "None": 988,
      "for": 989,
      "new": 990,
      "check": 991,
      "ge": 992,
      "ection": 993,
      "</": 994,
      "ample": 995,
      "embeddings": 996,
      "tes": 997,
      "API": 998,
      "idx": 999,
      "False": 1000,
      "Ġlist": 1001,
      "thon": 1002,
      "dex": 1003,
      "crip": 1004,
      "Ġman": 1005,
      "ethod": 1006,
      "ponent": 1007,
      "feat": 1008,
      "Ġup": 1009,
      "dir": 1010,
      "uple": 1011,
      "ponse": 1012,
      "Ġinputs": 1013,
      "Ġtext": 1014,
      "irst": 1015,
      "Ġgener": 1016,
      "IT": 1017,
      "ally": 1018,
      "ose": 1019,
      "Ġne": 1020,
      "ink": 1021,
      "vent": 1022,
      "max": 1023,
      "(),": 1024,
      "option": 1025,
      "Ġdefault": 1026,
      "module": 1027,
      "ild": 1028,
      "Ġrel": 1029,
      "Ġcons": 1030,
      "ark": 1031,
      "ðŁļ": 1032,
      "02": 1033,
      "St": 1034,
      "99": 1035,
      "ime": 1036,
      "emp": 1037,
      "row": 1038,
      "Ġbut": 1039,
      "Ġinter": 1040,
      "Ġnull": 1041,
      "EN": 1042,
      "Ġhave": 1043,
      "Ġco": 1044,
      "ng": 1045,
      "-@": 1046,
      "Ġ@-@": 1047,
      "Ġwhich": 1048,
      "ĠmÃ¡s": 1049,
      "cept": 1050,
      "ðŁļ¨": 1051,
      "Ġ&&": 1052,
      "attr": 1053,
      "proj": 1054,
      "Ġdata": 1055,
      "Ġ8": 1056,
      "ames": 1057,
      "layers": 1058,
      "ox": 1059,
      "code": 1060,
      "idth": 1061,
      "wr": 1062,
      "Ġspec": 1063,
      "cont": 1064,
      "ãģ®": 1065,
      "ien": 1066,
      "Ġâ": 1067,
      "AR": 1068,
      "les": 1069,
      "time": 1070,
      "ðŁļ¨ðŁļ¨": 1071,
      "fl": 1072,
      "ml": 1073,
      "position": 1074,
      "ĠâĢ": 1075,
      "ield": 1076,
      "'s": 1077,
      "Ġ--": 1078,
      "Ġ6": 1079,
      "ales": 1080,
      "anc": 1081,
      "Ġ(`": 1082,
      "ĠTrue": 1083,
      "string": 1084,
      "\"\"\"": 1085,
      "Ġresult": 1086,
      "Node": 1087,
      "ref": 1088,
      "Ġvo": 1089,
      "lob": 1090,
      "ĠY": 1091,
      "process": 1092,
      "Ġ**": 1093,
      "ä½": 1094,
      "urrent": 1095,
      "use": 1096,
      "ray": 1097,
      "01": 1098,
      "Ġrais": 1099,
      "ook": 1100,
      "Ġadd": 1101,
      "ait": 1102,
      "ersion": 1103,
      "udio": 1104,
      "ont": 1105,
      "aj": 1106,
      "ync": 1107,
      "util": 1108,
      "list": 1109,
      "ake": 1110,
      "====": 1111,
      "Ġsub": 1112,
      "().": 1113,
      "Ġmax": 1114,
      "Ùħ": 1115,
      "Ġ100": 1116,
      "ued": 1117,
      "ource": 1118,
      "Ġcu": 1119,
      "sub": 1120,
      "():": 1121,
      "OR": 1122,
      "':": 1123,
      "ĠLa": 1124,
      "Ñĸ": 1125,
      "gu": 1126,
      "ideo": 1127,
      "red": 1128,
      "----------------": 1129,
      "Ġbu": 1130,
      "ulti": 1131,
      "ido": 1132,
      "ger": 1133,
      "me": 1134,
      "ĠEl": 1135,
      "Ġlay": 1136,
      "Ġcol": 1137,
      "item": 1138,
      "Im": 1139,
      "ts": 1140,
      "line": 1141,
      "index": 1142,
      "Ġtrue": 1143,
      "ãģĻ": 1144,
      "ys": 1145,
      "ash": 1146,
      "ampl": 1147,
      "eps": 1148,
      "attn": 1149,
      "Ġ'\\": 1150,
      "Ġfile": 1151,
      "cale": 1152,
      "ãĢģ": 1153,
      "Ġnn": 1154,
      "Ġparam": 1155,
      "ico": 1156,
      "Ġwill": 1157,
      "Ġsuper": 1158,
      "cre": 1159,
      "Ġfr": 1160,
      "`,": 1161,
      "dis": 1162,
      "Ġcall": 1163,
      "tive": 1164,
      "err": 1165,
      "Ġpy": 1166,
      "Ġ>": 1167,
      "atas": 1168,
      "Ġhad": 1169,
      "ĠFalse": 1170,
      "},": 1171,
      "Ġunder": 1172,
      "ante": 1173,
      "son": 1174,
      "her": 1175,
      "ank": 1176,
      "outputs": 1177,
      "Ġcheck": 1178,
      "requ": 1179,
      "ĠØ": 1180,
      "era": 1181,
      "ception": 1182,
      "Ġwhen": 1183,
      "64": 1184,
      "yle": 1185,
      "trained": 1186,
      "Ä±": 1187,
      "].": 1188,
      "adding": 1189,
      "Ġpath": 1190,
      "with": 1191,
      "Ġmu": 1192,
      "çļ": 1193,
      "af": 1194,
      "ne": 1195,
      "Ġaut": 1196,
      "labels": 1197,
      "ĠCh": 1198,
      "ĠSe": 1199,
      "sc": 1200,
      "aises": 1201,
      "ian": 1202,
      "Ġ%": 1203,
      "Ġone": 1204,
      "vid": 1205,
      "rg": 1206,
      "ĠÃ": 1207,
      "Ð»": 1208,
      "çļĦ": 1209,
      "kip": 1210,
      "Ġê": 1211,
      "Ġraise": 1212,
      "cache": 1213,
      "ataset": 1214,
      "Ġ///": 1215,
      "iento": 1216,
      "Ġ7": 1217,
      "Ðº": 1218,
      "gener": 1219,
      "az": 1220,
      "rol": 1221,
      "Ġtarget": 1222,
      "encoder": 1223,
      "pu": 1224,
      "ĠQ": 1225,
      "over": 1226,
      "utils": 1227,
      "Ġos": 1228,
      "embeds": 1229,
      "ech": 1230,
      "div": 1231,
      "Ġ?": 1232,
      "Ġ};": 1233,
      "Ñı": 1234,
      "ãĥ¼": 1235,
      "Ġwr": 1236,
      "heads": 1237,
      "itial": 1238,
      "ld": 1239,
      "Ġag": 1240,
      "opy": 1241,
      "Ġtokenizer": 1242,
      "Ġcase": 1243,
      "los": 1244,
      "vo": 1245,
      "amente": 1246,
      "ick": 1247,
      "plement": 1248,
      "url": 1249,
      "Ġwere": 1250,
      "mb": 1251,
      "LE": 1252,
      "([": 1253,
      "Ex": 1254,
      "TER": 1255,
      "Ġdif": 1256,
      "Ġ{\"": 1257,
      "ond": 1258,
      "so": 1259,
      "())": 1260,
      "ern": 1261,
      "Ġte": 1262,
      "iter": 1263,
      "Ġsize": 1264,
      "date": 1265,
      "ĠSt": 1266,
      "map": 1267,
      "oding": 1268,
      "Ġposition": 1269,
      "sl": 1270,
      "ciÃ³n": 1271,
      "çĶ": 1272,
      "ez": 1273,
      "eturn": 1274,
      "decoder": 1275,
      "ãĤĴ": 1276,
      "press": 1277,
      "inter": 1278,
      "Ġ||": 1279,
      "iss": 1280,
      "ms": 1281,
      "Ref": 1282,
      ".\"": 1283,
      "call": 1284,
      "Ch": 1285,
      "LM": 1286,
      "group": 1287,
      "fil": 1288,
      ",\"": 1289,
      "float": 1290,
      "spec": 1291,
      "ĠÂ": 1292,
      "ÙĬ": 1293,
      "Ġshould": 1294,
      "fr": 1295,
      "RE": 1296,
      "Res": 1297,
      "function": 1298,
      "Ġover": 1299,
      "duc": 1300,
      "Py": 1301,
      "AN": 1302,
      "Ġdoc": 1303,
      "ched": 1304,
      "processor": 1305,
      "ush": 1306,
      "At": 1307,
      "assertR": 1308,
      "ater": 1309,
      "aining": 1310,
      "elect": 1311,
      "Ġop": 1312,
      "aus": 1313,
      "Ġpued": 1314,
      "Ġexpected": 1315,
      "ins": 1316,
      "ĠThis": 1317,
      "ices": 1318,
      "do": 1319,
      "pert": 1320,
      "encia": 1321,
      "Value": 1322,
      "lobal": 1323,
      "return": 1324,
      "pare": 1325,
      "pretrained": 1326,
      "ĠÐ²": 1327,
      "optional": 1328,
      "start": 1329,
      "Ġson": 1330,
      "11": 1331,
      "Ġcor": 1332,
      "ader": 1333,
      "Ġí": 1334,
      "tem": 1335,
      "ocab": 1336,
      "Ġrec": 1337,
      "Ġver": 1338,
      "Ġerror": 1339,
      "assertRaises": 1340,
      "ION": 1341,
      "Module": 1342,
      "aciones": 1343,
      "ä»": 1344,
      "atic": 1345,
      "Ġem": 1346,
      "irect": 1347,
      "docs": 1348,
      "Ġ[\"": 1349,
      "Ġfil": 1350,
      "edi": 1351,
      "actor": 1352,
      "Ġet": 1353,
      "100": 1354,
      "Ġsin": 1355,
      "ative": 1356,
      "Ġmask": 1357,
      "ible": 1358,
      "fic": 1359,
      "ittest": 1360,
      "grad": 1361,
      "Token": 1362,
      "mon": 1363,
      "ired": 1364,
      "vert": 1365,
      "man": 1366,
      "((": 1367,
      "ropout": 1368,
      "25": 1369,
      "Ġbatch": 1370,
      "Ġ10": 1371,
      "ree": 1372,
      "ÑĮ": 1373,
      "Ġother": 1374,
      "anti": 1375,
      "format": 1376,
      "ĠAn": 1377,
      "Ġtime": 1378,
      "Ġlab": 1379,
      "Ġobject": 1380,
      "etr": 1381,
      "ĠCon": 1382,
      "à¤": 1383,
      "ura": 1384,
      "ĠX": 1385,
      "Ġcr": 1386,
      "append": 1387,
      "jo": 1388,
      "Ġbool": 1389,
      "ëĭ¤": 1390,
      "ging": 1391,
      "mod": 1392,
      "vel": 1393,
      "AS": 1394,
      "Ð¼": 1395,
      "ized": 1396,
      "ise": 1397,
      "Name": 1398,
      "Ġloc": 1399,
      "Ġfirst": 1400,
      "logits": 1401,
      "patch": 1402,
      "fter": 1403,
      "DE": 1404,
      "resent": 1405,
      "ternal": 1406,
      ".\",": 1407,
      "Str": 1408,
      "Ġtod": 1409,
      "ĠÐ¿": 1410,
      "ained": 1411,
      "Ġfalse": 1412,
      "src": 1413,
      "Ã©n": 1414,
      "ixel": 1415,
      "Ġ</": 1416,
      "ound": 1417,
      "Ġdim": 1418,
      "features": 1419,
      "not": 1420,
      "ces": 1421,
      "Com": 1422,
      "ps": 1423,
      "var": 1424,
      "ÃŃs": 1425,
      "Ġdevice": 1426,
      "ines": 1427,
      "Ġlayer": 1428,
      "Ġorig": 1429,
      "let": 1430,
      "Index": 1431,
      "Ġfn": 1432,
      "Ø§ÙĦ": 1433,
      "Ġdon": 1434,
      "Ġtransformers": 1435,
      "Ġid": 1436,
      "block": 1437,
      "by": 1438,
      "tions": 1439,
      "Ã¡n": 1440,
      "####": 1441,
      "__\"": 1442,
      "Ġreg": 1443,
      "ING": 1444,
      "led": 1445,
      "Par": 1446,
      "peed": 1447,
      "Out": 1448,
      "mente": 1449,
      "TE": 1450,
      "ved": 1451,
      "ãģ«": 1452,
      "instance": 1453,
      "tra": 1454,
      "Ġtry": 1455,
      "Ġmodule": 1456,
      "Ġinst": 1457,
      "04": 1458,
      "ute": 1459,
      "Ġmo": 1460,
      "Ġstring": 1461,
      "content": 1462,
      "Ġincl": 1463,
      "Īëĭ¤": 1464,
      "Ġend": 1465,
      "uration": 1466,
      "ìĹ": 1467,
      "angu": 1468,
      "enti": 1469,
      "valid": 1470,
      "ãģĹ": 1471,
      "Ġvm": 1472,
      "ok": 1473,
      "Ġtrans": 1474,
      "ainer": 1475,
      "ãģ¾": 1476,
      "[:": 1477,
      "info": 1478,
      "ustom": 1479,
      "wo": 1480,
      "ear": 1481,
      "];": 1482,
      "ler": 1483,
      "astAPI": 1484,
      "Ġargs": 1485,
      "yp": 1486,
      "Ġfl": 1487,
      "åı": 1488,
      "Ġrun": 1489,
      "adas": 1490,
      "ference": 1491,
      "22": 1492,
      "play": 1493,
      "ĠCom": 1494,
      "old": 1495,
      "Ġoutputs": 1496,
      "Ġused": 1497,
      "tual": 1498,
      "Ġstart": 1499,
      "ëĭĪëĭ¤": 1500,
      "Ġher": 1501,
      "ffer": 1502,
      "indow": 1503,
      "Ġforward": 1504,
      "14": 1505,
      "ETTER": 1506,
      "plit": 1507,
      "bl": 1508,
      "ida": 1509,
      "irec": 1510,
      "18": 1511,
      "ven": 1512,
      "chann": 1513,
      "ĠLETTER": 1514,
      "34": 1515,
      "box": 1516,
      "Class": 1517,
      "Ġ});": 1518,
      "ĠEst": 1519,
      "Cont": 1520,
      "Ã©s": 1521,
      "Ġonly": 1522,
      "çĶ¨": 1523,
      "seq": 1524,
      "Ġ\\\"": 1525,
      "ĠDe": 1526,
      "Ġexcept": 1527,
      "Ġthey": 1528,
      "tica": 1529,
      "tit": 1530,
      "Ġresponse": 1531,
      "ors": 1532,
      "ross": 1533,
      "ëĬ": 1534,
      "essage": 1535,
      "íķĺ": 1536,
      "ote": 1537,
      "fix": 1538,
      "\"],": 1539,
      "eters": 1540,
      "mp": 1541,
      "ES": 1542,
      "Ġ!=": 1543,
      "'t": 1544,
      "ike": 1545,
      "eter": 1546,
      "ama": 1547,
      "bias": 1548,
      "Float": 1549,
      "aw": 1550,
      "ĠAuto": 1551,
      "50": 1552,
      "Ġ216": 1553,
      "\\\",": 1554,
      "Ġ1001": 1555,
      "Ġsign": 1556,
      "ner": 1557,
      "bject": 1558,
      "Ġ9": 1559,
      "ĠTest": 1560,
      "ismo": 1561,
      "En": 1562,
      "ions": 1563,
      "PU": 1564,
      "anguage": 1565,
      "uer": 1566,
      "ous": 1567,
      "vision": 1568,
      "ĠAl": 1569,
      "Ġrange": 1570,
      "attentions": 1571,
      "default": 1572,
      "Ġfloat": 1573,
      "ĠÉµ": 1574,
      "Ġsi": 1575,
      "erc": 1576,
      "ailable": 1577,
      "ish": 1578,
      "Ġtheir": 1579,
      "Is": 1580,
      "tokenizer": 1581,
      "IG": 1582,
      "ĠEx": 1583,
      "Ġ\"_": 1584,
      "view": 1585,
      "Ġ(\"": 1586,
      "Ġcap": 1587,
      "Ġmore": 1588,
      "Ġsequence": 1589,
      "Ġsec": 1590,
      "Ġhab": 1591,
      "\"),": 1592,
      "Ġwork": 1593,
      "place": 1594,
      "Ġmin": 1595,
      "å®": 1596,
      "\");": 1597,
      "Ġsupport": 1598,
      "ĠâĢĶ": 1599,
      "Ġ('": 1600,
      "Ġfeat": 1601,
      "Ġyour": 1602,
      "Ġtuple": 1603,
      "ody": 1604,
      "Ġ12": 1605,
      "ply": 1606,
      "dic": 1607,
      "the": 1608,
      "Ġav": 1609,
      "Ġcomp": 1610,
      "Ġ200": 1611,
      "Ġinto": 1612,
      "ĠFastAPI": 1613,
      "ĠIf": 1614,
      "br": 1615,
      "ĠÃ©": 1616,
      "ãģ§": 1617,
      "round": 1618,
      "iÃ³": 1619,
      "Ġoption": 1620,
      "arning": 1621,
      "Ġcode": 1622,
      "style": 1623,
      "oft": 1624,
      "IC": 1625,
      "13": 1626,
      "Ġsim": 1627,
      "Ġentre": 1628,
      "word": 1629,
      "trans": 1630,
      "56": 1631,
      "object": 1632,
      "ags": 1633,
      "api": 1634,
      "Ġencoder": 1635,
      "Øª": 1636,
      "lement": 1637,
      "Ġmod": 1638,
      "ĠZ": 1639,
      "Ġpub": 1640,
      "dropout": 1641,
      "off": 1642,
      "Ġsus": 1643,
      "ëĬĶ": 1644,
      "OU": 1645,
      "Ġpo": 1646,
      "antiz": 1647,
      "Ġstate": 1648,
      "Ġcreate": 1649,
      "down": 1650,
      "amples": 1651,
      "ateg": 1652,
      "inc": 1653,
      "ìĦ": 1654,
      "Output": 1655,
      "auto": 1656,
      "Ġhand": 1657,
      "ora": 1658,
      "19": 1659,
      "ë¥": 1660,
      "reak": 1661,
      "Ġ]": 1662,
      "crib": 1663,
      "Ð²": 1664,
      "Ġdict": 1665,
      "sup": 1666,
      "ely": 1667,
      "AM": 1668,
      "89": 1669,
      "run": 1670,
      "ream": 1671,
      "tribute": 1672,
      "ĠØ§ÙĦ": 1673,
      "*,": 1674,
      "reg": 1675,
      "PE": 1676,
      "ÙĨ": 1677,
      "struct": 1678,
      "vm": 1679,
      "Ġvoid": 1680,
      "sum": 1681,
      "Def": 1682,
      "plate": 1683,
      "Ġfunc": 1684,
      "Ġloss": 1685,
      "Ð´": 1686,
      "nn": 1687,
      "Ġhim": 1688,
      "Ġsp": 1689,
      "base": 1690,
      "FloatTensor": 1691,
      "æľ": 1692,
      "Ġline": 1693,
      "Ġdat": 1694,
      "rec": 1695,
      "ilt": 1696,
      "medi": 1697,
      "eta": 1698,
      "Re": 1699,
      "Ġalg": 1700,
      "}}": 1701,
      "Ġany": 1702,
      "ta": 1703,
      "Ġej": 1704,
      "Processor": 1705,
      "ãĤĭ": 1706,
      "ender": 1707,
      "Ġsc": 1708,
      "`):": 1709,
      "Ġmatch": 1710,
      "Return": 1711,
      "Ġcar": 1712,
      "ined": 1713,
      "ification": 1714,
      "ausal": 1715,
      "channels": 1716,
      "ativ": 1717,
      "Ġload": 1718,
      "({": 1719,
      "cript": 1720,
      "Ġperm": 1721,
      "ey": 1722,
      "la": 1723,
      "Ġpast": 1724,
      "eros": 1725,
      "atus": 1726,
      "ãģ¯": 1727,
      "Ã¼": 1728,
      "ÑģÑĤ": 1729,
      "rompt": 1730,
      "Ġhel": 1731,
      "Image": 1732,
      "Ġformat": 1733,
      "Ġoper": 1734,
      "Ġisinstance": 1735,
      "images": 1736,
      "Ġoff": 1737,
      "Ġng": 1738,
      "ĠIt": 1739,
      "ãĥ³": 1740,
      "dtype": 1741,
      "03": 1742,
      "utor": 1743,
      "Ġits": 1744,
      "tributed": 1745,
      "åĲ": 1746,
      "Ġhead": 1747,
      "15": 1748,
      "0000": 1749,
      "Ġafter": 1750,
      "cel": 1751,
      "Ġdtype": 1752,
      "ambi": 1753,
      "ĠÑ": 1754,
      "Ġbeen": 1755,
      "${": 1756,
      "Mode": 1757,
      "imit": 1758,
      "width": 1759,
      "ðŁļ¨ðŁļ¨ðŁļ¨ðŁļ¨": 1760,
      "Ġutil": 1761,
      "\\\\": 1762,
      "aron": 1763,
      "loss": 1764,
      "Ġelif": 1765,
      "Ġprim": 1766,
      "Ġnumber": 1767,
      "ules": 1768,
      "ìļ": 1769,
      "Ġ#[": 1770,
      "lm": 1771,
      "bar": 1772,
      "Ġprop": 1773,
      "OC": 1774,
      "endo": 1775,
      "tend": 1776,
      "ĠÂ«": 1777,
      "ĠAs": 1778,
      "weights": 1779,
      "ns": 1780,
      "Ġalso": 1781,
      "top": 1782,
      "Ġdecoder": 1783,
      "oug": 1784,
      "Ġshape": 1785,
      "88": 1786,
      "og": 1787,
      "ĠIm": 1788,
      "method": 1789,
      "cho": 1790,
      "IS": 1791,
      "Ġ{}": 1792,
      "ese": 1793,
      "urs": 1794,
      "lic": 1795,
      "tester": 1796,
      "Ġmethod": 1797,
      "Ġmy": 1798,
      "ayer": 1799,
      "Ġlast": 1800,
      "plication": 1801,
      "Ġneed": 1802,
      "ization": 1803,
      "ÙĪ": 1804,
      "ĠHe": 1805,
      "Ġelement": 1806,
      "ìĬ": 1807,
      "ful": 1808,
      "Ġattn": 1809,
      "ina": 1810,
      "conv": 1811,
      "Ġsob": 1812,
      "Ġ!==": 1813,
      "json": 1814,
      "ĠWe": 1815,
      "ë¡": 1816,
      "fore": 1817,
      "Ġcontin": 1818,
      "Ġprocess": 1819,
      "lib": 1820,
      "be": 1821,
      "Ġobj": 1822,
      "air": 1823,
      "Id": 1824,
      "ĠValue": 1825,
      "Ġcas": 1826,
      "order": 1827,
      "Ġlocal": 1828,
      "Ġexp": 1829,
      "Ġsig": 1830,
      "ocket": 1831,
      "ren": 1832,
      "Ġbase": 1833,
      "74": 1834,
      "Ġcurrent": 1835,
      "reTr": 1836,
      "20": 1837,
      "assertIs": 1838,
      "link": 1839,
      "Ġthem": 1840,
      "ify": 1841,
      "ights": 1842,
      "ones": 1843,
      "Ñĭ": 1844,
      "(-": 1845,
      "md": 1846,
      "Ġlib": 1847,
      "With": 1848,
      "Ã§": 1849,
      "prob": 1850,
      "items": 1851,
      "Ġsource": 1852,
      "Â»": 1853,
      "lean": 1854,
      "denc": 1855,
      "ious": 1856,
      "./": 1857,
      "annot": 1858,
      "result": 1859,
      "Ġpers": 1860,
      "Ġ[]": 1861,
      "jector": 1862,
      "Ġseg": 1863,
      "assertTrue": 1864,
      "params": 1865,
      "keys": 1866,
      "}.": 1867,
      "ĠPar": 1868,
      "Ġdur": 1869,
      "foo": 1870,
      "isten": 1871,
      "ìĿĦ": 1872,
      "Ġgo": 1873,
      "='": 1874,
      "Ġreal": 1875,
      "Ġeach": 1876,
      "istem": 1877,
      "Ġfol": 1878,
      "Ã©r": 1879,
      "ìĹĲ": 1880,
      "ional": 1881,
      "ade": 1882,
      "ë¥¼": 1883,
      "Ġtwo": 1884,
      "lot": 1885,
      "yst": 1886,
      "tensors": 1887,
      "ĠValueError": 1888,
      "Ġprocessor": 1889,
      "ted": 1890,
      "Ð°Ñ": 1891,
      "Ġargument": 1892,
      "fg": 1893,
      "24": 1894,
      "Ġmen": 1895,
      "Ġbas": 1896,
      "emory": 1897,
      "ãģ¾ãģĻ": 1898,
      "obj": 1899,
      "Ġam": 1900,
      "uth": 1901,
      "da": 1902,
      "itional": 1903,
      "'),": 1904,
      "skip": 1905,
      "ATIN": 1906,
      "Ġcomple": 1907,
      "display": 1908,
      "ior": 1909,
      "ambiÃ©n": 1910,
      "eline": 1911,
      "ek": 1912,
      "ìĿ´": 1913,
      "ĠLATIN": 1914,
      "Ġ16": 1915,
      "vocab": 1916,
      "Ãºn": 1917,
      "Ġcomm": 1918,
      "Ġ{\\": 1919,
      "less": 1920,
      "unittest": 1921,
      "Un": 1922,
      "open": 1923,
      "Ġwho": 1924,
      "target": 1925,
      "parent": 1926,
      "cription": 1927,
      "Ġpadding": 1928,
      "Ġìŀ": 1929,
      "Ġback": 1930,
      "ings": 1931,
      "75": 1932,
      "Ġwould": 1933,
      "aba": 1934,
      "../": 1935,
      "reTrained": 1936,
      "Ġgroup": 1937,
      "Ġasync": 1938,
      "Ġsa": 1939,
      "ãĥĪ": 1940,
      "pty": 1941,
      "\";": 1942,
      "ĠWh": 1943,
      "igh": 1944,
      "Ġbreak": 1945,
      "Element": 1946,
      "().__": 1947,
      "AC": 1948,
      "Ġcomput": 1949,
      "Ġ+=": 1950,
      "Ġbec": 1951,
      "array": 1952,
      "ution": 1953,
      "Dec": 1954,
      "Tokenizer": 1955,
      "actory": 1956,
      "Ġread": 1957,
      "Ġtem": 1958,
      "gen": 1959,
      "Ġmust": 1960,
      "ITH": 1961,
      "========": 1962,
      "pend": 1963,
      "Object": 1964,
      "ĠAd": 1965,
      "Ġthere": 1966,
      "ras": 1967,
      "wen": 1968,
      "dataset": 1969,
      "Ġmet": 1970,
      "Text": 1971,
      "split": 1972,
      "ãĤ¹": 1973,
      "RO": 1974,
      "utorial": 1975,
      "TI": 1976,
      "parse": 1977,
      "Ġsobre": 1978,
      "Layer": 1979,
      "pack": 1980,
      "cul": 1981,
      "ÐµÑĢ": 1982,
      "Ð¾Ð²": 1983,
      "Ġitem": 1984,
      "hel": 1985,
      "ename": 1986,
      "Ġprint": 1987,
      "ĠìĿ": 1988,
      "std": 1989,
      "ugh": 1990,
      "checkpoint": 1991,
      "Ġpe": 1992,
      "Ġfinal": 1993,
      "query": 1994,
      "Ġusing": 1995,
      "ĠLos": 1996,
      ")]": 1997,
      "comp": 1998,
      "Ġ18": 1999,
      "Ġdefaults": 2000,
      "global": 2001,
      "rel": 2002,
      "ador": 2003,
      "td": 2004,
      "Ġlanguage": 2005,
      "åĪ": 2006,
      "Ġot": 2007,
      "Ġder": 2008,
      "Ġinclu": 2009,
      "Ġha": 2010,
      "ãģ¦": 2011,
      "ĠÉµÉµ": 2012,
      "Dev": 2013,
      "mediate": 2014,
      "Case": 2015,
      "Ġsome": 2016,
      "post": 2017,
      "des": 2018,
      "ystem": 2019,
      "way": 2020,
      "Ġdirect": 2021,
      "Ġlabels": 2022,
      "Ġed": 2023,
      "erator": 2024,
      "move": 2025,
      "Ġoriginal": 2026,
      "Ġnorm": 2027,
      "imiento": 2028,
      "push": 2029,
      "Ġtensor": 2030,
      "work": 2031,
      "mer": 2032,
      "Ġprob": 2033,
      "iente": 2034,
      "TP": 2035,
      "label": 2036,
      "mt": 2037,
      "available": 2038,
      "Ġpatch": 2039,
      "node": 2040,
      "count": 2041,
      "write": 2042,
      "Ġthan": 2043,
      "AD": 2044,
      "ĠSee": 2045,
      "processing": 2046,
      "âĶ": 2047,
      "Ġinv": 2048,
      "17": 2049,
      "ìł": 2050,
      "Ġfin": 2051,
      "Ġcache": 2052,
      "ĠRe": 2053,
      "height": 2054,
      "30": 2055,
      "IL": 2056,
      "Ġbefore": 2057,
      "pad": 2058,
      "36": 2059,
      "join": 2060,
      ".\"\"\"": 2061,
      "cent": 2062,
      "ALL": 2063,
      "ĠPro": 2064,
      "amp": 2065,
      "Ġtokens": 2066,
      "vir": 2067,
      "Ġpol": 2068,
      "hand": 2069,
      "Ð¿": 2070,
      "åħ": 2071,
      "Ġindex": 2072,
      "Ġbr": 2073,
      "Ġdoes": 2074,
      "tx": 2075,
      "Ġcontext": 2076,
      "Ġmulti": 2077,
      "special": 2078,
      "Ġvis": 2079,
      "Form": 2080,
      "Ġwhile": 2081,
      "Ġspecific": 2082,
      "Ø©": 2083,
      "wait": 2084,
      "aÃ±": 2085,
      "bug": 2086,
      "lex": 2087,
      "loc": 2088,
      "Th": 2089,
      "Ġrep": 2090,
      "Ġsur": 2091,
      "context": 2092,
      "oth": 2093,
      "Ġmon": 2094,
      "Ġprovid": 2095,
      "Ġsistem": 2096,
      "Ġmed": 2097,
      "ipeline": 2098,
      "Ġimpl": 2099,
      "ĠYou": 2100,
      "ason": 2101,
      "Ġsame": 2102,
      "Ġwidth": 2103,
      "abled": 2104,
      "close": 2105,
      "current": 2106,
      "ĠFor": 2107,
      "Ġtip": 2108,
      "Ġchar": 2109,
      "dr": 2110,
      "Ġfue": 2111,
      "ÐµÐ½": 2112,
      "âĶĢ": 2113,
      "));": 2114,
      "Ġtyp": 2115,
      "my": 2116,
      "Ġevent": 2117,
      ")}": 2118,
      "uce": 2119,
      "ĠAr": 2120,
      "Val": 2121,
      "has": 2122,
      "ë¡ľ": 2123,
      "Ġind": 2124,
      "create": 2125,
      "Ġvalues": 2126,
      "Ġnext": 2127,
      "ĠPython": 2128,
      "Event": 2129,
      "Ġsys": 2130,
      "Ġpuede": 2131,
      "ager": 2132,
      "Ser": 2133,
      "Ġopen": 2134,
      "sche": 2135,
      "ĠWITH": 2136,
      "omb": 2137,
      "Ġmake": 2138,
      "ãģ¨": 2139,
      "(&": 2140,
      "tal": 2141,
      "Ġq": 2142,
      "Ġimages": 2143,
      "Ġoc": 2144,
      "docstring": 2145,
      "Ġ*/": 2146,
      "ds": 2147,
      "video": 2148,
      "Ġquery": 2149,
      "apping": 2150,
      "ause": 2151,
      "Ġfollow": 2152,
      "ano": 2153,
      "ä½¿": 2154,
      "Ġbet": 2155,
      "Ġdistributed": 2156,
      "ED": 2157,
      "ss": 2158,
      "Ø¯": 2159,
      "><": 2160,
      "typ": 2161,
      "Ġnode": 2162,
      "Ġ20": 2163,
      "pol": 2164,
      "oded": 2165,
      "audio": 2166,
      "last": 2167,
      "ENT": 2168,
      "PT": 2169,
      "æĸ": 2170,
      "à°": 2171,
      "Ġlarg": 2172,
      "wh": 2173,
      "main": 2174,
      "user": 2175,
      "[-": 2176,
      "ivers": 2177,
      "gan": 2178,
      "ĠQu": 2179,
      "event": 2180,
      "ister": 2181,
      "go": 2182,
      "arch": 2183,
      "MA": 2184,
      "ware": 2185,
      "orld": 2186,
      "attern": 2187,
      "Ġdet": 2188,
      "Not": 2189,
      "DevMode": 2190,
      "ID": 2191,
      "peech": 2192,
      "Ġå": 2193,
      "roll": 2194,
      "Ġlimit": 2195,
      "version": 2196,
      "Ø±": 2197,
      "...": 2198,
      "achine": 2199,
      "ĠðŁ": 2200,
      "ãĤĮ": 2201,
      "List": 2202,
      "color": 2203,
      "Ġcent": 2204,
      "ĠÐ·": 2205,
      "tutorial": 2206,
      "Ġtan": 2207,
      "Ġdist": 2208,
      "itle": 2209,
      "names": 2210,
      "abil": 2211,
      "Ġtraining": 2212,
      "arr": 2213,
      "Ã¨": 2214,
      "inear": 2215,
      "hed": 2216,
      "Ġblock": 2217,
      "Ġrequired": 2218,
      "OM": 2219,
      "ical": 2220,
      "Ġespec": 2221,
      "Ġcual": 2222,
      "js": 2223,
      "Ar": 2224,
      "offset": 2225,
      "exp": 2226,
      "Ġproduc": 2227,
      "Ġvalid": 2228,
      "ĠAp": 2229,
      "96": 2230,
      "Ġlong": 2231,
      "icos": 2232,
      "Ġeste": 2233,
      "76": 2234,
      "Ġsrc": 2235,
      "Arg": 2236,
      "Ġinform": 2237,
      "ino": 2238,
      "Ġwhere": 2239,
      "odes": 2240,
      "Result": 2241,
      "wrap": 2242,
      "try": 2243,
      "rope": 2244,
      "ather": 2245,
      "78": 2246,
      "Ġthen": 2247,
      "Ġdest": 2248,
      "fn": 2249,
      "import": 2250,
      "za": 2251,
      "Ġtien": 2252,
      "irtual": 2253,
      "face": 2254,
      "timizer": 2255,
      "ÃŃan": 2256,
      "ĠtambiÃ©n": 2257,
      "sequence": 2258,
      "Ġhelp": 2259,
      "CH": 2260,
      "local": 2261,
      "AB": 2262,
      "ingle": 2263,
      "ansformer": 2264,
      "ÑĤÐ¸": 2265,
      "ãģĦ": 2266,
      "ither": 2267,
      "Long": 2268,
      "An": 2269,
      "ton": 2270,
      "äº": 2271,
      "Ġlength": 2272,
      "cat": 2273,
      "char": 2274,
      "Ġ/*": 2275,
      "del": 2276,
      "cls": 2277,
      "acter": 2278,
      "ci": 2279,
      "range": 2280,
      "Ġins": 2281,
      "Ġpixel": 2282,
      "padding": 2283,
      "Ġles": 2284,
      "è¿": 2285,
      "ĠAPI": 2286,
      "Se": 2287,
      "ables": 2288,
      "ĠÐ¾": 2289,
      "ux": 2290,
      "ÐµÑĤ": 2291,
      "ead": 2292,
      "Ġcopy": 2293,
      "pendenc": 2294,
      "other": 2295,
      "next": 2296,
      "atr": 2297,
      "Ġpad": 2298,
      "ernel": 2299,
      "antic": 2300,
      "ling": 2301,
      "emplo": 2302,
      "als": 2303,
      "ature": 2304,
      "ĠÐ½": 2305,
      "ario": 2306,
      "Ġlogits": 2307,
      "Param": 2308,
      "Ġdos": 2309,
      "img": 2310,
      "Ġour": 2311,
      "Ġpas": 2312,
      "displaystyle": 2313,
      "mos": 2314,
      "gram": 2315,
      "bit": 2316,
      "bert": 2317,
      "pose": 2318,
      "ĠAt": 2319,
      "prepare": 2320,
      "expected": 2321,
      "andom": 2322,
      "incip": 2323,
      "scale": 2324,
      "ences": 2325,
      "Ġabout": 2326,
      "entes": 2327,
      "ipe": 2328,
      "past": 2329,
      "ĠRes": 2330,
      "adata": 2331,
      "Ġperson": 2332,
      "Ġgu": 2333,
      "training": 2334,
      "--------------------------------": 2335,
      "amiento": 2336,
      "right": 2337,
      "normal": 2338,
      "]:": 2339,
      "sw": 2340,
      "Ġmuch": 2341,
      "cor": 2342,
      "ĠTo": 2343,
      "Data": 2344,
      "[:,": 2345,
      "idos": 2346,
      "ating": 2347,
      "Ġten": 2348,
      "CT": 2349,
      "Ġden": 2350,
      "rough": 2351,
      "mas": 2352,
      "æĪ": 2353,
      "eces": 2354,
      "ľ¨": 2355,
      "ê³": 2356,
      "Ġ):": 2357,
      "Ġhac": 2358,
      "parameters": 2359,
      "tico": 2360,
      "ä½¿çĶ¨": 2361,
      "Ġ(!": 2362,
      "math": 2363,
      "aph": 2364,
      "Ġmain": 2365,
      "Ġkn": 2366,
      "oe": 2367,
      "å¤": 2368,
      "replace": 2369,
      "æķ": 2370,
      "Ġvideo": 2371,
      "mall": 2372,
      "TTP": 2373,
      "component": 2374,
      "ĠÃł": 2375,
      "38": 2376,
      "python": 2377,
      "feature": 2378,
      "multi": 2379,
      "ctx": 2380,
      "sign": 2381,
      "ĠÐ´": 2382,
      "Path": 2383,
      "Ġwrit": 2384,
      "ä¾": 2385,
      "ider": 2386,
      "ãģŁ": 2387,
      "ural": 2388,
      "wn": 2389,
      "Īĺ": 2390,
      "44": 2391,
      "ĠÑģ": 2392,
      "LI": 2393,
      "uter": 2394,
      "ik": 2395,
      "55": 2396,
      "Ġsaid": 2397,
      "plementation": 2398,
      "ãģĮ": 2399,
      "ãĥ«": 2400,
      "Ġnow": 2401,
      "Gener": 2402,
      "Linear": 2403,
      "ĠAN": 2404,
      "Ġrequire": 2405,
      "Ġparent": 2406,
      "ML": 2407,
      "struc": 2408,
      "px": 2409,
      "func": 2410,
      "ca": 2411,
      "['": 2412,
      "={": 2413,
      "Ġci": 2414,
      "ough": 2415,
      "39": 2416,
      "Ġtitle": 2417,
      "Ġhref": 2418,
      "oad": 2419,
      "°Ģ": 2420,
      "Ġgover": 2421,
      "match": 2422,
      "tuple": 2423,
      "ics": 2424,
      "Ġprincip": 2425,
      "Ġrequest": 2426,
      "ower": 2427,
      "']": 2428,
      "ires": 2429,
      "extr": 2430,
      "Norm": 2431,
      "LongTensor": 2432,
      "Ġsol": 2433,
      "modeling": 2434,
      "Ġvari": 2435,
      "imal": 2436,
      "Ġparser": 2437,
      "Ġparti": 2438,
      "MALL": 2439,
      "Ġesp": 2440,
      "eval": 2441,
      "ector": 2442,
      "points": 2443,
      "Ġcomponent": 2444,
      "Ġinitial": 2445,
      "Ġtop": 2446,
      "){": 2447,
      "lec": 2448,
      "Attention": 2449,
      "izes": 2450,
      "antes": 2451,
      "Ġfield": 2452,
      "serv": 2453,
      "span": 2454,
      "\",\"": 2455,
      "ft": 2456,
      "Ġseq": 2457,
      "ession": 2458,
      "bin": 2459,
      "40": 2460,
      "Ġshe": 2461,
      "ãģª": 2462,
      "irective": 2463,
      "modules": 2464,
      "Ġref": 2465,
      "host": 2466,
      "vide": 2467,
      "Ãª": 2468,
      "Ġsoc": 2469,
      "Component": 2470,
      "ista": 2471,
      "flow": 2472,
      ".\\": 2473,
      "Ġdataset": 2474,
      "support": 2475,
      "icas": 2476,
      "âĶĢâĶĢ": 2477,
      "mark": 2478,
      "Ġoptions": 2479,
      "Ġrest": 2480,
      "eno": 2481,
      "ĠÐº": 2482,
      "Ġec": 2483,
      "Ac": 2484,
      "Ġlike": 2485,
      "blank": 2486,
      "Ġbo": 2487,
      "mlp": 2488,
      "iciÃ³n": 2489,
      "Ġdie": 2490,
      "Cl": 2491,
      "ĠNo": 2492,
      "ĠArg": 2493,
      "Ġclient": 2494,
      "Ġrepresent": 2495,
      "respon": 2496,
      "59": 2497,
      "duct": 2498,
      "})": 2499,
      "ustr": 2500,
      "\".": 2501,
      "``": 2502,
      "models": 2503,
      "79": 2504,
      "keep": 2505,
      "decode": 2506,
      "]]": 2507,
      "ãģĵ": 2508,
      "80": 2509,
      "ĠngDevMode": 2510,
      "chedul": 2511,
      "ĠFr": 2512,
      "msg": 2513,
      "310": 2514,
      "TAL": 2515,
      "ting": 2516,
      "raw": 2517,
      "Ġaudio": 2518,
      "exception": 2519,
      "000": 2520,
      "ments": 2521,
      "Ġgre": 2522,
      "Up": 2523,
      "ween": 2524,
      "forward": 2525,
      "IO": 2526,
      "expert": 2527,
      "Ġfeature": 2528,
      "TestCase": 2529,
      "ased": 2530,
      "Ġpart": 2531,
      "ausalLM": 2532,
      "tain": 2533,
      "bytes": 2534,
      "Ġinit": 2535,
      "Ġlle": 2536,
      "ĠSMALL": 2537,
      "book": 2538,
      "Ġexample": 2539,
      "########": 2540,
      "ember": 2541,
      "The": 2542,
      "Enc": 2543,
      "Ã©c": 2544,
      "pixel": 2545,
      "Det": 2546,
      "prefix": 2547,
      "RL": 2548,
      "By": 2549,
      "æĺ": 2550,
      "OD": 2551,
      "iales": 2552,
      "ĠSome": 2553,
      "eft": 2554,
      "Ġprev": 2555,
      "Ġencoding": 2556,
      "ĠaÃ±": 2557,
      "ä¸Ģ": 2558,
      "ĠestÃ¡": 2559,
      "Ġdown": 2560,
      "PreTrained": 2561,
      "Ġconfiguration": 2562,
      "viron": 2563,
      "Ġhum": 2564,
      "unto": 2565,
      "met": 2566,
      "iff": 2567,
      "Ġthrough": 2568,
      "Ġtask": 2569,
      "idual": 2570,
      "rl": 2571,
      "Ġexist": 2572,
      "Ġ`(": 2573,
      "first": 2574,
      "update": 2575,
      "Ġdesar": 2576,
      "erg": 2577,
      "ĠOk": 2578,
      "epS": 2579,
      "TypeError": 2580,
      "Ġesta": 2581,
      "Ð·": 2582,
      "Mix": 2583,
      "Ġagain": 2584,
      "dep": 2585,
      "encoding": 2586,
      "Ø§Ø": 2587,
      "(_": 2588,
      "arn": 2589,
      "éĢ": 2590,
      "Ġuser": 2591,
      "ture": 2592,
      "Ġcos": 2593,
      "eze": 2594,
      "Ġpres": 2595,
      "buffer": 2596,
      "Ġpero": 2597,
      "generate": 2598,
      "Ġcontent": 2599,
      "Ġold": 2600,
      "On": 2601,
      "Ġvan": 2602,
      "Ġeither": 2603,
      "Ġversion": 2604,
      "Ġhow": 2605,
      "Ġdiffer": 2606,
      "Ġtotal": 2607,
      "Ġsl": 2608,
      "UN": 2609,
      ")?": 2610,
      "can": 2611,
      "activ": 2612,
      "ÃŃas": 2613,
      "Ġ15": 2614,
      "ets": 2615,
      "ails": 2616,
      "Ġer": 2617,
      "Ġheight": 2618,
      "Base": 2619,
      "cle": 2620,
      "__()": 2621,
      "¨ë": 2622,
      "uciÃ³n": 2623,
      "ry": 2624,
      "Ġ;": 2625,
      "long": 2626,
      "42": 2627,
      "font": 2628,
      "ategy": 2629,
      "Ĥ¬": 2630,
      "Ġutiliz": 2631,
      "UL": 2632,
      "ìŀ": 2633,
      "epSpeed": 2634,
      "arse": 2635,
      "allel": 2636,
      "vol": 2637,
      "Ã£": 2638,
      "_(": 2639,
      "Or": 2640,
      "Ġnp": 2641,
      "Ġti": 2642,
      "ĠCON": 2643,
      "ung": 2644,
      "Ġnormal": 2645,
      "factor": 2646,
      "Ġsoft": 2647,
      "ĠÐ¸": 2648,
      "celerator": 2649,
      "ĠAll": 2650,
      "Factory": 2651,
      "built": 2652,
      "wise": 2653,
      ";\":": 2654,
      "steps": 2655,
      "Ġll": 2656,
      "TH": 2657,
      "Ġter": 2658,
      "Ġselect": 2659,
      "Ġnue": 2660,
      "only": 2661,
      ")),": 2662,
      "Ġni": 2663,
      "ãĥ¼ãĤ": 2664,
      "ĠOption": 2665,
      "uest": 2666,
      "Ã£o": 2667,
      "tle": 2668,
      "types": 2669,
      "ĠBase": 2670,
      "orn": 2671,
      "comm": 2672,
      "Ġgrad": 2673,
      "Ġaplic": 2674,
      "ito": 2675,
      "ãĥĩ": 2676,
      "ĠAng": 2677,
      "resh": 2678,
      "vi": 2679,
      "odec": 2680,
      "Ġhist": 2681,
      "Ġpoint": 2682,
      "ÑĢÐ¸": 2683,
      "dad": 2684,
      "ì§": 2685,
      "ticas": 2686,
      "Ġfound": 2687,
      "?:": 2688,
      "Ġcustom": 2689,
      "into": 2690,
      "epspeed": 2691,
      "Ġurl": 2692,
      "Ġmar": 2693,
      "Ġinstance": 2694,
      "70": 2695,
      "ìĬµ": 2696,
      "va": 2697,
      "uda": 2698,
      "ĠOn": 2699,
      "kv": 2700,
      "OUT": 2701,
      "Ġskip": 2702,
      "Ġyear": 2703,
      "afe": 2704,
      "Machine": 2705,
      "null": 2706,
      "è¦": 2707,
      "Ġ$": 2708,
      "orig": 2709,
      "66": 2710,
      "fp": 2711,
      "irtualMachine": 2712,
      "cfg": 2713,
      "ified": 2714,
      "Ġconvert": 2715,
      "Ġglobal": 2716,
      "ä»¥": 2717,
      "Ġexpress": 2718,
      "common": 2719,
      "IONS": 2720,
      "ĠÙħ": 2721,
      "ĠÐ¼": 2722,
      "SON": 2723,
      "ìļ©": 2724,
      "35": 2725,
      "generation": 2726,
      "chunk": 2727,
      "Ġnon": 2728,
      "Ġsecond": 2729,
      "Ð°Ð½": 2730,
      "Ġcontrol": 2731,
      "title": 2732,
      "lar": 2733,
      "Ġ()": 2734,
      "older": 2735,
      "orÃŃa": 2736,
      "action": 2737,
      "ìĿĺ": 2738,
      "sg": 2739,
      "aces": 2740,
      "Ġgiv": 2741,
      "rect": 2742,
      "ĠAnd": 2743,
      "Ġëª": 2744,
      "72": 2745,
      "very": 2746,
      "\"))": 2747,
      "ugging": 2748,
      "encode": 2749,
      "`.": 2750,
      "OT": 2751,
      "det": 2752,
      "Ġbel": 2753,
      "mode": 2754,
      "task": 2755,
      "step": 2756,
      "mut": 2757,
      "ana": 2758,
      "Ġbias": 2759,
      "Ġvocab": 2760,
      "Ġforma": 2761,
      "ĠBr": 2762,
      "*):": 2763,
      "RAN": 2764,
      "Ùĥ": 2765,
      "Ġtemp": 2766,
      "ĠâĢĵ": 2767,
      "_{": 2768,
      "tp": 2769,
      "ift": 2770,
      "Ġdifer": 2771,
      "ìĦľ": 2772,
      "loop": 2773,
      "RA": 2774,
      "Ġbetween": 2775,
      "Ġbl": 2776,
      "Sub": 2777,
      "Valid": 2778,
      "globals": 2779,
      "ĠìĿ´": 2780,
      "sample": 2781,
      "ĠIS": 2782,
      "Ġthese": 2783,
      "any": 2784,
      "adores": 2785,
      "Ġunittest": 2786,
      "CausalLM": 2787,
      "ĠCAPI": 2788,
      "slice": 2789,
      "Ġejemplo": 2790,
      "Ð¹": 2791,
      "Ġmodels": 2792,
      "Ġsuch": 2793,
      "Ñħ": 2794,
      "ĠCAPITAL": 2795,
      "ãģĻãĤĭ": 2796,
      "Ġbytes": 2797,
      "Ġweights": 2798,
      "dat": 2799,
      "ump": 2800,
      "ãĥ¼ãĥ": 2801,
      "indices": 2802,
      "State": 2803,
      "Ġtests": 2804,
      "ÑĤÑĮ": 2805,
      "Ð¾Ð»": 2806,
      "String": 2807,
      "hf": 2808,
      "oria": 2809,
      "Ġstyle": 2810,
      "][": 2811,
      "ension": 2812,
      "ĠType": 2813,
      "ieron": 2814,
      "Ġdeb": 2815,
      "bool": 2816,
      "åı¯": 2817,
      "Ġpython": 2818,
      "bone": 2819,
      "scrib": 2820,
      "abc": 2821,
      "ress": 2822,
      "Ġhl": 2823,
      "Ġthrow": 2824,
      "Ġred": 2825,
      "tot": 2826,
      "è¡": 2827,
      "Ġallow": 2828,
      "TO": 2829,
      "application": 2830,
      "atched": 2831,
      "Ġpresent": 2832,
      "Ġparte": 2833,
      "ilar": 2834,
      "itor": 2835,
      "Ġalgun": 2836,
      "internal": 2837,
      "VirtualMachine": 2838,
      "iendo": 2839,
      "Ġya": 2840,
      "PP": 2841,
      "rt": 2842,
      "__,": 2843,
      "Ġcalled": 2844,
      "Ñĩ": 2845,
      "Ġsee": 2846,
      "logÃŃa": 2847,
      "Ġcal": 2848,
      "ĠLas": 2849,
      "cur": 2850,
      "Ġhere": 2851,
      "request": 2852,
      "ale": 2853,
      "seg": 2854,
      "33": 2855,
      "ilder": 2856,
      "ModelOutput": 2857,
      "(**": 2858,
      "void": 2859,
      "Mixin": 2860,
      "Ġpa": 2861,
      "ĠAc": 2862,
      "grid": 2863,
      "Ġfast": 2864,
      "Ġmis": 2865,
      "ĠlView": 2866,
      "pop": 2867,
      "Ġactiv": 2868,
      "window": 2869,
      "ped": 2870,
      "Ġ../": 2871,
      "aban": 2872,
      "Ġchild": 2873,
      "used": 2874,
      "Ġdocument": 2875,
      "ily": 2876,
      "igo": 2877,
      "copy": 2878,
      "oh": 2879,
      "ĠEr": 2880,
      "aria": 2881,
      "Ġsuc": 2882,
      "oot": 2883,
      "false": 2884,
      "ords": 2885,
      "izaciÃ³n": 2886,
      "cap": 2887,
      "Ġdi": 2888,
      "Ġ../../": 2889,
      "Classification": 2890,
      "ĠReturn": 2891,
      "åĬ": 2892,
      "Ġmost": 2893,
      "Ġil": 2894,
      "05": 2895,
      "ains": 2896,
      "ä½ł": 2897,
      "prompt": 2898,
      "Bu": 2899,
      "ãģķ": 2900,
      "Ġconsider": 2901,
      "ĠìĤ¬": 2902,
      "ĠìŀĪ": 2903,
      "asta": 2904,
      "Ġorder": 2905,
      "Ġdifferent": 2906,
      "Ġmil": 2907,
      "Array": 2908,
      "ground": 2909,
      "Ġemb": 2910,
      "Ġawait": 2911,
      "fast": 2912,
      "Ġestr": 2913,
      "Ġpermiss": 2914,
      "Ġday": 2915,
      "source": 2916,
      "Ġduring": 2917,
      "pace": 2918,
      "Ùģ": 2919,
      "testing": 2920,
      "uel": 2921,
      "uy": 2922,
      "ìĬµëĭĪëĭ¤": 2923,
      "86": 2924,
      "vis": 2925,
      "sec": 2926,
      "åľ¨": 2927,
      "Ġ14": 2928,
      "Net": 2929,
      "async": 2930,
      "Ġmessage": 2931,
      "¸°": 2932,
      "status": 2933,
      "Ġwhat": 2934,
      "unic": 2935,
      "erate": 2936,
      "hether": 2937,
      "Hand": 2938,
      "Ġcuando": 2939,
      "Ġview": 2940,
      "Ġsistema": 2941,
      "Ġpueden": 2942,
      "Ġgeneral": 2943,
      "Url": 2944,
      "hub": 2945,
      "omin": 2946,
      "Ġfe": 2947,
      "Ġtim": 2948,
      "undo": 2949,
      "Ġproces": 2950,
      "ciones": 2951,
      "=-": 2952,
      "Ġlogger": 2953,
      "ampling": 2954,
      "Ġæ": 2955,
      "roy": 2956,
      "Ġìł": 2957,
      "Ġapply": 2958,
      "xy": 2959,
      "imation": 2960,
      "Ġinstall": 2961,
      "SE": 2962,
      "amed": 2963,
      "select": 2964,
      "Ġinte": 2965,
      "Col": 2966,
      "Key": 2967,
      "ĠÑĤ": 2968,
      "eries": 2969,
      "Ġdesde": 2970,
      "lect": 2971,
      "Ġlogging": 2972,
      "aje": 2973,
      "argument": 2974,
      "Ġda": 2975,
      "builtins": 2976,
      "Ġvision": 2977,
      "boxes": 2978,
      "Ñİ": 2979,
      "save": 2980,
      "Ġcould": 2981,
      "quest": 2982,
      "dantic": 2983,
      "Ġmode": 2984,
      "Context": 2985,
      "Ġ})": 2986,
      "quantiz": 2987,
      "ament": 2988,
      "SS": 2989,
      "Ġmemory": 2990,
      "ditional": 2991,
      "gl": 2992,
      "tif": 2993,
      "ĠOF": 2994,
      "Ġboth": 2995,
      "©ëĭĪëĭ¤": 2996,
      "Ġbien": 2997,
      "template": 2998,
      "body": 2999,
      "queeze": 3000,
      "sn": 3001,
      "Ġexc": 3002,
      "Ġdep": 3003,
      "Ġtiem": 3004,
      "}\"": 3005,
      "iment": 3006,
      "26": 3007,
      "Ġ```": 3008,
      "cheduler": 3009,
      "ude": 3010,
      "ODE": 3011,
      "ĠÃ¡": 3012,
      "Ġexport": 3013,
      "></": 3014,
      "Ġhigh": 3015,
      "ĠGener": 3016,
      "Ġfuer": 3017,
      "aclass": 3018,
      "Ġdatos": 3019,
      "vers": 3020,
      "message": 3021,
      "Ġcab": 3022,
      "encias": 3023,
      "Vision": 3024,
      "84": 3025,
      "íķľ": 3026,
      "inding": 3027,
      "De": 3028,
      "itch": 3029,
      "Tester": 3030,
      "Ã¶": 3031,
      "perty": 3032,
      "Code": 3033,
      "Ġsal": 3034,
      "ForCausalLM": 3035,
      "ðŁļ¨ðŁļ¨ðŁļ¨ðŁļ¨ðŁļ¨ðŁļ¨ðŁļ¨ðŁļ¨": 3036,
      "ÃŃn": 3037,
      "ĠImage": 3038,
      "Ġconoc": 3039,
      "level": 3040,
      "ĠcÃ³": 3041,
      "Ġpermissions": 3042,
      "FF": 3043,
      "LO": 3044,
      "las": 3045,
      "tre": 3046,
      "Ġcls": 3047,
      "!(": 3048,
      "root": 3049,
      "Ġdefin": 3050,
      "ars": 3051,
      "Option": 3052,
      "field": 3053,
      "reate": 3054,
      "Ã³g": 3055,
      "ĠGr": 3056,
      "Prop": 3057,
      "require": 3058,
      "reed": 3059,
      "Ġkwargs": 3060,
      "ĠAngular": 3061,
      "ãĤ¤": 3062,
      "odo": 3063,
      "mean": 3064,
      "Ġprec": 3065,
      "static": 3066,
      "ques": 3067,
      "Ġperform": 3068,
      "Ø¹": 3069,
      "repr": 3070,
      "Ġdiv": 3071,
      "Ġ201": 3072,
      "dp": 3073,
      "Ġëª¨ë": 3074,
      "UM": 3075,
      "Ġum": 3076,
      "Ġembeddings": 3077,
      "Ġcada": 3078,
      "ĠOR": 3079,
      "umn": 3080,
      "parti": 3081,
      "å¾": 3082,
      "Ġbox": 3083,
      "Ġmsg": 3084,
      "Ġactual": 3085,
      "Kwargs": 3086,
      "req": 3087,
      "Ġfollowing": 3088,
      "Decoder": 3089,
      "uture": 3090,
      "Ġtu": 3091,
      "atio": 3092,
      "ves": 3093,
      "Ġeff": 3094,
      "ole": 3095,
      "iance": 3096,
      "&&": 3097,
      "Win": 3098,
      "ĠPor": 3099,
      "\"{": 3100,
      "Ġrem": 3101,
      "sizes": 3102,
      "Ġyo": 3103,
      "side": 3104,
      "ĠAutoModel": 3105,
      "Input": 3106,
      "ĠDeepSpeed": 3107,
      "uns": 3108,
      "Ġlimitations": 3109,
      "initial": 3110,
      "mbed": 3111,
      "Call": 3112,
      "tigu": 3113,
      "=\"_": 3114,
      "Ġstand": 3115,
      "Ġsingle": 3116,
      "Ġbecause": 3117,
      "Reg": 3118,
      "29": 3119,
      "Ġyield": 3120,
      "ì§Ģ": 3121,
      "Ġsw": 3122,
      "Ġgoverning": 3123,
      "leanup": 3124,
      "Qu": 3125,
      "bs": 3126,
      "=[": 3127,
      "Ġresol": 3128,
      "II": 3129,
      "ĠSelf": 3130,
      "Ġwithout": 3131,
      "ĠHTTP": 3132,
      "classes": 3133,
      "ĠCol": 3134,
      "tom": 3135,
      "idades": 3136,
      "external": 3137,
      ">,": 3138,
      "Ġhasta": 3139,
      "Ġparse": 3140,
      "Ġarch": 3141,
      "Ġdonde": 3142,
      "ĠApache": 3143,
      "As": 3144,
      "scores": 3145,
      "Ġsoftware": 3146,
      "sha": 3147,
      "Ġlook": 3148,
      "(*": 3149,
      "Ġge": 3150,
      "Ġtodo": 3151,
      "Ġdecl": 3152,
      "Ġbar": 3153,
      "center": 3154,
      "aps": 3155,
      "resol": 3156,
      "06": 3157,
      "fd": 3158,
      "\"):": 3159,
      "ĠìĪĺ": 3160,
      "caling": 3161,
      "ajo": 3162,
      "utf": 3163,
      "Ð±": 3164,
      "anges": 3165,
      "atter": 3166,
      "Ġear": 3167,
      "Ġprepare": 3168,
      "ities": 3169,
      "ĠtNode": 3170,
      "Ġdeter": 3171,
      "ãĤ¯": 3172,
      "Ã³m": 3173,
      "odoc": 3174,
      "stack": 3175,
      "Info": 3176,
      "License": 3177,
      "Ġgen": 3178,
      "convert": 3179,
      "arts": 3180,
      "ĠOpen": 3181,
      "ually": 3182,
      "Ð¾Ð´": 3183,
      "++": 3184,
      "ĠSan": 3185,
      "zero": 3186,
      "Ġapp": 3187,
      "iedad": 3188,
      "58": 3189,
      "Ġheader": 3190,
      "rate": 3191,
      "tras": 3192,
      "Ġcam": 3193,
      "ynam": 3194,
      "File": 3195,
      "full": 3196,
      "description": 3197,
      "gle": 3198,
      "mentation": 3199,
      "header": 3200,
      "istr": 3201,
      "cope": 3202,
      "Ġbeing": 3203,
      "Encoder": 3204,
      "Ġíķ": 3205,
      "ignore": 3206,
      "Ġmade": 3207,
      "une": 3208,
      "ĠPR": 3209,
      "FA": 3210,
      "ë¦": 3211,
      "ife": 3212,
      "\":\"": 3213,
      "ambda": 3214,
      "Ġlaw": 3215,
      "iver": 3216,
      "Ġprompt": 3217,
      "Ġspecial": 3218,
      "Ġlabel": 3219,
      "tax": 3220,
      "\"},": 3221,
      "Ġstd": 3222,
      "Ġwindow": 3223,
      "Ġpartic": 3224,
      "Ø¨": 3225,
      "ibil": 3226,
      "ove": 3227,
      "Ġautodoc": 3228,
      "Ġinf": 3229,
      "ĠPyResult": 3230,
      "PreTrainedModel": 3231,
      "ties": 3232,
      "Ġshow": 3233,
      "eature": 3234,
      "Ġ====": 3235,
      "Ġgeneration": 3236,
      "âĸ": 3237,
      "Container": 3238,
      "uch": 3239,
      "'))": 3240,
      "Ġgiven": 3241,
      "Ġtiempo": 3242,
      "ugar": 3243,
      "Ġgran": 3244,
      "iana": 3245,
      "ÅŁ": 3246,
      "Ġequ": 3247,
      "added": 3248,
      "sys": 3249,
      "Ġwriting": 3250,
      "Ġve": 3251,
      "Ġwell": 3252,
      "ĠasÃŃ": 3253,
      "masks": 3254,
      "Ð¾Ð¼": 3255,
      "Instance": 3256,
      "ERT": 3257,
      "200": 3258,
      "Ġgrand": 3259,
      "ĠModel": 3260,
      "Ġproble": 3261,
      "åĢ": 3262,
      "server": 3263,
      "è¨": 3264,
      "Ġ[{": 3265,
      "ĠDec": 3266,
      "Ġ],": 3267,
      "ãĤĬ": 3268,
      "ValueError": 3269,
      "Ġwrite": 3270,
      "Ġjust": 3271,
      "tool": 3272,
      "Ġsum": 3273,
      "77": 3274,
      "Ġaqu": 3275,
      "ĠJSON": 3276,
      "Ġotros": 3277,
      "lines": 3278,
      "ited": 3279,
      "Ġtiene": 3280,
      "Loc": 3281,
      "__)": 3282,
      "Ġneg": 3283,
      "ird": 3284,
      "wer": 3285,
      "compile": 3286,
      "Ġplan": 3287,
      "è¯": 3288,
      "Ġera": 3289,
      "Ġhet": 3290,
      "ìĿĢ": 3291,
      "Ġmock": 3292,
      "ÙĤ": 3293,
      "remove": 3294,
      "Ġpod": 3295,
      "Ġright": 3296,
      "Ġgetattr": 3297,
      "Ġbro": 3298,
      "ready": 3299,
      "âĢĶ": 3300,
      "Ġ202": 3301,
      "Ġqui": 3302,
      "comple": 3303,
      "former": 3304,
      "transpose": 3305,
      "Ġprovided": 3306,
      "tific": 3307,
      "Ġhost": 3308,
      "itar": 3309,
      "lView": 3310,
      "ÄŁ": 3311,
      "æķ°": 3312,
      "ĠìĤ¬ìļ©": 3313,
      "typeof": 3314,
      ").\",": 3315,
      "Ġeval": 3316,
      "tmp": 3317,
      "ãĥĥ": 3318,
      "Injector": 3319,
      "flags": 3320,
      "Ġfeatures": 3321,
      "Block": 3322,
      "Ø¬": 3323,
      "ived": 3324,
      "ĠâĪ": 3325,
      "tig": 3326,
      "bas": 3327,
      "Child": 3328,
      "mbedding": 3329,
      "Ġing": 3330,
      "Ġcolor": 3331,
      "HT": 3332,
      "Ġapplic": 3333,
      "ats": 3334,
      "Ġquantiz": 3335,
      "Ġdid": 3336,
      "Ġautom": 3337,
      "intermediate": 3338,
      "Ġ>=": 3339,
      "dom": 3340,
      "ĠSie": 3341,
      "ancia": 3342,
      "issing": 3343,
      "Hel": 3344,
      "Ġneces": 3345,
      "Ġenti": 3346,
      "Generation": 3347,
      "ai": 3348,
      "'\\": 3349,
      "Ġfull": 3350,
      "ested": 3351,
      "Ġstruct": 3352,
      ".{": 3353,
      "resize": 3354,
      "IND": 3355,
      "//": 3356,
      "Ġvol": 3357,
      "Ad": 3358,
      "æĺ¯": 3359,
      "tag": 3360,
      "Ġfail": 3361,
      "Ġcount": 3362,
      "CE": 3363,
      "vic": 3364,
      "ê°Ģ": 3365,
      "54": 3366,
      "atform": 3367,
      "Ġthree": 3368,
      "client": 3369,
      "mit": 3370,
      "annel": 3371,
      "ÑĢÐ°Ð": 3372,
      "element": 3373,
      "axis": 3374,
      "ĠDes": 3375,
      "Ġattr": 3376,
      "response": 3377,
      "ĭå": 3378,
      "LView": 3379,
      "flex": 3380,
      "child": 3381,
      "Exception": 3382,
      "Feature": 3383,
      "Ġcheckpoint": 3384,
      "Ġnames": 3385,
      "ãģĹãģ¦": 3386,
      "ĠOr": 3387,
      "Ġê²": 3388,
      "Ġsimilar": 3389,
      "Wh": 3390,
      ".@": 3391,
      "ImageProcessor": 3392,
      "lin": 3393,
      "Ġà¤": 3394,
      "Ġsmall": 3395,
      "NAM": 3396,
      "hash": 3397,
      "9999": 3398,
      "const": 3399,
      "Ġrefer": 3400,
      "Ġorgan": 3401,
      "Ġoffset": 3402,
      "Ġway": 3403,
      "ĠSh": 3404,
      "Ã©t": 3405,
      "till": 3406,
      "structor": 3407,
      "defined": 3408,
      "expand": 3409,
      "ynamic": 3410,
      "Ġdr": 3411,
      "Ġmany": 3412,
      "idas": 3413,
      "Ġarguments": 3414,
      "schema": 3415,
      "å°": 3416,
      "ÑĤÐµ": 3417,
      "ecut": 3418,
      "Ġ@.@": 3419,
      "unque": 3420,
      "ëĵ": 3421,
      "igger": 3422,
      "ph": 3423,
      "Ã¡c": 3424,
      "ydr": 3425,
      "inner": 3426,
      "ete": 3427,
      "iction": 3428,
      "none": 3429,
      "layernorm": 3430,
      "positions": 3431,
      "anos": 3432,
      "ators": 3433,
      "è¦ģ": 3434,
      "Ġhan": 3435,
      "Ð¾Ð¶": 3436,
      "AA": 3437,
      "rot": 3438,
      "quences": 3439,
      "tributes": 3440,
      "98": 3441,
      "yntax": 3442,
      "arm": 3443,
      "ret": 3444,
      "experts": 3445,
      "acken": 3446,
      "Check": 3447,
      "TED": 3448,
      "Ġmi": 3449,
      "mbol": 3450,
      "Client": 3451,
      "}\")": 3452,
      "left": 3453,
      "groups": 3454,
      "Ġ32": 3455,
      "bo": 3456,
      "uff": 3457,
      "Ġenum": 3458,
      "Ġcompl": 3459,
      "Ġrele": 3460,
      "Ġserver": 3461,
      "Ġsolo": 3462,
      "itect": 3463,
      "Ġnat": 3464,
      "';": 3465,
      "ons": 3466,
      "Ġpour": 3467,
      "etch": 3468,
      "ĠCheck": 3469,
      "IZ": 3470,
      "ä¸Ń": 3471,
      "rank": 3472,
      "ĠseÃ±": 3473,
      "ĭ¤": 3474,
      "Ġesc": 3475,
      "Ġframe": 3476,
      "60": 3477,
      "ĠVersion": 3478,
      "Group": 3479,
      "ene": 3480,
      "examples": 3481,
      "gn": 3482,
      "thread": 3483,
      "Sty": 3484,
      "accelerator": 3485,
      "No": 3486,
      "Ġopt": 3487,
      "Rout": 3488,
      "conn": 3489,
      "FN": 3490,
      "ticos": 3491,
      "Ġparameters": 3492,
      "gradient": 3493,
      "Time": 3494,
      "Ġcontinue": 3495,
      "Set": 3496,
      "inf": 3497,
      "cpu": 3498,
      "emma": 3499,
      "Ġauto": 3500,
      "register": 3501,
      "ëł": 3502,
      "blocks": 3503,
      "\"}": 3504,
      "åŃ": 3505,
      "Ġrender": 3506,
      "Ġ13": 3507,
      "Ġproto": 3508,
      "ientes": 3509,
      "ĠArgs": 3510,
      "ĠÐ±": 3511,
      "fe": 3512,
      "part": 3513,
      "Ġllam": 3514,
      "Ġexception": 3515,
      "Inter": 3516,
      "Implement": 3517,
      "ëĲ": 3518,
      "empty": 3519,
      "aving": 3520,
      "ished": 3521,
      "acional": 3522,
      "ãĥª": 3523,
      "ends": 3524,
      "ìĬ¤": 3525,
      "Ġstatic": 3526,
      "linear": 3527,
      "jection": 3528,
      "23": 3529,
      "è®": 3530,
      "umber": 3531,
      "patches": 3532,
      "Iter": 3533,
      "ĠGPU": 3534,
      "Ġtodos": 3535,
      "options": 3536,
      "28": 3537,
      "Ġvery": 3538,
      "oy": 3539,
      "Ġthread": 3540,
      "ĠANY": 3541,
      "kernel": 3542,
      "Ġexper": 3543,
      "He": 3544,
      "Ġctx": 3545,
      "ifier": 3546,
      "istas": 3547,
      "Ġmut": 3548,
      "Ġpop": 3549,
      "Ġgl": 3550,
      "(--": 3551,
      "ĠLe": 3552,
      "Ġfind": 3553,
      "aut": 3554,
      "ìĸ": 3555,
      "ĠpaÃŃs": 3556,
      "ĠnÃº": 3557,
      "Ġplace": 3558,
      "Ġwant": 3559,
      "Self": 3560,
      "Ġmill": 3561,
      "Ġposs": 3562,
      "Ġ${": 3563,
      "Ġconf": 3564,
      "?.": 3565,
      "Dict": 3566,
      "ĠNot": 3567,
      "helper": 3568,
      "Torch": 3569,
      "Ġeven": 3570,
      "ident": 3571,
      "ickle": 3572,
      "alf": 3573,
      "Ġ}}": 3574,
      "router": 3575,
      "custom": 3576,
      "puest": 3577,
      "Ġweight": 3578,
      ".\")": 3579,
      "ava": 3580,
      "Ġleft": 3581,
      "nb": 3582,
      "Ã³r": 3583,
      "Ġpipeline": 3584,
      "\").": 3585,
      "ODO": 3586,
      "Ġsiglo": 3587,
      "OL": 3588,
      "clone": 3589,
      "Ġagreed": 3590,
      "à¥": 3591,
      "Of": 3592,
      "Ġ11": 3593,
      "ways": 3594,
      "ides": 3595,
      "Ġcorrect": 3596,
      "ato": 3597,
      "Ġbody": 3598,
      "ĠWAR": 3599,
      "mul": 3600,
      "Ã±o": 3601,
      "Ġdetermin": 3602,
      "ances": 3603,
      "From": 3604,
      "au": 3605,
      ";|": 3606,
      "âĢĻ": 3607,
      "Ġâľ": 3608,
      "cross": 3609,
      "Ġparameter": 3610,
      "files": 3611,
      "åŀ": 3612,
      "print": 3613,
      "Ġrandom": 3614,
      "HE": 3615,
      "(|": 3616,
      "net": 3617,
      "Ġobtain": 3618,
      "****": 3619,
      "ĠQwen": 3620,
      "ĠMar": 3621,
      "ìľ": 3622,
      "ĠWhen": 3623,
      "erved": 3624,
      "urity": 3625,
      "================": 3626,
      "This": 3627,
      "angular": 3628,
      "ital": 3629,
      "End": 3630,
      "ittle": 3631,
      "Ġ24": 3632,
      "alias": 3633,
      "Ġfu": 3634,
      "ãĥĹ": 3635,
      "zeros": 3636,
      "Ġprefix": 3637,
      "08": 3638,
      "ymbol": 3639,
      "ever": 3640,
      "Ġlengu": 3641,
      "(__": 3642,
      "ĠRun": 3643,
      "Ġhasattr": 3644,
      "Ùĩ": 3645,
      "è¡Į": 3646,
      "rap": 3647,
      "izers": 3648,
      "Ġmayor": 3649,
      "į¸": 3650,
      "Ġmer": 3651,
      "Embedding": 3652,
      "html": 3653,
      "Control": 3654,
      "oci": 3655,
      "Ġsent": 3656,
      "arios": 3657,
      "Ð»Ñı": 3658,
      "Ġjson": 3659,
      "Ġtanto": 3660,
      "Ġcontr": 3661,
      "Ġmuy": 3662,
      "ĥ½": 3663,
      "tical": 3664,
      "pass": 3665,
      "socket": 3666,
      "Ġvez": 3667,
      "Ġpublic": 3668,
      "win": 3669,
      "OCK": 3670,
      "=>": 3671,
      "Ġvous": 3672,
      "ism": 3673,
      "Ġdependenc": 3674,
      "GE": 3675,
      "Ġcommand": 3676,
      "ba": 3677,
      "Ġfam": 3678,
      "abs": 3679,
      "ĠPr": 3680,
      "verse": 3681,
      "ĠStr": 3682,
      "tests": 3683,
      "Ġê°": 3684,
      "alk": 3685,
      "example": 3686,
      "Ã¡l": 3687,
      ")?;": 3688,
      "Ġtrav": 3689,
      "Ĭ¸": 3690,
      "ored": 3691,
      "Ġreturned": 3692,
      "Start": 3693,
      "Ġdu": 3694,
      "utton": 3695,
      "Ġdem": 3696,
      "Ġown": 3697,
      "Ãºl": 3698,
      "erty": 3699,
      "diff": 3700,
      "ouse": 3701,
      "US": 3702,
      "Ġdark": 3703,
      "Ġerr": 3704,
      "Ġstream": 3705,
      "íķł": 3706,
      "ĠDef": 3707,
      "np": 3708,
      "¦Ĥ": 3709,
      "Ġextend": 3710,
      "Ġrecord": 3711,
      "Ġapplicable": 3712,
      "lama": 3713,
      "mapping": 3714,
      "rem": 3715,
      "Ġë°": 3716,
      "Ġart": 3717,
      "Ð½Ð¾": 3718,
      "cast": 3719,
      "uz": 3720,
      "37": 3721,
      "Ġëª¨ëį¸": 3722,
      "ĠUnpack": 3723,
      "ared": 3724,
      "callback": 3725,
      "land": 3726,
      "ìĭ": 3727,
      "ĠBAS": 3728,
      "Ġpap": 3729,
      "ĠReturns": 3730,
      "icens": 3731,
      "Fn": 3732,
      "active": 3733,
      "optimizer": 3734,
      "ãĥ©": 3735,
      "ĠÐ²Ð¸": 3736,
      "Ġinstead": 3737,
      "Dep": 3738,
      "por": 3739,
      "Ġ\"<": 3740,
      "Ġfiles": 3741,
      "Ġstack": 3742,
      "subclass": 3743,
      "Ġidenti": 3744,
      "æľī": 3745,
      "Ġ102": 3746,
      "core": 3747,
      "Ġecon": 3748,
      "ĠMark": 3749,
      "Ġprogram": 3750,
      "ele": 3751,
      "\"])": 3752,
      "''": 3753,
      "Bert": 3754,
      "CON": 3755,
      "Ġdeepspeed": 3756,
      "case": 3757,
      "cuda": 3758,
      "tol": 3759,
      "Ġresults": 3760,
      "DIT": 3761,
      "Attribute": 3762,
      "Ġph": 3763,
      "Ġevery": 3764,
      "oment": 3765,
      "bot": 3766,
      "Ġlarge": 3767,
      "gate": 3768,
      "Op": 3769,
      "li": 3770,
      "68": 3771,
      "OS": 3772,
      "reduce": 3773,
      "probs": 3774,
      "Ġmov": 3775,
      "Ġmas": 3776,
      "ĠOptional": 3777,
      "Ġextr": 3778,
      "Conditional": 3779,
      "izing": 3780,
      "icensed": 3781,
      "Ġ{'": 3782,
      "TIES": 3783,
      "configuration": 3784,
      "Ġupdate": 3785,
      "struction": 3786,
      "ĠWARRAN": 3787,
      ".,": 3788,
      "Ġsure": 3789,
      "ita": 3790,
      "Ġâľħ": 3791,
      "warning": 3792,
      "ood": 3793,
      "ÑĤÐ¾": 3794,
      "uras": 3795,
      "Ġdir": 3796,
      "argo": 3797,
      "æ¨": 3798,
      "orth": 3799,
      "transform": 3800,
      "\"/": 3801,
      "Ġworld": 3802,
      "transformers": 3803,
      "WithP": 3804,
      "ombre": 3805,
      "gt": 3806,
      "ĠUnless": 3807,
      "Ġimplied": 3808,
      "ĠWARRANTIES": 3809,
      "Ġkeep": 3810,
      "FI": 3811,
      "Ġtypes": 3812,
      ",@": 3813,
      "Ġide": 3814,
      "ĠLicensed": 3815,
      "Ġzip": 3816,
      "ãĥ¢": 3817,
      "Ġact": 3818,
      "amba": 3819,
      "ĠTransformers": 3820,
      "ena": 3821,
      "Ġchange": 3822,
      "efore": 3823,
      "sq": 3824,
      "debug": 3825,
      "Ġcompliance": 3826,
      "Ġentr": 3827,
      "LS": 3828,
      "íĬ¸": 3829,
      "Ġpassed": 3830,
      "ara": 3831,
      "Ġrespon": 3832,
      "Ġiter": 3833,
      "vironment": 3834,
      "Ġsignal": 3835,
      "Ġtransform": 3836,
      "Auth": 3837,
      "Sequence": 3838,
      "Ġ17": 3839,
      "Ġknow": 3840,
      "apped": 3841,
      "ObjectRef": 3842,
      "Ġitems": 3843,
      "Ġ@,@": 3844,
      "ĠaÃ±os": 3845,
      "Ġalt": 3846,
      "Ġmem": 3847,
      "pool": 3848,
      "ijo": 3849,
      "Ġextens": 3850,
      "Ġtipo": 3851,
      "XT": 3852,
      "ique": 3853,
      "Ġids": 3854,
      "Ġtrad": 3855,
      "ĠCONDIT": 3856,
      "outh": 3857,
      "ĠAdd": 3858,
      "icros": 3859,
      "uso": 3860,
      "ĠWITHOUT": 3861,
      "Ġpost": 3862,
      "Ð°Ðº": 3863,
      "Ġbir": 3864,
      "Ġempty": 3865,
      "ĠKIND": 3866,
      "ê³ł": 3867,
      "ãģķãĤĮ": 3868,
      "MS": 3869,
      "Ġinfl": 3870,
      "ĠForm": 3871,
      "And": 3872,
      "Ġdesc": 3873,
      "Handler": 3874,
      "Ġroot": 3875,
      "ĠCONDITIONS": 3876,
      "PY": 3877,
      "ists": 3878,
      "ĠBASIS": 3879,
      "iar": 3880,
      "Ġsocket": 3881,
      "prec": 3882,
      "ants": 3883,
      "Ġzij": 3884,
      "Ġarr": 3885,
      "ational": 3886,
      "sm": 3887,
      "Ġ:,": 3888,
      "ÃŃcul": 3889,
      "Ġtrab": 3890,
      "ë¦¬": 3891,
      "ĠTODO": 3892,
      "?\"": 3893,
      "Ġrece": 3894,
      "oper": 3895,
      "95": 3896,
      "ĠØª": 3897,
      "Ø³": 3898,
      "Ġarray": 3899,
      "number": 3900,
      "Ġprovide": 3901,
      "ientos": 3902,
      "ters": 3903,
      "Moe": 3904,
      "ĠInitial": 3905,
      "enta": 3906,
      ")))": 3907,
      "oader": 3908,
      "reshape": 3909,
      "med": 3910,
      "Ġbuffer": 3911,
      "Ġeen": 3912,
      ":\"": 3913,
      "ral": 3914,
      "åº": 3915,
      "table": 3916,
      "åĩ": 3917,
      "Ġconn": 3918,
      "TNode": 3919,
      "dependenc": 3920,
      "Ġmultiple": 3921,
      "dist": 3922,
      "Ġcross": 3923,
      "ĠJoh": 3924,
      "arge": 3925,
      "Ġmark": 3926,
      "unding": 3927,
      "Ġintern": 3928,
      "Ġsignific": 3929,
      "21": 3930,
      "Ġmodelo": 3931,
      "ëı": 3932,
      "normalize": 3933,
      "ĠIN": 3934,
      "izar": 3935,
      "ency": 3936,
      "ìĹĲìĦľ": 3937,
      "ĠNew": 3938,
      "Ġalready": 3939,
      "non": 3940,
      "fc": 3941,
      "flat": 3942,
      "Ġcorrespon": 3943,
      "ATION": 3944,
      "94": 3945,
      ",)": 3946,
      "Ġappe": 3947,
      "fail": 3948,
      "Ġsepar": 3949,
      "Ġlugar": 3950,
      "cum": 3951,
      "pi": 3952,
      "Ġ),": 3953,
      "ĠdÃ©": 3954,
      "ĠìĦ": 3955,
      "avig": 3956,
      "Ġraw": 3957,
      "istener": 3958,
      "Ġlater": 3959,
      "safe": 3960,
      "ĠFl": 3961,
      "istant": 3962,
      "çĽ": 3963,
      "(\"/": 3964,
      "ĠPer": 3965,
      "cion": 3966,
      "Ġtemplate": 3967,
      "ja": 3968,
      "ConditionalGeneration": 3969,
      "Ġgood": 3970,
      "^{": 3971,
      "ival": 3972,
      "ĠEu": 3973,
      "ses": 3974,
      "ican": 3975,
      "åŀĭ": 3976,
      "ForConditionalGeneration": 3977,
      "Ġsem": 3978,
      "entro": 3979,
      "Ġhay": 3980,
      "Ġthose": 3981,
      "true": 3982,
      "Ġ['": 3983,
      "ãģį": 3984,
      "och": 3985,
      "exc": 3986,
      "Ġstep": 3987,
      "Ġma": 3988,
      "å¼": 3989,
      "Ġtake": 3990,
      "Ġpip": 3991,
      "Ġune": 3992,
      "\"].": 3993,
      "ä¸ª": 3994,
      "Ġplay": 3995,
      "ttp": 3996,
      "Ġmater": 3997,
      "LayerNorm": 3998,
      "Ġ\"/": 3999,
      "íķ´": 4000,
      "Ġgreat": 4001,
      "(?:": 4002,
      "ME": 4003,
      "mary": 4004,
      "ptr": 4005,
      "ãģĭ": 4006,
      "]),": 4007,
      "Ġdocs": 4008,
      "Ġtoo": 4009,
      "UE": 4010,
      "pattern": 4011,
      "quier": 4012,
      "ĠCont": 4013,
      "Ġimplement": 4014,
      "Ġìķ": 4015,
      "ulation": 4016,
      "YPE": 4017,
      "apter": 4018,
      "Ġdescrib": 4019,
      "Ġround": 4020,
      "Ġseries": 4021,
      "filename": 4022,
      "Ġ/**": 4023,
      "memory": 4024,
      "Size": 4025,
      "Ġmean": 4026,
      "Ġfmt": 4027,
      "iT": 4028,
      "ë©": 4029,
      "stream": 4030,
      "Ġconj": 4031,
      "ĠAutoTokenizer": 4032,
      "isti": 4033,
      "Ġmismo": 4034,
      "ĠSin": 4035,
      "ected": 4036,
      "Ġdans": 4037,
      "Ġetc": 4038,
      "lip": 4039,
      "odern": 4040,
      "ĠPydantic": 4041,
      "ä¹": 4042,
      "Ġfix": 4043,
      "Ġmundo": 4044,
      "ĠInd": 4045,
      "frame": 4046,
      "depth": 4047,
      "27": 4048,
      "Ġsystem": 4049,
      "Ġparams": 4050,
      "Pl": 4051,
      "ê¸°": 4052,
      "El": 4053,
      "Ġkeys": 4054,
      "Ġenerg": 4055,
      "Ġpattern": 4056,
      "Ġlayers": 4057,
      "uring": 4058,
      "Ġsigu": 4059,
      "Cache": 4060,
      "Ġfastapi": 4061,
      "ackend": 4062,
      "Ġstill": 4063,
      "Ġprom": 4064,
      "Ġ<=": 4065,
      "Ġremove": 4066,
      "sdp": 4067,
      "Ġtrack": 4068,
      "EC": 4069,
      "Ġpal": 4070,
      "lear": 4071,
      "Ġimp": 4072,
      "oogle": 4073,
      "Ġsay": 4074,
      "assertFalse": 4075,
      "Property": 4076,
      "Ġje": 4077,
      "Ġadded": 4078,
      "Ġeps": 4079,
      "ĠhabÃŃa": 4080,
      "Ġ\"__": 4081,
      "Ġterr": 4082,
      "men": 4083,
      "Ġincre": 4084,
      "ĠSi": 4085,
      "ĠTensor": 4086,
      "ĠURL": 4087,
      "ÑĪ": 4088,
      "chat": 4089,
      "Ġax": 4090,
      ",âĢĭ": 4091,
      "queries": 4092,
      "Fl": 4093,
      "unter": 4094,
      "Ġcallback": 4095,
      "Ġaf": 4096,
      "Ġencoded": 4097,
      "Ġtrain": 4098,
      "errors": 4099,
      "ĠÐ·Ð°Ð": 4100,
      "ĠDep": 4101,
      "Ġdirec": 4102,
      "Ġscale": 4103,
      "ĠErr": 4104,
      "à¦": 4105,
      "xim": 4106,
      "Ġlittle": 4107,
      "Ġattribute": 4108,
      "Ġsave": 4109,
      "shot": 4110,
      "Ġhandle": 4111,
      "ĠinformaciÃ³n": 4112,
      "Ġdesarroll": 4113,
      "Item": 4114,
      "ookie": 4115,
      "Ġuno": 4116,
      "65": 4117,
      "lation": 4118,
      "Ġproper": 4119,
      "Doc": 4120,
      "Ġlleg": 4121,
      "Map": 4122,
      "ãĤī": 4123,
      "aking": 4124,
      "rust": 4125,
      "Ġcamb": 4126,
      "property": 4127,
      "LA": 4128,
      "Ð¾Ð±": 4129,
      "Ġuntil": 4130,
      "Ġporque": 4131,
      "slow": 4132,
      "Ġdefine": 4133,
      "Ġ-->": 4134,
      "headers": 4135,
      "cu": 4136,
      "like": 4137,
      "graph": 4138,
      ".*": 4139,
      "Select": 4140,
      "cep": 4141,
      "ece": 4142,
      "());": 4143,
      "required": 4144,
      "Ġuses": 4145,
      "Ġintermediate": 4146,
      "Provid": 4147,
      "Ġfinally": 4148,
      "uss": 4149,
      "Ġlevel": 4150,
      "Ġwarning": 4151,
      "olÃ³g": 4152,
      "Ġresidual": 4153,
      "ĠCl": 4154,
      "bb": 4155,
      "utes": 4156,
      "åĮ": 4157,
      "ĠìŀĪìĬµëĭĪëĭ¤": 4158,
      "env": 4159,
      "Ġ000": 4160,
      "ĠHugging": 4161,
      "handle": 4162,
      "Lab": 4163,
      "eng": 4164,
      "Ġmerc": 4165,
      "IGN": 4166,
      "ìľ¼": 4167,
      "acion": 4168,
      "Ġ30": 4169,
      "buf": 4170,
      "ãģĹãģ¾ãģĻ": 4171,
      "48": 4172,
      "ume": 4173,
      "plac": 4174,
      "Ġpredic": 4175,
      "Ġmanera": 4176,
      "Ġoperation": 4177,
      "ummy": 4178,
      "Ġemp": 4179,
      "ĠError": 4180,
      "ĠObject": 4181,
      "PEC": 4182,
      "Ð¾Ð³": 4183,
      "åı¯ä»¥": 4184,
      "ĠnÃºm": 4185,
      "Ġsupported": 4186,
      "gress": 4187,
      "ĠfunciÃ³n": 4188,
      "Ġcaus": 4189,
      "Ã§Ã£o": 4190,
      "lr": 4191,
      "Ġmoment": 4192,
      "essages": 4193,
      "snr": 4194,
      "ced": 4195,
      "Change": 4196,
      "Ġimplementation": 4197,
      "anch": 4198,
      "tf": 4199,
      "ĿĮ": 4200,
      "ĠØ¨": 4201,
      "ports": 4202,
      "stage": 4203,
      "Ġextra": 4204,
      "ping": 4205,
      "rary": 4206,
      "implementation": 4207,
      "Ġespac": 4208,
      "icro": 4209,
      "opt": 4210,
      "Content": 4211,
      "Ġamb": 4212,
      "tivo": 4213,
      "Ġauth": 4214,
      "Ġavailable": 4215,
      "íķĺëĬĶ": 4216,
      "Ġagainst": 4217,
      "Ġsit": 4218,
      "ãĥĨ": 4219,
      ".âĢĭâĢĭ": 4220,
      "Strategy": 4221,
      "Vec": 4222,
      "ĠCopy": 4223,
      "imple": 4224,
      "Ġestos": 4225,
      "drop": 4226,
      "abase": 4227,
      "xx": 4228,
      "Load": 4229,
      "frames": 4230,
      "ĠNote": 4231,
      "mar": 4232,
      "Ġsch": 4233,
      "Ġmedi": 4234,
      "filter": 4235,
      "Fr": 4236,
      "'.": 4237,
      "rollo": 4238,
      "zen": 4239,
      "ĠâĿĮ": 4240,
      "Ġprevious": 4241,
      "Ġestado": 4242,
      "apply": 4243,
      "Ġotras": 4244,
      "assertIn": 4245,
      "[*": 4246,
      "ç»": 4247,
      "ĠJohn": 4248,
      "If": 4249,
      "Ġpriv": 4250,
      "Ġstates": 4251,
      "ä½ľ": 4252,
      "ĠMo": 4253,
      "control": 4254,
      "ĠTypeError": 4255,
      "Ð¶": 4256,
      "ratio": 4257,
      "èĥ½": 4258,
      "Ġfp": 4259,
      "rescale": 4260,
      "icy": 4261,
      "Ġvalor": 4262,
      "ases": 4263,
      "ron": 4264,
      "parser": 4265,
      "ĠQuij": 4266,
      "VAL": 4267,
      "zo": 4268,
      "estroy": 4269,
      "functional": 4270,
      "ison": 4271,
      "udad": 4272,
      "background": 4273,
      "ãģĤ": 4274,
      "Ġtyping": 4275,
      "unsqueeze": 4276,
      "Ġsince": 4277,
      "Ġannot": 4278,
      "find": 4279,
      "VE": 4280,
      "ops": 4281,
      "Ð°ÑĨ": 4282,
      "Ġtom": 4283,
      "Ġesto": 4284,
      "Ġmej": 4285,
      "ĠlÃŃ": 4286,
      "å®ļ": 4287,
      "ĠQuijote": 4288,
      "Ġinic": 4289,
      "Ġdurante": 4290,
      "Service": 4291,
      "ĠEs": 4292,
      "KE": 4293,
      "Ġerrors": 4294,
      "Ġcfg": 4295,
      "Default": 4296,
      "Ġsever": 4297,
      "peat": 4298,
      "Ġpytest": 4299,
      "ä¼": 4300,
      "éĸ": 4301,
      "iding": 4302,
      "ãĤĪ": 4303,
      "Ġgenerated": 4304,
      "ze": 4305,
      "usic": 4306,
      "ĠSet": 4307,
      "ĠCar": 4308,
      "RI": 4309,
      "Ä±n": 4310,
      "ĠPara": 4311,
      "}\\": 4312,
      "aceback": 4313,
      "Ġret": 4314,
      "ĠCan": 4315,
      "001": 4316,
      "empor": 4317,
      "ĠBaseModelOutput": 4318,
      "Ġaunque": 4319,
      "éĩ": 4320,
      "pression": 4321,
      "=(": 4322,
      "Ġocc": 4323,
      "ĠÎ": 4324,
      "undefined": 4325,
      "clude": 4326,
      "ls": 4327,
      "Ġword": 4328,
      "Ġbest": 4329,
      "90": 4330,
      "assertIsInstance": 4331,
      "31": 4332,
      "timeError": 4333,
      "Ġfour": 4334,
      "pute": 4335,
      "Ġ[`": 4336,
      "ula": 4337,
      "Ġteam": 4338,
      "Ġrights": 4339,
      "Bytes": 4340,
      "Ġrequires": 4341,
      "imum": 4342,
      "ui": 4343,
      "olot": 4344,
      "æ³": 4345,
      "Ġcult": 4346,
      "Ġreserved": 4347,
      "auth": 4348,
      "parallel": 4349,
      "Ġcaracter": 4350,
      "ĠÐ¿ÑĢ": 4351,
      "ĠAny": 4352,
      "ĠBu": 4353,
      "mock": 4354,
      ";':": 4355,
      "aa": 4356,
      "ged": 4357,
      "rad": 4358,
      "ĠOpenAPI": 4359,
      "Request": 4360,
      "scriber": 4361,
      "ĠSancho": 4362,
      "Ġopts": 4363,
      "area": 4364,
      "ijk": 4365,
      "olotl": 4366,
      "Ġbus": 4367,
      "Ġund": 4368,
      "Ġcannot": 4369,
      "erta": 4370,
      "sig": 4371,
      "Ġabs": 4372,
      "ness": 4373,
      "åĽ": 4374,
      "Ġvoc": 4375,
      "ards": 4376,
      "íķ©ëĭĪëĭ¤": 4377,
      "Ġoptimizer": 4378,
      "ĠBut": 4379,
      "Ġchunk": 4380,
      "orage": 4381,
      "activation": 4382,
      "ĠTe": 4383,
      "Ġsea": 4384,
      "ĠBy": 4385,
      "metr": 4386,
      "oint": 4387,
      "Ġpack": 4388,
      "anged": 4389,
      "Ġnatural": 4390,
      "ecto": 4391,
      "moe": 4392,
      "Ġembargo": 4393,
      "eq": 4394,
      "zip": 4395,
      "Ġsort": 4396,
      "isiÃ³n": 4397,
      "Ġhash": 4398,
      "Ġupon": 4399,
      "ãĥ¢ãĥĩ": 4400,
      "amos": 4401,
      "Create": 4402,
      "à±": 4403,
      "Ġlines": 4404,
      "\\.": 4405,
      "Options": 4406,
      "Ġmight": 4407,
      "\":[": 4408,
      "Ġ[];": 4409,
      "Ã©l": 4410,
      "Ġexpert": 4411,
      "akes": 4412,
      "score": 4413,
      "Argument": 4414,
      "ĠCo": 4415,
      "ips": 4416,
      "\"/>": 4417,
      "itos": 4418,
      "85": 4419,
      "Ġpot": 4420,
      "Ġaction": 4421,
      "Ġoptim": 4422,
      "LIP": 4423,
      "45": 4424,
      "tics": 4425,
      "'):": 4426,
      "Ġur": 4427,
      "Ng": 4428,
      "ĠpolÃŃ": 4429,
      "Ġotro": 4430,
      "Ġsplit": 4431,
      "Ġport": 4432,
      "roke": 4433,
      "Ġkernel": 4434,
      "shift": 4435,
      "Ġprimer": 4436,
      "Ġiss": 4437,
      "Ãºs": 4438,
      "ìĦ±": 4439,
      "eto": 4440,
      "UT": 4441,
      "Ġein": 4442,
      "ä¸į": 4443,
      "FOR": 4444,
      "pair": 4445,
      "Ġce": 4446,
      "Ġinject": 4447,
      "],\"": 4448,
      "Ġprincipal": 4449,
      "pan": 4450,
      "Ġlife": 4451,
      "Ġbuild": 4452,
      "series": 4453,
      "Ġgenerate": 4454,
      "uerra": 4455,
      "ë³": 4456,
      "rand": 4457,
      "æŀ": 4458,
      "backbone": 4459,
      "fill": 4460,
      "Ġbeg": 4461,
      "ĠHow": 4462,
      "hook": 4463,
      "THON": 4464,
      "Ġturn": 4465,
      "Ġscores": 4466,
      "Ġ25": 4467,
      "sv": 4468,
      "å¿": 4469,
      "ê²": 4470,
      "Al": 4471,
      "Ġboxes": 4472,
      "holder": 4473,
      "entr": 4474,
      "ĠMy": 4475,
      "ĠThere": 4476,
      "ĠâĶ": 4477,
      "Ġbuilt": 4478,
      "puÃ©s": 4479,
      "extra": 4480,
      "Ġep": 4481,
      "Ð°ÑĤÐ¸": 4482,
      "idd": 4483,
      "hi": 4484,
      "mac": 4485,
      "nt": 4486,
      "Ġdig": 4487,
      "æī": 4488,
      "Ġcur": 4489,
      "ĠPl": 4490,
      "Ġuso": 4491,
      "íĻ": 4492,
      "Ġanother": 4493,
      "Sh": 4494,
      "Ġëĭ¤": 4495,
      "Ġast": 4496,
      "Ġappro": 4497,
      "xml": 4498,
      "Ġhacer": 4499,
      "button": 4500,
      "Ġale": 4501,
      "exec": 4502,
      "Ġanim": 4503,
      "Ġbased": 4504,
      "reason": 4505,
      "Params": 4506,
      "ULT": 4507,
      "ãĥ¢ãĥĩãĥ«": 4508,
      "Ġcontinu": 4509,
      "Ġfueron": 4510,
      "ĠÑĥ": 4511,
      "Inject": 4512,
      "ĠPyTorch": 4513,
      "dated": 4514,
      "je": 4515,
      "Ġir": 4516,
      "eos": 4517,
      "prev": 4518,
      "Ø§Øª": 4519,
      "èĩ": 4520,
      "Ġintegr": 4521,
      "ĠÃ©l": 4522,
      "Ġens": 4523,
      "'d": 4524,
      "Ġelec": 4525,
      "Ġalgor": 4526,
      "COM": 4527,
      "Ġef": 4528,
      "masked": 4529,
      "now": 4530,
      "tNode": 4531,
      "Ġalways": 4532,
      "Ġindic": 4533,
      "Ġenv": 4534,
      "Ġcharacter": 4535,
      "lora": 4536,
      "Ġconv": 4537,
      "Ġexec": 4538,
      "tiguous": 4539,
      "agn": 4540,
      "Ã¡nd": 4541,
      "ĠGu": 4542,
      "Ġë§": 4543,
      "Ġcompute": 4544,
      "ìĸ´": 4545,
      "thw": 4546,
      "->": 4547,
      "Ġvers": 4548,
      "bf": 4549,
      "Ġoverr": 4550,
      "ĠPreTrained": 4551,
      "urch": 4552,
      "æĸĩ": 4553,
      "Ġyears": 4554,
      "gs": 4555,
      "Ġinfo": 4556,
      "Ġfill": 4557,
      "extractor": 4558,
      "Ġstride": 4559,
      "åĲĪ": 4560,
      "ØŃ": 4561,
      "Ġdate": 4562,
      "Response": 4563,
      "ĠPath": 4564,
      "odal": 4565,
      "Ġatt": 4566,
      "ability": 4567,
      "erto": 4568,
      "ĠUs": 4569,
      "Ġdesarrollo": 4570,
      ":]": 4571,
      "Ã¤": 4572,
      "ientras": 4573,
      "TEST": 4574,
      "ivel": 4575,
      "emÃ¡s": 4576,
      "transformer": 4577,
      "ĠEX": 4578,
      "ĠÙĦ": 4579,
      "Ġcome": 4580,
      "Ð»Ð¸": 4581,
      "Ġreduc": 4582,
      "ĠSer": 4583,
      "Ġshall": 4584,
      "Ġapplication": 4585,
      "07": 4586,
      "IGHT": 4587,
      "border": 4588,
      "æŃ": 4589,
      "anz": 4590,
      "odos": 4591,
      "Ġdecir": 4592,
      "vas": 4593,
      "dense": 4594,
      "mem": 4595,
      "Ġparticular": 4596,
      "Ġmat": 4597,
      "ĠAmer": 4598,
      "aved": 4599,
      "Ġbat": 4600,
      "ĠSam": 4601,
      "Ġexamples": 4602,
      "Ġscript": 4603,
      "Ġlink": 4604,
      "ĠðŁ¤": 4605,
      "Ġgradient": 4606,
      "Ġmath": 4607,
      "ĠteorÃŃa": 4608,
      "inas": 4609,
      "lease": 4610,
      "Ġclasses": 4611,
      "freq": 4612,
      "ley": 4613,
      "Transformers": 4614,
      "Ġcontain": 4615,
      "Ġciudad": 4616,
      "erte": 4617,
      "Ġclos": 4618,
      "acity": 4619,
      "Ġau": 4620,
      "æĪĲ": 4621,
      "Ð³": 4622,
      "Ġrank": 4623,
      "align": 4624,
      "ĠCop": 4625,
      "reshold": 4626,
      "Ġche": 4627,
      "Ġfilename": 4628,
      "Ġearly": 4629,
      "Ġflags": 4630,
      "PO": 4631,
      "Ġpob": 4632,
      "projection": 4633,
      "components": 4634,
      "Regex": 4635,
      "Int": 4636,
      "udes": 4637,
      "Tests": 4638,
      "Width": 4639,
      "ĠWhether": 4640,
      "depend": 4641,
      "Co": 4642,
      "Ġç": 4643,
      "Ġcost": 4644,
      "Ġ/*::": 4645,
      "################": 4646,
      "Fast": 4647,
      "events": 4648,
      "icrosoft": 4649,
      "-\\": 4650,
      "Ġindiv": 4651,
      "ĠNode": 4652,
      "ëĵľ": 4653,
      "èª": 4654,
      "UST": 4655,
      "Ġmap": 4656,
      "Ġalong": 4657,
      "Ø®": 4658,
      "flash": 4659,
      "FT": 4660,
      "ä¿": 4661,
      "ĠmÃ©t": 4662,
      "strip": 4663,
      "ending": 4664,
      "Ġcompil": 4665,
      "Ġnote": 4666,
      "ured": 4667,
      "web": 4668,
      "Detection": 4669,
      "resolution": 4670,
      "inos": 4671,
      "ĠtravÃ©s": 4672,
      "late": 4673,
      "Ġembed": 4674,
      "itive": 4675,
      "Ġgrup": 4676,
      "ĠUp": 4677,
      "âĸĪ": 4678,
      "46": 4679,
      "Fail": 4680,
      "cos": 4681,
      "ga": 4682,
      "uencia": 4683,
      "inference": 4684,
      ">\",": 4685,
      "Ġmes": 4686,
      "Ġprof": 4687,
      "Video": 4688,
      "space": 4689,
      "Ġconsole": 4690,
      "folder": 4691,
      "pytest": 4692,
      "cell": 4693,
      "Ġrouter": 4694,
      "Ġzero": 4695,
      "velop": 4696,
      "define": 4697,
      "Animation": 4698,
      "Host": 4699,
      "ãģĨ": 4700,
      "derr": 4701,
      "ĠCall": 4702,
      "Conv": 4703,
      "We": 4704,
      "ni": 4705,
      "Ġcommon": 4706,
      "Implemented": 4707,
      "oco": 4708,
      "oss": 4709,
      "udo": 4710,
      "PECTED": 4711,
      "æı": 4712,
      "{\"": 4713,
      "Ġpoder": 4714,
      "Ġonce": 4715,
      "vec": 4716,
      "åĨ": 4717,
      "Ġsong": 4718,
      "Ġstatus": 4719,
      "Ġloop": 4720,
      "causal": 4721,
      "ĠestÃ¡n": 4722,
      "Ġìĺ": 4723,
      "arec": 4724,
      "total": 4725,
      "Ġfig": 4726,
      "urg": 4727,
      "ĠCopyright": 4728,
      "Ġorden": 4729,
      "ught": 4730,
      "Args": 4731,
      "just": 4732,
      "åĲĮ": 4733,
      "Ġtre": 4734,
      "iles": 4735,
      "Ġnever": 4736,
      "Ġben": 4737,
      ")):": 4738,
      "Ġsample": 4739,
      "Ġestruct": 4740,
      "âĸĪâĸĪ": 4741,
      "Ġeng": 4742,
      "apshot": 4743,
      "ĠPre": 4744,
      "Ġsistemas": 4745,
      "original": 4746,
      "Ġprimera": 4747,
      "çĲ": 4748,
      "Ġnear": 4749,
      "send": 4750,
      "Ġfactor": 4751,
      "Directive": 4752,
      "ĠRo": 4753,
      "Ġincluding": 4754,
      "epoch": 4755,
      "Each": 4756,
      "ĠDis": 4757,
      "Ġconstructor": 4758,
      "73": 4759,
      "ERS": 4760,
      "[*/": 4761,
      "Ġ/*::[*/": 4762,
      "final": 4763,
      "ãģı": 4764,
      "ople": 4765,
      "sin": 4766,
      "cket": 4767,
      "æ¨¡": 4768,
      "eff": 4769,
      "estion": 4770,
      "posed": 4771,
      "Ġsuccess": 4772,
      "Ġintro": 4773,
      "romise": 4774,
      "Ġ42": 4775,
      "Format": 4776,
      "atial": 4777,
      "ought": 4778,
      "thing": 4779,
      "Ġlat": 4780,
      "cii": 4781,
      "Ġshort": 4782,
      "irectory": 4783,
      "Ġcaso": 4784,
      "ĠChr": 4785,
      "Ġvisual": 4786,
      "aves": 4787,
      "Ġsocial": 4788,
      "æİ": 4789,
      "ĠThey": 4790,
      "day": 4791,
      "fico": 4792,
      "totype": 4793,
      "Ġproduct": 4794,
      "LOCK": 4795,
      "Ġsha": 4796,
      "Ġinference": 4797,
      "Ġrelig": 4798,
      "ites": 4799,
      "Ap": 4800,
      "ah": 4801,
      "Ġfund": 4802,
      "logger": 4803,
      "Ġcollec": 4804,
      "ĠResponse": 4805,
      "CU": 4806,
      "Ġmasks": 4807,
      "ëıĦ": 4808,
      "mes": 4809,
      "Ġwithin": 4810,
      "ye": 4811,
      "digo": 4812,
      "NAME": 4813,
      "ublic": 4814,
      "random": 4815,
      "tings": 4816,
      "(()": 4817,
      "ĠtÃ©r": 4818,
      "contr": 4819,
      "Seg": 4820,
      "ĠCor": 4821,
      "dition": 4822,
      "Ġfall": 4823,
      "Ġsino": 4824,
      "Ġtres": 4825,
      "gpu": 4826,
      "Ġrelative": 4827,
      "Ġdiferentes": 4828,
      "Ġfilter": 4829,
      "Ġseveral": 4830,
      "`:": 4831,
      "png": 4832,
      "role": 4833,
      "Ġknown": 4834,
      "Task": 4835,
      ")[": 4836,
      "ÐµÐ¼": 4837,
      "Ġdeclar": 4838,
      "Ġcir": 4839,
      "ury": 4840,
      "Ġ..": 4841,
      "Ġheaders": 4842,
      "iddle": 4843,
      "Ð°Ð»": 4844,
      "PYTHON": 4845,
      "speech": 4846,
      "Validation": 4847,
      "Function": 4848,
      "yes": 4849,
      "Parameter": 4850,
      "AI": 4851,
      "db": 4852,
      "Ġtro": 4853,
      "Dis": 4854,
      "System": 4855,
      "Ġds": 4856,
      "Ġmit": 4857,
      "Ġmor": 4858,
      "Ġlead": 4859,
      "adow": 4860,
      "ĠSup": 4861,
      "ativa": 4862,
      "Ġnivel": 4863,
      "Ġtab": 4864,
      "uego": 4865,
      "assertNot": 4866,
      "dataclass": 4867,
      "ĠnÃºmero": 4868,
      "_,": 4869,
      "ATE": 4870,
      "å¯": 4871,
      "å®ĥ": 4872,
      "ief": 4873,
      "most": 4874,
      "ĠìĹ": 4875,
      "09": 4876,
      "oice": 4877,
      "icient": 4878,
      "stract": 4879,
      "Head": 4880,
      "allow": 4881,
      "Ġspecified": 4882,
      "equal": 4883,
      "after": 4884,
      "Ġdev": 4885,
      "ãĥ¡": 4886,
      "txt": 4887,
      "Ġenumerate": 4888,
      "å¸": 4889,
      "builder": 4890,
      "Ġdoesn": 4891,
      "OW": 4892,
      "argin": 4893,
      "Ġinformation": 4894,
      "Ġsel": 4895,
      "ãĤ¢": 4896,
      "ĠEngl": 4897,
      "pytorch": 4898,
      "Ġindices": 4899,
      "ãģĵãģ¨": 4900,
      "lower": 4901,
      "Callback": 4902,
      "ĠAnnot": 4903,
      "tir": 4904,
      "stand": 4905,
      "ĠBe": 4906,
      "eric": 4907,
      "Ġgame": 4908,
      "Ġdise": 4909,
      "Ġmenos": 4910,
      "Ð¾Ð»ÑĮ": 4911,
      "Ġproject": 4912,
      "uble": 4913,
      "ìľ¼ë¡ľ": 4914,
      "You": 4915,
      "exit": 4916,
      "Ġcompar": 4917,
      "Ø°": 4918,
      "ë§": 4919,
      "Ġmatr": 4920,
      "adev": 4921,
      "Ġmal": 4922,
      "íĦ": 4923,
      "inline": 4924,
      "Ġpickle": 4925,
      "Ġ\"--": 4926,
      "Ð¾Ðº": 4927,
      "Ġtar": 4928,
      "Ġexpl": 4929,
      "aise": 4930,
      "Ġmetadata": 4931,
      "lang": 4932,
      "Ġreport": 4933,
      "Ġexplic": 4934,
      "ks": 4935,
      "Ġpair": 4936,
      "Ġgob": 4937,
      "checkpointing": 4938,
      "FAULT": 4939,
      "ãĤĤ": 4940,
      "gray": 4941,
      "handler": 4942,
      "Ġusu": 4943,
      "'ll": 4944,
      "sy": 4945,
      "ÐµÐ´": 4946,
      "extend": 4947,
      "ĮĢ": 4948,
      "Ġcomb": 4949,
      "||": 4950,
      "ĠMan": 4951,
      "Ð¸Ð¼": 4952,
      "Ġtodas": 4953,
      "isis": 4954,
      "Ġreference": 4955,
      "umb": 4956,
      "Ġ'@": 4957,
      "ROR": 4958,
      "Ġequal": 4959,
      "ĠGer": 4960,
      "build": 4961,
      "rowser": 4962,
      "Ġtable": 4963,
      "Ġside": 4964,
      "Ġfont": 4965,
      "aÃ±a": 4966,
      "kit": 4967,
      "Ġseason": 4968,
      "âĶĢâĶĢâĶĢâĶĢ": 4969,
      "nbsp": 4970,
      "ãģ§ãģį": 4971,
      "Ġsom": 4972,
      "Ġput": 4973,
      "Ġvida": 4974,
      "ĠMarkdown": 4975,
      "Binding": 4976,
      "ãĥ³ãĤ": 4977,
      "Log": 4978,
      "Ġrow": 4979,
      "Ġdrop": 4980,
      "Ã¡m": 4981,
      "Ġ~": 4982,
      "Ġestable": 4983,
      "Ġë³": 4984,
      "Ġland": 4985,
      "chedule": 4986,
      "openapi": 4987,
      "polate": 4988,
      "Ãºltim": 4989,
      "57": 4990,
      "Trans": 4991,
      "ĠID": 4992,
      "annotations": 4993,
      "ĠEste": 4994,
      "ìļĶ": 4995,
      "Ġespecial": 4996,
      "Ġrecon": 4997,
      "multiple": 4998,
      "Ġdone": 4999,
      "Ġdesign": 5000,
      "Query": 5001,
      "Ġobserv": 5002,
      "åł": 5003,
      "Ġsab": 5004,
      "ĠÃºltim": 5005,
      "dump": 5006,
      "00000000": 5007,
      "Zone": 5008,
      "Ġsche": 5009,
      "Ġpi": 5010,
      "Ġfoo": 5011,
      "93": 5012,
      "ãĥŃ": 5013,
      "èĢ": 5014,
      "cc": 5015,
      "plied": 5016,
      "ĠDE": 5017,
      "Ġotra": 5018,
      "contiguous": 5019,
      "ÃŃo": 5020,
      "Ġjo": 5021,
      "Ġborder": 5022,
      "Ùī": 5023,
      "Ġ_,": 5024,
      "fin": 5025,
      "clos": 5026,
      "Ġperi": 5027,
      "ìĿ¸": 5028,
      "PPING": 5029,
      "Listener": 5030,
      "ĠRob": 5031,
      "Ġëį": 5032,
      "wd": 5033,
      "Ġol": 5034,
      "oto": 5035,
      "è¿Ļ": 5036,
      "Sign": 5037,
      "Ġtrainer": 5038,
      "Ġprocessing": 5039,
      "ĠÙĪ": 5040,
      "Ġusar": 5041,
      "Ġleg": 5042,
      "Ġhalf": 5043,
      "Ð½Ñĭ": 5044,
      "Ġattentions": 5045,
      "Ġreturns": 5046,
      "IR": 5047,
      "Ġwater": 5048,
      "pread": 5049,
      "Ġoptional": 5050,
      "Ġobjects": 5051,
      "ØĮ": 5052,
      "sock": 5053,
      "Ġcert": 5054,
      "Ġestud": 5055,
      "super": 5056,
      "ĠsÃŃ": 5057,
      "Ġavec": 5058,
      "invalid": 5059,
      "Ġrad": 5060,
      "Ġrecurs": 5061,
      "Ġidx": 5062,
      "eza": 5063,
      "Ġsection": 5064,
      "Ġìľ": 5065,
      "make": 5066,
      "Ġdecor": 5067,
      "ĠZe": 5068,
      "__.": 5069,
      "Ġatol": 5070,
      "emplate": 5071,
      "Ġstat": 5072,
      "Ġestas": 5073,
      "97": 5074,
      "KEN": 5075,
      "PL": 5076,
      "Ġnec": 5077,
      "ìĦ¸": 5078,
      "operation": 5079,
      "ded": 5080,
      "Ġlambda": 5081,
      "Ãºbl": 5082,
      "Ã¨re": 5083,
      "Met": 5084,
      "Ġdefined": 5085,
      "Ġconten": 5086,
      "çĲĨ": 5087,
      "ari": 5088,
      "inst": 5089,
      "Ġalgunos": 5090,
      "Pos": 5091,
      "ayload": 5092,
      "Ġpossible": 5093,
      "Ġpred": 5094,
      "dirname": 5095,
      "Ġconsum": 5096,
      "real": 5097,
      "Ġthink": 5098,
      "Ġ50": 5099,
      "repo": 5100,
      "Ġinner": 5101,
      "Ġcualquier": 5102,
      "pha": 5103,
      "proto": 5104,
      "Ġtensors": 5105,
      "ĠPIL": 5106,
      "ãĤģ": 5107,
      "paths": 5108,
      "ãĥ¬": 5109,
      "dig": 5110,
      "Ã¡tica": 5111,
      "ĠSeg": 5112,
      "meta": 5113,
      "Ġprov": 5114,
      "Ġinclude": 5115,
      "ĠÐ¼Ð¾Ð¶": 5116,
      "Ġdepend": 5117,
      "Ġev": 5118,
      "\"><": 5119,
      "nown": 5120,
      "Ġtag": 5121,
      "tro": 5122,
      "ality": 5123,
      "ĠcÃ³digo": 5124,
      "gos": 5125,
      "enabled": 5126,
      "ĠmÃ¡": 5127,
      "acy": 5128,
      "ĠØ§ÙĦÙħ": 5129,
      "Ġcontaining": 5130,
      "Ġbash": 5131,
      "times": 5132,
      "Ġmientras": 5133,
      "avigation": 5134,
      "=_": 5135,
      "ĠSo": 5136,
      "ydration": 5137,
      "}{": 5138,
      "éģ": 5139,
      "estig": 5140,
      "requires": 5141,
      "Ã©cn": 5142,
      "Ġproceso": 5143,
      "validation": 5144,
      "Man": 5145,
      "Ġdevelop": 5146,
      "---": 5147,
      "wards": 5148,
      "Ġplus": 5149,
      "extract": 5150,
      "DX": 5151,
      "xmath": 5152,
      "Ġcour": 5153,
      "ĠtÃ©rmin": 5154,
      "ë©´": 5155,
      "IM": 5156,
      "Ġmethods": 5157,
      "ĠenergÃŃa": 5158,
      "ĠPyObjectRef": 5159,
      "ately": 5160,
      "Ġeq": 5161,
      "echo": 5162,
      "Ġconjunto": 5163,
      "Ġwait": 5164,
      "videos": 5165,
      "'])": 5166,
      "Ġtienen": 5167,
      "()),": 5168,
      "merge": 5169,
      "ĠÐ½Ðµ": 5170,
      "TransformersKwargs": 5171,
      "}:": 5172,
      "ength": 5173,
      "orte": 5174,
      "ivo": 5175,
      "ixed": 5176,
      "Ġsido": 5177,
      "ici": 5178,
      "Ġpropor": 5179,
      "Ġtrunc": 5180,
      "ëŁ": 5181,
      "Ġ[],": 5182,
      "graf": 5183,
      "Ġpodr": 5184,
      "empl": 5185,
      "arlet": 5186,
      "Ġpower": 5187,
      "Ġ\"\"": 5188,
      "Ġvia": 5189,
      "Ġelectr": 5190,
      "ĠBl": 5191,
      "llama": 5192,
      "Ġcame": 5193,
      "Ġcore": 5194,
      "timeout": 5195,
      "ativo": 5196,
      "samples": 5197,
      "Ġig": 5198,
      "uestion": 5199,
      "Ġca": 5200,
      "ources": 5201,
      "ÑģÑı": 5202,
      "Former": 5203,
      "ving": 5204,
      "column": 5205,
      "though": 5206,
      "Ġunivers": 5207,
      "Stream": 5208,
      "entity": 5209,
      "63": 5210,
      "Ġignore": 5211,
      "assertRaisesRegex": 5212,
      "Ġmejor": 5213,
      "ç¨": 5214,
      "Face": 5215,
      "MAPPING": 5216,
      "Ġquantization": 5217,
      "(\\": 5218,
      "Ġbinding": 5219,
      "Ġgot": 5220,
      "starts": 5221,
      "Ġtempor": 5222,
      "crop": 5223,
      "Ġyet": 5224,
      "sequences": 5225,
      "Ġ\"\\": 5226,
      "iny": 5227,
      "ABLE": 5228,
      "PAR": 5229,
      "QU": 5230,
      "ìķ": 5231,
      "unwrap": 5232,
      "Ġwon": 5233,
      "Ġgrandes": 5234,
      "ĠAfter": 5235,
      "ĠException": 5236,
      "partition": 5237,
      "ĠIs": 5238,
      "ĠdespuÃ©s": 5239,
      "ething": 5240,
      "ãĥ¼ãĤ¿": 5241,
      "Get": 5242,
      "Rec": 5243,
      "Ġpes": 5244,
      "æĢ": 5245,
      "odecs": 5246,
      "Next": 5247,
      "inte": 5248,
      "ĠaplicaciÃ³n": 5249,
      "OP": 5250,
      "oolean": 5251,
      "aar": 5252,
      "·¸": 5253,
      "Ġ[[": 5254,
      "æĸ¹": 5255,
      "Ġdivers": 5256,
      "Ġsimple": 5257,
      "Ġdirectly": 5258,
      "69": 5259,
      "Ġimag": 5260,
      "ãĤ¹ãĥĪ": 5261,
      "aÃ±ol": 5262,
      "Ġstop": 5263,
      "ane": 5264,
      ".'": 5265,
      "Warning": 5266,
      "Ġdue": 5267,
      "ĠÑĩ": 5268,
      "denti": 5269,
      "words": 5270,
      "íĦ°": 5271,
      "sent": 5272,
      "ocus": 5273,
      "Ġê°Ģ": 5274,
      "Ġslice": 5275,
      "Ð¾Ð½": 5276,
      "indows": 5277,
      "Ġchat": 5278,
      "Ġtel": 5279,
      "ently": 5280,
      "Ġapr": 5281,
      "Ð¾Ñģ": 5282,
      "ordin": 5283,
      "ÐµÐ½Ð¸": 5284,
      "WithPast": 5285,
      "Ġembedding": 5286,
      "ĠÐ°": 5287,
      "ked": 5288,
      "ached": 5289,
      "Ġkind": 5290,
      "summary": 5291,
      "Ġperformance": 5292,
      "ictionary": 5293,
      "](": 5294,
      "INE": 5295,
      "Ġ64": 5296,
      "Ġdirectory": 5297,
      "52": 5298,
      "Ġio": 5299,
      "Ġnos": 5300,
      "Ġpredict": 5301,
      "Ġmediante": 5302,
      "]);": 5303,
      "ascii": 5304,
      "arange": 5305,
      "Ġelements": 5306,
      "illa": 5307,
      "ieve": 5308,
      "Ġasyncio": 5309,
      "Async": 5310,
      "tec": 5311,
      "ê°": 5312,
      "Ġpool": 5313,
      "ĠNg": 5314,
      "Ġunsafe": 5315,
      "ĠsetUp": 5316,
      "Ġabove": 5317,
      "DP": 5318,
      "second": 5319,
      "lat": 5320,
      "Ġcat": 5321,
      "Ġfew": 5322,
      "ĠVer": 5323,
      "HTTP": 5324,
      "else": 5325,
      "Ġfine": 5326,
      "ĠEXPECTED": 5327,
      "Qwen": 5328,
      "Ã³s": 5329,
      "Ġattributes": 5330,
      "herit": 5331,
      "ĠData": 5332,
      "ĠRec": 5333,
      "relative": 5334,
      "metadata": 5335,
      "DA": 5336,
      "ðŁļ¨ðŁļ¨ðŁļ¨ðŁļ¨ðŁļ¨ðŁļ¨ðŁļ¨ðŁļ¨ðŁļ¨ðŁļ¨ðŁļ¨ðŁļ¨ðŁļ¨ðŁļ¨ðŁļ¨ðŁļ¨": 5337,
      "Open": 5338,
      "hav": 5339,
      "Ġdistrib": 5340,
      "leg": 5341,
      "Ġexpect": 5342,
      "Ġusize": 5343,
      "vos": 5344,
      "ÑĨ": 5345,
      "Ġfac": 5346,
      "defaults": 5347,
      "Ġsat": 5348,
      "Ġcare": 5349,
      "Number": 5350,
      "Ġworks": 5351,
      "TesterMixin": 5352,
      "Ġtal": 5353,
      "ĠAm": 5354,
      "irm": 5355,
      "Ġseem": 5356,
      "Ġreleased": 5357,
      "Ġacross": 5358,
      "Ġexpres": 5359,
      "clear": 5360,
      "VL": 5361,
      "Ġexact": 5362,
      "Series": 5363,
      "Ġ((": 5364,
      "ĠUse": 5365,
      "Ġinvestig": 5366,
      "scheduler": 5367,
      "arÃ¡": 5368,
      "Ġlight": 5369,
      "Ġpaper": 5370,
      "una": 5371,
      "arlette": 5372,
      "]))": 5373,
      "Ġcri": 5374,
      "fetch": 5375,
      "ĠOne": 5376,
      "Ġpartir": 5377,
      "Mask": 5378,
      "world": 5379,
      "Ŀ¼": 5380,
      "Ġscaling": 5381,
      "classification": 5382,
      "Ġelementos": 5383,
      "Ġvir": 5384,
      "ãģĿ": 5385,
      "ãĥķ": 5386,
      "Parser": 5387,
      "----------------------------------------------------------------": 5388,
      "Ġfut": 5389,
      "ĠMin": 5390,
      "Ġ);": 5391,
      "short": 5392,
      "Ġhacia": 5393,
      "ificaciÃ³n": 5394,
      "ĠDefault": 5395,
      "Pre": 5396,
      "Ġrepr": 5397,
      "Ġansw": 5398,
      "ĠTrainer": 5399,
      "ìłķ": 5400,
      "ultim": 5401,
      "ĠWith": 5402,
      "èĩª": 5403,
      "92": 5404,
      "Ġaround": 5405,
      "...,": 5406,
      "ĠToken": 5407,
      "ĠString": 5408,
      "Ġwords": 5409,
      "Ã¡r": 5410,
      "Ġstrict": 5411,
      "Ġzijn": 5412,
      "large": 5413,
      "Ġantes": 5414,
      "track": 5415,
      "ĠAustr": 5416,
      "oca": 5417,
      "enz": 5418,
      "Ġnombre": 5419,
      "strict": 5420,
      "iet": 5421,
      "ĠÑĸ": 5422,
      "Ġrealiz": 5423,
      "ibility": 5424,
      "EW": 5425,
      "Run": 5426,
      "ìĪĺ": 5427,
      "attribute": 5428,
      "Ġpunto": 5429,
      "ĠCr": 5430,
      "ibles": 5431,
      "Status": 5432,
      "Ġflo": 5433,
      "complete": 5434,
      "Metadata": 5435,
      "åį": 5436,
      "ĠSw": 5437,
      "optim": 5438,
      "ĠGet": 5439,
      "53": 5440,
      "uD": 5441,
      "æĮ": 5442,
      "forEach": 5443,
      "ĠRuntimeError": 5444,
      "Ġautomatic": 5445,
      "Dim": 5446,
      "Ob": 5447,
      "Wr": 5448,
      "language": 5449,
      "enter": 5450,
      "ĠIntern": 5451,
      "USTPYTHON": 5452,
      "Multi": 5453,
      "æĽ": 5454,
      "Ġslow": 5455,
      "iend": 5456,
      "seek": 5457,
      "stride": 5458,
      "Ġcreated": 5459,
      "ìŀħ": 5460,
      "71": 5461,
      "VI": 5462,
      "Ġquien": 5463,
      "ĠAnnotated": 5464,
      "Ġforce": 5465,
      "Ġ[-": 5466,
      "ĠHT": 5467,
      "Ġflex": 5468,
      "ê³¼": 5469,
      "Ġevalu": 5470,
      "elig": 5471,
      "Ġoffic": 5472,
      "ĠEd": 5473,
      "scaling": 5474,
      "Ġtec": 5475,
      "===": 5476,
      "ä¸ĭ": 5477,
      "slate": 5478,
      "Ġreason": 5479,
      "tip": 5480,
      "tView": 5481,
      "[\\": 5482,
      "Ġta": 5483,
      "search": 5484,
      "ÐºÐ¾": 5485,
      "Ġtener": 5486,
      "Ġgrid": 5487,
      "Ġencu": 5488,
      "Ġhard": 5489,
      "Ġ`\"": 5490,
      "INT": 5491,
      "Ġroute": 5492,
      "83": 5493,
      "256": 5494,
      "202": 5495,
      "Ġalb": 5496,
      "Ġvariable": 5497,
      "Ġpens": 5498,
      "ãģ§ãģĻ": 5499,
      "Audio": 5500,
      "Øµ": 5501,
      "script": 5502,
      "ç¤": 5503,
      "Ġpeople": 5504,
      "ĠÑı": 5505,
      "exch": 5506,
      "annotation": 5507,
      "Ġ1024": 5508,
      "`]": 5509,
      "Ġscope": 5510,
      "anced": 5511,
      "ges": 5512,
      "ĠUna": 5513,
      "ĠØ£": 5514,
      "Ð»ÑĮ": 5515,
      "bg": 5516,
      "cia": 5517,
      "Ġexisten": 5518,
      "ĠVal": 5519,
      "]],": 5520,
      "eder": 5521,
      "Ġclose": 5522,
      "Ġsitu": 5523,
      "bos": 5524,
      "Ñī": 5525,
      "Ġlow": 5526,
      "Ġliter": 5527,
      "ãĥī": 5528,
      "cessing": 5529,
      "Match": 5530,
      "hing": 5531,
      "ĠTestClient": 5532,
      "Ġexperiment": 5533,
      "enn": 5534,
      "injector": 5535,
      "stop": 5536,
      "Ġzelf": 5537,
      "Ġaddress": 5538,
      "filer": 5539,
      "Ġtimeout": 5540,
      "Ġfav": 5541,
      "Ġfuture": 5542,
      "vit": 5543,
      "aca": 5544,
      "prototype": 5545,
      "Ġtransport": 5546,
      "Ġtmp": 5547,
      "Ġcity": 5548,
      "istry": 5549,
      "Ġblo": 5550,
      "predic": 5551,
      "Ġtras": 5552,
      "ĠRUSTPYTHON": 5553,
      "ĠGod": 5554,
      "Ġless": 5555,
      "Ã©tica": 5556,
      "Ð½Ñı": 5557,
      "owned": 5558,
      "Ġpobl": 5559,
      "Ġprod": 5560,
      "QL": 5561,
      "vnd": 5562,
      "Ġmais": 5563,
      "Ġtypeof": 5564,
      "Ġdebug": 5565,
      "Ġconfigur": 5566,
      "Ġpadded": 5567,
      "Ġmerge": 5568,
      "IX": 5569,
      "bits": 5570,
      "rup": 5571,
      "!--": 5572,
      "uning": 5573,
      "opes": 5574,
      "LL": 5575,
      "cd": 5576,
      "Ġpu": 5577,
      "Ġmetr": 5578,
      "íģ": 5579,
      "ela": 5580,
      "Ġdropout": 5581,
      "ÃŃsticas": 5582,
      "small": 5583,
      "Ġdentro": 5584,
      "ples": 5585,
      "Ġrunning": 5586,
      "Ġagu": 5587,
      "ndarray": 5588,
      "tiva": 5589,
      "Ġbelow": 5590,
      "Ġ:]": 5591,
      "ools": 5592,
      "addr": 5593,
      "Ġcompat": 5594,
      "ĠEsp": 5595,
      "ä¸º": 5596,
      "åĪĨ": 5597,
      "Ġavoid": 5598,
      "excharts": 5599,
      "Ġadv": 5600,
      "Ġbuf": 5601,
      "åĻ": 5602,
      "environ": 5603,
      "Ġair": 5604,
      "SequenceClassification": 5605,
      "82": 5606,
      "47": 5607,
      "timest": 5608,
      "Detr": 5609,
      "icon": 5610,
      "Ġcompr": 5611,
      "ĠðŁ¤Ĺ": 5612,
      "!\"": 5613,
      "Point": 5614,
      "ForSequenceClassification": 5615,
      "Ġservic": 5616,
      "Ã¼r": 5617,
      "alone": 5618,
      "Ġdebe": 5619,
      "ĠShe": 5620,
      "ĠÐ¾Ð±": 5621,
      "UB": 5622,
      "Ġaway": 5623,
      "lengths": 5624,
      "ĠØ¹": 5625,
      "Off": 5626,
      "before": 5627,
      "card": 5628,
      "ĠGe": 5629,
      "Ġcontains": 5630,
      ")`,": 5631,
      "ential": 5632,
      "Down": 5633,
      "}'": 5634,
      "webkit": 5635,
      "xl": 5636,
      "é¡": 5637,
      "Ġ'<": 5638,
      "Ġ29": 5639,
      "ĠtÃ©cn": 5640,
      "ìĭľ": 5641,
      "rea": 5642,
      "ĠBrit": 5643,
      "Selector": 5644,
      "tempt": 5645,
      "Ãł": 5646,
      "Ġclear": 5647,
      "loy": 5648,
      "flatten": 5649,
      "Ð¾Ð³Ð¾": 5650,
      "ĠÙĬ": 5651,
      "Ġhub": 5652,
      "ãģ¤": 5653,
      "ieren": 5654,
      "shared": 5655,
      "ĠCache": 5656,
      "Ġapro": 5657,
      "uded": 5658,
      "iano": 5659,
      "Ġrom": 5660,
      "æĿ": 5661,
      "Ġhf": 5662,
      "board": 5663,
      "87": 5664,
      "Tuple": 5665,
      "inary": 5666,
      "elt": 5667,
      "Ġneeds": 5668,
      "Ġdepth": 5669,
      "'],": 5670,
      "teri": 5671,
      "++)": 5672,
      "INGS": 5673,
      "Failure": 5674,
      "¬¸": 5675,
      "abilidad": 5676,
      "ĠeconÃ³m": 5677,
      "ä¸Ĭ": 5678,
      "margin": 5679,
      "ona": 5680,
      "icode": 5681,
      "Ġ256": 5682,
      "Ġdimension": 5683,
      "ĠEsta": 5684,
      "mat": 5685,
      "acters": 5686,
      "emos": 5687,
      "Ġren": 5688,
      "writ": 5689,
      "Ã©e": 5690,
      "Ġaccept": 5691,
      "Cleanup": 5692,
      "parameter": 5693,
      "ĠSIGN": 5694,
      "directive": 5695,
      "qkv": 5696,
      "ìĻ": 5697,
      "Ð°ÑĤÑĮ": 5698,
      "ãĥĳ": 5699,
      "ĠDoc": 5700,
      "mental": 5701,
      "Method": 5702,
      "Ġbos": 5703,
      "Ġ128": 5704,
      "Ġpropiedad": 5705,
      "Color": 5706,
      "ius": 5707,
      "ulo": 5708,
      "Ġreco": 5709,
      "tools": 5710,
      "Ġaff": 5711,
      "bol": 5712,
      "Ġencontr": 5713,
      "Ġinterpre": 5714,
      "Ġcer": 5715,
      "ypes": 5716,
      "BU": 5717,
      "uv": 5718,
      "(){": 5719,
      "ĠÂ¿": 5720,
      "iera": 5721,
      "ĠEsto": 5722,
      "stat": 5723,
      "Ġ'__": 5724,
      "Ġeas": 5725,
      "Ġ\"#": 5726,
      "|>": 5727,
      "emente": 5728,
      "ãĤ³": 5729,
      "uccess": 5730,
      "Template": 5731,
      "ĠCPU": 5732,
      "Ð°Ð¼": 5733,
      "Frame": 5734,
      "Ġnamed": 5735,
      "123": 5736,
      "exto": 5737,
      "Ġbegan": 5738,
      "Ġkm": 5739,
      "Python": 5740,
      "uary": 5741,
      "gel": 5742,
      "ĠiÃ§": 5743,
      "äºĨ": 5744,
      "={\"": 5745,
      "Ġfa": 5746,
      "Ġaccess": 5747,
      "çī": 5748,
      "Ġven": 5749,
      "address": 5750,
      "estr": 5751,
      "Ġ'-": 5752,
      "::{": 5753,
      "wrapper": 5754,
      "cording": 5755,
      "Hello": 5756,
      "Ġdoor": 5757,
      "ience": 5758,
      "::<": 5759,
      "Ġdescription": 5760,
      "tar": 5761,
      "ÑĸÐ´": 5762,
      "Ġblocks": 5763,
      "Ġespacio": 5764,
      "Ġjus": 5765,
      "Ġadditional": 5766,
      "aur": 5767,
      "ĠList": 5768,
      "Ġ23": 5769,
      "ĠFace": 5770,
      "rown": 5771,
      "Ġcuy": 5772,
      "Ġbecame": 5773,
      "Ġmedio": 5774,
      "ĠCopied": 5775,
      "ĠOS": 5776,
      "Invalid": 5777,
      "ĠAND": 5778,
      "67": 5779,
      "Ġpush": 5780,
      "ima": 5781,
      "ĠGPT": 5782,
      "istral": 5783,
      "Ġsil": 5784,
      "Ġmodern": 5785,
      "IZE": 5786,
      "Ġevol": 5787,
      "ÃŃstica": 5788,
      "41": 5789,
      "org": 5790,
      "ĠOver": 5791,
      "ÐµÑĤÐµ": 5792,
      "Ġpalab": 5793,
      "jos": 5794,
      "xc": 5795,
      "Ġhour": 5796,
      "Ġnous": 5797,
      "Ġ40": 5798,
      "ĠÃºn": 5799,
      "Ġcomment": 5800,
      "byte": 5801,
      "ĠNotImplemented": 5802,
      "apes": 5803,
      "Ġcompress": 5804,
      "Ġnothing": 5805,
      "ĠConfig": 5806,
      "uestra": 5807,
      "scribe": 5808,
      "ĠÐĴ": 5809,
      "Ġmuchos": 5810,
      "startswith": 5811,
      "apexcharts": 5812,
      "ĠMay": 5813,
      "Ġvon": 5814,
      "location": 5815,
      "ĠespaÃ±ol": 5816,
      "ĠOther": 5817,
      "Pipe": 5818,
      "ĠThese": 5819,
      "Ġhimself": 5820,
      "adr": 5821,
      "store": 5822,
      "lots": 5823,
      "channel": 5824,
      "ÐºÐ¸": 5825,
      "Ġhandler": 5826,
      "Ġwar": 5827,
      "Ġvi": 5828,
      "manager": 5829,
      "Style": 5830,
      "eda": 5831,
      "oma": 5832,
      "Ġtool": 5833,
      "ĠNe": 5834,
      "Ġìĥ": 5835,
      "Ð½Ð¸": 5836,
      "Ġsignature": 5837,
      "help": 5838,
      "Ġgovern": 5839,
      "62": 5840,
      "ĠSec": 5841,
      "pipe": 5842,
      "Ġinvalid": 5843,
      "Ġconstr": 5844,
      "Ġinjector": 5845,
      "ĠXX": 5846,
      "CL": 5847,
      "åĳ": 5848,
      "iva": 5849,
      "ĠHis": 5850,
      "Attr": 5851,
      "dependencies": 5852,
      "deepspeed": 5853,
      "guide": 5854,
      "Router": 5855,
      "FO": 5856,
      "Ġguerra": 5857,
      "ÙĦÙī": 5858,
      "OX": 5859,
      "Ġsyntax": 5860,
      "ects": 5861,
      "Ð¾ÑĢ": 5862,
      "ĠÑĦ": 5863,
      "ĠImport": 5864,
      "Ġchildren": 5865,
      "tify": 5866,
      "SC": 5867,
      "Ġwhether": 5868,
      "umns": 5869,
      "002": 5870,
      "Ġemit": 5871,
      ".*,": 5872,
      "uir": 5873,
      "Ġconsist": 5874,
      "ernels": 5875,
      "Ġrename": 5876,
      "ĠReg": 5877,
      "Seq": 5878,
      "wering": 5879,
      "Ġanal": 5880,
      "Ġseen": 5881,
      "ĠÐŁ": 5882,
      "ept": 5883,
      "AND": 5884,
      "native": 5885,
      "è§": 5886,
      "ACK": 5887,
      "ãĢĮ": 5888,
      "ĠMed": 5889,
      "ãĢį": 5890,
      "celerate": 5891,
      "Ġparallel": 5892,
      "Ġstroke": 5893,
      "Ġtemper": 5894,
      "Ġstandard": 5895,
      "Ġ''": 5896,
      "Ġlibrary": 5897,
      "Meta": 5898,
      "¯¸": 5899,
      "æł": 5900,
      "usion": 5901,
      "ierra": 5902,
      "Ġneeded": 5903,
      "schemas": 5904,
      "Ġanswer": 5905,
      "49": 5906,
      "Nodes": 5907,
      "TEXT": 5908,
      "edge": 5909,
      "=\"/": 5910,
      "ĠRout": 5911,
      "Ð¾ÑĤ": 5912,
      "Ġadap": 5913,
      "hr": 5914,
      "ĠvocÃª": 5915,
      "lambda": 5916,
      "uggingface": 5917,
      "Ġcatch": 5918,
      "acciÃ³n": 5919,
      "obile": 5920,
      "ĠëĮĢ": 5921,
      "lator": 5922,
      "ë¶": 5923,
      "ĠBatch": 5924,
      "predict": 5925,
      "collect": 5926,
      "EX": 5927,
      "Ġbound": 5928,
      "terior": 5929,
      "criptor": 5930,
      "big": 5931,
      "ee": 5932,
      "Ġdar": 5933,
      "Ġrepo": 5934,
      "inity": 5935,
      "ĠAutoModelForCausalLM": 5936,
      "īį": 5937,
      "Ġcontra": 5938,
      "500": 5939,
      "Ġsug": 5940,
      "ĠUnivers": 5941,
      "subTest": 5942,
      "å¹": 5943,
      "ĠCreate": 5944,
      "Ġestim": 5945,
      "perm": 5946,
      "tab": 5947,
      "Ġdin": 5948,
      "Ġdit": 5949,
      "ivision": 5950,
      "=>{": 5951,
      "ND": 5952,
      "aged": 5953,
      "Extr": 5954,
      "Ġbyte": 5955,
      "Ġalign": 5956,
      "strategy": 5957,
      "STR": 5958,
      "ĠChar": 5959,
      "Ġniet": 5960,
      "All": 5961,
      "ĠãĤĴ": 5962,
      "Ġhij": 5963,
      "Ġ(_": 5964,
      "ĠAb": 5965,
      "Ġ22": 5966,
      "Ġaquell": 5967,
      "ĠpaÃŃses": 5968,
      "Ġarqu": 5969,
      "ĠfÃŃs": 5970,
      "Ġgive": 5971,
      "Ġparts": 5972,
      "Ġweb": 5973,
      "Ġnecess": 5974,
      "çĤ": 5975,
      "æĪĳ": 5976,
      "Ġaument": 5977,
      "Ġcup": 5978,
      "åĻ¨": 5979,
      "single": 5980,
      "Ġfar": 5981,
      "Ġcoun": 5982,
      "offsets": 5983,
      "}/": 5984,
      "ĴĮ": 5985,
      "unch": 5986,
      "1234": 5987,
      "Ġdomin": 5988,
      "Ġhistoria": 5989,
      "dev": 5990,
      "TOKEN": 5991,
      "gather": 5992,
      "Ġspeech": 5993,
      "Ġarte": 5994,
      "iere": 5995,
      "session": 5996,
      "Ġsto": 5997,
      "Ġay": 5998,
      "ĠMicrosoft": 5999,
      "Ġrot": 6000,
      "vari": 6001,
      "ë²": 6002,
      "ç¤º": 6003,
      "onces": 6004,
      "Ġcell": 6005,
      "ĠHTML": 6006,
      "ropa": 6007,
      "ooks": 6008,
      "Ġotherwise": 6009,
      "Ġvalidate": 6010,
      "signature": 6011,
      ")`):": 6012,
      "MENT": 6013,
      "Tim": 6014,
      "Ã¢": 6015,
      "ĠAR": 6016,
      "Ġclas": 6017,
      "soft": 6018,
      "ç«": 6019,
      "Ġquestion": 6020,
      "profile": 6021,
      "supported": 6022,
      "Spec": 6023,
      "uk": 6024,
      "Ġmillones": 6025,
      "Dimension": 6026,
      "Ġsn": 6027,
      "ìłģ": 6028,
      "sampling": 6029,
      "tz": 6030,
      "Ġremo": 6031,
      "ĠMon": 6032,
      "Ġspace": 6033,
      "ayout": 6034,
      "Ġfilm": 6035,
      "scal": 6036,
      "ents": 6037,
      "compute": 6038,
      "aim": 6039,
      "Ġstud": 6040,
      "Ġ??": 6041,
      "Ġmissing": 6042,
      "Ġbegin": 6043,
      "ories": 6044,
      "Ġhor": 6045,
      "Ġhace": 6046,
      "gether": 6047,
      "ĠJap": 6048,
      "Ġposible": 6049,
      "Ġverify": 6050,
      "Ġproperly": 6051,
      "record": 6052,
      "Ġoperations": 6053,
      "\"\\": 6054,
      "Ax": 6055,
      "LIC": 6056,
      "cp": 6057,
      "loud": 6058,
      "peak": 6059,
      "ands": 6060,
      "Ġtipos": 6061,
      "Ġswitch": 6062,
      "NE": 6063,
      "Ġ\"\",": 6064,
      "ĠaÃ±o": 6065,
      "KEY": 6066,
      "chart": 6067,
      "tener": 6068,
      "Ġrespec": 6069,
      "perties": 6070,
      "Ġdatasets": 6071,
      "Ġhuman": 6072,
      "400": 6073,
      "ots": 6074,
      "Ġfields": 6075,
      "RAW": 6076,
      "81": 6077,
      "BLE": 6078,
      "~~": 6079,
      "annelDimension": 6080,
      "}`": 6081,
      "Ġdej": 6082,
      "ĠRef": 6083,
      "CHEC": 6084,
      "Ġtasks": 6085,
      "æŀľ": 6086,
      "æĹ": 6087,
      "anto": 6088,
      "ivil": 6089,
      "Ġindustr": 6090,
      "CHECK": 6091,
      "reference": 6092,
      "Ġservice": 6093,
      "PRO": 6094,
      "ì²": 6095,
      "Ġarea": 6096,
      "Ġevents": 6097,
      "FC": 6098,
      "Ġleast": 6099,
      "results": 6100,
      "cape": 6101,
      "Ġtimes": 6102,
      "âĢĶ,": 6103,
      "rotary": 6104,
      "ĠInitialize": 6105,
      "åł´": 6106,
      "elem": 6107,
      "alia": 6108,
      "ĠSc": 6109,
      "Ġì¶": 6110,
      "polation": 6111,
      "ëŀ": 6112,
      "ĶĦ": 6113,
      "seed": 6114,
      "Ġstage": 6115,
      "Ġentonces": 6116,
      "SET": 6117,
      "Ġprote": 6118,
      "ÉµÉµ": 6119,
      "datasets": 6120,
      "titem": 6121,
      "Names": 6122,
      "Ġmatches": 6123,
      "Ġhouse": 6124,
      "called": 6125,
      "Ġcapture": 6126,
      "ĠGerman": 6127,
      "Ġmec": 6128,
      "ĠWeb": 6129,
      "signal": 6130,
      "ä¸Ģä¸ª": 6131,
      "ĠHuggingFace": 6132,
      "kw": 6133,
      "Ġellos": 6134,
      "43": 6135,
      "cm": 6136,
      "Ġfur": 6137,
      "Ð°Ñĩ": 6138,
      "Location": 6139,
      "IP": 6140,
      "ĠFile": 6141,
      "clip": 6142,
      "Ġaccur": 6143,
      "ierno": 6144,
      "Llama": 6145,
      "ĠquÃ©": 6146,
      "white": 6147,
      "Ġexisting": 6148,
      "Ġìĸ": 6149,
      "Ġnuevo": 6150,
      "ĠGeneration": 6151,
      "MSNorm": 6152,
      "61": 6153,
      "future": 6154,
      "ĠField": 6155,
      "What": 6156,
      "åĭ": 6157,
      "Ġign": 6158,
      "Ġsteps": 6159,
      "Ġpopular": 6160,
      "Ġtrabajo": 6161,
      "placement": 6162,
      "Tip": 6163,
      "Ġese": 6164,
      "loading": 6165,
      "expectedFailure": 6166,
      "supports": 6167,
      "raises": 6168,
      "ĠSub": 6169,
      "\"][": 6170,
      "Ã©rica": 6171,
      "ìĻĢ": 6172,
      "css": 6173,
      "heid": 6174,
      "Ġraz": 6175,
      "åĬł": 6176,
      "Ġcaball": 6177,
      "Ġdom": 6178,
      "bbox": 6179,
      "dt": 6180,
      "ëĤ": 6181,
      "iso": 6182,
      "ç½": 6183,
      "ĠçļĦ": 6184,
      "Ġou": 6185,
      "âĢĿ": 6186,
      "lineno": 6187,
      "Range": 6188,
      "bad": 6189,
      "Ġnan": 6190,
      "Ġthough": 6191,
      "ajor": 6192,
      "Ġrequests": 6193,
      "ste": 6194,
      "ĠTraining": 6195,
      "ATH": 6196,
      "ĠUnited": 6197,
      "Speech": 6198,
      "sort": 6199,
      "Ã¡tico": 6200,
      "Ġspecify": 6201,
      "Ġah": 6202,
      "Ġpersonal": 6203,
      "ble": 6204,
      "lap": 6205,
      "padded": 6206,
      "Ġcurr": 6207,
      "olute": 6208,
      "fica": 6209,
      "ĠÑĢ": 6210,
      "olo": 6211,
      "ĠLlama": 6212,
      "Ġsuff": 6213,
      "EP": 6214,
      "Ġenvironment": 6215,
      "Ġimportante": 6216,
      "loader": 6217,
      "Ġterm": 6218,
      "dos": 6219,
      "anza": 6220,
      "Ġmapping": 6221,
      "grafÃŃa": 6222,
      "Del": 6223,
      "Message": 6224,
      "æĦ": 6225,
      "classmethod": 6226,
      "ĠâĪĴ": 6227,
      "Ġprivate": 6228,
      ")|": 6229,
      "è©": 6230,
      "repeat": 6231,
      "uplic": 6232,
      "Ġenter": 6233,
      "should": 6234,
      "'re": 6235,
      "ades": 6236,
      "Ġorigin": 6237,
      "Ġcomputed": 6238,
      "zelf": 6239,
      "ÑĶ": 6240,
      "å¤ļ": 6241,
      "Ġtw": 6242,
      "Ġcached": 6243,
      "Ġdeath": 6244,
      "ĠTransformer": 6245,
      "Ġmasked": 6246,
      "ategory": 6247,
      "anim": 6248,
      "route": 6249,
      "imientos": 6250,
      "Ġenable": 6251,
      "Ġì§": 6252,
      "nea": 6253,
      "Ġcases": 6254,
      "stdout": 6255,
      "Root": 6256,
      "ĠÙģ": 6257,
      "Ġrope": 6258,
      "ocker": 6259,
      "att": 6260,
      "Ġsegu": 6261,
      "Ġdetails": 6262,
      "havior": 6263,
      "ini": 6264,
      "ionales": 6265,
      "Ġcomerc": 6266,
      "Ġcombin": 6267,
      "project": 6268,
      "Ġê¸°": 6269,
      "AF": 6270,
      "zone": 6271,
      "Ġtook": 6272,
      "ãģĹãģŁ": 6273,
      "Ġigual": 6274,
      ")`": 6275,
      "Link": 6276,
      "Ġìĭ": 6277,
      "datetime": 6278,
      "light": 6279,
      "Ġregister": 6280,
      "ĠEstados": 6281,
      "Ġreceived": 6282,
      "Ġcharacters": 6283,
      "Ġyoung": 6284,
      "URL": 6285,
      "Ġpipe": 6286,
      "ERROR": 6287,
      "Ġmisma": 6288,
      "leep": 6289,
      "platform": 6290,
      "ÙĬØ©": 6291,
      "ĠEuropa": 6292,
      "Ġcamp": 6293,
      "arrow": 6294,
      "Ġinc": 6295,
      "Ġatr": 6296,
      "Ġpersonas": 6297,
      "Oper": 6298,
      "ĠBert": 6299,
      "entic": 6300,
      "ĠPh": 6301,
      "Ġproy": 6302,
      "ĠíĮ": 6303,
      "tivos": 6304,
      "Ä±r": 6305,
      "Ġcomenz": 6306,
      "ugin": 6307,
      "elo": 6308,
      "Ġthought": 6309,
      "Ġclassification": 6310,
      "Ġsix": 6311,
      "ĠRep": 6312,
      "icamente": 6313,
      "Ġvector": 6314,
      "Ġconc": 6315,
      "ATT": 6316,
      "Ġhome": 6317,
      "perio": 6318,
      "Ġbetter": 6319,
      "Ġintroduc": 6320,
      "ValidationError": 6321,
      "It": 6322,
      "Ġcover": 6323,
      "ĠÐ´Ð»Ñı": 6324,
      "TESTFN": 6325,
      "Var": 6326,
      "tidad": 6327,
      "Ġgraph": 6328,
      "bottom": 6329,
      "Ġcollections": 6330,
      "diÃ³": 6331,
      "Idx": 6332,
      "ëĿ¼": 6333,
      "Ġke": 6334,
      "tral": 6335,
      "Ġ/>": 6336,
      "igr": 6337,
      "unity": 6338,
      "Ġreplace": 6339,
      "spam": 6340,
      "Ġcuer": 6341,
      "Ġdependencies": 6342,
      "æĶ": 6343,
      "Ġ28": 6344,
      "embers": 6345,
      "ĠKey": 6346,
      "compil": 6347,
      "Ġinfer": 6348,
      "Ġarm": 6349,
      "ãĥ¼ãĥī": 6350,
      "integr": 6351,
      "¸ı": 6352,
      "untos": 6353,
      "ĠsegÃºn": 6354,
      "pers": 6355,
      "Ġ'.": 6356,
      "ãĤ£": 6357,
      "pointer": 6358,
      "ĠParam": 6359,
      "ìŀħëĭĪëĭ¤": 6360,
      "aff": 6361,
      "Ġcm": 6362,
      "[:-": 6363,
      "ĠQuery": 6364,
      "Mock": 6365,
      "Ġwrap": 6366,
      "Ġaxolotl": 6367,
      "æ¨¡åŀĭ": 6368,
      "tor": 6369,
      "ĠrÃ©": 6370,
      "çĶŁ": 6371,
      "').": 6372,
      "Ġtell": 6373,
      "elen": 6374,
      "ĠØ§ÙĦØª": 6375,
      "Ġpoints": 6376,
      "Ġtempfile": 6377,
      "Ġwarnings": 6378,
      "æĥ": 6379,
      "ĠWav": 6380,
      "ĠAmerican": 6381,
      "lt": 6382,
      "Ġ\".": 6383,
      "Ġals": 6384,
      "Ġloaded": 6385,
      "ĠHowever": 6386,
      "Script": 6387,
      "ÃŃfic": 6388,
      "annels": 6389,
      "Server": 6390,
      "zas": 6391,
      "provid": 6392,
      "fac": 6393,
      "ÑģÐ¿": 6394,
      "Ġprocessed": 6395,
      "Ġ21": 6396,
      "Ġcompon": 6397,
      "Ġcolumn": 6398,
      "emporary": 6399,
      "çµ": 6400,
      "ï¸ı": 6401,
      "Ġgar": 6402,
      "ĠmayorÃŃa": 6403,
      "ĠExample": 6404,
      "Ġsegmentation": 6405,
      "********": 6406,
      "aten": 6407,
      "Ġeu": 6408,
      "Ġcomun": 6409,
      "Ġattempt": 6410,
      "Ġeran": 6411,
      "ĠcÃ³mo": 6412,
      "Ġmemoria": 6413,
      "svg": 6414,
      "Ġcrop": 6415,
      "ĠCu": 6416,
      "andid": 6417,
      "ivos": 6418,
      "encial": 6419,
      "Ġmeans": 6420,
      "Ġflat": 6421,
      "Ġdenomin": 6422,
      "Ġappear": 6423,
      "åł´åĲĪ": 6424,
      "gers": 6425,
      "å·": 6426,
      "Ġcast": 6427,
      "Ġ\"$": 6428,
      "ecciÃ³n": 6429,
      "ĠSch": 6430,
      "ä¾ĭ": 6431,
      "å¿ħ": 6432,
      "Ġbajo": 6433,
      "Ġhom": 6434,
      "oman": 6435,
      "Ã¡p": 6436,
      "Ġchannel": 6437,
      "IA": 6438,
      "iese": 6439,
      "mlink": 6440,
      "REE": 6441,
      "ESS": 6442,
      "Ġsupports": 6443,
      "fields": 6444,
      "undial": 6445,
      "rgb": 6446,
      "æľĢ": 6447,
      "Ġê²ĥ": 6448,
      "SH": 6449,
      "car": 6450,
      "heet": 6451,
      "assistant": 6452,
      "ĠWorld": 6453,
      "Ġmonth": 6454,
      "51": 6455,
      "RMSNorm": 6456,
      "jer": 6457,
      "kind": 6458,
      "ATA": 6459,
      "ODEL": 6460,
      "atro": 6461,
      "iciones": 6462,
      "anda": 6463,
      "Ġsep": 6464,
      "esti": 6465,
      "ĠBOX": 6466,
      "END": 6467,
      "tives": 6468,
      "Ġselector": 6469,
      "gre": 6470,
      "ìĿ¼": 6471,
      "Ġwer": 6472,
      "ĠDRAW": 6473,
      "overflow": 6474,
      "Ø·": 6475,
      "Ġdictionary": 6476,
      "aloader": 6477,
      "Ġhecho": 6478,
      "bose": 6479,
      "éĥ": 6480,
      "ĠDRAWINGS": 6481,
      "pipeline": 6482,
      "æ¬": 6483,
      "è·": 6484,
      "Buffer": 6485,
      "[...,": 6486,
      "acidad": 6487,
      "Ġsequences": 6488,
      "Ġzu": 6489,
      "éĿ": 6490,
      "Ġaltern": 6491,
      "ĠOl": 6492,
      "feed": 6493,
      "assertList": 6494,
      "Ġestablec": 6495,
      "{\\": 6496,
      ")).": 6497,
      "Ġobje": 6498,
      "ëŁ¬": 6499,
      "fs": 6500,
      "lens": 6501,
      "ĠCH": 6502,
      "Ġmens": 6503,
      "Ġeg": 6504,
      "opts": 6505,
      "ä»¶": 6506,
      "Ġepis": 6507,
      "PR": 6508,
      "Ġmessages": 6509,
      "embre": 6510,
      "ãģŁãĤģ": 6511,
      "Ð¾Ð»ÑĮÐ·": 6512,
      "eds": 6513,
      "oso": 6514,
      "etos": 6515,
      "unda": 6516,
      "Ġextract": 6517,
      "berta": 6518,
      "Ġeos": 6519,
      "ĠRE": 6520,
      "åħ¥": 6521,
      "éĢļ": 6522,
      "Signal": 6523,
      "Ġproporcion": 6524,
      "Ġable": 6525,
      "Header": 6526,
      "][\"": 6527,
      "íĸ": 6528,
      "509": 6529,
      "mm": 6530,
      "ecu": 6531,
      "Ġheav": 6532,
      "Ġcondic": 6533,
      "agment": 6534,
      "Ġequip": 6535,
      "iers": 6536,
      "encoded": 6537,
      "Ã±a": 6538,
      "Ġdestac": 6539,
      "Ġprotocol": 6540,
      "ĠÐ²Ñĭ": 6541,
      "assertListEqual": 6542,
      "ÙĨÙħ": 6543,
      "ĠRequest": 6544,
      "Ġarchitect": 6545,
      "FILE": 6546,
      "å¼ı": 6547,
      "åĮĸ": 6548,
      "orrow": 6549,
      "Ġfact": 6550,
      "quired": 6551,
      "ĠText": 6552,
      "Ø§Ø³": 6553,
      "Ġequival": 6554,
      "atura": 6555,
      "accum": 6556,
      "Ġang": 6557,
      "Ġproperty": 6558,
      "Ġconstit": 6559,
      "ursor": 6560,
      "alt": 6561,
      "subscribe": 6562,
      "Ġincluy": 6563,
      "cy": 6564,
      "Ġpues": 6565,
      "Ġdeep": 6566,
      "Ġloading": 6567,
      "AG": 6568,
      "Ġsenti": 6569,
      "Ġface": 6570,
      "ãĥ§": 6571,
      "ãĤŃ": 6572,
      "reset": 6573,
      "Ġcapital": 6574,
      "Â»,": 6575,
      "Ġalbum": 6576,
      "Ġvel": 6577,
      "\"></": 6578,
      "imin": 6579,
      "ship": 6580,
      "ngFactory": 6581,
      "VER": 6582,
      "æĻ": 6583,
      "éľ": 6584,
      "ĠDo": 6585,
      "Ġtoda": 6586,
      "Ġê²½": 6587,
      "Route": 6588,
      "eo": 6589,
      "Ġencode": 6590,
      "missing": 6591,
      "uid": 6592,
      "Ġimpro": 6593,
      "Ġrescale": 6594,
      "Ð¾Ð·": 6595,
      "ĠÃ©p": 6596,
      "plus": 6597,
      "Ġtrigger": 6598,
      "Enum": 6599,
      "gpt": 6600,
      "stit": 6601,
      "uan": 6602,
      "concat": 6603,
      "DEFAULT": 6604,
      "Ġpeque": 6605,
      "ãĤĬãģ¾ãģĻ": 6606,
      "å½": 6607,
      "ubr": 6608,
      "Ġmodeling": 6609,
      "Ġcantidad": 6610,
      "known": 6611,
      "Ø§Ùħ": 6612,
      "Ð°Ð½Ð¸": 6613,
      "âĸģ": 6614,
      "Ġbit": 6615,
      "ĠJul": 6616,
      "Ġdas": 6617,
      "ĠWar": 6618,
      "Ġrtol": 6619,
      "ĠInf": 6620,
      "Ġraised": 6621,
      "ilding": 6622,
      "ĠSig": 6623,
      "quantization": 6624,
      "TYPE": 6625,
      "User": 6626,
      "Ġses": 6627,
      "idge": 6628,
      "Ġentry": 6629,
      "Brt": 6630,
      "Ð°Ð´": 6631,
      "ĠCallable": 6632,
      "canc": 6633,
      "uf": 6634,
      "Ġfather": 6635,
      "ĠAlg": 6636,
      "LP": 6637,
      "NOT": 6638,
      "Pass": 6639,
      "lp": 6640,
      "Ġchanges": 6641,
      "Ġissue": 6642,
      "egin": 6643,
      "ViT": 6644,
      "]):": 6645,
      "ĠAug": 6646,
      "ĠHttp": 6647,
      "ĠØ¥": 6648,
      "rench": 6649,
      "Ġmusic": 6650,
      "ngFactoryType": 6651,
      "iencia": 6652,
      "Ġexcl": 6653,
      "ĠWill": 6654,
      "logy": 6655,
      "ÑĥÐ²": 6656,
      "PUT": 6657,
      "responses": 6658,
      "ĠTeam": 6659,
      "Cre": 6660,
      "aÃ§Ã£o": 6661,
      "(.": 6662,
      "Custom": 6663,
      "enas": 6664,
      "strument": 6665,
      "azy": 6666,
      "Ġgroups": 6667,
      "åĪ°": 6668,
      "ëĲĺ": 6669,
      "Axis": 6670,
      "Ġwent": 6671,
      "Ġcomplete": 6672,
      "æį": 6673,
      "thers": 6674,
      "Ġvariables": 6675,
      "Ġsorted": 6676,
      "Ġactive": 6677,
      "Ġdisc": 6678,
      "offload": 6679,
      "ARD": 6680,
      "ä¾Ŀ": 6681,
      "Details": 6682,
      "puesta": 6683,
      "bfloat": 6684,
      "zer": 6685,
      "Ġpan": 6686,
      "Ġtrat": 6687,
      "ĠThat": 6688,
      "Ġeconom": 6689,
      "Loader": 6690,
      "Ġestudio": 6691,
      "Ġflag": 6692,
      "iam": 6693,
      "Ġcondition": 6694,
      "Ġenabled": 6695,
      "segmentation": 6696,
      "Ġidentif": 6697,
      "NS": 6698,
      "Ġrendered": 6699,
      "ÃŃm": 6700,
      "ĠFrench": 6701,
      "ĠHub": 6702,
      "decor": 6703,
      "Ġrelacion": 6704,
      "åĢĭ": 6705,
      "íĻĶ": 6706,
      "ĠZeRO": 6707,
      "abbr": 6708,
      "ĠNO": 6709,
      "Ġweek": 6710,
      "Ans": 6711,
      "lite": 6712,
      "}\",": 6713,
      "Ġlin": 6714,
      "Ġveces": 6715,
      "Ã©nd": 6716,
      "numel": 6717,
      "trainer": 6718,
      "evel": 6719,
      "precated": 6720,
      "ãģ§ãģįãģ¾ãģĻ": 6721,
      "Ġnight": 6722,
      "na": 6723,
      "slot": 6724,
      "edor": 6725,
      "agr": 6726,
      "CF": 6727,
      "Ġassign": 6728,
      "ĠìľĦ": 6729,
      "ective": 6730,
      "Ġhaving": 6731,
      "],[": 6732,
      "Ġpermite": 6733,
      "Ġselected": 6734,
      "VisionConfig": 6735,
      "Ġrelease": 6736,
      "Ġattack": 6737,
      "Http": 6738,
      "Ġtrop": 6739,
      "ĠiÃ§in": 6740,
      "SIZE": 6741,
      "orno": 6742,
      "Ġtogether": 6743,
      "__.__": 6744,
      "insert": 6745,
      "Read": 6746,
      "æ±": 6747,
      "alloc": 6748,
      "Ġ<!--": 6749,
      "maps": 6750,
      "Ġlinear": 6751,
      "Ġmodelos": 6752,
      "Ġcampo": 6753,
      "ĠDecimal": 6754,
      "åŃĺ": 6755,
      "Ġindividual": 6756,
      "ws": 6757,
      "ĠtView": 6758,
      "ĠEm": 6759,
      "Ġfunctions": 6760,
      "akref": 6761,
      "fully": 6762,
      "rest": 6763,
      "æĬ": 6764,
      "Ġnet": 6765,
      "ectors": 6766,
      "Ġsend": 6767,
      "Ġchannels": 6768,
      "Ġsiendo": 6769,
      "ĠdÃ©c": 6770,
      "ãĤ·": 6771,
      "128": 6772,
      "Ġplatform": 6773,
      "Ġtransition": 6774,
      "aster": 6775,
      "ìĿĮ": 6776,
      "translate": 6777,
      "91": 6778,
      "æĵ": 6779,
      "Ġpur": 6780,
      "Ġindepend": 6781,
      "ago": 6782,
      ")(": 6783,
      "Ġpen": 6784,
      "Ġfire": 6785,
      "Ġ{%": 6786,
      "Ġextensions": 6787,
      "aniti": 6788,
      "ĠÐ½Ð°": 6789,
      "Ġinstanceof": 6790,
      "Ġempres": 6791,
      "å¦Ĥ": 6792,
      "Ġ}]": 6793,
      "ffers": 6794,
      "Ġalgorit": 6795,
      "Ġautomatically": 6796,
      "some": 6797,
      "Ġcop": 6798,
      "Ġbad": 6799,
      "Ġist": 6800,
      "Ġ).": 6801,
      "Ġesper": 6802,
      "Ġtranslation": 6803,
      "fmt": 6804,
      "ĠCustom": 6805,
      "ĠFe": 6806,
      "Ġparticip": 6807,
      "Ġsampling": 6808,
      "Ġdays": 6809,
      "Om": 6810,
      "defer": 6811,
      "cmd": 6812,
      "Ġhon": 6813,
      "007": 6814,
      "ĠÐ¿ÑĢÐ¸": 6815,
      "æ³ķ": 6816,
      "rx": 6817,
      "Ġfive": 6818,
      "ĠTambiÃ©n": 6819,
      "Ġord": 6820,
      "Initial": 6821,
      "ajes": 6822,
      "generated": 6823,
      "Ġoverride": 6824,
      "nan": 6825,
      "uck": 6826,
      "Ġded": 6827,
      "ably": 6828,
      "ullan": 6829,
      "ĠKing": 6830,
      "ãĥ³ãĤ°": 6831,
      "Destroy": 6832,
      "Ġaspect": 6833,
      "Ġcuenta": 6834,
      "ĠEspaÃ±a": 6835,
      ":\\": 6836,
      "ben": 6837,
      "{.": 6838,
      "æľ¬": 6839,
      "Ġallowed": 6840,
      "UR": 6841,
      "Wrap": 6842,
      "modal": 6843,
      "Ġcarr": 6844,
      "squeeze": 6845,
      "ìĹ¬": 6846,
      "armup": 6847,
      ")\\": 6848,
      "ujo": 6849,
      "Ġcomunic": 6850,
      "Ġproblema": 6851,
      "Ġmodules": 6852,
      "Providers": 6853,
      "permute": 6854,
      "Over": 6855,
      "lers": 6856,
      "lished": 6857,
      "rout": 6858,
      "rozen": 6859,
      "Ġbatched": 6860,
      "Ġsold": 6861,
      "Ġextern": 6862,
      "ĠDict": 6863,
      "Ġescr": 6864,
      "Ð½Ñĸ": 6865,
      "Ġcrec": 6866,
      "ements": 6867,
      "Gr": 6868,
      "Ġlora": 6869,
      "Ġprojection": 6870,
      "Ġ[])": 6871,
      "llib": 6872,
      "Ġgal": 6873,
      "hello": 6874,
      "ãģĵãĤĮ": 6875,
      "ĠOnly": 6876,
      "Ġcalcul": 6877,
      "ĠpÃºbl": 6878,
      "Ġqued": 6879,
      "Ġlenguaje": 6880,
      "Ġrounded": 6881,
      "ided": 6882,
      "Ġbot": 6883,
      "ĠMath": 6884,
      "Ġship": 6885,
      "Ġestaba": 6886,
      "Ġdimens": 6887,
      "Ġinteger": 6888,
      "ĠseÃ±or": 6889,
      "ĠAugust": 6890,
      "Ġna": 6891,
      "Ð¾ÑģÑĤ": 6892,
      "Ġcentral": 6893,
      "Ġsiguiente": 6894,
      "Height": 6895,
      "Ã¡lisis": 6896,
      "Ġdirective": 6897,
      "acing": 6898,
      "ocr": 6899,
      "Ġescal": 6900,
      "backward": 6901,
      "Builder": 6902,
      "FIG": 6903,
      "Helper": 6904,
      "ĠMask": 6905,
      "come": 6906,
      "Ġmodo": 6907,
      "OUBLE": 6908,
      "Ġcertain": 6909,
      "Ġvent": 6910,
      "Ġvoor": 6911,
      "vicorn": 6912,
      "tiene": 6913,
      "ĠClass": 6914,
      "ĠOut": 6915,
      "pred": 6916,
      "Ġ////": 6917,
      "Ġmaterial": 6918,
      "Mo": 6919,
      "YR": 6920,
      "ĠSP": 6921,
      "ĠLo": 6922,
      "Ġdisplay": 6923,
      "Ġterritor": 6924,
      "æĢ§": 6925,
      "Bar": 6926,
      "ĠÃ©t": 6927,
      "Ġfunciones": 6928,
      "erÃŃa": 6929,
      "Ġfavor": 6930,
      "lig": 6931,
      "isper": 6932,
      "ĠJan": 6933,
      "ÐµÐ½ÑĤ": 6934,
      "ĠmÃºs": 6935,
      "ãĤ»": 6936,
      "cached": 6937,
      "Arguments": 6938,
      "ssl": 6939,
      "Ġcommit": 6940,
      "Ġmuchas": 6941,
      "aced": 6942,
      "ĠBritish": 6943,
      "VV": 6944,
      "Ġwin": 6945,
      "Ġê·¸": 6946,
      "Debug": 6947,
      "Ø²": 6948,
      "Ġcy": 6949,
      "Ġmos": 6950,
      "ĠOb": 6951,
      "ĠWindows": 6952,
      "Changes": 6953,
      "earch": 6954,
      "expect": 6955,
      "Ġthings": 6956,
      "ãģł": 6957,
      "ç¢": 6958,
      "Ġremain": 6959,
      "Ġconverted": 6960,
      "children": 6961,
      "bound": 6962,
      "icht": 6963,
      "Ġ'{": 6964,
      "Ġ80": 6965,
      "brid": 6966,
      "Ġbackbone": 6967,
      "å¤§": 6968,
      "ĠAutoModelFor": 6969,
      "çİ": 6970,
      "onal": 6971,
      "omas": 6972,
      "threshold": 6973,
      "Ġejecut": 6974,
      "Ġexpand": 6975,
      "ãĤ¤ãĥ³": 6976,
      "ibilidad": 6977,
      "Sc": 6978,
      "Ġvarios": 6979,
      "Ġdestroy": 6980,
      "ectos": 6981,
      "ĠComp": 6982,
      "Ġensure": 6983,
      "nested": 6984,
      "Ġ26": 6985,
      "ĠAttribute": 6986,
      "sdpa": 6987,
      "GB": 6988,
      "sep": 6989,
      "æıĲ": 6990,
      "sel": 6991,
      "Ġdich": 6992,
      "Ġoften": 6993,
      "operator": 6994,
      "tasks": 6995,
      "Locale": 6996,
      "Provider": 6997,
      "Ġhapp": 6998,
      "Ġcivil": 6999,
      "ĠIP": 7000,
      "remote": 7001,
      "Em": 7002,
      "Ł¥": 7003,
      "Ġcleanup": 7004,
      "ares": 7005,
      "Ġcompile": 7006,
      "Ġpermiti": 7007,
      "facebook": 7008,
      "ĠÐ±Ñĥ": 7009,
      "Ġproblemas": 7010,
      "Ġmag": 7011,
      "ä»¬": 7012,
      "Ġdebido": 7013,
      "Ab": 7014,
      "Ġsock": 7015,
      "Ġclean": 7016,
      "Ð°ÑĨÐ¸": 7017,
      "emo": 7018,
      "ĠCal": 7019,
      "uit": 7020,
      "adapter": 7021,
      "igen": 7022,
      "exports": 7023,
      "assign": 7024,
      "ĠSp": 7025,
      "product": 7026,
      "Ġpackage": 7027,
      "kg": 7028,
      "èĪ": 7029,
      "ì¹": 7030,
      "Ġluego": 7031,
      "Ġmucho": 7032,
      "æľĥ": 7033,
      "Ġpatches": 7034,
      "servable": 7035,
      "Found": 7036,
      "ilon": 7037,
      "åıĤ": 7038,
      "ĠìĺĪ": 7039,
      "ĠOSError": 7040,
      "Ġcient": 7041,
      "Ġning": 7042,
      "Ġ1000": 7043,
      "åħ¶": 7044,
      "ismos": 7045,
      "ueue": 7046,
      "ĠWil": 7047,
      "Ġmaximum": 7048,
      "Ġhistor": 7049,
      "tolist": 7050,
      "201": 7051,
      "ħį": 7052,
      "erBlock": 7053,
      "inger": 7054,
      "Ġidea": 7055,
      ".*.": 7056,
      "elle": 7057,
      "ĠNumber": 7058,
      "ĠPort": 7059,
      "ĠUS": 7060,
      "8859": 7061,
      "Ġantigu": 7062,
      "Ġlearning": 7063,
      "ĠÑį": 7064,
      "Ġdistint": 7065,
      "ç´": 7066,
      "Ġts": 7067,
      "Ġmajor": 7068,
      "ãĤ¿": 7069,
      "ĠInc": 7070,
      "Ġcorresponding": 7071,
      "Hub": 7072,
      "burg": 7073,
      "iza": 7074,
      "Ġëį°": 7075,
      "itud": 7076,
      "skipTest": 7077,
      "Offset": 7078,
      "CLIP": 7079,
      "izado": 7080,
      "Ġvot": 7081,
      "Ġenough": 7082,
      "Ġnumpy": 7083,
      "ĠUnion": 7084,
      "visual": 7085,
      "Ġconnection": 7086,
      "Count": 7087,
      "Ġ}],": 7088,
      "Ġeduc": 7089,
      "limit": 7090,
      "åŁ": 7091,
      "ithub": 7092,
      "Ġhabit": 7093,
      "sing": 7094,
      "exists": 7095,
      "document": 7096,
      "hasattr": 7097,
      "äºĽ": 7098,
      "ĠpoblaciÃ³n": 7099,
      "Answering": 7100,
      "Ġhall": 7101,
      "ĠII": 7102,
      "Labels": 7103,
      "Sup": 7104,
      "bind": 7105,
      "Ġow": 7106,
      "Ã¡met": 7107,
      "Ġampl": 7108,
      "Ġllev": 7109,
      "Ġfailed": 7110,
      "Ġfundament": 7111,
      "ric": 7112,
      "};": 7113,
      "Ġsubclass": 7114,
      "uestionAnswering": 7115,
      "ÑĹ": 7116,
      "Ġps": 7117,
      "Ġmac": 7118,
      "Ġconcep": 7119,
      "deps": 7120,
      "loads": 7121,
      "temp": 7122,
      "Ġ<<": 7123,
      "ĠâĢľ": 7124,
      "Ð°ÑĪ": 7125,
      ")])": 7126,
      "ãĤµ": 7127,
      "ives": 7128,
      "Ġprincipales": 7129,
      "arÃŃa": 7130,
      "Ġ512": 7131,
      "irection": 7132,
      "Ġcomplex": 7133,
      "Ġtrabaj": 7134,
      "ãĥķãĤ": 7135,
      "unn": 7136,
      "quare": 7137,
      "Ġtransformer": 7138,
      "Ġ39": 7139,
      "attrs": 7140,
      "xf": 7141,
      "ĠDOUBLE": 7142,
      "Ġcambio": 7143,
      "Back": 7144,
      "åĥ": 7145,
      "Ġcausal": 7146,
      "Ġ\"-": 7147,
      "agger": 7148,
      "Ġfuncion": 7149,
      "Ġmicro": 7150,
      "itory": 7151,
      "stant": 7152,
      "Ġbeh": 7153,
      "Ġkullan": 7154,
      "Ġ60": 7155,
      "Ġelemento": 7156,
      "Ġcentury": 7157,
      "tml": 7158,
      "alpha": 7159,
      "ety": 7160,
      "Ġdelay": 7161,
      "Ġinitializer": 7162,
      "ission": 7163,
      "ÑĢÐ°Ð¼": 7164,
      "Des": 7165,
      "Foo": 7166,
      "once": 7167,
      "inv": 7168,
      "Ġtermin": 7169,
      "Ġexports": 7170,
      "Ġsir": 7171,
      "Ġcompare": 7172,
      "decl": 7173,
      "Ġrecib": 7174,
      "ĠComponent": 7175,
      "ÃŃfico": 7176,
      "bsz": 7177,
      "stderr": 7178,
      "ativos": 7179,
      "Ġsaw": 7180,
      "ille": 7181,
      "Ġthou": 7182,
      "Ġdataclass": 7183,
      "Ġstructure": 7184,
      ">.": 7185,
      "FUN": 7186,
      "ila": 7187,
      "ĠACT": 7188,
      "ĠUser": 7189,
      "Ġbases": 7190,
      "Values": 7191,
      "Ġlargo": 7192,
      "Per": 7193,
      "ĠSu": 7194,
      "ynch": 7195,
      "ĠÑıÐº": 7196,
      "factory": 7197,
      "ĠíĻ": 7198,
      "Ġamong": 7199,
      "google": 7200,
      "Ġdan": 7201,
      "interface": 7202,
      "ĠíĨ": 7203,
      "ãĥ§ãĥ³": 7204,
      "section": 7205,
      "Ġà°": 7206,
      "properties": 7207,
      "ĠHist": 7208,
      "å®Ł": 7209,
      "My": 7210,
      "ĠPol": 7211,
      "éĥ¨": 7212,
      "impl": 7213,
      "Ġacc": 7214,
      "<'": 7215,
      "Date": 7216,
      "ono": 7217,
      "Ġincor": 7218,
      "Ġ27": 7219,
      "Ð°Ð²": 7220,
      "ĠUpdate": 7221,
      "MLP": 7222,
      "flo": 7223,
      "lÃ©s": 7224,
      "ë°": 7225,
      "Ġom": 7226,
      "trunc": 7227,
      "Resol": 7228,
      "ultimodal": 7229,
      "æ¡": 7230,
      "atos": 7231,
      "aries": 7232,
      "('-": 7233,
      "NO": 7234,
      "hip": 7235,
      "umps": 7236,
      "Ġvalores": 7237,
      "Ġalgunas": 7238,
      "Ġfactory": 7239,
      "numpy": 7240,
      "Ġemail": 7241,
      "ium": 7242,
      "æĤ": 7243,
      "onas": 7244,
      "Ġgc": 7245,
      "Ġwhite": 7246,
      "ÑĢÑĥ": 7247,
      "Ġpositional": 7248,
      "ACE": 7249,
      "Ġpartition": 7250,
      "ä¼ļ": 7251,
      "ĠEnglish": 7252,
      "compress": 7253,
      "Ġupdated": 7254,
      "ĠÙħÙĨ": 7255,
      "Pr": 7256,
      "ĠLO": 7257,
      "Ġvisible": 7258,
      "Ġuma": 7259,
      "expr": 7260,
      "Ġhuggingface": 7261,
      "Ð°Ð¹": 7262,
      "Ġcomponente": 7263,
      "locale": 7264,
      "Ġusando": 7265,
      "Ġprue": 7266,
      "sqrt": 7267,
      "Ġannotations": 7268,
      "rxjs": 7269,
      "leman": 7270,
      "Ġactivation": 7271,
      "æĽ´": 7272,
      "ulary": 7273,
      "Ġstrong": 7274,
      "Ġverdad": 7275,
      "Ã¨s": 7276,
      "å¸¸": 7277,
      "å»": 7278,
      "ÃŃculas": 7279,
      "Ä±nÄ±": 7280,
      "xff": 7281,
      "ybrid": 7282,
      "Ġsq": 7283,
      "Ġalcan": 7284,
      "structure": 7285,
      "Â».": 7286,
      "Ġfamily": 7287,
      "Ctx": 7288,
      "ĠìłĦ": 7289,
      "metric": 7290,
      "ìļ°": 7291,
      "commit": 7292,
      "ĠCode": 7293,
      "iving": 7294,
      "classifier": 7295,
      "Ġëı": 7296,
      "Ġ---": 7297,
      "Ġauthor": 7298,
      "Hydration": 7299,
      "è«": 7300,
      "ĠGlm": 7301,
      "Ġpretrained": 7302,
      "ART": 7303,
      "Ġregular": 7304,
      "ĠÑĨ": 7305,
      "Ġinside": 7306,
      "Ang": 7307,
      "mel": 7308,
      "intro": 7309,
      "Ġobjeto": 7310,
      "assertIsNone": 7311,
      "Timeout": 7312,
      "Ġnecessary": 7313,
      "FastAPI": 7314,
      "eager": 7315,
      "ony": 7316,
      "Ġsk": 7317,
      "Ġagr": 7318,
      "Ġella": 7319,
      "Ġdecode": 7320,
      "Ġstrings": 7321,
      "Ġgrupo": 7322,
      "istic": 7323,
      "tokenizers": 7324,
      "ĠÂ¡": 7325,
      "ĠproducciÃ³n": 7326,
      "Ġ\"{": 7327,
      "Ġnor": 7328,
      "olid": 7329,
      "vez": 7330,
      "Ġìĭľ": 7331,
      "µ¬": 7332,
      "Ġprior": 7333,
      "ĠInter": 7334,
      "security": 7335,
      "Ġaux": 7336,
      "Ġentity": 7337,
      "NAMES": 7338,
      "çŃ": 7339,
      "Ġdijo": 7340,
      "ÑĥÐ½": 7341,
      "Parent": 7342,
      "ĠmÃ©todo": 7343,
      "spread": 7344,
      "ı¬": 7345,
      "Ġband": 7346,
      "ĠIon": 7347,
      "ĠTrans": 7348,
      "Ġincluded": 7349,
      "ãģ¦ãģĦ": 7350,
      "ãģĮãģĤ": 7351,
      "ÑĢÐ¸ÑģÑĤ": 7352,
      "ĠOrder": 7353,
      "qa": 7354,
      "users": 7355,
      "ĠprÃ¡c": 7356,
      "tended": 7357,
      "sed": 7358,
      "Ø´": 7359,
      "è¾": 7360,
      "preprocess": 7361,
      "ĠademÃ¡s": 7362,
      "Ġservid": 7363,
      "ITE": 7364,
      "ARK": 7365,
      "Ġguard": 7366,
      "system": 7367,
      "prim": 7368,
      "ĠThen": 7369,
      "inese": 7370,
      "Ġfurther": 7371,
      "Ag": 7372,
      "pp": 7373,
      "ĠdÃŃa": 7374,
      "Ġpatr": 7375,
      "æĦı": 7376,
      "Ġcodecs": 7377,
      "ĠEvent": 7378,
      "Ġdispon": 7379,
      "Ġclub": 7380,
      "ê²Į": 7381,
      "Ġtaken": 7382,
      "ÑģÐ¿Ð¾Ð»ÑĮÐ·": 7383,
      "!==": 7384,
      "xa": 7385,
      "plan": 7386,
      "Ġevid": 7387,
      "ĠUnidos": 7388,
      "sumer": 7389,
      "Position": 7390,
      "è£": 7391,
      "ĠÃ³": 7392,
      "ised": 7393,
      "Extractor": 7394,
      "ham": 7395,
      "ìħ": 7396,
      "ãģ£": 7397,
      "ModelTester": 7398,
      "parametr": 7399,
      "ìŀĲ": 7400,
      "Ġarquitect": 7401,
      "xaxis": 7402,
      "accept": 7403,
      "ulas": 7404,
      "Ã©rc": 7405,
      "ĠÃģ": 7406,
      "MAX": 7407,
      "Ġtecno": 7408,
      "ĠGemma": 7409,
      "Ġcerc": 7410,
      "Ġparec": 7411,
      "Ġ255": 7412,
      "Ġsearch": 7413,
      "ãĥ¥": 7414,
      "Ġitself": 7415,
      "cremental": 7416,
      "ĠtÃ©rmino": 7417,
      "éľĢ": 7418,
      "BERT": 7419,
      "Ġassistant": 7420,
      "Ġperiod": 7421,
      "VIEW": 7422,
      "PRE": 7423,
      "ende": 7424,
      "Ġmel": 7425,
      "Ġinvo": 7426,
      "amma": 7427,
      "Ġresolve": 7428,
      "Ġlive": 7429,
      "Ġbits": 7430,
      "Ġcomme": 7431,
      "Ġintent": 7432,
      "ĠinglÃ©s": 7433,
      "ige": 7434,
      "Ġlonger": 7435,
      "Ġinspect": 7436,
      "bers": 7437,
      "ĠOp": 7438,
      "Ġlove": 7439,
      "DEF": 7440,
      "ĠAutoProcessor": 7441,
      "Ġmovimiento": 7442,
      "Ġshared": 7443,
      "Ġì¶Ķ": 7444,
      "EFT": 7445,
      "Ġfd": 7446,
      "ãģ¿": 7447,
      "Ã¡nica": 7448,
      "()))": 7449,
      "tiles": 7450,
      "Ġcenter": 7451,
      "Ġsociedad": 7452,
      "DecoderLayer": 7453,
      "æ¸": 7454,
      "ĠEg": 7455,
      "íķĺê¸°": 7456,
      "FUNCT": 7457,
      "]`,": 7458,
      "bro": 7459,
      "yl": 7460,
      "icha": 7461,
      "anta": 7462,
      "Ġdam": 7463,
      "ette": 7464,
      "Ġlogin": 7465,
      "Ġproviders": 7466,
      "xe": 7467,
      "ĠÑģÑĤ": 7468,
      "Ġcause": 7469,
      "Ġfem": 7470,
      "ĠkÃ¶": 7471,
      "SSL": 7472,
      "staticmethod": 7473,
      "high": 7474,
      "çķ": 7475,
      "Ġtruncation": 7476,
      "Ġaprend": 7477,
      "Ġveloc": 7478,
      "empre": 7479,
      "ĠgÃ©n": 7480,
      "poon": 7481,
      "origin": 7482,
      "Ġtech": 7483,
      "tice": 7484,
      "ĠIl": 7485,
      "Ġusage": 7486,
      "Ġinsert": 7487,
      "Ġcin": 7488,
      "ckets": 7489,
      "Ġserial": 7490,
      "Ġhaber": 7491,
      "äºİ": 7492,
      "initializer": 7493,
      "Ġrole": 7494,
      "cover": 7495,
      "164": 7496,
      "âĢĭâĢĭ": 7497,
      "Ġformas": 7498,
      "ĠÑī": 7499,
      "Ġnormalize": 7500,
      "================================": 7501,
      "Ġbes": 7502,
      "Ġrepe": 7503,
      "ãĥĿ": 7504,
      "VALUE": 7505,
      "'{": 7506,
      "Gemma": 7507,
      "deep": 7508,
      "ĠState": 7509,
      "å¢": 7510,
      "acc": 7511,
      "Ġgate": 7512,
      "Ġcomport": 7513,
      "alla": 7514,
      "uciones": 7515,
      "shard": 7516,
      "ĠArray": 7517,
      "Ġwel": 7518,
      "Ġ{{": 7519,
      "Ġ``": 7520,
      "Ġtokenize": 7521,
      "ĠInt": 7522,
      "disabled": 7523,
      "Ġfamil": 7524,
      "Ġdynamic": 7525,
      "cli": 7526,
      "ĠEurope": 7527,
      "Ġsomething": 7528,
      "Length": 7529,
      "iness": 7530,
      "ising": 7531,
      "ĠInst": 7532,
      "ĠCONT": 7533,
      "ãģĭãĤī": 7534,
      "ĠkÃ¶nn": 7535,
      ";--": 7536,
      "Ġsm": 7537,
      "ificar": 7538,
      "ooling": 7539,
      "queue": 7540,
      "ORT": 7541,
      "metrics": 7542,
      "Ġsaved": 7543,
      "ĠTim": 7544,
      "download": 7545,
      "ILLIC": 7546,
      "Ġmatrix": 7547,
      "YRILLIC": 7548,
      ".)": 7549,
      "yles": 7550,
      "Ġnative": 7551,
      "Ġnested": 7552,
      "urales": 7553,
      "()}": 7554,
      "andb": 7555,
      "\")]": 7556,
      "grama": 7557,
      "Ġlev": 7558,
      "Ġsound": 7559,
      "åĲ«": 7560,
      "ìĬ¤íĬ¸": 7561,
      "closed": 7562,
      "åĴĮ": 7563,
      "ĠApr": 7564,
      "ĠCYRILLIC": 7565,
      "003": 7566,
      "logging": 7567,
      "Ġcollect": 7568,
      "åı¯èĥ½": 7569,
      "à¤¾": 7570,
      "Ġnueva": 7571,
      "Ġreduce": 7572,
      "Tree": 7573,
      "ĨĴ": 7574,
      "isArray": 7575,
      "Ġmanager": 7576,
      "ãģ§ãģ¯": 7577,
      "Ġëĭ¤ìĿĮ": 7578,
      "ãĤĴä½¿çĶ¨": 7579,
      "ĠÐ¿ÐµÑĢ": 7580,
      "ĠAttention": 7581,
      "ĠcaracterÃŃsticas": 7582,
      "]=\"": 7583,
      "sequ": 7584,
      "ili": 7585,
      "Ġalthough": 7586,
      "ĠRev": 7587,
      "tokenization": 7588,
      "ĠContent": 7589,
      ")\"": 7590,
      "è³": 7591,
      "Ġ\"\";": 7592,
      "ĠEnc": 7593,
      "Ġvalidation": 7594,
      "ĠÑĤÐ°Ðº": 7595,
      "ĠâĶĤ": 7596,
      "Ã¡ndose": 7597,
      "omic": 7598,
      "Ġeyes": 7599,
      "ĠHer": 7600,
      "frac": 7601,
      "Auto": 7602,
      "Ġfo": 7603,
      "eck": 7604,
      "comment": 7605,
      "Ġcuales": 7606,
      "éĢĻ": 7607,
      "Ġpoco": 7608,
      "Ġ_{": 7609,
      "ëĤĺ": 7610,
      "ians": 7611,
      "usiÃ³n": 7612,
      "ĠRed": 7613,
      "Ð°Ñģ": 7614,
      "package": 7615,
      "Ġsession": 7616,
      "edia": 7617,
      "izaje": 7618,
      "Ġresample": 7619,
      "posiciÃ³n": 7620,
      "ffn": 7621,
      "Ġautor": 7622,
      "where": 7623,
      "ying": 7624,
      "Ġsac": 7625,
      "Ġfrequ": 7626,
      "Ġconfl": 7627,
      "vars": 7628,
      "ãģĵãģ®": 7629,
      "Ġnorth": 7630,
      "Ġ({": 7631,
      "ĠVec": 7632,
      "sliding": 7633,
      "rele": 7634,
      "ãĤĪãģĨ": 7635,
      "Le": 7636,
      "uge": 7637,
      "Ġupper": 7638,
      "[]": 7639,
      "Ġlock": 7640,
      "Ġinternal": 7641,
      "grÃ¡": 7642,
      "Ġaplicaciones": 7643,
      "Ġns": 7644,
      "ĠLib": 7645,
      "gression": 7646,
      "Ġperf": 7647,
      "Ġcorrectly": 7648,
      "Ġhip": 7649,
      "ĠCLI": 7650,
      "Ġdocumentation": 7651,
      "Ġmerced": 7652,
      "ë§Į": 7653,
      "Manager": 7654,
      "çł": 7655,
      "ë¯¸": 7656,
      "Ġlower": 7657,
      "Ġothers": 7658,
      "decimal": 7659,
      "ĠStarlette": 7660,
      "tiny": 7661,
      "Ġ[('": 7662,
      "Init": 7663,
      "Ġinvol": 7664,
      "Ġestructura": 7665,
      "Ġengine": 7666,
      "Omni": 7667,
      "ÃŃc": 7668,
      "Ð°Ð¿": 7669,
      "Ġ{};": 7670,
      "Cross": 7671,
      "destroy": 7672,
      "eren": 7673,
      "Ġpel": 7674,
      "ollow": 7675,
      "ĠHel": 7676,
      "Ġcapacidad": 7677,
      "Ġextends": 7678,
      "Pipeline": 7679,
      "éĻ": 7680,
      "rounding": 7681,
      "Ġ[(": 7682,
      "ìłľ": 7683,
      "ĠìĦ¤": 7684,
      "ãĥĸ": 7685,
      "Transformer": 7686,
      "windows": 7687,
      "partial": 7688,
      "BLOCK": 7689,
      "uridad": 7690,
      "ĠanÃ¡lisis": 7691,
      "agement": 7692,
      "ĠNorth": 7693,
      "Ġquick": 7694,
      "ithm": 7695,
      "ì¹ĺ": 7696,
      "greg": 7697,
      "Ġfree": 7698,
      "Ġconvers": 7699,
      "trace": 7700,
      "Ġexecut": 7701,
      "parts": 7702,
      "LOAD": 7703,
      "à±į": 7704,
      "ĠFirst": 7705,
      "ĠDon": 7706,
      "matches": 7707,
      "FORM": 7708,
      "DN": 7709,
      "di": 7710,
      "ç§": 7711,
      "Ġpat": 7712,
      "ema": 7713,
      "Ġ'''": 7714,
      "ĠBar": 7715,
      "ìĿ´íĦ°": 7716,
      ";)|": 7717,
      "UP": 7718,
      "exist": 7719,
      "running": 7720,
      "Ġusuario": 7721,
      "(?": 7722,
      "ãĤ¨": 7723,
      "Ġdescribed": 7724,
      "Ð°ÑĨÑĸ": 7725,
      "\"`": 7726,
      "done": 7727,
      "½Ķ": 7728,
      "Ġlui": 7729,
      "ĠCap": 7730,
      "aped": 7731,
      "ĠLoad": 7732,
      "Ġ@__": 7733,
      "Document": 7734,
      "tk": 7735,
      "Ġspeed": 7736,
      "Ġach": 7737,
      "Ġ'',": 7738,
      "Ġsegment": 7739,
      "password": 7740,
      "ynchron": 7741,
      "eras": 7742,
      "endenc": 7743,
      "Ġmus": 7744,
      "ĠYork": 7745,
      "ëĲľ": 7746,
      "Ġmind": 7747,
      "Ġtrust": 7748,
      "ixels": 7749,
      "Ġconocimiento": 7750,
      "Skip": 7751,
      "Ø£": 7752,
      "Ġbi": 7753,
      "ÐµÑģ": 7754,
      "Ġframes": 7755,
      "ìĦ¸ìļĶ": 7756,
      "eptember": 7757,
      "Ġcarg": 7758,
      "prop": 7759,
      "ĠAdemÃ¡s": 7760,
      "BytesIO": 7761,
      "directory": 7762,
      "Ġcad": 7763,
      "anas": 7764,
      "ĠDet": 7765,
      "pectro": 7766,
      "QuestionAnswering": 7767,
      "amless": 7768,
      "quant": 7769,
      "Ġì²": 7770,
      "Ġmillion": 7771,
      ">(": 7772,
      "After": 7773,
      "dummy": 7774,
      "Ùĭ": 7775,
      "Ġnave": 7776,
      "ĠNow": 7777,
      "Ġqueries": 7778,
      "ĠComm": 7779,
      "Ġspatial": 7780,
      "enderer": 7781,
      "Ġhistory": 7782,
      "&&(": 7783,
      "esm": 7784,
      "etas": 7785,
      "Ġthird": 7786,
      "Ġlogr": 7787,
      "Ġcalls": 7788,
      "timestamp": 7789,
      "Ġscheduler": 7790,
      "Ġunos": 7791,
      "ĠHere": 7792,
      "Ġincluso": 7793,
      "Ġmomento": 7794,
      "Ġmatem": 7795,
      "Ġtemporal": 7796,
      "ĠAttributeError": 7797,
      "pow": 7798,
      "vector": 7799,
      "ãĥģ": 7800,
      "ĠclÃ¡s": 7801,
      "PURE": 7802,
      "Ġgoing": 7803,
      "Ġrespons": 7804,
      "softmax": 7805,
      "matic": 7806,
      "Ġcul": 7807,
      "ĠcomÃºn": 7808,
      "ej": 7809,
      "two": 7810,
      "ĠcÃ©l": 7811,
      "arc": 7812,
      "exceptions": 7813,
      "Ġinstrument": 7814,
      "Ġever": 7815,
      "ĠHE": 7816,
      "mount": 7817,
      "Ġik": 7818,
      "Ġepisode": 7819,
      "tags": 7820,
      "fct": 7821,
      "alian": 7822,
      "Ġconver": 7823,
      "224": 7824,
      "downcast": 7825,
      "å°Ĩ": 7826,
      "Ġviol": 7827,
      "zar": 7828,
      "see": 7829,
      "ĠFrom": 7830,
      "Ð¸Ñģ": 7831,
      "Ġaccelerator": 7832,
      "Ġrock": 7833,
      "Ã±os": 7834,
      "ĠAlgun": 7835,
      ")\",": 7836,
      "Ã©m": 7837,
      "egate": 7838,
      "swap": 7839,
      "Ġíķĺ": 7840,
      "Ġadmin": 7841,
      "ĠrelaciÃ³n": 7842,
      "ĠÉµÉµdefine": 7843,
      "Ġbig": 7844,
      "ĠBig": 7845,
      "Comple": 7846,
      ";-": 7847,
      "Loss": 7848,
      "ilter": 7849,
      "abor": 7850,
      "125": 7851,
      "Ġheads": 7852,
      "capture": 7853,
      "tifier": 7854,
      "Ġpredicted": 7855,
      "utdown": 7856,
      "Ġrather": 7857,
      "iterator": 7858,
      "ombres": 7859,
      "Ġunit": 7860,
      "ÐµÐ¹": 7861,
      "Ġê³": 7862,
      "symlink": 7863,
      "Ġho": 7864,
      "ĠSeptember": 7865,
      "__',": 7866,
      "Ġkill": 7867,
      "iteral": 7868,
      "codes": 7869,
      "Ġretr": 7870,
      "Ġlearn": 7871,
      "Decimal": 7872,
      "OST": 7873,
      "ļł": 7874,
      "ĠrÃ¡p": 7875,
      "Ġpositions": 7876,
      "chars": 7877,
      "strucciÃ³n": 7878,
      "Gu": 7879,
      "ĠPe": 7880,
      "Ġapplied": 7881,
      "echos": 7882,
      "Ġsiempre": 7883,
      "Ġcasos": 7884,
      "Accessor": 7885,
      "mk": 7886,
      "include": 7887,
      "Ġfoot": 7888,
      "forms": 7889,
      "antas": 7890,
      "Ġvarious": 7891,
      "Ġeffect": 7892,
      "Ġthreading": 7893,
      "Ġcum": 7894,
      "ĠPromise": 7895,
      "Ġnamespace": 7896,
      "matmul": 7897,
      "ĠPa": 7898,
      "Ġprevent": 7899,
      "ieved": 7900,
      "Ġassoci": 7901,
      "container": 7902,
      "Ġcuatro": 7903,
      "nie": 7904,
      "Ġestar": 7905,
      "Ġking": 7906,
      "ĠStates": 7907,
      "detail": 7908,
      "Ġattrs": 7909,
      "çĽ¸": 7910,
      "ĠÐ·Ð°Ð¿": 7911,
      "Ġaccurate": 7912,
      "Ø§Ø³Øª": 7913,
      "`);": 7914,
      "Ø«": 7915,
      "ester": 7916,
      "Ġvirtual": 7917,
      "âĸĪâĸĪâĸĪâĸĪ": 7918,
      "æİ¥": 7919,
      "?;": 7920,
      "DR": 7921,
      "OK": 7922,
      "Ġcut": 7923,
      "Ġpint": 7924,
      "ĠGoogle": 7925,
      "IGIT": 7926,
      "ativas": 7927,
      "quantized": 7928,
      "atar": 7929,
      "ĠSS": 7930,
      "Conn": 7931,
      "Ġprocesos": 7932,
      "åĩº": 7933,
      "Ġecu": 7934,
      "Ġnuevas": 7935,
      "Ġtree": 7936,
      "allen": 7937,
      "question": 7938,
      "Sw": 7939,
      "blob": 7940,
      "é«": 7941,
      "Ġsuite": 7942,
      "Ġcorr": 7943,
      "policy": 7944,
      "Ġwritten": 7945,
      "99999999": 7946,
      "parametrize": 7947,
      "iert": 7948,
      "ĠIter": 7949,
      "Ã©es": 7950,
      "Ġcho": 7951,
      "Order": 7952,
      "è·¯": 7953,
      "Current": 7954,
      "IAL": 7955,
      "indexOf": 7956,
      "ModuleList": 7957,
      "({},": 7958,
      "ĠÐ¸ÑģÐ¿Ð¾Ð»ÑĮÐ·": 7959,
      "600": 7960,
      "------------": 7961,
      "yntaxError": 7962,
      "named": 7963,
      "å±": 7964,
      "Ġtalk": 7965,
      "ĠJos": 7966,
      "Ġresultado": 7967,
      "144": 7968,
      "Wrapper": 7969,
      "Ġbecome": 7970,
      "beta": 7971,
      "wav": 7972,
      "ination": 7973,
      "ĠHero": 7974,
      "Ġíģ": 7975,
      "Ġhumano": 7976,
      "resolve": 7977,
      "basic": 7978,
      "gelu": 7979,
      "Ġeurope": 7980,
      "Queue": 7981,
      "æ¯": 7982,
      "ompress": 7983,
      "\"][\"": 7984,
      "sertion": 7985,
      "unit": 7986,
      "è¨Ń": 7987,
      "Ġbre": 7988,
      "ĠInitializing": 7989,
      "GR": 7990,
      "Max": 7991,
      "]).": 7992,
      "ç®": 7993,
      "quad": 7994,
      "Flags": 7995,
      "ÑĦ": 7996,
      "Ġsouth": 7997,
      "ulaciÃ³n": 7998,
      "Ġ}));": 7999,
      "ĠST": 8000,
      "chema": 8001,
      "ĠGeneral": 8002,
      "ĠCuando": 8003,
      "è½": 8004,
      "\":[],\"": 8005,
      "imo": 8006,
      "enciÃ³n": 8007,
      "Ġloader": 8008,
      "ĠInput": 8009,
      "assertIsNot": 8010,
      "ring": 8011,
      "Ġlr": 8012,
      "Ġmaking": 8013,
      "Ġmuest": 8014,
      "íķĺê³ł": 8015,
      "dataloader": 8016,
      "uis": 8017,
      "Ġssl": 8018,
      "Ġpou": 8019,
      "igu": 8020,
      "ceed": 8021,
      "Ġvarias": 8022,
      "TokenClassification": 8023,
      "Ġ{})": 8024,
      "dif": 8025,
      "Ġdummy": 8026,
      "arDown": 8027,
      "then": 8028,
      "ĠPero": 8029,
      "ĠEj": 8030,
      "ĠRefer": 8031,
      "GS": 8032,
      "iado": 8033,
      "Ġtra": 8034,
      "ĠOc": 8035,
      "Ġxml": 8036,
      "Ġlocation": 8037,
      "ĠÐ¼Ð¾Ð¶ÐµÑĤÐµ": 8038,
      "å¿ħè¦ģ": 8039,
      "Ġtales": 8040,
      "traceback": 8041,
      "enced": 8042,
      "counter": 8043,
      "elled": 8044,
      "HTML": 8045,
      "800": 8046,
      ">',": 8047,
      "Lock": 8048,
      "ners": 8049,
      "uro": 8050,
      "iten": 8051,
      "uegos": 8052,
      "ngDevMode": 8053,
      "Ġbuilding": 8054,
      "Ġrealidad": 8055,
      "OF": 8056,
      "unst": 8057,
      "acto": 8058,
      "ĠTYPE": 8059,
      "Ġeager": 8060,
      "Ġextre": 8061,
      "Ġresized": 8062,
      "Ġobra": 8063,
      "Ġgrie": 8064,
      "Update": 8065,
      "iqu": 8066,
      "messages": 8067,
      "elijk": 8068,
      "iden": 8069,
      "ically": 8070,
      "Ġalmost": 8071,
      "Ã©x": 8072,
      "arguments": 8073,
      "ĠImportError": 8074,
      "ECT": 8075,
      "uta": 8076,
      "ĠMulti": 8077,
      "Ġimportant": 8078,
      "Ġheld": 8079,
      "TextConfig": 8080,
      "VALID": 8081,
      "sr": 8082,
      "Ġwest": 8083,
      "ĠOAuth": 8084,
      "Ġsoon": 8085,
      "Active": 8086,
      "elements": 8087,
      "release": 8088,
      "300": 8089,
      "iest": 8090,
      "Ġconcept": 8091,
      "Ġstar": 8092,
      "Ġ`[": 8093,
      "Ð¸Ð½": 8094,
      "Ġpassword": 8095,
      "ĠcuÃ¡n": 8096,
      "Resampling": 8097,
      "dijo": 8098,
      "Ġrate": 8099,
      "ague": 8100,
      "IF": 8101,
      "scope": 8102,
      "Ġobjetos": 8103,
      "hib": 8104,
      "ially": 8105,
      "rms": 8106,
      "semb": 8107,
      "Ġimportantes": 8108,
      "Convert": 8109,
      "getitem": 8110,
      "ORE": 8111,
      "Ġwhole": 8112,
      "Ġglobals": 8113,
      "tas": 8114,
      "Ġsy": 8115,
      "Ġlig": 8116,
      "Impl": 8117,
      "Ġgobierno": 8118,
      "Ġconcepto": 8119,
      "éł": 8120,
      "Ġ'_": 8121,
      "Ġ...]": 8122,
      "show": 8123,
      "Ġworker": 8124,
      "Ġutils": 8125,
      "ĠImperio": 8126,
      "ABC": 8127,
      "Ġcomponents": 8128,
      "ĠRobert": 8129,
      "æ¬¡": 8130,
      "=\"\"\"": 8131,
      "rew": 8132,
      "Ġfrec": 8133,
      "ĠTH": 8134,
      "aint": 8135,
      "ĠparÃ¡met": 8136,
      "Ġshard": 8137,
      "delay": 8138,
      "[_": 8139,
      "icial": 8140,
      "iform": 8141,
      "verage": 8142,
      "ĠÃ©poca": 8143,
      "enable": 8144,
      "amps": 8145,
      "Ġenl": 8146,
      "æīĢ": 8147,
      "amily": 8148,
      "aja": 8149,
      "åĽŀ": 8150,
      "ëª": 8151,
      "Ġthy": 8152,
      "Ð¾Ð¹": 8153,
      "Ġsociales": 8154,
      "Ġbenef": 8155,
      "avg": 8156,
      "Ġscore": 8157,
      "Ġcuerpo": 8158,
      "CP": 8159,
      "fa": 8160,
      "ĠItem": 8161,
      "Ġtesting": 8162,
      "ĠGit": 8163,
      "Ġinflu": 8164,
      "Ġreconoc": 8165,
      "isiones": 8166,
      "Ġblob": 8167,
      "ĠhabÃŃan": 8168,
      "ãĥĹãĥŃ": 8169,
      "Ġannotation": 8170,
      "éĸ¢": 8171,
      "ĠpolÃŃtica": 8172,
      "ĠmÃ©todos": 8173,
      "simple": 8174,
      "ç±": 8175,
      "Ġsust": 8176,
      "Ġaccording": 8177,
      "ĠComo": 8178,
      "longest": 8179,
      "uesto": 8180,
      "ç½®": 8181,
      "éĹ": 8182,
      "ĠLog": 8183,
      "Ġbehavior": 8184,
      "Ġchoice": 8185,
      "volution": 8186,
      "tmpdirname": 8187,
      "ļłï¸ı": 8188,
      "adam": 8189,
      "Ġdecoded": 8190,
      "Ġdiff": 8191,
      "1111": 8192,
      "ĠGran": 8193,
      "Ġ',": 8194,
      "ĠDur": 8195,
      "Ġacuer": 8196,
      "plicit": 8197,
      "Ġcolon": 8198,
      "Ġpaths": 8199,
      "ĠÃ§": 8200,
      "frica": 8201,
      "Ġmedida": 8202,
      "æĸ°": 8203,
      "DATA": 8204,
      "zz": 8205,
      "idu": 8206,
      "ster": 8207,
      "ĠJe": 8208,
      "ĠChannelDimension": 8209,
      "placeholder": 8210,
      "accumulation": 8211,
      "ìĽ": 8212,
      "Ġcook": 8213,
      "opacity": 8214,
      "layout": 8215,
      "ĠJune": 8216,
      "detach": 8217,
      "DeepSpeed": 8218,
      "ÐºÐ¾ÑĢÐ¸ÑģÑĤ": 8219,
      "512": 8220,
      "Scheduler": 8221,
      "Zero": 8222,
      "^^": 8223,
      "ully": 8224,
      "ĠMake": 8225,
      "Ġ})();": 8226,
      "íģ¬": 8227,
      "CODE": 8228,
      "MIN": 8229,
      "Ġ\"\")": 8230,
      "entry": 8231,
      "ertools": 8232,
      "Ġexit": 8233,
      "ĠDate": 8234,
      "produc": 8235,
      "ÐºÐ»": 8236,
      "PyObjectRef": 8237,
      "ĠmÃ¡qu": 8238,
      "åĭķ": 8239,
      "icio": 8240,
      "ĠAuth": 8241,
      "Ġsubprocess": 8242,
      "Ġprimeros": 8243,
      "Ġdetect": 8244,
      "namespace": 8245,
      "Validator": 8246,
      ">\"": 8247,
      "ĠPos": 8248,
      "Ġintelig": 8249,
      "ìłĦ": 8250,
      "Activ": 8251,
      "Ġproduce": 8252,
      "åĥı": 8253,
      "(/": 8254,
      "dynamic": 8255,
      "was": 8256,
      "Ġplease": 8257,
      "Ġled": 8258,
      "Ġhund": 8259,
      "Ġrequer": 8260,
      "await": 8261,
      "Ġsurg": 8262,
      "fall": 8263,
      "èµ": 8264,
      "Ġpage": 8265,
      "Ġgave": 8266,
      "Ġcomponentes": 8267,
      "Styles": 8268,
      "Ġdependency": 8269,
      "Ġcountry": 8270,
      "Be": 8271,
      "Ġdisable": 8272,
      "Ġemple": 8273,
      "kernels": 8274,
      "pickle": 8275,
      "ĠPlease": 8276,
      "Ġ31": 8277,
      "Ġëĭ": 8278,
      "Ġmount": 8279,
      "One": 8280,
      "Success": 8281,
      "qwen": 8282,
      "eron": 8283,
      "edDict": 8284,
      "Ġconduct": 8285,
      "ĠPipeline": 8286,
      "íķĺìĹ¬": 8287,
      "Ð°ÑĶ": 8288,
      "824": 8289,
      "Ġscal": 8290,
      "Ġaan": 8291,
      "Ġoverflow": 8292,
      ",\\": 8293,
      "Temporary": 8294,
      "cripts": 8295,
      "processed": 8296,
      "ĠSequence": 8297,
      "genes": 8298,
      "Ġmedia": 8299,
      "æĪĸ": 8300,
      "Ġgrupos": 8301,
      "Iden": 8302,
      "ĠNorm": 8303,
      "Ã¡ne": 8304,
      "Ġstorm": 8305,
      "ticamente": 8306,
      "Ġformatter": 8307,
      "Ġ2010": 8308,
      "cop": 8309,
      "âķ": 8310,
      "ellow": 8311,
      "Ġsens": 8312,
      "Ġmember": 8313,
      "Ġalias": 8314,
      "ĠÏ": 8315,
      "ĠÙĥ": 8316,
      "Ġluz": 8317,
      "adamente": 8318,
      "ended": 8319,
      "Struct": 8320,
      "Ġmoved": 8321,
      "neg": 8322,
      "çľ": 8323,
      "éĽ": 8324,
      "Ġãģ®": 8325,
      "eler": 8326,
      "Ġuit": 8327,
      "Ġcasi": 8328,
      "Ġhowever": 8329,
      "Ġviewer": 8330,
      "connect": 8331,
      "poration": 8332,
      "Ġexplicit": 8333,
      "ĠÐ±ÑĥÐ´": 8334,
      "'m": 8335,
      "\\\"]": 8336,
      "dot": 8337,
      "king": 8338,
      "orr": 8339,
      "change": 8340,
      "ĠSouth": 8341,
      "Ġâļłï¸ı": 8342,
      "Unless": 8343,
      "Ġ${{": 8344,
      "Ġwalk": 8345,
      "dims": 8346,
      "Ġsetattr": 8347,
      "shapes": 8348,
      "Ġarchitecture": 8349,
      "Ġzoo": 8350,
      "Ġrelativ": 8351,
      "rows": 8352,
      "ÑĸÐ²": 8353,
      "Ġdocstring": 8354,
      "Ġìŀĳ": 8355,
      "Ġsuffix": 8356,
      "Ġfocus": 8357,
      "ams": 8358,
      "ĠTE": 8359,
      "Ġorigen": 8360,
      "Ġutilis": 8361,
      "Ġgrouped": 8362,
      "[\\\"": 8363,
      "EL": 8364,
      "dumps": 8365,
      "Ġspeak": 8366,
      "Ġviv": 8367,
      "Ġ'âĸģ": 8368,
      "Ġacces": 8369,
      "crate": 8370,
      "Ġargparse": 8371,
      "\":\"[\\\"": 8372,
      "\\\"]\",\"": 8373,
      "Ġmm": 8374,
      "ulos": 8375,
      "Ġimg": 8376,
      "ONE": 8377,
      "NODE": 8378,
      "§ĭ": 8379,
      "Ġlang": 8380,
      "email": 8381,
      "ays": 8382,
      "Ġguide": 8383,
      "Ġnegative": 8384,
      "GPU": 8385,
      "iaciÃ³n": 8386,
      "Ġcateg": 8387,
      "Ġjob": 8388,
      "contains": 8389,
      "Ġsegundo": 8390,
      "Ġderiv": 8391,
      "ĠðŁĮ": 8392,
      "ULL": 8393,
      "Ġcambios": 8394,
      "reas": 8395,
      "Ġhot": 8396,
      "Ġabr": 8397,
      "ãĥĥãĥĪ": 8398,
      "Ġframework": 8399,
      "éĩı": 8400,
      "previous": 8401,
      "Ø°Ø¬": 8402,
      "Ġgol": 8403,
      "Ġcrear": 8404,
      "generator": 8405,
      "Ġ```\"\"\"": 8406,
      "Ã©xico": 8407,
      "ride": 8408,
      "warn": 8409,
      "isa": 8410,
      "Ġext": 8411,
      "ĠDIGIT": 8412,
      "codebook": 8413,
      "ÐºÐ°": 8414,
      "à¤°": 8415,
      "Ġcomplet": 8416,
      "Ġmostr": 8417,
      "(`": 8418,
      "BC": 8419,
      "Ġsos": 8420,
      "Ġmix": 8421,
      "Ġra": 8422,
      "ĠConvert": 8423,
      "WithPooling": 8424,
      "ĠPreTrainedConfig": 8425,
      "ĠJapan": 8426,
      "derive": 8427,
      "Ġaccount": 8428,
      "Ġaproxim": 8429,
      "ĠíĮĮ": 8430,
      "è·¯å¾": 8431,
      "cmp": 8432,
      "pip": 8433,
      "Ġbackend": 8434,
      "este": 8435,
      "ImageResampling": 8436,
      "pending": 8437,
      "Thread": 8438,
      "Ġaquel": 8439,
      "nThe": 8440,
      "Ġmir": 8441,
      "Ġbal": 8442,
      "Ġrend": 8443,
      "ĠNOT": 8444,
      "ĠSim": 8445,
      "irse": 8446,
      "grouped": 8447,
      "Ġobjetivo": 8448,
      "ĠmÃºsica": 8449,
      "ĠaÃºn": 8450,
      "0001": 8451,
      "ãĤª": 8452,
      "Ġoutside": 8453,
      "Ġserv": 8454,
      "ä»ĸ": 8455,
      "Ġê°Ļ": 8456,
      "Ġtur": 8457,
      "ĠNov": 8458,
      "emove": 8459,
      "Ġproxy": 8460,
      "ĠDocker": 8461,
      "Ġclase": 8462,
      "1000": 8463,
      "predictions": 8464,
      "JSON": 8465,
      "storage": 8466,
      "Ġground": 8467,
      "skipUnless": 8468,
      "Ġocup": 8469,
      "ê°ľ": 8470,
      "gar": 8471,
      "yield": 8472,
      "Ġinm": 8473,
      "Ġnorte": 8474,
      "Ġvict": 8475,
      "ä¹Ł": 8476,
      "lish": 8477,
      "įä½ľ": 8478,
      "Ġaus": 8479,
      "Ġpassing": 8480,
      "Ġconsidered": 8481,
      "ĠÃ¡r": 8482,
      "iddleware": 8483,
      "Like": 8484,
      "Ġmembers": 8485,
      "Ġimports": 8486,
      "aches": 8487,
      "Comp": 8488,
      "Ġhumanos": 8489,
      ".$": 8490,
      "detr": 8491,
      "Ġpon": 8492,
      "Ġfriend": 8493,
      "fastapi": 8494,
      "warnings": 8495,
      "Ġprediction": 8496,
      "duration": 8497,
      "pus": 8498,
      "Ġcel": 8499,
      "rep": 8500,
      "Ġmol": 8501,
      "acia": 8502,
      "ubic": 8503,
      "ForTokenClassification": 8504,
      "Ġmujer": 8505,
      "selected": 8506,
      "Ġschool": 8507,
      "Ġrecursos": 8508,
      "Ġpropiedades": 8509,
      "Ð°ÑĢÐ°Ð¼": 8510,
      "Ġroad": 8511,
      "Ġstarted": 8512,
      "ä½łåı¯ä»¥": 8513,
      "ĠpodrÃŃa": 8514,
      "emplos": 8515,
      "Ġbg": 8516,
      "izo": 8517,
      "Ġalmac": 8518,
      "ĠOtherwise": 8519,
      "poonful": 8520,
      "ki": 8521,
      "Consumer": 8522,
      "Ġkw": 8523,
      "åıĸ": 8524,
      "Ġ\"#/": 8525,
      "GPT": 8526,
      "dfn": 8527,
      "Ġdt": 8528,
      "ĠMDX": 8529,
      "spatial": 8530,
      "Ġrecent": 8531,
      "ÑĤÐ¾ÑĢ": 8532,
      "<|": 8533,
      "EV": 8534,
      "cert": 8535,
      "Ġtama": 8536,
      "Ġmeta": 8537,
      "Ġnuc": 8538,
      "Ġrepos": 8539,
      "Ġanc": 8540,
      "ĠAsÃŃ": 8541,
      "Ġvisit": 8542,
      "hfoption": 8543,
      "å¹¶": 8544,
      "quire": 8545,
      "Ġdisabled": 8546,
      "acionales": 8547,
      "Ð°ÑĢÐ°Ð¼ÐµÑĤ": 8548,
      "Rot": 8549,
      "dd": 8550,
      "pick": 8551,
      "allclose": 8552,
      "Ġestab": 8553,
      "lection": 8554,
      "æĺİ": 8555,
      "Ġdescubr": 8556,
      "Ġëį°ìĿ´íĦ°": 8557,
      "Ġaprendizaje": 8558,
      "cs": 8559,
      "slots": 8560,
      "Ġnom": 8561,
      "ota": 8562,
      "ball": 8563,
      "scription": 8564,
      "Ġflow": 8565,
      "ingÃ¼": 8566,
      "erram": 8567,
      "Ġworking": 8568,
      "choices": 8569,
      "Ġlibre": 8570,
      "Only": 8571,
      "ĠChrist": 8572,
      "sentence": 8573,
      "Ġlik": 8574,
      "ãģĽ": 8575,
      "=\\": 8576,
      "break": 8577,
      "Ġpode": 8578,
      "Ġmagn": 8579,
      "Ġ\",": 8580,
      "aterial": 8581,
      "Action": 8582,
      "Func": 8583,
      "nodes": 8584,
      "Ġconcl": 8585,
      "Ġprograma": 8586,
      "ĠVideo": 8587,
      "Ġsetup": 8588,
      "ampler": 8589,
      "Ġcosas": 8590,
      "ãĥĩãĥ¼ãĤ¿": 8591,
      "Ġfuera": 8592,
      "Ġentrada": 8593,
      "dentials": 8594,
      "ìĥ": 8595,
      "erv": 8596,
      "asure": 8597,
      "Ġprot": 8598,
      "ãĤĵ": 8599,
      "Ġ&'": 8600,
      "decay": 8601,
      "loaded": 8602,
      "Encoding": 8603,
      "Ġìłķ": 8604,
      "ëĵ¤": 8605,
      "tecode": 8606,
      "Ġcompressible": 8607,
      "FUNCTIONS": 8608,
      "bil": 8609,
      "Ġapo": 8610,
      "uned": 8611,
      "Ġhar": 8612,
      "Ġ'/": 8613,
      "Ġescrib": 8614,
      "generic": 8615,
      "Checkpoint": 8616,
      "batched": 8617,
      "symbol": 8618,
      "()).": 8619,
      "ĠPal": 8620,
      "ĠUvicorn": 8621,
      "PyObject": 8622,
      "Ġtransfer": 8623,
      "_.": 8624,
      "attributes": 8625,
      "elves": 8626,
      "Ġreview": 8627,
      "ĠAI": 8628,
      "Ġcalling": 8629,
      "PATH": 8630,
      "cf": 8631,
      "Ãµ": 8632,
      "Ġfal": 8633,
      "oted": 8634,
      "Ġesti": 8635,
      "Rel": 8636,
      "cke": 8637,
      "Ġdead": 8638,
      "Ġanno": 8639,
      "ĠDav": 8640,
      "567": 8641,
      "when": 8642,
      "ä¾ĭå": 8643,
      "Ġmilitar": 8644,
      "engine": 8645,
      ")],": 8646,
      "Rect": 8647,
      "backend": 8648,
      "eles": 8649,
      "Ġserie": 8650,
      "ĠâĨĴ": 8651,
      "positional": 8652,
      "Ġencuent": 8653,
      "Ġsugg": 8654,
      "Ġremoved": 8655,
      "CHECKING": 8656,
      "ĠkÃ¶nnen": 8657,
      ">=": 8658,
      "{{": 8659,
      "enum": 8660,
      "Ġage": 8661,
      "Ġlado": 8662,
      "Ġmerg": 8663,
      "leave": 8664,
      "omen": 8665,
      "Ġ{},": 8666,
      "Ġconcat": 8667,
      "Ġorient": 8668,
      "Ġleave": 8669,
      "ĠØ¹ÙĦÙī": 8670,
      "ÙĨÙħÙĪ": 8671,
      "uite": 8672,
      "Ġsafe": 8673,
      "agged": 8674,
      "Ġwhose": 8675,
      "Ð¾Ð¿": 8676,
      "interpolate": 8677,
      "New": 8678,
      "Ã³l": 8679,
      "ÃŃt": 8680,
      "Ġstore": 8681,
      "posix": 8682,
      "flush": 8683,
      "().\\": 8684,
      "åĨħ": 8685,
      "ìķ¼": 8686,
      "tree": 8687,
      "xb": 8688,
      "ä»£": 8689,
      "etermin": 8690,
      "Ġminutes": 8691,
      "ĠÐ¾ÑĤ": 8692,
      "Ġciencia": 8693,
      "ÙĨÙħÙĪØ°Ø¬": 8694,
      "åīį": 8695,
      "Ġhig": 8696,
      "ãģĬ": 8697,
      "Ã©tico": 8698,
      "Ġsetting": 8699,
      "ĠìĹ¬": 8700,
      "ede": 8701,
      "tober": 8702,
      "ãģ©": 8703,
      "Ġusers": 8704,
      "Ġmixed": 8705,
      "ĠSQL": 8706,
      "verr": 8707,
      "eph": 8708,
      "ĠperÃŃ": 8709,
      "Ġfilos": 8710,
      "Ð¼ÐµÐ½ÑĤ": 8711,
      "mathbf": 8712,
      "\\/": 8713,
      "lava": 8714,
      "Ġpare": 8715,
      "Ġrelev": 8716,
      "subprocess": 8717,
      "Ġexpression": 8718,
      "connection": 8719,
      "Lazy": 8720,
      "Ġlost": 8721,
      "Ġ`${": 8722,
      "Proto": 8723,
      "ÑĥÑİ": 8724,
      "Ġcoordin": 8725,
      "atron": 8726,
      "FeatureExtractor": 8727,
      "Ġespecialmente": 8728,
      ":-": 8729,
      "aring": 8730,
      "Ġpie": 8731,
      "Ġpick": 8732,
      "Ġnuest": 8733,
      "Ġboolean": 8734,
      "Ġhier": 8735,
      "proxy": 8736,
      "Ø±ÙĬ": 8737,
      "NgModule": 8738,
      "íĸī": 8739,
      "PS": 8740,
      "Ġgan": 8741,
      "ĠTHE": 8742,
      "Ġimportlib": 8743,
      "Ġmeet": 8744,
      "respondiÃ³": 8745,
      "ĠCorporation": 8746,
      "protocol": 8747,
      "Ġahora": 8748,
      "ÑĥÐ½Ðº": 8749,
      "ĠÅŁ": 8750,
      "ĠBatchFeature": 8751,
      "æĤ¨": 8752,
      "Ġvuestra": 8753,
      "Ð½Ð°Ñĩ": 8754,
      "Ġalguna": 8755,
      "ÑĢÐ°Ð·": 8756,
      "Ãºlti": 8757,
      "Batch": 8758,
      "ìĺ": 8759,
      "anco": 8760,
      "Ġreq": 8761,
      "Ġ(()": 8762,
      "ĠMag": 8763,
      "ualmente": 8764,
      "Ġurllib": 8765,
      "Ġclosed": 8766,
      "micro": 8767,
      "¤ĳ": 8768,
      "arias": 8769,
      "Ġlate": 8770,
      "Ġbin": 8771,
      "ãĥĲ": 8772,
      "ASS": 8773,
      "Reader": 8774,
      "TIME": 8775,
      "ĠìķĬ": 8776,
      "Ġagua": 8777,
      "UC": 8778,
      "tur": 8779,
      "Ġ^": 8780,
      "Ġgir": 8781,
      "strap": 8782,
      "Ġmove": 8783,
      "Ġåľ¨": 8784,
      "Ġstdout": 8785,
      "æĸ¹æ³ķ": 8786,
      "onc": 8787,
      "ocal": 8788,
      ").âĢĭ": 8789,
      "anner": 8790,
      "ĠìŀĲ": 8791,
      "ĠdiseÃ±o": 8792,
      "å»º": 8793,
      "Ãµes": 8794,
      "MT": 8795,
      "æĭ": 8796,
      "Ġtgt": 8797,
      "ĠserÃ¡": 8798,
      "Processing": 8799,
      "Ġpuedes": 8800,
      "ĠÐ¾Ð¿": 8801,
      "ĠtenÃŃa": 8802,
      "ä¾Ľ": 8803,
      "Ġinitialization": 8804,
      "Socket": 8805,
      "Ġcandid": 8806,
      "Ġmarr": 8807,
      "Ġcontrib": 8808,
      "tegr": 8809,
      "addCleanup": 8810,
      "ĠíĶĦ": 8811,
      "Ġprecision": 8812,
      "Ġmont": 8813,
      "Ġthing": 8814,
      "upload": 8815,
      "ĠUI": 8816,
      "Ġusa": 8817,
      "noverr": 8818,
      "æĻĤ": 8819,
      "ĠInfinity": 8820,
      "cleanup": 8821,
      "ho": 8822,
      "Ġsite": 8823,
      "textarea": 8824,
      "pymethod": 8825,
      "Ġë¬¸": 8826,
      "ASE": 8827,
      "Dropout": 8828,
      "Red": 8829,
      "Ġmachine": 8830,
      "aming": 8831,
      "ĠBo": 8832,
      "Ġboy": 8833,
      "Ø¶": 8834,
      "orÃŃas": 8835,
      "ĠBat": 8836,
      "Ġcrate": 8837,
      "rustc": 8838,
      "è§£": 8839,
      "âķĲ": 8840,
      "Ġfen": 8841,
      "acer": 8842,
      "Ġva": 8843,
      "ĠLLM": 8844,
      "Trainer": 8845,
      "Ġchanged": 8846,
      "aching": 8847,
      "ĠEntre": 8848,
      "Ġsubject": 8849,
      "execute": 8850,
      "cancel": 8851,
      "æĵįä½ľ": 8852,
      "DS": 8853,
      "ĠÐµ": 8854,
      "Ġesa": 8855,
      "Ġexiste": 8856,
      "æĪĳä»¬": 8857,
      "inherit": 8858,
      "ãģĳ": 8859,
      "ĠDuring": 8860,
      "ãģĻãĤĭãģĵãģ¨": 8861,
      "Mark": 8862,
      "enos": 8863,
      "Ġintens": 8864,
      "ĠNue": 8865,
      "ĠRich": 8866,
      "checke": 8867,
      "egatron": 8868,
      "disable": 8869,
      "tooltip": 8870,
      "Dom": 8871,
      "ipp": 8872,
      "REEK": 8873,
      "actions": 8874,
      "Ġfrente": 8875,
      "compat": 8876,
      "structions": 8877,
      "ImageProcessorFast": 8878,
      "Identifier": 8879,
      "erramient": 8880,
      "Ġenem": 8881,
      "ĠAg": 8882,
      "Ġreset": 8883,
      "inds": 8884,
      "itions": 8885,
      "serial": 8886,
      "åºĶ": 8887,
      "Ġignored": 8888,
      "AX": 8889,
      "Ġactions": 8890,
      "ĠÐ²Ð°ÑĪ": 8891,
      "ĠXV": 8892,
      "supabase": 8893,
      "Ġwindows": 8894,
      "ĠOctober": 8895,
      "ao": 8896,
      "Ġduration": 8897,
      "Ġhtml": 8898,
      "contin": 8899,
      "ĠWhat": 8900,
      "ĠColomb": 8901,
      "Iterable": 8902,
      "Ġsignificant": 8903,
      "Ġgovernment": 8904,
      "half": 8905,
      "incl": 8906,
      "otec": 8907,
      "Ġcontainer": 8908,
      "ĠArch": 8909,
      "Ġsing": 8910,
      "asa": 8911,
      "atrix": 8912,
      "Ġblack": 8913,
      "checkequal": 8914,
      "Promise": 8915,
      "Ġwro": 8916,
      "ĠëĤ": 8917,
      "([[": 8918,
      "Ġë°©": 8919,
      "Ø®Ø¯": 8920,
      "ĠJuly": 8921,
      "declared": 8922,
      "GI": 8923,
      "gres": 8924,
      "yr": 8925,
      "Ġschedule": 8926,
      "ãģĪ": 8927,
      "ĠquÃŃm": 8928,
      "ander": 8929,
      "Ġeine": 8930,
      "Ġkeyword": 8931,
      "ĠlÃŃnea": 8932,
      "Mapping": 8933,
      "eld": 8934,
      "Ġwandb": 8935,
      "reader": 8936,
      "ROL": 8937,
      "Ġllamado": 8938,
      "Ġë§¤": 8939,
      "Ġess": 8940,
      "asing": 8941,
      "irs": 8942,
      "Ġasoci": 8943,
      "\\\\.": 8944,
      "Ġfollowed": 8945,
      "segment": 8946,
      "Ġgrande": 8947,
      "Ġquantized": 8948,
      "âĶĢâĶĢâĶĢâĶĢâĶĢâĶĢâĶĢâĶĢ": 8949,
      "Ġsentido": 8950,
      "icional": 8951,
      "Ġ...,": 8952,
      "even": 8953,
      "ãģ«ãģ¯": 8954,
      "hist": 8955,
      "ĠMÃ©xico": 8956,
      "Ġìĭ¤": 8957,
      "Ġprefer": 8958,
      "Ġpersona": 8959,
      "Ġtakes": 8960,
      "osa": 8961,
      "emit": 8962,
      "Ġunderstand": 8963,
      "ĠÃ¶": 8964,
      "ĠCommon": 8965,
      "ĠPreTrainedModel": 8966,
      "Ġangular": 8967,
      "pectrogram": 8968,
      "Ġkv": 8969,
      "Ġmaybe": 8970,
      "ãĥ³ãĤ¹": 8971,
      "ĠÐ²Ð¸ÐºÐ¾ÑĢÐ¸ÑģÑĤ": 8972,
      "Ġactually": 8973,
      "Injectable": 8974,
      "Ġdicho": 8975,
      "Ã©rcito": 8976,
      "SP": 8977,
      "draw": 8978,
      "éļ": 8979,
      "Ġello": 8980,
      "ĠBer": 8981,
      "Ġstderr": 8982,
      "anger": 8983,
      "Ġchurch": 8984,
      "Ġshift": 8985,
      "166": 8986,
      "Ġformer": 8987,
      "tesis": 8988,
      "Elements": 8989,
      "-.": 8990,
      "anlab": 8991,
      "lem": 8992,
      "izada": 8993,
      "Ġthreshold": 8994,
      "ueb": 8995,
      "ĠWest": 8996,
      "Ġobser": 8997,
      "ĠChinese": 8998,
      "Ġruns": 8999,
      "Ġ2008": 9000,
      "Ġ2012": 9001,
      "Add": 9002,
      "Flow": 9003,
      "Session": 9004,
      "ua": 9005,
      "Ġdado": 9006,
      "ĠALL": 9007,
      "ĠBen": 9008,
      "Ġbackground": 9009,
      "Ġdetail": 9010,
      "è¨Ģ": 9011,
      "âķĲâķĲ": 9012,
      "ķĮ": 9013,
      "Ġfit": 9014,
      "ĠCross": 9015,
      "DeferBlock": 9016,
      "ImageClassification": 9017,
      "Ġmiles": 9018,
      "COMP": 9019,
      "ĠÙģÙĬ": 9020,
      "ĠSPDX": 9021,
      "ĠtamaÃ±o": 9022,
      "Ġnoc": 9023,
      "uls": 9024,
      "Ġrust": 9025,
      "ĠLEFT": 9026,
      "ĠRIGHT": 9027,
      "Internal": 9028,
      "ForQuestionAnswering": 9029,
      "ãĥ¼ãĤ¯": 9030,
      "Ġìłľ": 9031,
      "Children": 9032,
      "=!": 9033,
      "zy": 9034,
      "çĦ": 9035,
      "é¢": 9036,
      "ĠSH": 9037,
      "ĠMe": 9038,
      "ĠGre": 9039,
      "uffix": 9040,
      "Ġbehind": 9041,
      "Ġtend": 9042,
      "Ġswe": 9043,
      "004": 9044,
      "Ġtokenizers": 9045,
      "Ġinterface": 9046,
      "Ġsubscriber": 9047,
      "ĠìĥĿ": 9048,
      "Ġple": 9049,
      "Ġasked": 9050,
      "bucket": 9051,
      "azz": 9052,
      "Ġservicios": 9053,
      "ìħĺ": 9054,
      "Ġslot": 9055,
      "INIT": 9056,
      "scheme": 9057,
      "delete": 9058,
      ":'": 9059,
      "free": 9060,
      "Ġmid": 9061,
      "seman": 9062,
      "ĠSur": 9063,
      "ĠDOM": 9064,
      "Ġshell": 9065,
      "Ġremaining": 9066,
      "Ġëª¨ëį¸ìĿĦ": 9067,
      "Ġadapt": 9068,
      "Ġsnapshot": 9069,
      "æ±Ĥ": 9070,
      "739": 9071,
      "Tag": 9072,
      "Ġill": 9073,
      "alth": 9074,
      "under": 9075,
      "idente": 9076,
      "ĠTuple": 9077,
      "Ġelimin": 9078,
      "ĠCre": 9079,
      "ĠDios": 9080,
      "inite": 9081,
      "ĠcrÃŃ": 9082,
      "jas": 9083,
      "qq": 9084,
      "xd": 9085,
      "Outlet": 9086,
      "seqlens": 9087,
      "Ġcontinued": 9088,
      "uye": 9089,
      "åıĤæķ°": 9090,
      "Do": 9091,
      "zens": 9092,
      "chmark": 9093,
      "Ġhold": 9094,
      "Ġanimation": 9095,
      "Ġvista": 9096,
      "usage": 9097,
      "ä½ķ": 9098,
      "Ġpointer": 9099,
      "recv": 9100,
      "Generic": 9101,
      "amento": 9102,
      "itespace": 9103,
      "Ġrecogn": 9104,
      "erve": 9105,
      "Ġtp": 9106,
      "Ġwor": 9107,
      "Ã¡g": 9108,
      "tokenize": 9109,
      "ATCH": 9110,
      "1311": 9111,
      "Ġplayed": 9112,
      "OWN": 9113,
      "Own": 9114,
      "Ġsymbol": 9115,
      "aga": 9116,
      "Ġpartes": 9117,
      "without": 9118,
      "Ġredes": 9119,
      "Ġstory": 9120,
      "Ġheart": 9121,
      "ĠUN": 9122,
      "Ġ500": 9123,
      "ontal": 9124,
      "Ġindent": 9125,
      "EventListener": 9126,
      "ĠRouter": 9127,
      "aux": 9128,
      "ĠlÃ³g": 9129,
      "ormente": 9130,
      "outine": 9131,
      "ĠChurch": 9132,
      "ĠEstos": 9133,
      "PreTrainedConfig": 9134,
      "__\":": 9135,
      "Ġwhom": 9136,
      "(\"\\": 9137,
      "Ġpositive": 9138,
      "Ġmatching": 9139,
      "Ġfacil": 9140,
      "ĠJanuary": 9141,
      "rece": 9142,
      "005": 9143,
      "ibr": 9144,
      "cheduled": 9145,
      "ĠEngland": 9146,
      "Ġcontenido": 9147,
      "Ġìļ": 9148,
      "Ġjunto": 9149,
      "roller": 9150,
      "Loading": 9151,
      "ĠTrainingArguments": 9152,
      "wend": 9153,
      "Stack": 9154,
      "ÙĬÙĦ": 9155,
      "Ġalgo": 9156,
      "ĠÐ·Ð°": 9157,
      "Ġaleman": 9158,
      "getattr": 9159,
      "ours": 9160,
      "Char": 9161,
      "Ġleading": 9162,
      "Src": 9163,
      "Source": 9164,
      "Ã¡ticas": 9165,
      "Ġprac": 9166,
      "åĪĹ": 9167,
      "Ġprincipio": 9168,
      "ĠHTTPS": 9169,
      "JS": 9170,
      "fork": 9171,
      "ì¡": 9172,
      "Ġterc": 9173,
      "execut": 9174,
      "istent": 9175,
      "Ã©ase": 9176,
      "uched": 9177,
      "Ġartific": 9178,
      "Ġrout": 9179,
      "ĠChina": 9180,
      "à¥ĩ": 9181,
      "equ": 9182,
      "yg": 9183,
      "Ġcmd": 9184,
      "ĠEach": 9185,
      "Ġincludes": 9186,
      "Logits": 9187,
      "Ġnetwork": 9188,
      ">\\": 9189,
      "EM": 9190,
      "Gre": 9191,
      "ÛĮ": 9192,
      "çĻ": 9193,
      "atal": 9194,
      "ĠTLS": 9195,
      "INFO": 9196,
      "<()": 9197,
      "itary": 9198,
      "Ġreached": 9199,
      "ĠEstado": 9200,
      "Ġnuevos": 9201,
      "Ġvocabulary": 9202,
      "Mut": 9203,
      "ince": 9204,
      "Ġbur": 9205,
      "constructor": 9206,
      "\"));": 9207,
      "Anim": 9208,
      "ĠaquÃŃ": 9209,
      "Ġvelocidad": 9210,
      "Ġacuerdo": 9211,
      "æĩ": 9212,
      "Ġratio": 9213,
      "Ġtrib": 9214,
      "Ġoblig": 9215,
      "Ġ710": 9216,
      "Ġprovides": 9217,
      "Ġalgorithm": 9218,
      "ĠValid": 9219,
      "Ġproced": 9220,
      "ĠDel": 9221,
      "Import": 9222,
      "ĠBaseModelOutputWithPooling": 9223,
      "schedule": 9224,
      "ĠmÃºlti": 9225,
      "ĠIsl": 9226,
      "iene": 9227,
      "distributed": 9228,
      "sole": 9229,
      "Ã¡mica": 9230,
      "utions": 9231,
      "chen": 9232,
      "ches": 9233,
      "ĠCU": 9234,
      "Ġste": 9235,
      "pri": 9236,
      "Ġserve": 9237,
      "wrapped": 9238,
      "READ": 9239,
      "Ġprincipios": 9240,
      "Label": 9241,
      "epochs": 9242,
      "semantic": 9243,
      "Division": 9244,
      "Ġcod": 9245,
      "Ġconversion": 9246,
      "Ġresize": 9247,
      "setup": 9248,
      "ABIC": 9249,
      "ëŀĺ": 9250,
      "ĠApril": 9251,
      "!(\"": 9252,
      "orge": 9253,
      "report": 9254,
      "Ġ\"[": 9255,
      "quote": 9256,
      "ĠBERT": 9257,
      "Track": 9258,
      "ETR": 9259,
      "force": 9260,
      "scatter": 9261,
      "ä»»": 9262,
      "Ġprimero": 9263,
      "Ġseguridad": 9264,
      "Ġrealizar": 9265,
      "Ġíķ¨": 9266,
      "MP": 9267,
      "zos": 9268,
      "ĠBack": 9269,
      "comput": 9270,
      "Ġë¶": 9271,
      "topk": 9272,
      "Any": 9273,
      "441": 9274,
      "ìŀ¥": 9275,
      "Validators": 9276,
      "ĠARABIC": 9277,
      "OFF": 9278,
      "Ġhover": 9279,
      "ĠGREEK": 9280,
      "Ġ2009": 9281,
      "Ġproduction": 9282,
      "Ġê²½ìļ°": 9283,
      "Before": 9284,
      "das": 9285,
      "mine": 9286,
      "pixels": 9287,
      "Ġtables": 9288,
      "Ġsizes": 9289,
      "Ġnob": 9290,
      "seen": 9291,
      "Ġthus": 9292,
      "Ð¸ÑĤÑĮ": 9293,
      "ioso": 9294,
      "Ġhaar": 9295,
      "Ġlarger": 9296,
      "Ġfeet": 9297,
      "Ġidentific": 9298,
      "ĠSuper": 9299,
      "Ġmetrics": 9300,
      "Ġcort": 9301,
      "ĠSpec": 9302,
      "Ġadapter": 9303,
      "runtime": 9304,
      "Ġcompleted": 9305,
      "Ġreadonly": 9306,
      "ãĥĥãĤ¯": 9307,
      "éĩį": 9308,
      "Ġsatis": 9309,
      "ĠAmÃ©rica": 9310,
      "íĺ": 9311,
      "Ġwave": 9312,
      "Ġherramient": 9313,
      "ĠLin": 9314,
      "ipto": 9315,
      "ibling": 9316,
      "aked": 9317,
      "Ġturned": 9318,
      "éľĢè¦ģ": 9319,
      "pin": 9320,
      "rit": 9321,
      "Ġhol": 9322,
      "Ġnumbers": 9323,
      "ä½Ĩ": 9324,
      "Ġ2011": 9325,
      ">)": 9326,
      "esis": 9327,
      "Ġthee": 9328,
      "ĠCam": 9329,
      "ĠMa": 9330,
      "ARY": 9331,
      "(['": 9332,
      "calls": 9333,
      "ĠDeep": 9334,
      "translation": 9335,
      "Ãªme": 9336,
      "ìĨ": 9337,
      "click": 9338,
      "Ġsuperior": 9339,
      "ëĬ¥": 9340,
      "unicode": 9341,
      "placed": 9342,
      "Ġë³´": 9343,
      "æĹ¶": 9344,
      "æį®": 9345,
      "ĠOutput": 9346,
      "ĠbÃ¡s": 9347,
      "Ġ'\"": 9348,
      "__\",": 9349,
      "ffff": 9350,
      "Ġshown": 9351,
      "ailing": 9352,
      "ĠëķĮ": 9353,
      "Ġready": 9354,
      "ĠRead": 9355,
      "olÃ³gica": 9356,
      "Ġexactly": 9357,
      "Layout": 9358,
      "ĠAleman": 9359,
      "ĠMary": 9360,
      "Ġ%}": 9361,
      "segments": 9362,
      "ĠseÃ±al": 9363,
      "Ġcultura": 9364,
      "Ġmetric": 9365,
      "010": 9366,
      "URE": 9367,
      "wb": 9368,
      "ĺë¦¬": 9369,
      "Ġmlp": 9370,
      "positi": 9371,
      "pons": 9372,
      "ĠÃ¼": 9373,
      "Ġexpans": 9374,
      "Ġnaveg": 9375,
      "ĠColombia": 9376,
      "LINE": 9377,
      "Me": 9378,
      "based": 9379,
      "Ġaud": 9380,
      "Ġdeprecated": 9381,
      "Ġnodes": 9382,
      "Ġprepar": 9383,
      "buffers": 9384,
      "è¯·": 9385,
      "ãģķãĤĮãģŁ": 9386,
      "Ġalmacen": 9387,
      "<()>": 9388,
      "LU": 9389,
      "mail": 9390,
      "exact": 9391,
      "Ġrecomm": 9392,
      "3674": 9393,
      "Ġdatetime": 9394,
      "ãĥ¬ãĥ¼ãĥ": 9395,
      "Ġhundred": 9396,
      "Min": 9397,
      "fsdp": 9398,
      "Ġ'%": 9399,
      "Ġestados": 9400,
      "Ġclar": 9401,
      "Ð°Ð·": 9402,
      "Ġcommunic": 9403,
      "407": 9404,
      "teriores": 9405,
      "Ġestilo": 9406,
      "cular": 9407,
      "ierto": 9408,
      "may": 9409,
      "sim": 9410,
      "ĠmÃ³": 9411,
      "Ġmakes": 9412,
      "ĠElement": 9413,
      "ĠÐ¢": 9414,
      "Ġpreprocess": 9415,
      "Ġdeploy": 9416,
      "ëł¥": 9417,
      "nowrap": 9418,
      "Ġpooled": 9419,
      "ĠdÃ©cada": 9420,
      "ĠDurante": 9421,
      "'\"": 9422,
      "tenant": 9423,
      "Ġflash": 9424,
      "Ġlengths": 9425,
      "Ġdevelopment": 9426,
      "Ġpalabras": 9427,
      "ĠíĨł": 9428,
      ")},": 9429,
      "Navigation": 9430,
      "ln": 9431,
      "mamba": 9432,
      "åķ": 9433,
      "Ã©d": 9434,
      "resiÃ³n": 9435,
      "ãĥ¼ãĥĪ": 9436,
      "awn": 9437,
      "istian": 9438,
      "ker": 9439,
      "Ġ'./": 9440,
      "ĠJack": 9441,
      "Forward": 9442,
      "Ġofficial": 9443,
      "Ġservidor": 9444,
      "uman": 9445,
      "ĠOper": 9446,
      "Ġmateria": 9447,
      "uido": 9448,
      "escape": 9449,
      "Ġbook": 9450,
      "Ġdelta": 9451,
      "ĠViT": 9452,
      "Ġë©": 9453,
      "Ġlibc": 9454,
      "à¥į": 9455,
      "Ġmaster": 9456,
      "æŃ¤": 9457,
      "Ġwrote": 9458,
      "fut": 9459,
      "Ġconsult": 9460,
      "å®¹": 9461,
      "Ġ2006": 9462,
      "ÑĢÐ¸Ð¼": 9463,
      "è¡¨": 9464,
      "Ġcookie": 9465,
      "Ġinsp": 9466,
      "Ġobras": 9467,
      "theta": 9468,
      "Embeddings": 9469,
      "dependency": 9470,
      "Alias": 9471,
      "Masked": 9472,
      "Ġwrapper": 9473,
      "ĠðŁĮĲ": 9474,
      ",))": 9475,
      "Directory": 9476,
      "job": 9477,
      "Ġcha": 9478,
      "ĠfÃ¼r": 9479,
      "Ġmother": 9480,
      "ĠserÃŃa": 9481,
      "Ġsoport": 9482,
      "rediction": 9483,
      "ClassMetadata": 9484,
      "Ġinstalled": 9485,
      "ĠDecember": 9486,
      "Ġprincipalmente": 9487,
      "teriormente": 9488,
      "amlessM": 9489,
      "Kind": 9490,
      "Ġdio": 9491,
      "Ġgel": 9492,
      "Ġgap": 9493,
      "Ġfort": 9494,
      "\":{\"": 9495,
      "Subscriber": 9496,
      "Ġallows": 9497,
      "Ġlad": 9498,
      "ĠSol": 9499,
      "Ġalto": 9500,
      "ĠMax": 9501,
      "Ġ*,": 9502,
      "ĠíĽ": 9503,
      "ĠalgÃºn": 9504,
      "ynamicCache": 9505,
      "ĠDepends": 9506,
      "ç±»": 9507,
      "AP": 9508,
      "Ġfre": 9509,
      "ãĤ§": 9510,
      "setattr": 9511,
      "Ġdecoding": 9512,
      "Ġdiffic": 9513,
      "xB": 9514,
      "elines": 9515,
      ").__": 9516,
      "Ġuseful": 9517,
      "Ġbackward": 9518,
      "Ġservicio": 9519,
      "ë¶Ģ": 9520,
      "Empty": 9521,
      "900": 9522,
      "GET": 9523,
      "spl": 9524,
      "asic": 9525,
      "ãĤ¸": 9526,
      "ĠOt": 9527,
      "complex": 9528,
      "èĢĮ": 9529,
      "Ġpesar": 9530,
      "Ġvotre": 9531,
      "emon": 9532,
      "Ġjug": 9533,
      "Union": 9534,
      "workers": 9535,
      "Ġdetection": 9536,
      "idental": 9537,
      "åº¦": 9538,
      "Ġfixed": 9539,
      "ĠLOG": 9540,
      "ĠCONTROL": 9541,
      "Ġmad": 9542,
      "econd": 9543,
      "look": 9544,
      "ceiver": 9545,
      "Ð¸ÑĤ": 9546,
      "ãĥ¼ãĥ«": 9547,
      "NG": 9548,
      "begin": 9549,
      "inject": 9550,
      "Ġbeta": 9551,
      "Ġcompe": 9552,
      "proc": 9553,
      "Ġderechos": 9554,
      "binding": 9555,
      "Subclass": 9556,
      "Ġìĸ´": 9557,
      "ĠAlemania": 9558,
      "pat": 9559,
      "Ġdraw": 9560,
      "irit": 9561,
      "Ġinstal": 9562,
      "ISO": 9563,
      "Ġbrought": 9564,
      "æĮģ": 9565,
      "çĤº": 9566,
      "ri": 9567,
      "sleep": 9568,
      "until": 9569,
      "Ġhombre": 9570,
      "Ġrepeat": 9571,
      "Ġgit": 9572,
      "Ġbranch": 9573,
      "Ġmiemb": 9574,
      "Ġnaturaleza": 9575,
      "çĶŁæĪĲ": 9576,
      "Ġowner": 9577,
      "Level": 9578,
      "Sl": 9579,
      "Some": 9580,
      "amientos": 9581,
      "ĠMap": 9582,
      "ucion": 9583,
      "Ġinterest": 9584,
      "048": 9585,
      "Ġplaceholder": 9586,
      "TR": 9587,
      "rb": 9588,
      "tok": 9589,
      "ĠHol": 9590,
      "ĠJava": 9591,
      "ella": 9592,
      "PyTorch": 9593,
      "Ġcompany": 9594,
[...]
