{
  "version": "1.0",
  "truncation": null,
  "padding": null,
  "added_tokens": [
    {
      "id": 0,
      "content": "<pad>",
      "single_word": false,
      "lstrip": false,
      "rstrip": false,
      "normalized": false,
      "special": true
    },
    {
      "id": 1,
      "content": "<unk>",
      "single_word": false,
      "lstrip": false,
      "rstrip": false,
      "normalized": false,
      "special": true
    },
    {
      "id": 2,
      "content": "<bos>",
      "single_word": false,
      "lstrip": false,
      "rstrip": false,
      "normalized": false,
      "special": true
    },
    {
      "id": 3,
      "content": "<eos>",
      "single_word": false,
      "lstrip": false,
      "rstrip": false,
      "normalized": false,
      "special": true
    },
    {
      "id": 4,
      "content": "<sep>",
      "single_word": false,
      "lstrip": false,
      "rstrip": false,
      "normalized": false,
      "special": true
    },
    {
      "id": 5,
      "content": "<code>",
      "single_word": false,
      "lstrip": false,
      "rstrip": false,
      "normalized": false,
      "special": true
    }
  ],
  "normalizer": {
    "type": "NFKC"
  },
  "pre_tokenizer": {
    "type": "ByteLevel",
    "add_prefix_space": true,
    "trim_offsets": true,
    "use_regex": true
  },
  "post_processor": null,
  "decoder": {
    "type": "ByteLevel",
    "add_prefix_space": true,
    "trim_offsets": true,
    "use_regex": true
  },
  "model": {
    "type": "BPE",
    "dropout": null,
    "unk_token": "<unk>",
    "continuing_subword_prefix": null,
    "end_of_word_suffix": null,
    "fuse_unk": false,
    "byte_fallback": false,
    "ignore_merges": false,
    "vocab": {
      "<pad>": 0,
      "<unk>": 1,
      "<bos>": 2,
      "<eos>": 3,
      "<sep>": 4,
      "<code>": 5,
      "!": 6,
      "\"": 7,
      "#": 8,
      "$": 9,
      "%": 10,
      "&": 11,
      "'": 12,
      "(": 13,
      ")": 14,
      "*": 15,
      "+": 16,
      ",": 17,
      "-": 18,
      ".": 19,
      "/": 20,
      "0": 21,
      "1": 22,
      "2": 23,
      "3": 24,
      "4": 25,
      "5": 26,
      "6": 27,
      "7": 28,
      "8": 29,
      "9": 30,
      ":": 31,
      ";": 32,
      "<": 33,
      "=": 34,
      ">": 35,
      "?": 36,
      "@": 37,
      "A": 38,
      "B": 39,
      "C": 40,
      "D": 41,
      "E": 42,
      "F": 43,
      "G": 44,
      "H": 45,
      "I": 46,
      "J": 47,
      "K": 48,
      "L": 49,
      "M": 50,
      "N": 51,
      "O": 52,
      "P": 53,
      "Q": 54,
      "R": 55,
      "S": 56,
      "T": 57,
      "U": 58,
      "V": 59,
      "W": 60,
      "X": 61,
      "Y": 62,
      "Z": 63,
      "[": 64,
      "\\": 65,
      "]": 66,
      "^": 67,
      "_": 68,
      "`": 69,
      "a": 70,
      "b": 71,
      "c": 72,
      "d": 73,
      "e": 74,
      "f": 75,
      "g": 76,
      "h": 77,
      "i": 78,
      "j": 79,
      "k": 80,
      "l": 81,
      "m": 82,
      "n": 83,
      "o": 84,
      "p": 85,
      "q": 86,
      "r": 87,
      "s": 88,
      "t": 89,
      "u": 90,
      "v": 91,
      "w": 92,
      "x": 93,
      "y": 94,
      "z": 95,
      "{": 96,
      "|": 97,
      "}": 98,
      "~": 99,
      "¡": 100,
      "¢": 101,
      "£": 102,
      "¤": 103,
      "¥": 104,
      "¦": 105,
      "§": 106,
      "¨": 107,
      "©": 108,
      "ª": 109,
      "«": 110,
      "¬": 111,
      "®": 112,
      "¯": 113,
      "°": 114,
      "±": 115,
      "²": 116,
      "³": 117,
      "´": 118,
      "µ": 119,
      "¶": 120,
      "·": 121,
      "¸": 122,
      "¹": 123,
      "º": 124,
      "»": 125,
      "¼": 126,
      "½": 127,
      "¾": 128,
      "¿": 129,
      "Â": 130,
      "Ã": 131,
      "Ä": 132,
      "Å": 133,
      "Æ": 134,
      "Ç": 135,
      "È": 136,
      "É": 137,
      "Ê": 138,
      "Ë": 139,
      "Ì": 140,
      "Í": 141,
      "Î": 142,
      "Ï": 143,
      "Ð": 144,
      "Ñ": 145,
      "Ò": 146,
      "Ó": 147,
      "Ô": 148,
      "Õ": 149,
      "Ö": 150,
      "×": 151,
      "Ø": 152,
      "Ù": 153,
      "Ú": 154,
      "Û": 155,
      "Ü": 156,
      "à": 157,
      "á": 158,
      "â": 159,
      "ã": 160,
      "ä": 161,
      "å": 162,
      "æ": 163,
      "ç": 164,
      "è": 165,
      "é": 166,
      "ê": 167,
      "ë": 168,
      "ì": 169,
      "í": 170,
      "ï": 171,
      "ð": 172,
      "ĉ": 173,
      "Ċ": 174,
      "Ġ": 175,
      "Ģ": 176,
      "ģ": 177,
      "Ĥ": 178,
      "ĥ": 179,
      "Ħ": 180,
      "ħ": 181,
      "Ĩ": 182,
      "ĩ": 183,
      "Ī": 184,
      "ī": 185,
      "Ĭ": 186,
      "ĭ": 187,
      "Į": 188,
      "į": 189,
      "İ": 190,
      "ı": 191,
      "Ĳ": 192,
      "ĳ": 193,
      "Ĵ": 194,
      "ĵ": 195,
      "Ķ": 196,
      "ķ": 197,
      "ĸ": 198,
      "Ĺ": 199,
      "ĺ": 200,
      "Ļ": 201,
      "ļ": 202,
      "Ľ": 203,
      "ľ": 204,
      "Ŀ": 205,
      "ŀ": 206,
      "Ł": 207,
      "ł": 208,
      "Ń": 209,
      "ĠĠ": 210,
      "ĠĠĠĠ": 211,
      "er": 212,
      "en": 213,
      "Ġt": 214,
      "Ġa": 215,
      "es": 216,
      "in": 217,
      "Ġd": 218,
      "on": 219,
      "Ġs": 220,
      "Ġc": 221,
      "or": 222,
      "Ġl": 223,
      "Ġp": 224,
      "ar": 225,
      "Ġde": 226,
      "he": 227,
      "an": 228,
      "at": 229,
      "re": 230,
      "as": 231,
      "os": 232,
      "is": 233,
      "ĠĠĠ": 234,
      "al": 235,
      "Ġm": 236,
      "el": 237,
      "it": 238,
      "Ġf": 239,
      "Ġthe": 240,
      "ĠĠĠĠĠĠĠĠ": 241,
      "ed": 242,
      "Ġo": 243,
      "ad": 244,
      "ic": 245,
      "ent": 246,
      "un": 247,
      "Ġw": 248,
      "Ġh": 249,
      "om": 250,
      "Ġb": 251,
      "ĠĊ": 252,
      "Ġn": 253,
      "ci": 254,
      "le": 255,
      "qu": 256,
      "Ġin": 257,
      "ro": 258,
      "et": 259,
      "ur": 260,
      "ing": 261,
      "id": 262,
      "Ġla": 263,
      "Ã³": 264,
      "ion": 265,
      "Ġan": 266,
      "am": 267,
      "Ġy": 268,
      "st": 269,
      "ut": 270,
      "ct": 271,
      "Ġen": 272,
      "il": 273,
      "ĠĠĠĠĠĠĠ": 274,
      "Ġto": 275,
      "im": 276,
      "Ġ=": 277,
      "Ġof": 278,
      "Ġre": 279,
      "Ġcon": 280,
      "Ġe": 281,
      "Ġel": 282,
      "est": 283,
      "ol": 284,
      "Ġqu": 285,
      "us": 286,
      "ul": 287,
      "Ġth": 288,
      "Ġv": 289,
      "Ġg": 290,
      "Ġand": 291,
      "ig": 292,
      "ÃŃ": 293,
      "ra": 294,
      "Ġun": 295,
      "ot": 296,
      "ch": 297,
      "od": 298,
      "ĠA": 299,
      "Ġque": 300,
      "ĠT": 301,
      "ĠS": 302,
      "Ġ\"": 303,
      "Ã¡": 304,
      "Ã³n": 305,
      "em": 306,
      "ĠI": 307,
      "ĠC": 308,
      "Ġ(": 309,
      "ab": 310,
      "pe": 311,
      "if": 312,
      "ĠE": 313,
      "iv": 314,
      "ce": 315,
      "Ġse": 316,
      "//": 317,
      "Ġ{": 318,
      "res": 319,
      "Ã©": 320,
      "--": 321,
      "ist": 322,
      "ir": 323,
      "lo": 324,
      "ag": 325,
      "ĠĠĠĠĠĠĠĠĠĠĠ": 326,
      "ter": 327,
      "Ġĉ": 328,
      "ĠP": 329,
      "Ġal": 330,
      "te": 331,
      "Ġcom": 332,
      "aci": 333,
      "ĠM": 334,
      "Ġ1": 335,
      "ĠL": 336,
      "Ġsu": 337,
      "and": 338,
      "tr": 339,
      "Ġfor": 340,
      "Ġlos": 341,
      "se": 342,
      "ith": 343,
      "ue": 344,
      "Ġpar": 345,
      "ac": 346,
      "de": 347,
      "um": 348,
      "Ġ}": 349,
      "Ġ*": 350,
      "ay": 351,
      "Ġbe": 352,
      "âĢ": 353,
      "Ġis": 354,
      "ht": 355,
      "to": 356,
      "Ġwh": 357,
      "ers": 358,
      "ate": 359,
      "iz": 360,
      "Ġdel": 361,
      "pt": 362,
      "pl": 363,
      "Ġas": 364,
      "Ġpro": 365,
      "Ġex": 366,
      "Ġes": 367,
      "ĠB": 368,
      "end": 369,
      "ĠD": 370,
      "Ġr": 371,
      "Ġhe": 372,
      "00": 373,
      "ation": 374,
      "Ġest": 375,
      "Ġon": 376,
      "ap": 377,
      "()": 378,
      "ou": 379,
      "ort": 380,
      "ly": 381,
      "ĠR": 382,
      "io": 383,
      "Ġ-": 384,
      "av": 385,
      "ĠN": 386,
      "Ġ[": 387,
      "ver": 388,
      "Ġlas": 389,
      "ow": 390,
      "ere": 391,
      "ri": 392,
      "ĠH": 393,
      "Ġthat": 394,
      "urn": 395,
      "up": 396,
      "ub": 397,
      "ta": 398,
      "ado": 399,
      "ect": 400,
      "Ġit": 401,
      "Ã¤": 402,
      "ype": 403,
      "ente": 404,
      "ĠF": 405,
      "oc": 406,
      "ame": 407,
      "ke": 408,
      "Ġ//": 409,
      "aciÃ³n": 410,
      ");": 411,
      "ant": 412,
      "rom": 413,
      "th": 414,
      "Ġpor": 415,
      "Ġwith": 416,
      "elf": 417,
      "ec": 418,
      "ÃŃa": 419,
      "ess": 420,
      "Ġ2": 421,
      "::": 422,
      "Ġno": 423,
      "Ġĉĉ": 424,
      "Ġj": 425,
      "Ġso": 426,
      "ill": 427,
      "per": 428,
      "Ġwas": 429,
      "ĠG": 430,
      "ĠĠĠĠĠĠĠĠĠĠĠĠĠĠĠ": 431,
      "all": 432,
      "Ġ==": 433,
      "Ġnot": 434,
      "turn": 435,
      "Ġif": 436,
      "Ġst": 437,
      "ib": 438,
      "con": 439,
      "Ġ#": 440,
      "ia": 441,
      "ult": 442,
      "Ġor": 443,
      "Ġuna": 444,
      "Ġdes": 445,
      "ĠO": 446,
      "our": 447,
      "ud": 448,
      "Ġk": 449,
      "for": 450,
      "Ġim": 451,
      "ĠW": 452,
      "cl": 453,
      "\",": 454,
      "com": 455,
      "port": 456,
      "ient": 457,
      "Ġlo": 458,
      "und": 459,
      "Ġus": 460,
      "Ġtr": 461,
      "able": 462,
      "err": 463,
      "ew": 464,
      "Ġpr": 465,
      "ps": 466,
      "ĠĠĠĠĠ": 467,
      "ust": 468,
      "Ġ`": 469,
      "Ġat": 470,
      "----": 471,
      "ug": 472,
      "Ã±": 473,
      "Ġle": 474,
      "ier": 475,
      "ode": 476,
      "ica": 477,
      "ck": 478,
      "Ġpara": 479,
      "Ġhis": 480,
      "par": 481,
      "xt": 482,
      "..": 483,
      "Ġsa": 484,
      "ĠThe": 485,
      "int": 486,
      "Ġar": 487,
      "one": 488,
      "Ġ_": 489,
      "enci": 490,
      "ight": 491,
      "ens": 492,
      "Ãº": 493,
      "),": 494,
      "ang": 495,
      "Ġme": 496,
      "ard": 497,
      "Ġsh": 498,
      "po": 499,
      "ction": 500,
      "Ġ'": 501,
      "ath": 502,
      "Ġfrom": 503,
      "ass": 504,
      "ine": 505,
      "ada": 506,
      "Ġres": 507,
      "ones": 508,
      "Ġreturn": 509,
      "Ã¡s": 510,
      "oul": 511,
      "ave": 512,
      "ans": 513,
      "ma": 514,
      "idad": 515,
      "out": 516,
      "ich": 517,
      "op": 518,
      "ind": 519,
      "age": 520,
      "Ġper": 521,
      "Ġcomo": 522,
      "ould": 523,
      "ĠJ": 524,
      "arg": 525,
      "iÃ³n": 526,
      "ĠĠĠĠĠĠĠĠĠĠĠĠĠĠĠĠ": 527,
      "Ġthis": 528,
      "ĠU": 529,
      "ales": 530,
      "ase": 531,
      "Ġby": 532,
      "ĠV": 533,
      "Ġyou": 534,
      "Ġcl": 535,
      "ie": 536,
      "Ġ|": 537,
      "ĠEn": 538,
      "Ġ0": 539,
      "ack": 540,
      "ire": 541,
      "Ġch": 542,
      "ore": 543,
      "Ġcu": 544,
      "ment": 545,
      "Ġser": 546,
      "ff": 547,
      ").": 548,
      "str": 549,
      "ata": 550,
      "ure": 551,
      "Ġent": 552,
      "ell": 553,
      "://": 554,
      "ciÃ³n": 555,
      "](": 556,
      "ile": 557,
      "mo": 558,
      "ien": 559,
      "ast": 560,
      "ign": 561,
      "ip": 562,
      "ok": 563,
      "Ġhad": 564,
      "\":": 565,
      "og": 566,
      "htt": 567,
      "ost": 568,
      "ve": 569,
      "ĠâĢ": 570,
      "Ġad": 571,
      "Ġne": 572,
      "ial": 573,
      "Ġdef": 574,
      "ord": 575,
      "ados": 576,
      "uer": 577,
      "Ġ:": 578,
      "ĠTh": 579,
      "Ġcomp": 580,
      "Ġwe": 581,
      "ive": 582,
      "In": 583,
      "ĠIn": 584,
      "Ġself": 585,
      "ios": 586,
      "unt": 587,
      "Ġpl": 588,
      "ide": 589,
      "ace": 590,
      "Ġstr": 591,
      "âĢĻ": 592,
      "ser": 593,
      "Ġ&": 594,
      "ĉĉ": 595,
      "ĠEl": 596,
      "Ġob": 597,
      "ity": 598,
      "ĠAn": 599,
      "Ã¡n": 600,
      "ando": 601,
      "Ġac": 602,
      "ener": 603,
      "ido": 604,
      "art": 605,
      "ies": 606,
      "bre": 607,
      "ime": 608,
      "ption": 609,
      "Ġman": 610,
      "Ġcont": 611,
      "self": 612,
      "ize": 613,
      "co": 614,
      "ico": 615,
      "Ġpre": 616,
      "ll": 617,
      "Ġ===": 618,
      "der": 619,
      "ain": 620,
      "ong": 621,
      "Ġab": 622,
      "ice": 623,
      "Ġher": 624,
      "Ġfun": 625,
      "que": 626,
      "ak": 627,
      "Ġdis": 628,
      "https": 629,
      "Ġhave": 630,
      "ĠmÃ¡s": 631,
      "pres": 632,
      "ĠÂ": 633,
      "ob": 634,
      "Ġwhich": 635,
      "form": 636,
      "Ġall": 637,
      "Ġap": 638,
      "Ġconst": 639,
      "act": 640,
      "alue": 641,
      "du": 642,
      "Ġ<": 643,
      "**": 644,
      "Type": 645,
      "ex": 646,
      "Ġare": 647,
      "ran": 648,
      "ĠLa": 649,
      "Ġup": 650,
      "Con": 651,
      "Ġdo": 652,
      "Ġhim": 653,
      "put": 654,
      "Ġ3": 655,
      "fer": 656,
      "Ġem": 657,
      "Ġmy": 658,
      "Ġbut": 659,
      "pon": 660,
      "rit": 661,
      "01": 662,
      "aj": 663,
      "Ġinter": 664,
      "ante": 665,
      "Ġerr": 666,
      "Ġmu": 667,
      "ose": 668,
      "ject": 669,
      "atch": 670,
      "ero": 671,
      "ores": 672,
      "ple": 673,
      "ces": 674,
      "low": 675,
      "amb": 676,
      "))": 677,
      "encia": 678,
      "Ġro": 679,
      "era": 680,
      "Ġimport": 681,
      "che": 682,
      "pro": 683,
      "Ġag": 684,
      "get": 685,
      "):": 686,
      "ome": 687,
      "ĠRe": 688,
      "Ġpart": 689,
      "Ġpu": 690,
      "'s": 691,
      "Ġhas": 692,
      "Re": 693,
      "ual": 694,
      "Ġcan": 695,
      "yn": 696,
      "ber": 697,
      "fig": 698,
      "(\"": 699,
      "Ġmod": 700,
      "ĠĠĠĠĠĠĠĠĠĠĠĠĠĠĠĠĠĠĠ": 701,
      "ated": 702,
      "type": 703,
      "iel": 704,
      "rr": 705,
      "Ġam": 706,
      "Ã©n": 707,
      "ĠK": 708,
      "Ìĥ": 709,
      "ww": 710,
      "text": 711,
      "Ġint": 712,
      "Ġma": 713,
      "min": 714,
      "Ġbo": 715,
      "Ġ19": 716,
      "les": 717,
      "gr": 718,
      "Ġ///": 719,
      "ĠUn": 720,
      "Ġwill": 721,
      "ance": 722,
      "pect": 723,
      "',": 724,
      "sh": 725,
      "ĠâĢľ": 726,
      "St": 727,
      "Ġtra": 728,
      "go": 729,
      "do": 730,
      "dex": 731,
      "ĠĠĠĠĠĠĠĠĠ": 732,
      "ca": 733,
      "Ġco": 734,
      "Ġwere": 735,
      "amente": 736,
      "âĢĿ": 737,
      "Ġte": 738,
      "--------": 739,
      "ence": 740,
      "Ġmay": 741,
      "pos": 742,
      "ous": 743,
      "ne": 744,
      "cri": 745,
      "iento": 746,
      "Ġout": 747,
      "Ġlet": 748,
      "pr": 749,
      "key": 750,
      "Ã©s": 751,
      "Ġone": 752,
      "ks": 753,
      "ĠEst": 754,
      "ator": 755,
      "Ġver": 756,
      "Ġ)": 757,
      "Ġcre": 758,
      "aciones": 759,
      "Ġcol": 760,
      "name": 761,
      "Ġgr": 762,
      "uct": 763,
      "ĠY": 764,
      "Ġcons": 765,
      "._": 766,
      "==": 767,
      "Ġsus": 768,
      "Ġthey": 769,
      ".\"": 770,
      "iÃ³": 771,
      "Ġ4": 772,
      "Ġet": 773,
      "ty": 774,
      "def": 775,
      "ray": 776,
      "ix": 777,
      "Ġson": 778,
      "ary": 779,
      "Ġ/": 780,
      "Ġ.": 781,
      "ault": 782,
      "ement": 783,
      "Err": 784,
      "ij": 785,
      "ition": 786,
      "val": 787,
      "mente": 788,
      "ari": 789,
      "la": 790,
      "ER": 791,
      "eng": 792,
      "->": 793,
      "ict": 794,
      "Ġgo": 795,
      "ther": 796,
      "ild": 797,
      "Ġhab": 798,
      "ĠCon": 799,
      "lock": 800,
      "ific": 801,
      "tain": 802,
      "Ġ+": 803,
      "own": 804,
      "fo": 805,
      "ach": 806,
      "Ġpos": 807,
      "Ġpres": 808,
      "cess": 809,
      "man": 810,
      "ield": 811,
      "return": 812,
      "ld": 813,
      "ite": 814,
      "ithub": 815,
      "ull": 816,
      "Ġsi": 817,
      "Ġsin": 818,
      "pre": 819,
      "Â»": 820,
      "Ġĉĉĉ": 821,
      "ork": 822,
      "ise": 823,
      "ĠAr": 824,
      "ument": 825,
      "Ġtheir": 826,
      "github": 827,
      "ida": 828,
      "...": 829,
      "tern": 830,
      "ĠNone": 831,
      "vent": 832,
      "Ġ:=": 833,
      "ismo": 834,
      "ian": 835,
      "64": 836,
      "Ġget": 837,
      "ĠÂ«": 838,
      "Ġ!": 839,
      "Ġthem": 840,
      "pa": 841,
      "Ġra": 842,
      "Ġshe": 843,
      "her": 844,
      "ura": 845,
      "Error": 846,
      "Ġwhen": 847,
      "col": 848,
      "Ã¤n": 849,
      "ied": 850,
      "Ġcar": 851,
      "set": 852,
      "plic": 853,
      "Ġact": 854,
      "adas": 855,
      "quest": 856,
      "ory": 857,
      "ĠHe": 858,
      "ef": 859,
      "icos": 860,
      "ge": 861,
      "ait": 862,
      "Ex": 863,
      "ĠSe": 864,
      "ros": 865,
      "Ġval": 866,
      "IN": 867,
      "ivo": 868,
      "Ġpued": 869,
      "ĠCh": 870,
      "Ġi": 871,
      "Ġ5": 872,
      "Ġentre": 873,
      "ert": 874,
      "ven": 875,
      "row": 876,
      "Ġtype": 877,
      "Ġsol": 878,
      "ree": 879,
      "Ġwho": 880,
      "Ġ=>": 881,
      "eth": 882,
      "02": 883,
      "cul": 884,
      "me": 885,
      "ĠÃ©": 886,
      "Ġha": 887,
      "ry": 888,
      "ON": 889,
      "ings": 890,
      "Ġrel": 891,
      "cre": 892,
      "Ġaut": 893,
      "cho": 894,
      "iÃ©n": 895,
      "tra": 896,
      "alse": 897,
      "cu": 898,
      "be": 899,
      "Ġfin": 900,
      "iem": 901,
      "icas": 902,
      "pu": 903,
      "peci": 904,
      "19": 905,
      "ĠÃ": 906,
      "Ġprim": 907,
      "aron": 908,
      "ep": 909,
      "Ġreg": 910,
      "ina": 911,
      "ft": 912,
      "Ġwould": 913,
      "oug": 914,
      "ĠWh": 915,
      "},": 916,
      "Ġdon": 917,
      "az": 918,
      "Ġgener": 919,
      "vo": 920,
      "ical": 921,
      "Ġmar": 922,
      "endo": 923,
      "ĠAl": 924,
      "Ġany": 925,
      "Ġz": 926,
      "Ġaf": 927,
      "so": 928,
      "Ġfue": 929,
      "ras": 930,
      "Ġmed": 931,
      "Ġthere": 932,
      "Ġyour": 933,
      "Ġform": 934,
      "],": 935,
      "Ġsobre": 936,
      "32": 937,
      "ista": 938,
      "Ġpo": 939,
      "cur": 940,
      "Ġuse": 941,
      "iones": 942,
      "\"\"": 943,
      "ish": 944,
      "ike": 945,
      "cal": 946,
      "ern": 947,
      "mit": 948,
      "ik": 949,
      "Ġca": 950,
      "ãģ": 951,
      "use": 952,
      "ĠIt": 953,
      "sion": 954,
      "ail": 955,
      "aba": 956,
      "Ġfe": 957,
      "Ġbeen": 958,
      "fl": 959,
      "ĠCom": 960,
      "Ġcor": 961,
      "bo": 962,
      "Ġkn": 963,
      "ock": 964,
      "we": 965,
      "ced": 966,
      "ink": 967,
      "Ġset": 968,
      "tes": 969,
      "orm": 970,
      "Ġpub": 971,
      "EN": 972,
      "ible": 973,
      "__": 974,
      "onal": 975,
      "Ġnew": 976,
      "are": 977,
      "ange": 978,
      "Ġbu": 979,
      "ash": 980,
      "Ġtrans": 981,
      "12": 982,
      "Ãºn": 983,
      "ors": 984,
      "ined": 985,
      "Ġmore": 986,
      "ations": 987,
      "vel": 988,
      "rap": 989,
      "\")": 990,
      "Name": 991,
      "ĠÃ¡": 992,
      "mod": 993,
      "mb": 994,
      "fore": 995,
      "ues": 996,
      "=\"": 997,
      "Ġsaid": 998,
      "den": 999,
      "pend": 1000,
      "Ġvo": 1001,
      "ador": 1002,
      "js": 1003,
      "Ġmen": 1004,
      "uc": 1005,
      "Ġtime": 1006,
      "ambiÃ©n": 1007,
      "ĠÐ": 1008,
      "Ġpers": 1009,
      "Ġtod": 1010,
      "ĠAnd": 1011,
      "lic": 1012,
      "ags": 1013,
      "ater": 1014,
      "za": 1015,
      "read": 1016,
      "clu": 1017,
      "();": 1018,
      "Ġind": 1019,
      "no": 1020,
      "Ġĉĉĉĉ": 1021,
      "ble": 1022,
      "ias": 1023,
      "Ġmo": 1024,
      "16": 1025,
      "Ġdist": 1026,
      "arn": 1027,
      "Ġelse": 1028,
      "Ġx": 1029,
      "ey": 1030,
      "Ġpol": 1031,
      "Ġshould": 1032,
      "Ġdif": 1033,
      "``": 1034,
      "hed": 1035,
      "ular": 1036,
      "Ġ>": 1037,
      "Ġ6": 1038,
      "Ġseg": 1039,
      "inci": 1040,
      "Ġ@": 1041,
      "Ġinto": 1042,
      "ST": 1043,
      "Ġ->": 1044,
      "ade": 1045,
      "ule": 1046,
      "entes": 1047,
      "util": 1048,
      "ars": 1049,
      "Ġtem": 1050,
      "Res": 1051,
      "bu": 1052,
      "ĠSt": 1053,
      "ĠaÃ±": 1054,
      "0000": 1055,
      "Ġop": 1056,
      "Ġ8": 1057,
      "Pro": 1058,
      "ÃŃt": 1059,
      "Ġ*/": 1060,
      "Ġ]": 1061,
      "ãĥ": 1062,
      "oci": 1063,
      "Ġpe": 1064,
      "Ġfunction": 1065,
      "('": 1066,
      "Ġcall": 1067,
      "ger": 1068,
      "ote": 1069,
      "vice": 1070,
      "Ġmin": 1071,
      "ions": 1072,
      "ario": 1073,
      "itt": 1074,
      "ĠThis": 1075,
      "Ġinst": 1076,
      "Ã©r": 1077,
      "Ġcr": 1078,
      "Ġ9": 1079,
      "Ġover": 1080,
      "Ġreal": 1081,
      "Ġhand": 1082,
      "ÃŃs": 1083,
      "AR": 1084,
      "py": 1085,
      "ely": 1086,
      "red": 1087,
      "yle": 1088,
      "Ġnum": 1089,
      "ource": 1090,
      "ress": 1091,
      "Ġ7": 1092,
      "ese": 1093,
      "jo": 1094,
      "Ġother": 1095,
      "irst": 1096,
      "ick": 1097,
      "Ġpag": 1098,
      "Ġsub": 1099,
      "Ġname": 1100,
      "Ġcas": 1101,
      "ĠQ": 1102,
      "Ġpa": 1103,
      "Ġprodu": 1104,
      "itu": 1105,
      "roup": 1106,
      "ates": 1107,
      "##": 1108,
      "Ġprop": 1109,
      "Ġresult": 1110,
      "10": 1111,
      "ask": 1112,
      "Ġlib": 1113,
      "Ġsig": 1114,
      "ider": 1115,
      ",\"": 1116,
      "ĠAs": 1117,
      "ptions": 1118,
      "ÃŃn": 1119,
      "test": 1120,
      "Ġtrue": 1121,
      "www": 1122,
      "Ġnil": 1123,
      "Ġonly": 1124,
      "tt": 1125,
      "ciones": 1126,
      "way": 1127,
      "gan": 1128,
      "ped": 1129,
      "idos": 1130,
      "vi": 1131,
      "ÃŃan": 1132,
      "Ġpod": 1133,
      "irect": 1134,
      "iss": 1135,
      "iciÃ³n": 1136,
      "bl": 1137,
      "ved": 1138,
      "Ġeste": 1139,
      "dis": 1140,
      "Ġthan": 1141,
      "Ġalg": 1142,
      "ute": 1143,
      "Ġadd": 1144,
      "path": 1145,
      "Ġtw": 1146,
      "Ġmuch": 1147,
      "Ġfl": 1148,
      "ui": 1149,
      "heck": 1150,
      "ward": 1151,
      "ano": 1152,
      "Ġfuer": 1153,
      "ĠLos": 1154,
      "ĠtambiÃ©n": 1155,
      "Ġgre": 1156,
      "iter": 1157,
      "Ġng": 1158,
      "fic": 1159,
      "play": 1160,
      "ĠIf": 1161,
      "atur": 1162,
      "Ġ\"\"\"": 1163,
      "Ġstring": 1164,
      "let": 1165,
      "'t": 1166,
      "ĠX": 1167,
      "ãĤ": 1168,
      "ĠDe": 1169,
      "Ġvalue": 1170,
      "ĠPar": 1171,
      "Ġfo": 1172,
      "ren": 1173,
      "wn": 1174,
      "OR": 1175,
      "Ġour": 1176,
      "18": 1177,
      "rent": 1178,
      "ten": 1179,
      "17": 1180,
      "Ð¾": 1181,
      "ĠEs": 1182,
      "15": 1183,
      "Ġmet": 1184,
      "ĠĠĠĠĠĠĠĠĠĠĠĠĠĠĠĠĠĠĠĠĠĠĠ": 1185,
      "old": 1186,
      "rol": 1187,
      "Ġthen": 1188,
      "pes": 1189,
      "Ġve": 1190,
      "uro": 1191,
      "Ġed": 1192,
      "Ġej": 1193,
      "Ðµ": 1194,
      "eros": 1195,
      "index": 1196,
      "ino": 1197,
      "Str": 1198,
      "ames": 1199,
      "ature": 1200,
      "size": 1201,
      "ric": 1202,
      "Ar": 1203,
      "lam": 1204,
      "Ġotr": 1205,
      "Ġmon": 1206,
      "ann": 1207,
      "En": 1208,
      "antes": 1209,
      "Ġni": 1210,
      "Ġpero": 1211,
      "Ġsome": 1212,
      "arch": 1213,
      "vers": 1214,
      "Ġ200": 1215,
      "Ġlle": 1216,
      "add": 1217,
      "ugh": 1218,
      "Ġfunc": 1219,
      "Ġcould": 1220,
      "Ð°": 1221,
      "Ġ201": 1222,
      "Ġ},": 1223,
      "Ġ--": 1224,
      "Ġcap": 1225,
      "ativ": 1226,
      "Ġdos": 1227,
      "Ġcur": 1228,
      "string": 1229,
      "tent": 1230,
      "Ġ%": 1231,
      "led": 1232,
      "ond": 1233,
      "va": 1234,
      "(),": 1235,
      "log": 1236,
      "ful": 1237,
      "âĢĶ": 1238,
      "Ġpas": 1239,
      "Ġ10": 1240,
      "ense": 1241,
      "Ġ!=": 1242,
      "Ġdur": 1243,
      "Ġ&&": 1244,
      "ery": 1245,
      "Ġfr": 1246,
      "Ġever": 1247,
      "ĠPro": 1248,
      "ES": 1249,
      "Ġmodel": 1250,
      "sert": 1251,
      "Ġprinci": 1252,
      "ys": 1253,
      "Ġclass": 1254,
      "Ġ18": 1255,
      "Ġwhat": 1256,
      "of": 1257,
      "Ġid": 1258,
      "ana": 1259,
      "arse": 1260,
      "cia": 1261,
      "Ġ12": 1262,
      "Un": 1263,
      "ake": 1264,
      "Ġsal": 1265,
      "ken": 1266,
      "br": 1267,
      "ync": 1268,
      "ethod": 1269,
      "Ġmust": 1270,
      "por": 1271,
      "Ġtan": 1272,
      "ader": 1273,
      "list": 1274,
      "istem": 1275,
      "ponse": 1276,
      "Ġits": 1277,
      "pression": 1278,
      "ts": 1279,
      "data": 1280,
      "Ġupon": 1281,
      "IT": 1282,
      "Com": 1283,
      "cept": 1284,
      "AT": 1285,
      "Ġles": 1286,
      "Ġtien": 1287,
      "Ġext": 1288,
      "ior": 1289,
      "ivers": 1290,
      "ID": 1291,
      "Ġpass": 1292,
      "13": 1293,
      "Ġdeb": 1294,
      "ender": 1295,
      "node": 1296,
      "Ġnow": 1297,
      "umn": 1298,
      "Ġinform": 1299,
      "Ġcam": 1300,
      "by": 1301,
      "Id": 1302,
      "Ġerror": 1303,
      "Ġend": 1304,
      "its": 1305,
      "los": 1306,
      "almente": 1307,
      "Ġav": 1308,
      "ache": 1309,
      "ext": 1310,
      "Ġter": 1311,
      "ins": 1312,
      "li": 1313,
      "back": 1314,
      "Ch": 1315,
      "Ġesta": 1316,
      "ength": 1317,
      "Ġsur": 1318,
      "Ġ\\": 1319,
      "AN": 1320,
      "ito": 1321,
      "da": 1322,
      "Ġgu": 1323,
      "Ã¡t": 1324,
      "Ġsim": 1325,
      "Ġpuede": 1326,
      "Ġbl": 1327,
      "mon": 1328,
      "Ġsoci": 1329,
      "ams": 1330,
      "Ġunder": 1331,
      "essage": 1332,
      "args": 1333,
      "ms": 1334,
      "ux": 1335,
      "iles": 1336,
      "eces": 1337,
      "Ġlong": 1338,
      "Ġback": 1339,
      "Ġâ": 1340,
      "atic": 1341,
      "Ã¨": 1342,
      "Ã©t": 1343,
      "Ġdata": 1344,
      "value": 1345,
      "14": 1346,
      "Ġ{\\": 1347,
      "style": 1348,
      "ph": 1349,
      "gl": 1350,
      "oth": 1351,
      "trib": 1352,
      "Ġprincip": 1353,
      "config": 1354,
      "Ġfalse": 1355,
      "Ġlike": 1356,
      "Ġsup": 1357,
      "Ġbefore": 1358,
      "des": 1359,
      "56": 1360,
      "ton": 1361,
      "quire": 1362,
      "ner": 1363,
      "AL": 1364,
      "Ġmat": 1365,
      "Ġcase": 1366,
      "Ġnue": 1367,
      "fe": 1368,
      "lar": 1369,
      "Ġart": 1370,
      "mbol": 1371,
      "aut": 1372,
      "Ġoc": 1373,
      "Ġsee": 1374,
      "().": 1375,
      "amiento": 1376,
      "ĠNo": 1377,
      "Node": 1378,
      "Ġmis": 1379,
      "ĠWe": 1380,
      "Ġperson": 1381,
      "(&": 1382,
      "Ġarg": 1383,
      "Ġdat": 1384,
      "Ġagain": 1385,
      "arget": 1386,
      "eg": 1387,
      "Ġlist": 1388,
      "----------------": 1389,
      "ax": 1390,
      "Ġwhere": 1391,
      "ento": 1392,
      "amet": 1393,
      "Ġabout": 1394,
      "count": 1395,
      "org": 1396,
      "50": 1397,
      "Ġrec": 1398,
      "ious": 1399,
      "Ġu": 1400,
      "struct": 1401,
      "Ġdid": 1402,
      "Ġfirst": 1403,
      "ĠBut": 1404,
      "mos": 1405,
      "Ġsistem": 1406,
      "med": 1407,
      "ark": 1408,
      "Ġknow": 1409,
      "Ġinv": 1410,
      "paÃ±": 1411,
      "Par": 1412,
      "ora": 1413,
      "arios": 1414,
      "ĠTr": 1415,
      "ough": 1416,
      "Ġvery": 1417,
      "Ġhum": 1418,
      "Ġten": 1419,
      "elect": 1420,
      "Ð¸": 1421,
      "ama": 1422,
      "part": 1423,
      "Ġprov": 1424,
      "Ġsp": 1425,
      "mand": 1426,
      "uest": 1427,
      "mas": 1428,
      "Cl": 1429,
      "olog": 1430,
      "inter": 1431,
      "Ġci": 1432,
      "ather": 1433,
      "Ġkey": 1434,
      "ĠEx": 1435,
      "Ġparte": 1436,
      "000": 1437,
      "cciÃ³n": 1438,
      "Ġread": 1439,
      "not": 1440,
      "Ġ```": 1441,
      "Ġexist": 1442,
      "ymbol": 1443,
      "Ġutil": 1444,
      "ÃŃas": 1445,
      "RE": 1446,
      "eta": 1447,
      "cript": 1448,
      "Ġtwo": 1449,
      "ont": 1450,
      "lob": 1451,
      "99": 1452,
      "unto": 1453,
      "ÑĤ": 1454,
      "ĠÃł": 1455,
      "Ġafter": 1456,
      "itor": 1457,
      "Ġsuper": 1458,
      "ung": 1459,
      "dd": 1460,
      "plo": 1461,
      "Ġcual": 1462,
      "idades": 1463,
      "Ġvari": 1464,
      "map": 1465,
      "atus": 1466,
      "Key": 1467,
      "const": 1468,
      "Ġtest": 1469,
      "_,": 1470,
      "isiÃ³n": 1471,
      "other": 1472,
      "mer": 1473,
      "An": 1474,
      "****": 1475,
      "Ġfn": 1476,
      "argo": 1477,
      "ĠMr": 1478,
      "Ġdest": 1479,
      "Ġdefault": 1480,
      "LE": 1481,
      "Ġloc": 1482,
      "Ġcontin": 1483,
      "ife": 1484,
      "dad": 1485,
      "Ġ**": 1486,
      "uel": 1487,
      "}}": 1488,
      "ah": 1489,
      "igh": 1490,
      "====": 1491,
      "78": 1492,
      "adores": 1493,
      "Ġday": 1494,
      "ieron": 1495,
      "Tr": 1496,
      "Ã³m": 1497,
      "gen": 1498,
      "tro": 1499,
      "new": 1500,
      "undo": 1501,
      "cid": 1502,
      "Ġvi": 1503,
      "Ġmake": 1504,
      "Ob": 1505,
      "yst": 1506,
      "Ġesc": 1507,
      "Ġequ": 1508,
      "rite": 1509,
      "display": 1510,
      "orn": 1511,
      "els": 1512,
      "load": 1513,
      "Ġmayor": 1514,
      "Ġmg": 1515,
      "date": 1516,
      "Ġrest": 1517,
      "ĠĠĠĠĠĠĠĠĠĠĠĠĠĠĠĠĠĠĠĠĠĠĠĠĠĠĠĠĠĠĠĠ": 1518,
      "ables": 1519,
      "Ġtu": 1520,
      "reg": 1521,
      "Ġemb": 1522,
      "Ġhasta": 1523,
      "Ġhist": 1524,
      "udad": 1525,
      "ĠâĢĶ": 1526,
      "To": 1527,
      "AS": 1528,
      "Ġcent": 1529,
      "len": 1530,
      "Ġya": 1531,
      "ajo": 1532,
      "Ġoper": 1533,
      "Ġgreat": 1534,
      "aw": 1535,
      "Ġcal": 1536,
      "String": 1537,
      "sp": 1538,
      "ole": 1539,
      "ittle": 1540,
      "Ġjust": 1541,
      "Ġlook": 1542,
      "Ġpresent": 1543,
      "Context": 1544,
      "Ġref": 1545,
      "acional": 1546,
      "line": 1547,
      "37": 1548,
      "oria": 1549,
      "Ġbr": 1550,
      "ats": 1551,
      "Ġbet": 1552,
      "idas": 1553,
      "ape": 1554,
      "pen": 1555,
      "oy": 1556,
      "Ġfile": 1557,
      "Ġthese": 1558,
      "cion": 1559,
      "ref": 1560,
      "Ġty": 1561,
      "Ġdesar": 1562,
      "Ġmer": 1563,
      "ĠaÃ±os": 1564,
      "Ġlog": 1565,
      "Dec": 1566,
      "Ġbool": 1567,
      "ush": 1568,
      "Ġwork": 1569,
      "Ġyo": 1570,
      "lect": 1571,
      "ĠLe": 1572,
      "present": 1573,
      "Ġdesde": 1574,
      "Kind": 1575,
      "tem": 1576,
      "ĠFor": 1577,
      "ream": 1578,
      "ages": 1579,
      "Ġalgun": 1580,
      "can": 1581,
      "Ġbien": 1582,
      "Ġera": 1583,
      "Ġdown": 1584,
      "abil": 1585,
      "ody": 1586,
      "Ġhow": 1587,
      "clude": 1588,
      "vol": 1589,
      "cy": 1590,
      "Ġpublic": 1591,
      "Ġtodo": 1592,
      "loat": 1593,
      "Ġused": 1594,
      "sw": 1595,
      "ffer": 1596,
      "Ġmem": 1597,
      "Ġexpect": 1598,
      "inal": 1599,
      "Ġgood": 1600,
      "Ġsl": 1601,
      "sa": 1602,
      "Ġmade": 1603,
      "izaciÃ³n": 1604,
      "Ġconfig": 1605,
      "state": 1606,
      "ĠĠĠĠĠĠĠĠĠĠĠĠĠ": 1607,
      "Ġoff": 1608,
      "rop": 1609,
      "ĠestÃ¡": 1610,
      "Fl": 1611,
      "39": 1612,
      "Ser": 1613,
      "Ġcuando": 1614,
      "59": 1615,
      "defined": 1616,
      "Ġvol": 1617,
      "ized": 1618,
      "Ġvers": 1619,
      "Ġ...": 1620,
      ".âĢĿ": 1621,
      "ness": 1622,
      "Ġ[]": 1623,
      "Ġsuch": 1624,
      "Ġlittle": 1625,
      "Ġconsider": 1626,
      "Ġsent": 1627,
      "ena": 1628,
      "sign": 1629,
      "tim": 1630,
      "Ð½": 1631,
      "encias": 1632,
      "ĠArch": 1633,
      "jet": 1634,
      ">>": 1635,
      "imit": 1636,
      "ched": 1637,
      "57": 1638,
      "ution": 1639,
      "')": 1640,
      "iendo": 1641,
      "Ġsay": 1642,
      "Ġgra": 1643,
      "loc": 1644,
      "Ġold": 1645,
      "Mod": 1646,
      "ube": 1647,
      "Ġserv": 1648,
      "20": 1649,
      "Config": 1650,
      "11": 1651,
      "Value": 1652,
      "over": 1653,
      "Ġdirect": 1654,
      "code": 1655,
      "istas": 1656,
      "Ġvis": 1657,
      "ua": 1658,
      "ples": 1659,
      "Ġja": 1660,
      "aban": 1661,
      "Ġsign": 1662,
      "rough": 1663,
      "Ġsc": 1664,
      "Ġye": 1665,
      "Ġtiem": 1666,
      "Ġbre": 1667,
      "Ġmi": 1668,
      "var": 1669,
      "ÃŃcul": 1670,
      "</": 1671,
      "Ġfol": 1672,
      "Ġcheck": 1673,
      "ele": 1674,
      "ale": 1675,
      "())": 1676,
      "Data": 1677,
      "fun": 1678,
      "ÑĢ": 1679,
      "ystem": 1680,
      "nect": 1681,
      "ĠLas": 1682,
      "displaystyle": 1683,
      "Ġhere": 1684,
      "Th": 1685,
      "ĠhÃ¤n": 1686,
      "Ġevery": 1687,
      "34": 1688,
      "Ġciudad": 1689,
      "Ġ__": 1690,
      "opy": 1691,
      "ĠTo": 1692,
      "Ġwor": 1693,
      "Ġcer": 1694,
      "Ġconf": 1695,
      "round": 1696,
      "ply": 1697,
      "ler": 1698,
      "rib": 1699,
      "ato": 1700,
      "Ã±o": 1701,
      "iva": 1702,
      "amos": 1703,
      "Ġespeci": 1704,
      "60": 1705,
      "Ġprom": 1706,
      "the": 1707,
      "num": 1708,
      "Ġpartic": 1709,
      "ml": 1710,
      "Ġbro": 1711,
      "ita": 1712,
      "Ġhan": 1713,
      "à®": 1714,
      "ĠÂ¿": 1715,
      "Ġown": 1716,
      "ĠDes": 1717,
      "Ġdonde": 1718,
      "cod": 1719,
      "sk": 1720,
      "omb": 1721,
      "Ġbas": 1722,
      "Ġwell": 1723,
      "ves": 1724,
      "ents": 1725,
      "Ġ/*": 1726,
      "Ġcab": 1727,
      "38": 1728,
      "lement": 1729,
      "model": 1730,
      "fect": 1731,
      "The": 1732,
      "Ġgrand": 1733,
      "Ġmost": 1734,
      "ample": 1735,
      "30": 1736,
      "Bu": 1737,
      "ipo": 1738,
      "IC": 1739,
      "work": 1740,
      "Ġsame": 1741,
      "Ã¶": 1742,
      "Ġneed": 1743,
      "cir": 1744,
      "LL": 1745,
      "ĠpaÃŃs": 1746,
      "Ġbel": 1747,
      "ared": 1748,
      "ĠPor": 1749,
      "imiento": 1750,
      "Ġden": 1751,
      "Ġway": 1752,
      "pty": 1753,
      "67": 1754,
      "Ġotros": 1755,
      "AP": 1756,
      "Ġtrab": 1757,
      "Ġorig": 1758,
      "Ġda": 1759,
      "file": 1760,
      "Ġgeneral": 1761,
      "ptional": 1762,
      "Request": 1763,
      "ka": 1764,
      "ideo": 1765,
      "fr": 1766,
      "opt": 1767,
      "Ġhac": 1768,
      "Ġforma": 1769,
      "69": 1770,
      "Ġlast": 1771,
      "Ġtodos": 1772,
      "Ġrepresent": 1773,
      "Ã³g": 1774,
      "Ġfield": 1775,
      "Ġrun": 1776,
      "Ġelement": 1777,
      "init": 1778,
      "Ġdu": 1779,
      "irt": 1780,
      "plement": 1781,
      "Ġllam": 1782,
      "27": 1783,
      "Ġ||": 1784,
      "Ġder": 1785,
      "Ġobject": 1786,
      "Ġgran": 1787,
      "yout": 1788,
      "Ġaqu": 1789,
      "Ġshall": 1790,
      "Ġspe": 1791,
      "54": 1792,
      "ĠFran": 1793,
      "default": 1794,
      "sl": 1795,
      "II": 1796,
      "As": 1797,
      "lection": 1798,
      "Ġmom": 1799,
      "ternal": 1800,
      "ĠPag": 1801,
      "itar": 1802,
      ")](": 1803,
      "action": 1804,
      "iven": 1805,
      "class": 1806,
      "point": 1807,
      "oh": 1808,
      "29": 1809,
      "])": 1810,
      "ĠasÃŃ": 1811,
      "acter": 1812,
      "cer": 1813,
      "ugar": 1814,
      "ought": 1815,
      "Ġpat": 1816,
      "Ġnumber": 1817,
      "SE": 1818,
      "valid": 1819,
      "Ġil": 1820,
      "Ġtiempo": 1821,
      "Ã§": 1822,
      "orch": 1823,
      "Ġnever": 1824,
      "].": 1825,
      "Ġeven": 1826,
      "Ġqui": 1827,
      "Object": 1828,
      "try": 1829,
      "Ġfound": 1830,
      "Ġcontra": 1831,
      "Ġspeci": 1832,
      "Ġstate": 1833,
      "Ġfil": 1834,
      "omin": 1835,
      "ices": 1836,
      "las": 1837,
      "File": 1838,
      "ĠYou": 1839,
      "ĠMar": 1840,
      "ating": 1841,
      "Ġfinal": 1842,
      "ĠhabÃŃa": 1843,
      "Ġthrough": 1844,
      "serv": 1845,
      "core": 1846,
      "puÃ©s": 1847,
      "Ġsom": 1848,
      "Ġmas": 1849,
      "ME": 1850,
      "ĠCol": 1851,
      "error": 1852,
      "Ġmight": 1853,
      "Ġpath": 1854,
      "Ġdi": 1855,
      "yes": 1856,
      "?\"": 1857,
      "Ġsize": 1858,
      "Ġtiene": 1859,
      "Ġmuy": 1860,
      "ily": 1861,
      "`,": 1862,
      "app": 1863,
      "ook": 1864,
      "anos": 1865,
      "roll": 1866,
      "68": 1867,
      "izer": 1868,
      "Ġsm": 1869,
      "ference": 1870,
      "Ġhead": 1871,
      "ocument": 1872,
      "ify": 1873,
      "Ġpal": 1874,
      "Ġutiliz": 1875,
      "RO": 1876,
      "ĠZ": 1877,
      "agn": 1878,
      "));": 1879,
      "No": 1880,
      "Ġexport": 1881,
      "Get": 1882,
      "Ġvez": 1883,
      "als": 1884,
      "enta": 1885,
      "ood": 1886,
      "Ġant": 1887,
      "ĠpolÃŃt": 1888,
      "uciÃ³n": 1889,
      "mut": 1890,
      "ative": 1891,
      "Ġdifer": 1892,
      "Ġnode": 1893,
      "md": 1894,
      "Al": 1895,
      "58": 1896,
      "Ġste": 1897,
      "pace": 1898,
      "Ġinput": 1899,
      "Ġmil": 1900,
      "HE": 1901,
      "http": 1902,
      "perty": 1903,
      "Ġstruct": 1904,
      "Ã©c": 1905,
      "Ġchar": 1906,
      "Ãºl": 1907,
      "vert": 1908,
      "from": 1909,
      "erg": 1910,
      "unk": 1911,
      "Ġesp": 1912,
      "24": 1913,
      "aje": 1914,
      "Ġindex": 1915,
      "ret": 1916,
      "ĠPr": 1917,
      "acion": 1918,
      "Ġtal": 1919,
      "puest": 1920,
      "ĠPy": 1921,
      "Ġgl": 1922,
      "cle": 1923,
      "Ġneces": 1924,
      "Ġwithout": 1925,
      "ombre": 1926,
      "son": 1927,
      "af": 1928,
      "met": 1929,
      "Ġstart": 1930,
      "gram": 1931,
      "Ġsistema": 1932,
      "trans": 1933,
      "ateg": 1934,
      "Ġundefined": 1935,
      "Ġ#[": 1936,
      "Ġeach": 1937,
      "ÃŃst": 1938,
      "Path": 1939,
      "ics": 1940,
      "Ġrequest": 1941,
      "Set": 1942,
      "28": 1943,
      "Ã³r": 1944,
      "ines": 1945,
      "Ġvoid": 1946,
      "mt": 1947,
      "Ġcontext": 1948,
      "Ġlu": 1949,
      "iente": 1950,
      "Ġintern": 1951,
      "ower": 1952,
      "plate": 1953,
      "uth": 1954,
      "Ġ?": 1955,
      "ĠnÃº": 1956,
      "AC": 1957,
      "Ġdurante": 1958,
      "rc": 1959,
      "att": 1960,
      "Ġke": 1961,
      "Ġfa": 1962,
      "Ġconv": 1963,
      "max": 1964,
      "cha": 1965,
      "odo": 1966,
      "Ġcome": 1967,
      "til": 1968,
      "Ġrem": 1969,
      "ye": 1970,
      "Ġmismo": 1971,
      "Col": 1972,
      "ital": 1973,
      "Ġcada": 1974,
      "less": 1975,
      "ĠQu": 1976,
      "Ñģ": 1977,
      "Ġsto": 1978,
      "Flags": 1979,
      "Ġos": 1980,
      "Ġright": 1981,
      "ivos": 1982,
      "face": 1983,
      "Ġorgan": 1984,
      "unque": 1985,
      "Ġcos": 1986,
      "ouse": 1987,
      "Ġthose": 1988,
      "Ġide": 1989,
      "Ġwhile": 1990,
      "Ġmut": 1991,
      "Ġbeing": 1992,
      "tax": 1993,
      "Ġdec": 1994,
      "Ð¾Ð": 1995,
      "dic": 1996,
      "Ġpueden": 1997,
      "Ġlab": 1998,
      "ister": 1999,
      ".,": 2000,
      "PL": 2001,
      "Or": 2002,
      "ĠType": 2003,
      "ever": 2004,
      "ona": 2005,
      "utes": 2006,
      "ĠĠĠĠĠĠ": 2007,
      "Ġuno": 2008,
      "view": 2009,
      "Ġejem": 2010,
      "cr": 2011,
      "ensor": 2012,
      "ends": 2013,
      "chema": 2014,
      "Ġhay": 2015,
      "Ġ###": 2016,
      "wh": 2017,
      "ĠEuro": 2018,
      "At": 2019,
      "Ġlleg": 2020,
      "State": 2021,
      "iver": 2022,
      "ĠSh": 2023,
      "youtube": 2024,
      "this": 2025,
      "Ġfollow": 2026,
      "DE": 2027,
      "amp": 2028,
      "33": 2029,
      "ector": 2030,
      "Â».": 2031,
      "Ġassert": 2032,
      "stance": 2033,
      "ĠShe": 2034,
      "He": 2035,
      "Ġtanto": 2036,
      "Ġcontain": 2037,
      "ĠArchivo": 2038,
      "Ġestud": 2039,
      "ffect": 2040,
      "!(": 2041,
      "Ġmej": 2042,
      "rag": 2043,
      "08": 2044,
      "Ġlugar": 2045,
      "ĠAng": 2046,
      "Ġ$": 2047,
      "xim": 2048,
      "Ġhtt": 2049,
      "check": 2050,
      "Ġins": 2051,
      "Ã¡l": 2052,
      "ĠSer": 2053,
      "Info": 2054,
      "ished": 2055,
      "cel": 2056,
      "ons": 2057,
      "Ġcomun": 2058,
      "ĠAd": 2059,
      "Ġstd": 2060,
      "Ãºbl": 2061,
      "ba": 2062,
      "ning": 2063,
      "miento": 2064,
      "yntax": 2065,
      "Ġsw": 2066,
      "cond": 2067,
      "Ġchild": 2068,
      "Ġmatch": 2069,
      "ja": 2070,
      "uery": 2071,
      "Ġer": 2072,
      "Ġprimer": 2073,
      "Ġev": 2074,
      "ĠSan": 2075,
      "04": 2076,
      "Ġfam": 2077,
      "Ġproces": 2078,
      "ctx": 2079,
      "Ġexper": 2080,
      "bar": 2081,
      "With": 2082,
      "igo": 2083,
      "ING": 2084,
      "ccess": 2085,
      "ures": 2086,
      "Ġdesc": 2087,
      "vis": 2088,
      "Ġinclu": 2089,
      "iembre": 2090,
      "Ġmal": 2091,
      "ither": 2092,
      "Ġdecl": 2093,
      "ĠRepo": 2094,
      "eturn": 2095,
      "iment": 2096,
      "au": 2097,
      "Ġtoo": 2098,
      "ware": 2099,
      "Ġsolo": 2100,
      "77": 2101,
      "Ġ202": 2102,
      "Index": 2103,
      "ager": 2104,
      "ral": 2105,
      "Ġmult": 2106,
      "Ġfact": 2107,
      "ĠOn": 2108,
      "icense": 2109,
      "Ġpoint": 2110,
      "Ġresol": 2111,
      "Ġbar": 2112,
      "ĠAt": 2113,
      "Ġ})": 2114,
      "Ġtom": 2115,
      "raph": 2116,
      "ank": 2117,
      "field": 2118,
      "Ġmill": 2119,
      "Ġcame": 2120,
      "`.": 2121,
      "Ġdescri": 2122,
      "00000000": 2123,
      "Ġdiv": 2124,
      ",âĢĿ": 2125,
      "ĠThere": 2126,
      "Ġprof": 2127,
      "ets": 2128,
      "Ġalso": 2129,
      "ene": 2130,
      "ION": 2131,
      "Ġconoci": 2132,
      "rid": 2133,
      "ifier": 2134,
      "Ġcamb": 2135,
      "right": 2136,
      "Ġmethod": 2137,
      "Ġlife": 2138,
      "ĠCar": 2139,
      "Ġ====": 2140,
      "ract": 2141,
      "Ġword": 2142,
      "Ġcour": 2143,
      "De": 2144,
      "ting": 2145,
      "tÃ¤": 2146,
      "Ġobjet": 2147,
      "men": 2148,
      "Ġvan": 2149,
      "ustom": 2150,
      "doc": 2151,
      "Ġmany": 2152,
      "zo": 2153,
      "lobal": 2154,
      "Ġret": 2155,
      "ĠseÃ±": 2156,
      "array": 2157,
      "ologÃŃa": 2158,
      "cas": 2159,
      "None": 2160,
      "Ġreci": 2161,
      "Ġecon": 2162,
      "Ġhimself": 2163,
      "Ġtre": 2164,
      "Ġdeter": 2165,
      "Ġbase": 2166,
      "Ġsk": 2167,
      "ĠRes": 2168,
      "09": 2169,
      "aces": 2170,
      "ru": 2171,
      "thon": 2172,
      "json": 2173,
      "Ġproble": 2174,
      "clus": 2175,
      "Ġdoes": 2176,
      "info": 2177,
      "LO": 2178,
      "ĠWhen": 2179,
      "mp": 2180,
      "US": 2181,
      "Is": 2182,
      "wrap": 2183,
      "UT": 2184,
      "ters": 2185,
      "53": 2186,
      "Ġ/**": 2187,
      "Ġseem": 2188,
      "uego": 2189,
      "ientos": 2190,
      "watch": 2191,
      "Ġcreate": 2192,
      "Ã©l": 2193,
      "uerra": 2194,
      "ara": 2195,
      "block": 2196,
      "ried": 2197,
      "Ġinf": 2198,
      "gu": 2199,
      "eno": 2200,
      "([": 2201,
      "obier": 2202,
      "Ġthink": 2203,
      "ived": 2204,
      "input": 2205,
      "Ġnull": 2206,
      "param": 2207,
      "ĠSo": 2208,
      "49": 2209,
      "63": 2210,
      "ĠdespuÃ©s": 2211,
      "Ġdere": 2212,
      "Ġthought": 2213,
      "Ġtot": 2214,
      "cs": 2215,
      "yo": 2216,
      "quier": 2217,
      "any": 2218,
      "ople": 2219,
      "ization": 2220,
      "Ġmundo": 2221,
      "ove": 2222,
      "Ġdr": 2223,
      "start": 2224,
      "ĠĠĠĠĠĠĠĠĠĠĠĠĠĠĠĠĠĠĠĠĠĠĠĠĠĠĠ": 2225,
      "CT": 2226,
      "\">": 2227,
      "emos": 2228,
      "Ġpriv": 2229,
      "Ġred": 2230,
      "Ġnatur": 2231,
      "ĠnÃºm": 2232,
      "rollo": 2233,
      "ete": 2234,
      "mis": 2235,
      "48": 2236,
      "Ġusing": 2237,
      "ĠâĪ": 2238,
      "ĠlÃŃ": 2239,
      "Ġ,": 2240,
      "Ġcomple": 2241,
      "Ġtake": 2242,
      "time": 2243,
      "Ġfar": 2244,
      "\"),": 2245,
      "ancia": 2246,
      "item": 2247,
      "AD": 2248,
      "Ġplan": 2249,
      "ibil": 2250,
      "Ġprimera": 2251,
      "iar": 2252,
      "ĠNew": 2253,
      "anz": 2254,
      "Ġblock": 2255,
      "adata": 2256,
      "Ġlen": 2257,
      "Ã¼": 2258,
      "oken": 2259,
      "Ġdie": 2260,
      "Ġgiven": 2261,
      "ql": 2262,
      "Ġwant": 2263,
      "79": 2264,
      "ways": 2265,
      "Ġevent": 2266,
      "Ġleft": 2267,
      "ked": 2268,
      "Ġamb": 2269,
      "Ġ``": 2270,
      "Of": 2271,
      "ĠaÃ±o": 2272,
      "Ġejemplo": 2273,
      "Ġposs": 2274,
      "23": 2275,
      "cent": 2276,
      "Ġ};": 2277,
      "Sh": 2278,
      "Ġlarg": 2279,
      "izar": 2280,
      "Ġestado": 2281,
      "ĠSin": 2282,
      "Ġaplic": 2283,
      "Ġsupport": 2284,
      "pp": 2285,
      "ientes": 2286,
      "})": 2287,
      "\");": 2288,
      "On": 2289,
      "raw": 2290,
      "ught": 2291,
      "ĠÃ©l": 2292,
      "Ġsil": 2293,
      "Im": 2294,
      "Ġjo": 2295,
      "Ġactual": 2296,
      "By": 2297,
      "Ġestr": 2298,
      "ique": 2299,
      "head": 2300,
      "Ġcurrent": 2301,
      "Ġpap": 2302,
      "\"]": 2303,
      "aking": 2304,
      "Val": 2305,
      "sub": 2306,
      "with": 2307,
      ">,": 2308,
      "ĠThey": 2309,
      "Ġcontr": 2310,
      "Ġstill": 2311,
      "25": 2312,
      "abel": 2313,
      "Ġopen": 2314,
      "indow": 2315,
      "imes": 2316,
      "ension": 2317,
      "Ġ</": 2318,
      "Ġ>>>": 2319,
      "Ġfel": 2320,
      "ET": 2321,
      "ĠEstados": 2322,
      "ga": 2323,
      "Response": 2324,
      "Ġtres": 2325,
      "Ġass": 2326,
      "parent": 2327,
      "emÃ¡s": 2328,
      "Ġexpres": 2329,
      "ek": 2330,
      "Ġturn": 2331,
      "Ġhacer": 2332,
      "[\"": 2333,
      "61": 2334,
      "uration": 2335,
      "Ġcoun": 2336,
      "Ġprote": 2337,
      "chos": 2338,
      "Expression": 2339,
      "Ãºs": 2340,
      "urs": 2341,
      "ted": 2342,
      "Ġembargo": 2343,
      "ijo": 2344,
      "ng": 2345,
      "_{": 2346,
      "irm": 2347,
      "Ġmap": 2348,
      "Ġmov": 2349,
      "idth": 2350,
      "Ġaw": 2351,
      "Ãºltim": 2352,
      "aria": 2353,
      "Ġplace": 2354,
      "Ġgen": 2355,
      "For": 2356,
      "itch": 2357,
      "emb": 2358,
      "ameters": 2359,
      "Ġnor": 2360,
      "group": 2361,
      "ades": 2362,
      "ĠCl": 2363,
      "pond": 2364,
      "url": 2365,
      "ais": 2366,
      "Ġinfl": 2367,
      "cause": 2368,
      "Ġfri": 2369,
      "Array": 2370,
      "ĠestÃ¡n": 2371,
      "={": 2372,
      "ĠÃºltim": 2373,
      "amples": 2374,
      "ĠIs": 2375,
      "IS": 2376,
      "ĠSi": 2377,
      "icio": 2378,
      "ities": 2379,
      "Ġ(!": 2380,
      "ĠSu": 2381,
      "ount": 2382,
      "my": 2383,
      "orÃŃa": 2384,
      "ween": 2385,
      "ession": 2386,
      "ĠOr": 2387,
      "Ġlocal": 2388,
      "Ġarray": 2389,
      "tre": 2390,
      "ron": 2391,
      "Ġvida": 2392,
      "Ġhor": 2393,
      "../": 2394,
      ".--": 2395,
      "Options": 2396,
      "Ġconse": 2397,
      "yntaxKind": 2398,
      "dict": 2399,
      "Ġeyes": 2400,
      "Ġelect": 2401,
      "cos": 2402,
      "Ġfueron": 2403,
      "ĠBe": 2404,
      "Ġbecause": 2405,
      "div": 2406,
      "Ġfind": 2407,
      "Ġinde": 2408,
      "Ġbus": 2409,
      "db": 2410,
      "List": 2411,
      "Ġvar": 2412,
      "Ġir": 2413,
      ">(": 2414,
      "Ġug": 2415,
      "rist": 2416,
      "Ref": 2417,
      "land": 2418,
      "terior": 2419,
      "Ġyet": 2420,
      "Ġleg": 2421,
      "?:": 2422,
      "ament": 2423,
      "Map": 2424,
      "Ġtry": 2425,
      "Ġline": 2426,
      "Ġdetermin": 2427,
      "alf": 2428,
      "ĠÎ": 2429,
      "Ġhaci": 2430,
      "ilder": 2431,
      "200": 2432,
      "Ġporque": 2433,
      "Ġnos": 2434,
      "ason": 2435,
      "Query": 2436,
      "à¸": 2437,
      "Ġsido": 2438,
      "Ġtro": 2439,
      "Ġaway": 2440,
      "oot": 2441,
      "ling": 2442,
      "only": 2443,
      "Declar": 2444,
      "Ġtext": 2445,
      "UR": 2446,
      "je": 2447,
      "ques": 2448,
      "call": 2449,
      "Ġstatic": 2450,
      "wargs": 2451,
      "Ġ()": 2452,
      "quired": 2453,
      "201": 2454,
      "ĠIm": 2455,
      "sed": 2456,
      "Ġopt": 2457,
      "Ġfre": 2458,
      "une": 2459,
      "Ġsour": 2460,
      "untime": 2461,
      "\".": 2462,
      "Field": 2463,
      "ĠIS": 2464,
      "Ġthou": 2465,
      "gra": 2466,
      "OT": 2467,
      "length": 2468,
      "Ġcode": 2469,
      "fil": 2470,
      "Ġextra": 2471,
      "ĠThat": 2472,
      "Ġsea": 2473,
      "Ġsat": 2474,
      "anci": 2475,
      "ira": 2476,
      "Ġ16": 2477,
      "rÃŃa": 2478,
      "':": 2479,
      "api": 2480,
      "Ġrespect": 2481,
      "Ġmater": 2482,
      "obierno": 2483,
      "Ġsem": 2484,
      "ED": 2485,
      "gin": 2486,
      "include": 2487,
      "Ġpop": 2488,
      "pare": 2489,
      "OL": 2490,
      "ientras": 2491,
      "ound": 2492,
      "Wh": 2493,
      "ally": 2494,
      "atures": 2495,
      "Ġvalues": 2496,
      "Fun": 2497,
      "angu": 2498,
      "ota": 2499,
      "ĠSome": 2500,
      "Ġenc": 2501,
      "ÃŃo": 2502,
      "Ġexp": 2503,
      "Ġ199": 2504,
      "Ġgrup": 2505,
      "Ġport": 2506,
      "Ġwar": 2507,
      "Ġonce": 2508,
      "rem": 2509,
      "Add": 2510,
      "Ġallow": 2511,
      "Ġestos": 2512,
      "((": 2513,
      "Ġear": 2514,
      "ĠPl": 2515,
      "Ġotro": 2516,
      "context": 2517,
      "pec": 2518,
      "Ġlight": 2519,
      "ited": 2520,
      "Ġmejor": 2521,
      "Ġtras": 2522,
      "Ġsiglo": 2523,
      "comp": 2524,
      "ialize": 2525,
      "oman": 2526,
      "Ġge": 2527,
      "ctor": 2528,
      "ged": 2529,
      "content": 2530,
      "Ġsab": 2531,
      "Ġotras": 2532,
      "Ġhon": 2533,
      "stru": 2534,
      "ameter": 2535,
      "entro": 2536,
      "Ġcaus": 2537,
      "Ġpeople": 2538,
      "07": 2539,
      "oper": 2540,
      "Ġrange": 2541,
      "Ġesto": 2542,
      "Ġquien": 2543,
      "efault": 2544,
      "ima": 2545,
      "qual": 2546,
      "ments": 2547,
      "uple": 2548,
      "Ġorder": 2549,
      "word": 2550,
      "Ġcle": 2551,
      "Token": 2552,
      "Ã±a": 2553,
      "ott": 2554,
      "05": 2555,
      "Ã¡ct": 2556,
      "03": 2557,
      "ÃŃf": 2558,
      "Ġmes": 2559,
      "ume": 2560,
      "Ġcontinu": 2561,
      "result": 2562,
      "47": 2563,
      "Ġwrit": 2564,
      "Ġnext": 2565,
      "Ġhel": 2566,
      "Ġkind": 2567,
      "Ġfut": 2568,
      "Ġtrav": 2569,
      "cio": 2570,
      "Ġimplement": 2571,
      "Ġprev": 2572,
      "Ġimpl": 2573,
      "Ġcir": 2574,
      "Result": 2575,
      "Ġple": 2576,
      "Call": 2577,
      "Ġrece": 2578,
      "Ġimp": 2579,
      "odes": 2580,
      "New": 2581,
      "video": 2582,
      "atement": 2583,
      "ached": 2584,
      "Ġpermit": 2585,
      "hing": 2586,
      "Ġheart": 2587,
      "Ġput": 2588,
      "Ġprocess": 2589,
      "Ã¤Ã¤": 2590,
      "itos": 2591,
      "Ġsitu": 2592,
      "////": 2593,
      "Ġpel": 2594,
      "Ġcalled": 2595,
      "ides": 2596,
      "ĠnÃºmero": 2597,
      "dir": 2598,
      "source": 2599,
      "Ġactiv": 2600,
      "uted": 2601,
      "Ġcontrol": 2602,
      "igu": 2603,
      "Ġcomb": 2604,
      "Ġmedi": 2605,
      "Declaration": 2606,
      "Ġworld": 2607,
      "ered": 2608,
      "Ã³d": 2609,
      "Block": 2610,
      "Ġgroup": 2611,
      "ivel": 2612,
      "26": 2613,
      "jer": 2614,
      "cis": 2615,
      "gs": 2616,
      "Ġestable": 2617,
      "Ġbetween": 2618,
      "Â»,": 2619,
      "Ġdesarrollo": 2620,
      "Ġsing": 2621,
      "Ġagainst": 2622,
      "Ġterr": 2623,
      "Ġaunque": 2624,
      "define": 2625,
      "ici": 2626,
      "aving": 2627,
      "AM": 2628,
      "Ġoutput": 2629,
      "pub": 2630,
      "Ġsocial": 2631,
      "Ġdin": 2632,
      "Ġface": 2633,
      "off": 2634,
      "ĠJoh": 2635,
      "True": 2636,
      "Ġdem": 2637,
      "********": 2638,
      "';": 2639,
      "Ġargument": 2640,
      "Ġpoc": 2641,
      "89": 2642,
      "ares": 2643,
      "Ġtarget": 2644,
      "Ġmad": 2645,
      "na": 2646,
      "olean": 2647,
      "Element": 2648,
      "Ġvalid": 2649,
      "Ġ##": 2650,
      "uras": 2651,
      "types": 2652,
      "Ġĉĉĉĉĉĉ": 2653,
      "ĠStr": 2654,
      "Ġ17": 2655,
      "ĠSyntaxKind": 2656,
      "Ãª": 2657,
      "Ġnight": 2658,
      "Ġanother": 2659,
      "Ġefect": 2660,
      "expect": 2661,
      "Ġdatos": 2662,
      "ula": 2663,
      "!\"": 2664,
      "attr": 2665,
      "Ġph": 2666,
      "Ġnorm": 2667,
      "query": 2668,
      "Ġraise": 2669,
      "Ġang": 2670,
      "ĠinformaciÃ³n": 2671,
      "orth": 2672,
      "Ġdepend": 2673,
      "ĠWhat": 2674,
      "[]": 2675,
      "Ġva": 2676,
      "del": 2677,
      "tin": 2678,
      "ross": 2679,
      "Ġpour": 2680,
      "rs": 2681,
      "Ġwent": 2682,
      "({": 2683,
      "ĠPer": 2684,
      "user": 2685,
      "Ġexpl": 2686,
      "ENT": 2687,
      "âĶ": 2688,
      "illa": 2689,
      "Ġappe": 2690,
      "icios": 2691,
      "](#": 2692,
      "Ġboth": 2693,
      "ols": 2694,
      "paÃ±a": 2695,
      ":\"": 2696,
      "Ġfund": 2697,
      "net": 2698,
      "ants": 2699,
      "Ġalways": 2700,
      "Ġencu": 2701,
      "Ġparticular": 2702,
      "Ġproduct": 2703,
      "abled": 2704,
      "Ġlove": 2705,
      "sol": 2706,
      "paÃ±ol": 2707,
      "Ġpoder": 2708,
      "Ġnon": 2709,
      "Ty": 2710,
      "ä¸": 2711,
      "Ġalm": 2712,
      "car": 2713,
      "Ã±os": 2714,
      "Ġce": 2715,
      "Ġfran": 2716,
      "Ġcond": 2717,
      "Ġthy": 2718,
      "\\\"": 2719,
      "Ã³l": 2720,
      "?âĢĿ": 2721,
      "estig": 2722,
      "tx": 2723,
      "Ġbreak": 2724,
      "Ġbeh": 2725,
      "ĠBar": 2726,
      ")]": 2727,
      "Ġatt": 2728,
      "ember": 2729,
      "uda": 2730,
      "arning": 2731,
      "ĠBu": 2732,
      "Ġversion": 2733,
      "ptr": 2734,
      "ping": 2735,
      "elle": 2736,
      "ready": 2737,
      "Ġtipo": 2738,
      "pol": 2739,
      "lin": 2740,
      "uv": 2741,
      "Ġfav": 2742,
      "case": 2743,
      "create": 2744,
      "Ġese": 2745,
      "());": 2746,
      "ĠAll": 2747,
      "Ġmillones": 2748,
      "Ġmax": 2749,
      "Ġ});": 2750,
      "Ġdir": 2751,
      "Ġdocument": 2752,
      "ison": 2753,
      "Ã¡nd": 2754,
      "Ġale": 2755,
      "Ġsir": 2756,
      "Ġmot": 2757,
      "aa": 2758,
      "Ġcult": 2759,
      "Ġune": 2760,
      "ãĢ": 2761,
      "Ġnuest": 2762,
      "Ġarr": 2763,
      "Ġinit": 2764,
      "Ġyears": 2765,
      "base": 2766,
      "arÃŃa": 2767,
      "Ġsource": 2768,
      "atro": 2769,
      "itÃ¤": 2770,
      "itud": 2771,
      "ĠMad": 2772,
      "Ġrecon": 2773,
      "Source": 2774,
      "assert": 2775,
      "mar": 2776,
      "lex": 2777,
      "/)": 2778,
      "ident": 2779,
      "Ġthree": 2780,
      "Ġmanera": 2781,
      "ured": 2782,
      "Ð»": 2783,
      "Ġtri": 2784,
      "Ġgive": 2785,
      "Ġho": 2786,
      "Ġmenos": 2787,
      "thing": 2788,
      "curs": 2789,
      "PE": 2790,
      "sel": 2791,
      "hor": 2792,
      "Ġnivel": 2793,
      "Ġ{}": 2794,
      "Ġdict": 2795,
      "JS": 2796,
      "Ġneg": 2797,
      "Ġinte": 2798,
      "Ġident": 2799,
      "Ġinflu": 2800,
      "Ġdone": 2801,
      "ativa": 2802,
      "âĶĢ": 2803,
      "enciÃ³n": 2804,
      "ires": 2805,
      "Ġay": 2806,
      "Ġrelig": 2807,
      "Ġ14": 2808,
      "hash": 2809,
      "AB": 2810,
      "Time": 2811,
      "ava": 2812,
      "lay": 2813,
      "main": 2814,
      "Ġotra": 2815,
      "]:": 2816,
      "Ġtrad": 2817,
      "Ġantes": 2818,
      "Ġhouse": 2819,
      "Ġ(\"": 2820,
      "========": 2821,
      "cor": 2822,
      "Ġfall": 2823,
      "ille": 2824,
      "ours": 2825,
      "ĠGr": 2826,
      "flow": 2827,
      "ĠGener": 2828,
      "Ġredu": 2829,
      "Ġmant": 2830,
      "Ġnear": 2831,
      "bug": 2832,
      "ha": 2833,
      "Ġoli": 2834,
      "move": 2835,
      ":`": 2836,
      "Ġtable": 2837,
      "Ġdesarroll": 2838,
      "Ġku": 2839,
      "55": 2840,
      "Ġdefin": 2841,
      "ste": 2842,
      "Ġdecir": 2843,
      "Ġasync": 2844,
      "Ġtrat": 2845,
      "tos": 2846,
      "Ġrequ": 2847,
      "ĠThen": 2848,
      "ception": 2849,
      "Ġol": 2850,
      "ĠReturn": 2851,
      "yect": 2852,
      "bol": 2853,
      "Ġauto": 2854,
      "Ġyoung": 2855,
      "version": 2856,
      "21": 2857,
      "Ġlay": 2858,
      "arÃ¡": 2859,
      "instance": 2860,
      "Ġpes": 2861,
      "used": 2862,
      "down": 2863,
      "Ġbest": 2864,
      "Ġnothing": 2865,
      "cription": 2866,
      "Ġtotal": 2867,
      "ĠJohn": 2868,
      "order": 2869,
      "medi": 2870,
      "Ġmoment": 2871,
      "edad": 2872,
      "ĠEngl": 2873,
      "Ġbuild": 2874,
      "Ġtorch": 2875,
      "ĠErr": 2876,
      "itle": 2877,
      "itions": 2878,
      "umns": 2879,
      "Ġdou": 2880,
      "ady": 2881,
      "fg": 2882,
      "Ġhigh": 2883,
      "Ġdans": 2884,
      "Ġtodas": 2885,
      "Ġcolor": 2886,
      "html": 2887,
      "Ġtell": 2888,
      "Ġnombre": 2889,
      "Ġencon": 2890,
      "una": 2891,
      "Ø§": 2892,
      "icial": 2893,
      "pose": 2894,
      "si": 2895,
      "ĠHis": 2896,
      "Ġcant": 2897,
      "Ġstand": 2898,
      "van": 2899,
      "ĠGod": 2900,
      "UN": 2901,
      "utter": 2902,
      "SI": 2903,
      "Ġpersonas": 2904,
      "Ġlimit": 2905,
      "cep": 2906,
      "Ġig": 2907,
      "Ġmientras": 2908,
      "nown": 2909,
      "Ġalgunos": 2910,
      "Ġmag": 2911,
      "TER": 2912,
      "ULL": 2913,
      "ĠtravÃ©s": 2914,
      "Ġprob": 2915,
      "amespace": 2916,
      "Ġthough": 2917,
      "Ġenerg": 2918,
      "ĠMan": 2919,
      "ĠLicense": 2920,
      "From": 2921,
      "Se": 2922,
      "^{": 2923,
      "alla": 2924,
      "Hand": 2925,
      "scal": 2926,
      "ives": 2927,
      "iene": 2928,
      "Ġcommand": 2929,
      "Ġsino": 2930,
      "Ġ13": 2931,
      "request": 2932,
      "Ġnuev": 2933,
      "Ġpob": 2934,
      "Ġpur": 2935,
      "Ġuser": 2936,
      "Ġguerra": 2937,
      "inary": 2938,
      "Ġtak": 2939,
      "ciÃ³": 2940,
      "Ġsince": 2941,
      "ctions": 2942,
      "orage": 2943,
      "Ġconj": 2944,
      "mun": 2945,
      "ĠGu": 2946,
      "Po": 2947,
      "inos": 2948,
      "Ġmind": 2949,
      "enz": 2950,
      "Ġmus": 2951,
      "mes": 2952,
      "06": 2953,
      "fix": 2954,
      "Des": 2955,
      "air": 2956,
      "ackage": 2957,
      "87": 2958,
      "ĠpÃºbl": 2959,
      "Log": 2960,
      "pan": 2961,
      "dim": 2962,
      "ivid": 2963,
      ".]": 2964,
      "ĠEste": 2965,
      "olÃ³g": 2966,
      "Size": 2967,
      "CE": 2968,
      "ĠPara": 2969,
      "Ġ15": 2970,
      "cast": 2971,
      "Ġapro": 2972,
      "clud": 2973,
      "ended": 2974,
      "IR": 2975,
      "iera": 2976,
      "pert": 2977,
      "Ġax": 2978,
      "Ġcaso": 2979,
      "Ġrealiz": 2980,
      "AG": 2981,
      "Ġfail": 2982,
      "Ã©d": 2983,
      "print": 2984,
      "Ġnp": 2985,
      "atal": 2986,
      "ots": 2987,
      "Ġshow": 2988,
      "ĠTrue": 2989,
      "pi": 2990,
      "nection": 2991,
      "ĠespaÃ±ol": 2992,
      "ĠÂ¡": 2993,
      "orith": 2994,
      "tocol": 2995,
      "ecut": 2996,
      "/*": 2997,
      "Ġfig": 2998,
      "22": 2999,
      "ĠVal": 3000,
      "ival": 3001,
      "iteral": 3002,
      "Be": 3003,
      "Ġjug": 3004,
      "Ġtransform": 3005,
      "iciones": 3006,
      "inas": 3007,
      "Text": 3008,
      "Ġfull": 3009,
      "Ġenv": 3010,
      "ĠGo": 3011,
      "cope": 3012,
      "yt": 3013,
      "Ġdich": 3014,
      "Ġespaci": 3015,
      "options": 3016,
      "udo": 3017,
      "PT": 3018,
      "ela": 3019,
      "Ġrepl": 3020,
      "Symbol": 3021,
      ".__": 3022,
      "ift": 3023,
      "TT": 3024,
      "ane": 3025,
      "ulo": 3026,
      "Ġrefer": 3027,
      "ĠMod": 3028,
      "Ġdev": 3029,
      "Ġprogram": 3030,
      "Ġside": 3031,
      "ĠdÃ©": 3032,
      "Ġtrabaj": 3033,
      "Ġacc": 3034,
      "CH": 3035,
      "pet": 3036,
      "Ġje": 3037,
      "CK": 3038,
      "Client": 3039,
      "estion": 3040,
      "shape": 3041,
      "Ġorden": 3042,
      "ensa": 3043,
      "unwrap": 3044,
      "ĠpaÃŃses": 3045,
      "uster": 3046,
      "Ġhacia": 3047,
      "--------------------------------": 3048,
      "Ġfew": 3049,
      "Ðº": 3050,
      "Ġlat": 3051,
      "âĶĢâĶĢ": 3052,
      "Ġsmall": 3053,
      "gos": 3054,
      "++": 3055,
      "Ġgan": 3056,
      "84": 3057,
      "plication": 3058,
      "Ġestas": 3059,
      "ls": 3060,
      "build": 3061,
      "Ġfloat": 3062,
      "kwargs": 3063,
      "message": 3064,
      "Py": 3065,
      "outh": 3066,
      "Ġtoken": 3067,
      "output": 3068,
      "ĠSee": 3069,
      "ze": 3070,
      "Ġpassed": 3071,
      "tas": 3072,
      "lib": 3073,
      "ov": 3074,
      "ustri": 3075,
      "uper": 3076,
      "color": 3077,
      "resh": 3078,
      "icion": 3079,
      "wards": 3080,
      "Ġserver": 3081,
      "Ġtrabajo": 3082,
      "Ġfamil": 3083,
      "Ġign": 3084,
      "Ġestaba": 3085,
      "Ġcount": 3086,
      "Ġellos": 3087,
      "And": 3088,
      "gener": 3089,
      "hel": 3090,
      "minist": 3091,
      "nap": 3092,
      "Ġsaw": 3093,
      "ya": 3094,
      "Ġmain": 3095,
      "buf": 3096,
      "Ġdim": 3097,
      "Ġautor": 3098,
      "rown": 3099,
      "OM": 3100,
      "ĠsÃŃ": 3101,
      "Ġ100": 3102,
      "ĠAN": 3103,
      "Ġuntil": 3104,
      "ificaciÃ³n": 3105,
      "Group": 3106,
      "reate": 3107,
      "iod": 3108,
      "ĠMy": 3109,
      "token": 3110,
      "Ġthings": 3111,
      "cover": 3112,
      "ugin": 3113,
      "Ġpot": 3114,
      "ches": 3115,
      "LI": 3116,
      "Ġdeclar": 3117,
      "Ġnuevo": 3118,
      "Ġdtype": 3119,
      "ules": 3120,
      "ĠAm": 3121,
      "Ġtienen": 3122,
      "Ġprint": 3123,
      "process": 3124,
      "Ã¡m": 3125,
      "table": 3126,
      "idd": 3127,
      "Ġeng": 3128,
      "ĠCan": 3129,
      "anguage": 3130,
      "zas": 3131,
      "gg": 3132,
      "ids": 3133,
      "Ġ[`": 3134,
      "hand": 3135,
      "Doc": 3136,
      "Ġqued": 3137,
      "Ġ11": 3138,
      "ativo": 3139,
      "ĠHow": 3140,
      "plit": 3141,
      "Ã¤Ã¤n": 3142,
      "Ġawait": 3143,
      "Equal": 3144,
      "Ġfort": 3145,
      "Ġdej": 3146,
      "Ġencuent": 3147,
      "ette": 3148,
      "fs": 3149,
      "leg": 3150,
      "ĠSeg": 3151,
      "Ġdire": 3152,
      "Ġhecho": 3153,
      "Ġpens": 3154,
      "Ġses": 3155,
      "into": 3156,
      "icamente": 3157,
      "Ġuso": 3158,
      "Ġdoor": 3159,
      "iemb": 3160,
      "Ġspecif": 3161,
      "Ġmuer": 3162,
      "ella": 3163,
      "ĠNot": 3164,
      "Ã¡y": 3165,
      "Ġmedio": 3166,
      "RI": 3167,
      "Ġ+=": 3168,
      "Status": 3169,
      "gres": 3170,
      "Ġalready": 3171,
      "Ġcomer": 3172,
      "hether": 3173,
      "Ġpost": 3174,
      "Ġleng": 3175,
      "ĠFalse": 3176,
      "Ġau": 3177,
      "à¯": 3178,
      "tribute": 3179,
      "Ġsoft": 3180,
      "${": 3181,
      "ti": 3182,
      "Ġah": 3183,
      "Ġcier": 3184,
      "object": 3185,
      "Ã¡r": 3186,
      "aps": 3187,
      "ĠOb": 3188,
      "apt": 3189,
      "pons": 3190,
      "Ġthee": 3191,
      "ided": 3192,
      "Ġrad": 3193,
      "Ġtop": 3194,
      "Ġsort": 3195,
      "}.": 3196,
      "Module": 3197,
      "ified": 3198,
      "ĠPa": 3199,
      "ised": 3200,
      "Ġche": 3201,
      "Event": 3202,
      "44": 3203,
      "ĠEd": 3204,
      "Ġbajo": 3205,
      "Ġwater": 3206,
      "ĠeconÃ³m": 3207,
      "isis": 3208,
      "ĠWith": 3209,
      "Ġcorre": 3210,
      "urg": 3211,
      "FF": 3212,
      "Ġgot": 3213,
      "bs": 3214,
      "Num": 3215,
      "Ġindivid": 3216,
      "Ġgobierno": 3217,
      "ersion": 3218,
      "Ġdiffer": 3219,
      "Out": 3220,
      "ev": 3221,
      "Ġella": 3222,
      "ĠdÃŃa": 3223,
      "BN": 3224,
      "Ġcannot": 3225,
      "Ġpobl": 3226,
      "SS": 3227,
      "ards": 3228,
      "Form": 3229,
      "ĠÃºn": 3230,
      "iers": 3231,
      "Ġdebe": 3232,
      "mem": 3233,
      "Ġpower": 3234,
      "Ġclient": 3235,
      "ĠĠĠĠĠĠĠĠĠĠ": 3236,
      "Loc": 3237,
      "Ġsum": 3238,
      "Ġhistoria": 3239,
      "ĠInd": 3240,
      "Ġproceso": 3241,
      "Ġ//!": 3242,
      "Ġĉĉĉĉĉ": 3243,
      "Ġtermin": 3244,
      "dat": 3245,
      "bytes": 3246,
      "cil": 3247,
      "Ġkeep": 3248,
      "ired": 3249,
      "wise": 3250,
      "Ġcast": 3251,
      "aves": 3252,
      "];": 3253,
      "rodu": 3254,
      "Pr": 3255,
      "jos": 3256,
      "Ġ20": 3257,
      "Ġpen": 3258,
      "Ġoriginal": 3259,
      "onces": 3260,
      "Ġbody": 3261,
      "Man": 3262,
      "lig": 3263,
      "ety": 3264,
      "Ġdisc": 3265,
      "Message": 3266,
      "rÃ¡": 3267,
      "idden": 3268,
      "ĠBy": 3269,
      "Ġmodule": 3270,
      "target": 3271,
      "Ġtook": 3272,
      "Ġquery": 3273,
      "Ġoptions": 3274,
      "isan": 3275,
      "amed": 3276,
      "oca": 3277,
      "Ġblo": 3278,
      "abase": 3279,
      "Ġgrandes": 3280,
      "Ġtener": 3281,
      "eter": 3282,
      "math": 3283,
      "Ġgol": 3284,
      "36": 3285,
      "ored": 3286,
      "Ġrecib": 3287,
      "Ġmor": 3288,
      "ases": 3289,
      "ĠUnidos": 3290,
      "Ġcaracter": 3291,
      "Ġwrite": 3292,
      "Ġcertain": 3293,
      "iness": 3294,
      "ances": 3295,
      "Ġmessage": 3296,
      "Ġsac": 3297,
      "QL": 3298,
      "Ġplus": 3299,
      "ically": 3300,
      "Ġcountry": 3301,
      "kens": 3302,
      "Ġmuchos": 3303,
      "mission": 3304,
      "Ġcualquier": 3305,
      "Ġhard": 3306,
      "ĠÃ³": 3307,
      "ging": 3308,
      "sum": 3309,
      "arr": 3310,
      "ley": 3311,
      "Ġcontent": 3312,
      "ĠtÃ©r": 3313,
      "Ġ[_": 3314,
      "ĠTe": 3315,
      "Ġgent": 3316,
      "func": 3317,
      "Ġnec": 3318,
      "Ġreturns": 3319,
      "Ġhalf": 3320,
      "flags": 3321,
      "Ġlaw": 3322,
      "__(": 3323,
      "False": 3324,
      "Ġdar": 3325,
      "Ġentonces": 3326,
      "usted": 3327,
      "dtype": 3328,
      "urb": 3329,
      "undial": 3330,
      "ased": 3331,
      "float": 3332,
      "Ġsepar": 3333,
      "Ġfather": 3334,
      "Ġsecond": 3335,
      "tings": 3336,
      "oma": 3337,
      "IO": 3338,
      "emente": 3339,
      "Ġmujer": 3340,
      "Ġpad": 3341,
      "ĠEsta": 3342,
      "Ñĥ": 3343,
      "Ġentr": 3344,
      "come": 3345,
      "ipos": 3346,
      "agnost": 3347,
      "edd": 3348,
      "Ġdic": 3349,
      "88": 3350,
      "itect": 3351,
      "Ġmediante": 3352,
      "bit": 3353,
      "Ġcompon": 3354,
      "Le": 3355,
      "Ġpunto": 3356,
      "Ġsecre": 3357,
      "module": 3358,
      "Ġempres": 3359,
      "Ġcin": 3360,
      "untos": 3361,
      "Ġwithin": 3362,
      "run": 3363,
      "weight": 3364,
      "Not": 3365,
      "Ġante": 3366,
      "ĠISBN": 3367,
      "src": 3368,
      "ils": 3369,
      "imo": 3370,
      "Ġinvestig": 3371,
      "abor": 3372,
      "ration": 3373,
      "Ġhace": 3374,
      "PI": 3375,
      "ĠCu": 3376,
      "std": 3377,
      "ĠEstado": 3378,
      "ĠUna": 3379,
      "has": 3380,
      "'ll": 3381,
      "ened": 3382,
      "Ġencontr": 3383,
      "Ġarm": 3384,
      "top": 3385,
      "ĠEspaÃ±a": 3386,
      "Ã³s": 3387,
      "Function": 3388,
      "Ġanim": 3389,
      "ething": 3390,
      "Ġaument": 3391,
      "Ġcorres": 3392,
      "Ġresponse": 3393,
      "Trans": 3394,
      "Pl": 3395,
      "Ġobserv": 3396,
      "ĠteorÃŃa": 3397,
      "uso": 3398,
      "unda": 3399,
      "crib": 3400,
      "eras": 3401,
      "Ġmiemb": 3402,
      "cache": 3403,
      "Ġwon": 3404,
      "Ġview": 3405,
      "Ġboolean": 3406,
      "Ġtypes": 3407,
      "Check": 3408,
      "Ġens": 3409,
      "á»": 3410,
      "client": 3411,
      "cido": 3412,
      "ĠEuropa": 3413,
      "ius": 3414,
      "Ġcopy": 3415,
      "Ġdise": 3416,
      "ĠquÃ©": 3417,
      "Ġexc": 3418,
      "EL": 3419,
      "params": 3420,
      "posit": 3421,
      "Ġhands": 3422,
      "Ġcondu": 3423,
      "Ġchang": 3424,
      "Ġven": 3425,
      "ĠSet": 3426,
      "ierra": 3427,
      "Ġseemed": 3428,
      "Ġproyect": 3429,
      "pret": 3430,
      "imin": 3431,
      "icy": 3432,
      "Ã³t": 3433,
      "uo": 3434,
      "ĠIntern": 3435,
      "edia": 3436,
      "eq": 3437,
      "Ġheav": 3438,
      "ĠMin": 3439,
      "alt": 3440,
      "Ã©e": 3441,
      "acidad": 3442,
      "aim": 3443,
      "ML": 3444,
      "Ġbetter": 3445,
      "clone": 3446,
      "Ġvirt": 3447,
      "tainer": 3448,
      "Ġhome": 3449,
      "ĠTHE": 3450,
      "iano": 3451,
      "left": 3452,
      "_.": 3453,
      "Ġdivers": 3454,
      "ĠChrist": 3455,
      "./": 3456,
      "!âĢĿ": 3457,
      "Ġtar": 3458,
      "Ġreturned": 3459,
      "ĠPh": 3460,
      "ds": 3461,
      "Ã³lo": 3462,
      "Ġapo": 3463,
      "Ġcuenta": 3464,
      "Ġlanz": 3465,
      "ĠUnivers": 3466,
      "selves": 3467,
      "Ġeither": 3468,
      "dev": 3469,
      "Ġestruct": 3470,
      "Ġansw": 3471,
      "Base": 3472,
      "Ġtoda": 3473,
      "gress": 3474,
      "Ġtempor": 3475,
      "Ã¨re": 3476,
      "write": 3477,
      "Ġprincipal": 3478,
      "Ð¼": 3479,
      "px": 3480,
      "ental": 3481,
      "idente": 3482,
      "ĠAmer": 3483,
      "ĠNode": 3484,
      "Ġben": 3485,
      "current": 3486,
      "çļ": 3487,
      "ĠpolÃŃtica": 3488,
      "ceed": 3489,
      "uerdo": 3490,
      "udio": 3491,
      "Ġsimple": 3492,
      "Mode": 3493,
      "Ġmucho": 3494,
      "çļĦ": 3495,
      "uto": 3496,
      "Ġdiferentes": 3497,
      "raciÃ³n": 3498,
      "ĠJS": 3499,
      "ability": 3500,
      "Ġsystem": 3501,
      "Ġcomplet": 3502,
      "Ã¡tica": 3503,
      "Ġcomenz": 3504,
      "ĠAlg": 3505,
      "cat": 3506,
      "Ġabove": 3507,
      "mat": 3508,
      "ĠAp": 3509,
      "ĠmÃ¡": 3510,
      "51": 3511,
      "king": 3512,
      "ĠFl": 3513,
      "void": 3514,
      "Ġpartir": 3515,
      "Ġselect": 3516,
      "ĠData": 3517,
      "ogle": 3518,
      "gether": 3519,
      "book": 3520,
      "Ġviol": 3521,
      "Ġq": 3522,
      "Ġpersonal": 3523,
      "Class": 3524,
      "Ġunivers": 3525,
      "Met": 3526,
      "OD": 3527,
      "Ġplay": 3528,
      "Ġhet": 3529,
      "66": 3530,
      "{\\": 3531,
      "Ġexcept": 3532,
      "Ġcost": 3533,
      "Ãł": 3534,
      "server": 3535,
      "\"`": 3536,
      "Ġclub": 3537,
      "31": 3538,
      "valu": 3539,
      "Ġfriend": 3540,
      "parse": 3541,
      "Fr": 3542,
      "Ġimag": 3543,
      "Ġcapital": 3544,
      "Ġlarge": 3545,
      "Ġheard": 3546,
      "Ġthing": 3547,
      "np": 3548,
      "ilar": 3549,
      "ĠtÃ©rmin": 3550,
      "iving": 3551,
      "Ġhttps": 3552,
      "cap": 3553,
      "Ã©tica": 3554,
      "Ġbal": 3555,
      "Int": 3556,
      "Ġsegu": 3557,
      "ai": 3558,
      "Ġsure": 3559,
      "Ġseen": 3560,
      "ĠPol": 3561,
      "Ġhost": 3562,
      "Ġtend": 3563,
      "Ġpi": 3564,
      "74": 3565,
      "Ġless": 3566,
      "format": 3567,
      "Ġsistemas": 3568,
      "ican": 3569,
      "Ġetc": 3570,
      "Dis": 3571,
      "ecn": 3572,
      "ono": 3573,
      "rics": 3574,
      "Ġload": 3575,
      "ips": 3576,
      "Ġciv": 3577,
      "uridad": 3578,
      "Ġhuman": 3579,
      "abilidad": 3580,
      "Ġintrodu": 3581,
      "body": 3582,
      "Ġcompar": 3583,
      "update": 3584,
      "esto": 3585,
      "event": 3586,
      "napsh": 3587,
      "ym": 3588,
      "Ġrender": 3589,
      "Ġvalor": 3590,
      "Ġbra": 3591,
      "andid": 3592,
      "Ġexample": 3593,
      "IP": 3594,
      "ately": 3595,
      "Ġcomput": 3596,
      "Ġimportante": 3597,
      "olate": 3598,
      "ĠPres": 3599,
      "Ġhaber": 3600,
      "Rec": 3601,
      "ibles": 3602,
      "eron": 3603,
      "UL": 3604,
      "signed": 3605,
      "gar": 3606,
      "Ġconvert": 3607,
      "etch": 3608,
      "ĠTest": 3609,
      "ending": 3610,
      "Ġpeque": 3611,
      "Ġincre": 3612,
      "Ġmean": 3613,
      "ency": 3614,
      "izo": 3615,
      "ĠGe": 3616,
      "acionales": 3617,
      "ead": 3618,
      "Ġ);": 3619,
      "uch": 3620,
      "Inter": 3621,
      "isi": 3622,
      "We": 3623,
      "Valid": 3624,
      "Ã¡p": 3625,
      "Ġformat": 3626,
      "internal": 3627,
      "Ext": 3628,
      "Ġbelie": 3629,
      "ĠSa": 3630,
      "ators": 3631,
      "stand": 3632,
      "Ġeffect": 3633,
      "Ġ/>": 3634,
      "Ġwait": 3635,
      "ences": 3636,
      "ilo": 3637,
      "anto": 3638,
      "elo": 3639,
      "Ġllev": 3640,
      "glÃ©s": 3641,
      "ently": 3642,
      "(*": 3643,
      "Ġwoman": 3644,
      "Ġenem": 3645,
      "ĠTambiÃ©n": 3646,
      "Ġtrain": 3647,
      "Ġcapt": 3648,
      "rel": 3649,
      "ĠJe": 3650,
      "ĠmÃºs": 3651,
      "Ġindepend": 3652,
      "kind": 3653,
      "IL": 3654,
      "Ġsoon": 3655,
      "iew": 3656,
      "leman": 3657,
      "Ġservice": 3658,
      "ucciÃ³n": 3659,
      "foo": 3660,
      "ĠÃģ": 3661,
      "place": 3662,
      "ĠNULL": 3663,
      "ÃŃculo": 3664,
      "Ġsel": 3665,
      "ĠMe": 3666,
      "ĠHer": 3667,
      "mite": 3668,
      "Ġì": 3669,
      "Ġmomento": 3670,
      "Ġsiendo": 3671,
      "Ġdeath": 3672,
      "Ġhij": 3673,
      "ĠAny": 3674,
      "odos": 3675,
      "Ã©cn": 3676,
      "local": 3677,
      "Ġwal": 3678,
      "Ġroom": 3679,
      "Ġfavor": 3680,
      "ĠOF": 3681,
      "75": 3682,
      "Ġsold": 3683,
      "ĠAf": 3684,
      "ience": 3685,
      "Ġpues": 3686,
      "Ġescrit": 3687,
      "Ġdentro": 3688,
      "ming": 3689,
      "ĠinglÃ©s": 3690,
      "Ġisinstance": 3691,
      "ested": 3692,
      "ĠEurope": 3693,
      "but": 3694,
      "ĠBo": 3695,
      "Ð²": 3696,
      "Ġwhole": 3697,
      "Ġhttp": 3698,
      "iff": 3699,
      "expected": 3700,
      "():": 3701,
      "public": 3702,
      "ponent": 3703,
      "cimiento": 3704,
      "Ġhar": 3705,
      "Ġwhom": 3706,
      "Ġru": 3707,
      "ĠYork": 3708,
      "Code": 3709,
      "omen": 3710,
      "docs": 3711,
      "Ġhap": 3712,
      "ĠDo": 3713,
      "schema": 3714,
      "Sign": 3715,
      "push": 3716,
      "Ġvia": 3717,
      "iga": 3718,
      "sg": 3719,
      "Ġamong": 3720,
      "ueb": 3721,
      "next": 3722,
      "Tra": 3723,
      "cional": 3724,
      "Ġspeak": 3725,
      "Ġampl": 3726,
      "Ġfmt": 3727,
      "Ġmodern": 3728,
      "FA": 3729,
      "atura": 3730,
      "Ġpoco": 3731,
      "Ġpay": 3732,
      "akes": 3733,
      "Ġpri": 3734,
      "osa": 3735,
      "Ġning": 3736,
      "ĠDur": 3737,
      "Ġ..": 3738,
      "Ġti": 3739,
      "Ġhear": 3740,
      "cing": 3741,
      "Ã£": 3742,
      "asta": 3743,
      "####": 3744,
      "Ġsuccess": 3745,
      "ki": 3746,
      "ually": 3747,
      "method": 3748,
      "iana": 3749,
      "riter": 3750,
      "ground": 3751,
      "Ġwhite": 3752,
      "Ġapp": 3753,
      "Ñı": 3754,
      "ĠcÃ©l": 3755,
      "Ġclos": 3756,
      "Ġesper": 3757,
      "ĠenergÃŃa": 3758,
      "function": 3759,
      "pat": 3760,
      "Ġsit": 3761,
      "oo": 3762,
      "Ġfollowing": 3763,
      "{}": 3764,
      "ĠGet": 3765,
      "Ġenough": 3766,
      "Ġduring": 3767,
      "Ġknew": 3768,
      "Service": 3769,
      "73": 3770,
      "Ġmur": 3771,
      "root": 3772,
      "Ġdebido": 3773,
      "80": 3774,
      "Ġdifferent": 3775,
      "posed": 3776,
      "rary": 3777,
      "ĠCH": 3778,
      "ĠCal": 3779,
      "puesta": 3780,
      "Ġgoing": 3781,
      "Ġhabit": 3782,
      "Ġempty": 3783,
      "Ġidea": 3784,
      "Ġigual": 3785,
      "Ġappro": 3786,
      "ism": 3787,
      "ĠsegÃºn": 3788,
      "Ġvisit": 3789,
      "ĠĠĠĠĠĠĠĠĠĠĠĠĠĠĠĠĠ": 3790,
      "76": 3791,
      "voluciÃ³n": 3792,
      "Ġinstance": 3793,
      "agger": 3794,
      "ĠOk": 3795,
      "ĠLo": 3796,
      "Ġalmost": 3797,
      "grama": 3798,
      "Ġvarios": 3799,
      "ynam": 3800,
      "ince": 3801,
      "host": 3802,
      "Property": 3803,
      "Ġinstead": 3804,
      "env": 3805,
      "req": 3806,
      "Count": 3807,
      "ĠfunciÃ³n": 3808,
      "ports": 3809,
      "<'": 3810,
      "Ġparent": 3811,
      "Ġmeans": 3812,
      "ĠValue": 3813,
      "Ã©rica": 3814,
      "Ġsearch": 3815,
      "Ġtor": 3816,
      "ĠRob": 3817,
      "Ġprepar": 3818,
      "Arg": 3819,
      "TTP": 3820,
      "Ġperform": 3821,
      "Ġgrupo": 3822,
      "ination": 3823,
      "eder": 3824,
      "ĠAdd": 3825,
      "Ġcuatro": 3826,
      "Ġhu": 3827,
      "Ġposible": 3828,
      "Ġveces": 3829,
      "char": 3830,
      "Ġoblig": 3831,
      "Ġsomething": 3832,
      "You": 3833,
      "Ġswe": 3834,
      "like": 3835,
      "Ġbisan": 3836,
      "EX": 3837,
      "known": 3838,
      "Ġlength": 3839,
      "Ġsever": 3840,
      "fÃŃa": 3841,
      "Ġmisma": 3842,
      "cp": 3843,
      "quence": 3844,
      "Ġjud": 3845,
      "Ġbat": 3846,
      "ĠAc": 3847,
      "ists": 3848,
      "uiente": 3849,
      "tributes": 3850,
      "true": 3851,
      "uss": 3852,
      "ocket": 3853,
      "erÃŃa": 3854,
      "enas": 3855,
      "Ġhund": 3856,
      "ĠPero": 3857,
      "Qu": 3858,
      "ĠNe": 3859,
      "Ġlooked": 3860,
      "testing": 3861,
      "mask": 3862,
      "ĠReg": 3863,
      "allow": 3864,
      "Ġalcan": 3865,
      "iales": 3866,
      "Ġpon": 3867,
      "Ġpossible": 3868,
      "ulas": 3869,
      "Ġlogr": 3870,
      "Ð´": 3871,
      "Ġsingle": 3872,
      "Ġfu": 3873,
      "atform": 3874,
      "Ġindic": 3875,
      "itional": 3876,
      "Ġland": 3877,
      "await": 3878,
      "Ġvent": 3879,
      "tention": 3880,
      "Ġfeel": 3881,
      "aster": 3882,
      "Ġitem": 3883,
      "seg": 3884,
      "Ġfur": 3885,
      "Ġupdate": 3886,
      "Up": 3887,
      "iagnost": 3888,
      "Ġta": 3889,
      "Ġdays": 3890,
      "Ġpage": 3891,
      "ĠChar": 3892,
      "\";": 3893,
      "Ġpare": 3894,
      "Ġnatural": 3895,
      "anza": 3896,
      "ĠString": 3897,
      "Ġhy": 3898,
      "Ġrev": 3899,
      "ĠademÃ¡s": 3900,
      "fn": 3901,
      "Ġwords": 3902,
      "Ġcourse": 3903,
      "tag": 3904,
      "emplate": 3905,
      "Ġweb": 3906,
      "dom": 3907,
      "Default": 3908,
      "Ġasked": 3909,
      "Ġdestac": 3910,
      "ĠLu": 3911,
      "Ġobt": 3912,
      "Ġeran": 3913,
      "43": 3914,
      "iste": 3915,
      "PU": 3916,
      "Ġhaving": 3917,
      "Ġuint": 3918,
      "Ġpopular": 3919,
      "ĠInter": 3920,
      "ĠII": 3921,
      "Ġobra": 3922,
      "Ġgover": 3923,
      "andom": 3924,
      "Select": 3925,
      "Ġmode": 3926,
      "ĠMon": 3927,
      "Ġcompet": 3928,
      "');": 3929,
      "ĠmayorÃŃa": 3930,
      "}\\": 3931,
      "iron": 3932,
      "Ġliber": 3933,
      "idx": 3934,
      "ivas": 3935,
      "erv": 3936,
      "esta": 3937,
      "Ġhelp": 3938,
      "arias": 3939,
      "ĠRec": 3940,
      "Ġpalab": 3941,
      "Ġeduc": 3942,
      "eric": 3943,
      "ĠTrans": 3944,
      "side": 3945,
      "Lo": 3946,
      "Ġreason": 3947,
      "oso": 3948,
      "Ġmerc": 3949,
      "device": 3950,
      "stant": 3951,
      "Types": 3952,
      "thers": 3953,
      "ÛĮ": 3954,
      "ision": 3955,
      "ributed": 3956,
      "fact": 3957,
      "hat": 3958,
      "Ġcompos": 3959,
      "iencia": 3960,
      "Ġchildren": 3961,
      "image": 3962,
      "Ġnacional": 3963,
      "ecciÃ³n": 3964,
      "ko": 3965,
      "Ġargs": 3966,
      "Ġcat": 3967,
      "API": 3968,
      "?;": 3969,
      "};": 3970,
      "100": 3971,
      "ĠtÃ©cn": 3972,
      "ĠettÃ¤": 3973,
      "loud": 3974,
      "prom": 3975,
      "Ġfal": 3976,
      "ãĥ¼": 3977,
      "ural": 3978,
      "ĠlÃŃne": 3979,
      "Ġsigu": 3980,
      "itÃ©": 3981,
      "Ġfill": 3982,
      "Ġaddress": 3983,
      "ago": 3984,
      "65": 3985,
      "bers": 3986,
      "bt": 3987,
      "now": 3988,
      "ĠrÃ©": 3989,
      "batch": 3990,
      "Content": 3991,
      "coder": 3992,
      "Ġcustom": 3993,
      "._]": 3994,
      "xy": 3995,
      "VM": 3996,
      "Ġhold": 3997,
      "Ġrow": 3998,
      "atos": 3999,
      "Ġinstr": 4000,
      "uff": 4001,
      "ĠReturns": 4002,
      "Ġgir": 4003,
      "ombres": 4004,
      "Access": 4005,
      "inte": 4006,
      "Ġrequired": 4007,
      "UM": 4008,
      "Ġgri": 4009,
      "Ġmit": 4010,
      "iled": 4011,
      "Ġtogether": 4012,
      "ĠOne": 4013,
      "zar": 4014,
      "cial": 4015,
      "Ġtold": 4016,
      "search": 4017,
      "Ġrecord": 4018,
      "ĠAb": 4019,
      "Ġwhose": 4020,
      "Ġexec": 4021,
      "Ġdese": 4022,
      "Ġshape": 4023,
      "mm": 4024,
      "ĠLord": 4025,
      "dos": 4026,
      "Ã¡g": 4027,
      "Ġexpected": 4028,
      "aced": 4029,
      "ailable": 4030,
      "este": 4031,
      "Ñĭ": 4032,
      "rew": 4033,
      "ĠdÃ©c": 4034,
      "irse": 4035,
      "Ġconstitu": 4036,
      "Del": 4037,
      "Ġpan": 4038,
      "Model": 4039,
      "Ġstep": 4040,
      "Ġblack": 4041,
      "Ġparticip": 4042,
      "box": 4043,
      "Ġpie": 4044,
      "iqu": 4045,
      "ĠCor": 4046,
      "Ã£o": 4047,
      "Ġnecess": 4048,
      "202": 4049,
      "Ġband": 4050,
      "Ġderechos": 4051,
      "Ġinclus": 4052,
      "Test": 4053,
      "Ġraz": 4054,
      "Ġesa": 4055,
      "Ġchange": 4056,
      "vant": 4057,
      "empre": 4058,
      "Server": 4059,
      "Ġglobal": 4060,
      "OS": 4061,
      "Ġvict": 4062,
      "Ġtel": 4063,
      "ulti": 4064,
      "values": 4065,
      "Ġlengu": 4066,
      "lb": 4067,
      "join": 4068,
      "Ġscal": 4069,
      "97": 4070,
      "ably": 4071,
      "FI": 4072,
      "omÃŃa": 4073,
      "Ġaccount": 4074,
      "cuencia": 4075,
      "Ġincluy": 4076,
      "dr": 4077,
      "uales": 4078,
      "iere": 4079,
      "ctr": 4080,
      "Ġsiempre": 4081,
      "Ġluego": 4082,
      "ĠâĢĻ": 4083,
      "append": 4084,
      "cfg": 4085,
      "patch": 4086,
      "Ġgal": 4087,
      "Ġturned": 4088,
      "ilt": 4089,
      "ĠNow": 4090,
      "ĠGeneral": 4091,
      "Ġroot": 4092,
      "Ġapar": 4093,
      "['": 4094,
      "Line": 4095,
      "rust": 4096,
      "napshot": 4097,
      "omas": 4098,
      "ĠOptional": 4099,
      "alloc": 4100,
      "Ġvir": 4101,
      "ĠCo": 4102,
      "Ġrespons": 4103,
      "Ġposition": 4104,
      "Match": 4105,
      "Ġhom": 4106,
      "Ġshort": 4107,
      "ĠEsto": 4108,
      "ĠrelaciÃ³n": 4109,
      "But": 4110,
      "Ġfast": 4111,
      "83": 4112,
      "ief": 4113,
      "Ġenf": 4114,
      "Ident": 4115,
      "Frame": 4116,
      "cito": 4117,
      "Ġhundred": 4118,
      "Ġtask": 4119,
      "Ġdete": 4120,
      "Ġgave": 4121,
      "Ġcum": 4122,
      "Ġiter": 4123,
      "TI": 4124,
      "ĠpoblaciÃ³n": 4125,
      "Ġdirig": 4126,
      "prim": 4127,
      "86": 4128,
      "Ġ24": 4129,
      "status": 4130,
      "Ġregist": 4131,
      "Ã³mo": 4132,
      "ss": 4133,
      "Ġrather": 4134,
      "Ġprivate": 4135,
      "Ã¡tico": 4136,
      "Ġgar": 4137,
      "antic": 4138,
      "Ġapr": 4139,
      "keys": 4140,
      "Ġequipo": 4141,
      "ibilidad": 4142,
      "width": 4143,
      "Ġwhether": 4144,
      "Ġimage": 4145,
      "ĠSal": 4146,
      "Ġconjunto": 4147,
      "Ġexplic": 4148,
      "oto": 4149,
      "Ġacuerdo": 4150,
      "velop": 4151,
      "hib": 4152,
      "Ġ_,": 4153,
      "Ġmorn": 4154,
      "Ġeas": 4155,
      "ĠSc": 4156,
      "ĠAdemÃ¡s": 4157,
      "prec": 4158,
      "ĠWill": 4159,
      "Ġbound": 4160,
      "Ġcampo": 4161,
      "uan": 4162,
      "Ġren": 4163,
      "select": 4164,
      "Ġrom": 4165,
      "tains": 4166,
      "Ġsignific": 4167,
      "require": 4168,
      "Ġcuer": 4169,
      "ksi": 4170,
      "Ġflo": 4171,
      "Ġfree": 4172,
      "ump": 4173,
      "Any": 4174,
      "dist": 4175,
      "Ġround": 4176,
      "Ġalong": 4177,
      "iddle": 4178,
      "Ġfour": 4179,
      "last": 4180,
      "ĠSir": 4181,
      "sing": 4182,
      "ĠØ": 4183,
      "Ġdemand": 4184,
      "Ġbit": 4185,
      "0000000000000000": 4186,
      "It": 4187,
      "Ġparse": 4188,
      "ĠPart": 4189,
      "Ġdomin": 4190,
      "Ġelectr": 4191,
      "Hash": 4192,
      "ram": 4193,
      "ffff": 4194,
      "ĠXX": 4195,
      "Ä±": 4196,
      "Ã¡nt": 4197,
      "Run": 4198,
      "Literal": 4199,
      "iza": 4200,
      "ÃŃm": 4201,
      "Ġcambio": 4202,
      "match": 4203,
      "coding": 4204,
      "Ġinterface": 4205,
      "ering": 4206,
      "Ġtaken": 4207,
      "sc": 4208,
      "Ġbeaut": 4209,
      "Ġcompr": 4210,
      "Ġindustri": 4211,
      "NG": 4212,
      "Ġdig": 4213,
      "Ġfiles": 4214,
      "iling": 4215,
      "Ġtimes": 4216,
      "CON": 4217,
      "Ġvel": 4218,
      "Ġnueva": 4219,
      "ational": 4220,
      "View": 4221,
      "Ġestar": 4222,
      "ãĢĤ": 4223,
      "torch": 4224,
      "rac": 4225,
      "OST": 4226,
      "ializer": 4227,
      "{\"": 4228,
      "Item": 4229,
      "Ġep": 4230,
      "Ġcommon": 4231,
      "Ġunos": 4232,
      "iores": 4233,
      "Ġoct": 4234,
      "rec": 4235,
      "ries": 4236,
      "ĠĠĠĠĠĠĠĠĠĠĠĠĠĠĠĠĠĠĠĠĠĠĠĠĠĠĠĠĠĠĠ": 4237,
      "Ġjunto": 4238,
      "Ġterritor": 4239,
      "ESS": 4240,
      "Ġoptim": 4241,
      "ĠIl": 4242,
      "Ġaccess": 4243,
      "Ġpoor": 4244,
      "ury": 4245,
      "Ġproject": 4246,
      "ĠperÃŃ": 4247,
      "urope": 4248,
      "Sub": 4249,
      "Ġlargo": 4250,
      "unter": 4251,
      "Ġju": 4252,
      "Ġvoice": 4253,
      "Ġsle": 4254,
      "ĠIN": 4255,
      "Method": 4256,
      "aÃ±": 4257,
      "Ġtree": 4258,
      "Ġfire": 4259,
      "bb": 4260,
      "illo": 4261,
      "Ġrele": 4262,
      "Ġ30": 4263,
      "Ġrelacion": 4264,
      "ĠSec": 4265,
      "Ġinformation": 4266,
      "mi": 4267,
      "Oper": 4268,
      "ĠcrÃŃt": 4269,
      "Ġmemory": 4270,
      "ride": 4271,
      "alth": 4272,
      "ativas": 4273,
      "chain": 4274,
      "ĠDis": 4275,
      "....": 4276,
      "Ġcomunic": 4277,
      "iler": 4278,
      "Ġcivil": 4279,
      "Ġstop": 4280,
      "Ġrecurs": 4281,
      "Ġlevel": 4282,
      "62": 4283,
      "ester": 4284,
      "tree": 4285,
      "ential": 4286,
      "Ġhowever": 4287,
      "Version": 4288,
      "utils": 4289,
      "ĠAPI": 4290,
      "mode": 4291,
      "pers": 4292,
      "raint": 4293,
      "oss": 4294,
      "Ġverdad": 4295,
      "Ġsens": 4296,
      "Ġcache": 4297,
      "Ġlord": 4298,
      "Host": 4299,
      "ĠÃ©p": 4300,
      "Ġ{\"": 4301,
      "Ġdark": 4302,
      "Ġcateg": 4303,
      "ĠĠĠĠĠĠĠĠĠĠĠĠ": 4304,
      "Ġalgunas": 4305,
      "Ġhizo": 4306,
      "Ġconvirt": 4307,
      "uvo": 4308,
      "Ġjun": 4309,
      "arc": 4310,
      "Ġexpression": 4311,
      "Ġcontrib": 4312,
      "imon": 4313,
      "Ġmiembros": 4314,
      "Ġitself": 4315,
      "Ġleast": 4316,
      "Ġwindow": 4317,
      "vider": 4318,
      "Ġpackage": 4319,
      "Ġsiguiente": 4320,
      "Ġsegundo": 4321,
      "Builder": 4322,
      "Ġcorrespond": 4323,
      "52": 4324,
      "Ġtecn": 4325,
      "verse": 4326,
      "poch": 4327,
      "Ġcolon": 4328,
      "Ġsatis": 4329,
      "ĠmÃ©t": 4330,
      "ĠLond": 4331,
      "link": 4332,
      "Ġdead": 4333,
      "ĠDE": 4334,
      "94": 4335,
      "Ġcasa": 4336,
      "Ġestudio": 4337,
      "rab": 4338,
      "*/": 4339,
      "ĠprÃ¡ct": 4340,
      "ocker": 4341,
      "ĠMrs": 4342,
      "ĠâĪĴ": 4343,
      "irit": 4344,
      "essages": 4345,
      "ffic": 4346,
      "ĠfÃŃs": 4347,
      "ĠDios": 4348,
      "Ġgrad": 4349,
      "Ġpy": 4350,
      "tait": 4351,
      "kin": 4352,
      "ĠKing": 4353,
      "ulio": 4354,
      "ĠPo": 4355,
      "TR": 4356,
      "Ġlead": 4357,
      "issing": 4358,
      "perties": 4359,
      "opa": 4360,
      "iple": 4361,
      "ivate": 4362,
      "Ġdescub": 4363,
      "Ġabr": 4364,
      "Ġextends": 4365,
      "Ġmyself": 4366,
      "Ġintent": 4367,
      "Ġmother": 4368,
      "chedul": 4369,
      "ĠAg": 4370,
      "Ġpropor": 4371,
      "sd": 4372,
      "DN": 4373,
      "Gener": 4374,
      "unks": 4375,
      "rench": 4376,
      "Ġmorning": 4377,
      "Ġautom": 4378,
      "Ġestre": 4379,
      "Ġnet": 4380,
      "inding": 4381,
      "ousand": 4382,
      "ih": 4383,
      "Ġahora": 4384,
      "Ġknown": 4385,
      "Ġstream": 4386,
      "offset": 4387,
      "Ġconstru": 4388,
      "Ġstyle": 4389,
      "Ap": 4390,
      "sql": 4391,
      "grad": 4392,
      "frame": 4393,
      "Ġbook": 4394,
      "70": 4395,
      "urch": 4396,
      "Ġusu": 4397,
      "ĠAR": 4398,
      "Ġadminist": 4399,
      "Ġcele": 4400,
      "learn": 4401,
      "Ġsor": 4402,
      "Ġbes": 4403,
      "level": 4404,
      "Ġmodo": 4405,
      "ÃŃsticas": 4406,
      "Ġpast": 4407,
      "Ġmatter": 4408,
      "Reg": 4409,
      "ĠMa": 4410,
      "ĠhabÃŃan": 4411,
      "ĠHist": 4412,
      "ĠSelf": 4413,
      "Ġmilitar": 4414,
      "Ġespacio": 4415,
      "fort": 4416,
      "Ġ([": 4417,
      "lla": 4418,
      "Ġnov": 4419,
      "Ġthemselves": 4420,
      "Ġocup": 4421,
      "fa": 4422,
      "Ġserie": 4423,
      "Ġestim": 4424,
      "ĠConse": 4425,
      "Rout": 4426,
      "Ġarch": 4427,
      "TY": 4428,
      "tot": 4429,
      "Ġhombre": 4430,
      "Ġconsum": 4431,
      "Ġfelt": 4432,
      "æľ": 4433,
      "stream": 4434,
      "uls": 4435,
      "Ġproblemas": 4436,
      "OP": 4437,
      "Script": 4438,
      "Ġ}}": 4439,
      "Ã¡ne": 4440,
      "uri": 4441,
      "ĠBr": 4442,
      "Ġprincipales": 4443,
      "Ġmaterial": 4444,
      "aan": 4445,
      "ĠMadrid": 4446,
      "han": 4447,
      "adamente": 4448,
      "ĠComo": 4449,
      "Ġespecial": 4450,
      "Input": 4451,
      "Ġfuera": 4452,
      "Table": 4453,
      "ĠHol": 4454,
      "Ġcapacidad": 4455,
      "position": 4456,
      "child": 4457,
      "ĠBl": 4458,
      "Ã¨s": 4459,
      "ird": 4460,
      "ĠNue": 4461,
      "Ġeen": 4462,
      "Ġthousand": 4463,
      "Ġforward": 4464,
      "Ġcolumn": 4465,
      "ynamic": 4466,
      "fast": 4467,
      "Ġspo": 4468,
      "Ġelif": 4469,
      "ns": 4470,
      "Ġair": 4471,
      "Read": 4472,
      "MA": 4473,
      "(_": 4474,
      "ĠdÃŃas": 4475,
      "static": 4476,
      "Ġei": 4477,
      "Ñĸ": 4478,
      "Ġconfl": 4479,
      "Ġclear": 4480,
      "Ġsust": 4481,
      "ĠaquÃŃ": 4482,
      "Ġna": 4483,
      "Ġquestion": 4484,
      "ĠtenÃŃa": 4485,
      "Tag": 4486,
      "ecer": 4487,
      "Ġzij": 4488,
      "Ġadded": 4489,
      "åı": 4490,
      "Ġbrought": 4491,
      "active": 4492,
      "ĠSancho": 4493,
      "Ġdevice": 4494,
      "Params": 4495,
      "Ġviv": 4496,
      "Ġorganiz": 4497,
      "empty": 4498,
      "Ġmodelo": 4499,
      "Ġlater": 4500,
      "Ġescu": 4501,
      "Ġboy": 4502,
      "ĠÐ¿": 4503,
      "ites": 4504,
      "Ġpret": 4505,
      "Ġdecid": 4506,
      "Lock": 4507,
      "ford": 4508,
      "Ġintegr": 4509,
      ")}": 4510,
      "Ġoffic": 4511,
      "Ġmec": 4512,
      "Ġvuel": 4513,
      "Ġperd": 4514,
      "ĠEnter": 4515,
      "Ġopin": 4516,
      "description": 4517,
      "soci": 4518,
      "Ġsud": 4519,
      "Ġtuvo": 4520,
      "']": 4521,
      "Ġlui": 4522,
      "Ġliter": 4523,
      "ĠComisiÃ³n": 4524,
      "ional": 4525,
      "Ġanal": 4526,
      "Ġmeet": 4527,
      "Ġund": 4528,
      "CL": 4529,
      "Ġtemplate": 4530,
      "Ġmuchas": 4531,
      "ĠDec": 4532,
      "Ġsept": 4533,
      "All": 4534,
      "Ġfuncion": 4535,
      "ajes": 4536,
      "Ġonsa": 4537,
      "uk": 4538,
      "ĠPal": 4539,
      "Dir": 4540,
      "roy": 4541,
      "Ġparams": 4542,
      "common": 4543,
      "Ġll": 4544,
      "rows": 4545,
      "ubre": 4546,
      "Ġthus": 4547,
      "rea": 4548,
      "wor": 4549,
      "Ġpet": 4550,
      "Ġasoci": 4551,
      "cour": 4552,
      "day": 4553,
      "Ġemple": 4554,
      "ĠtÃ¤": 4555,
      "allel": 4556,
      "Ġ),": 4557,
      "lbum": 4558,
      "ĠNor": 4559,
      "span": 4560,
      "encies": 4561,
      "Ġcollection": 4562,
      "(|": 4563,
      "Ġcuales": 4564,
      "byte": 4565,
      "enos": 4566,
      "ĠLet": 4567,
      "Ġtemper": 4568,
      "bf": 4569,
      "'re": 4570,
      "label": 4571,
      "Ġcorrect": 4572,
      "ker": 4573,
      "Ġreport": 4574,
      "eful": 4575,
      "Ġsubject": 4576,
      "Ġstatus": 4577,
      "Ġproced": 4578,
      "lation": 4579,
      "Ġothers": 4580,
      "Ġseguridad": 4581,
      "td": 4582,
      "Ġguard": 4583,
      "Ġtas": 4584,
      "Ġstood": 4585,
      "Per": 4586,
      "Ġinterest": 4587,
      "Ġprograma": 4588,
      "::{": 4589,
      "Ġspecified": 4590,
      "Ġexact": 4591,
      "first": 4592,
      "~~": 4593,
      "resol": 4594,
      "Ãºt": 4595,
      "erc": 4596,
      ".'": 4597,
      "Ġarte": 4598,
      "Ã¡ng": 4599,
      "Ġenfer": 4600,
      ")),": 4601,
      "ee": 4602,
      "Ġeurope": 4603,
      "oche": 4604,
      "bra": 4605,
      "UE": 4606,
      "Ġoptional": 4607,
      "98": 4608,
      "fin": 4609,
      "ĠItal": 4610,
      "ĠproducciÃ³n": 4611,
      "40": 4612,
      "oney": 4613,
      "ster": 4614,
      "ĠGre": 4615,
      "post": 4616,
      "ailed": 4617,
      "Ġgrande": 4618,
      "Ġagua": 4619,
      "ĠEnglish": 4620,
      "ixed": 4621,
      "ĠmÃºsica": 4622,
      "aja": 4623,
      "ribu": 4624,
      "web": 4625,
      "vec": 4626,
      "Ġalt": 4627,
      "rix": 4628,
      "Ġfields": 4629,
      "Pos": 4630,
      "Ġerrors": 4631,
      "Errorf": 4632,
      "\"},": 4633,
      "ĠÏ": 4634,
      "Ġforce": 4635,
      "encial": 4636,
      "Buffer": 4637,
      "cc": 4638,
      "adding": 4639,
      "Ġsoftware": 4640,
      "41": 4641,
      "IM": 4642,
      "////////": 4643,
      "ĠOf": 4644,
      "Ġinternacional": 4645,
      "response": 4646,
      "Ã±as": 4647,
      "Ġhall": 4648,
      "Ġweight": 4649,
      "Ã¡ndose": 4650,
      "Ġhour": 4651,
      "Ġextern": 4652,
      "icia": 4653,
      "Ġ25": 4654,
      "perio": 4655,
      "orithms": 4656,
      "pts": 4657,
      "board": 4658,
      "Ġalgo": 4659,
      "filter": 4660,
      "haps": 4661,
      "CP": 4662,
      "amin": 4663,
      "swagger": 4664,
      "ĠLL": 4665,
      "Ġfair": 4666,
      "Ġquite": 4667,
      "Ġum": 4668,
      "estiÃ³n": 4669,
      "TH": 4670,
      "Ġdesign": 4671,
      "?.": 4672,
      "wik": 4673,
      "ĠLib": 4674,
      "ãģ®": 4675,
      "fmt": 4676,
      "Template": 4677,
      "asure": 4678,
      "Stream": 4679,
      "Ġmuerte": 4680,
      "arm": 4681,
      "non": 4682,
      "ismos": 4683,
      "ceso": 4684,
      "posiciÃ³n": 4685,
      "Ġill": 4686,
      "Ġauthor": 4687,
      "Ġmovimiento": 4688,
      "Ġframe": 4689,
      "Ġfem": 4690,
      "Ġhub": 4691,
      "porte": 4692,
      "Ġpapel": 4693,
      "Ġ):": 4694,
      "Ġiss": 4695,
      "Ġenum": 4696,
      "Ġdenomin": 4697,
      "Back": 4698,
      "open": 4699,
      "Ġkun": 4700,
      "Ġvous": 4701,
      "pack": 4702,
      "Ġdijo": 4703,
      "note": 4704,
      "Ġcasi": 4705,
      "../../": 4706,
      "ĠpelÃŃcul": 4707,
      "Ġmic": 4708,
      "ĠRo": 4709,
      "edor": 4710,
      "Ġbuffer": 4711,
      "optim": 4712,
      "Ġ<<": 4713,
      "ĠError": 4714,
      "Bo": 4715,
      "stack": 4716,
      "ĠÃ¡lbum": 4717,
      "Iter": 4718,
      "orit": 4719,
      "Ã©rcito": 4720,
      "Ġ000": 4721,
      "Ġwr": 4722,
      "Ġperfect": 4723,
      "Ġdistint": 4724,
      "Ġdrop": 4725,
      "ila": 4726,
      "Ġincluso": 4727,
      "ativos": 4728,
      "Ġhash": 4729,
      "Ġderecho": 4730,
      "Ġaxis": 4731,
      "Ġdoc": 4732,
      "KE": 4733,
      "df": 4734,
      "uck": 4735,
      "uegos": 4736,
      "Ġ],": 4737,
      "imientos": 4738,
      "norm": 4739,
      "feature": 4740,
      "Ġvarias": 4741,
      "symbol": 4742,
      "Ġfear": 4743,
      "ĠperÃŃodo": 4744,
      "vm": 4745,
      "osto": 4746,
      "Ġobras": 4747,
      "ĠFrancia": 4748,
      "onas": 4749,
      "Ġperiod": 4750,
      "ordin": 4751,
      "Ġello": 4752,
      "system": 4753,
      "Ġrecom": 4754,
      "ĠFrench": 4755,
      "ĠseÃ±or": 4756,
      "Ġsan": 4757,
      "Ġlibert": 4758,
      "Ġfinanci": 4759,
      "utor": 4760,
      "ĠCam": 4761,
      "fields": 4762,
      "ä»": 4763,
      "ĠSol": 4764,
      "Ġsec": 4765,
      "Ġusted": 4766,
      "Ġclas": 4767,
      "El": 4768,
      "ffset": 4769,
      "ivamente": 4770,
      "Ġbegan": 4771,
      "ĠartÃŃculo": 4772,
      "Output": 4773,
      "Ġexperiment": 4774,
      "ĠhÃ¤nen": 4775,
      "Ġsymbol": 4776,
      "empl": 4777,
      "ĠCopy": 4778,
      "Ġfundament": 4779,
      "obj": 4780,
      "This": 4781,
      "ÃŃstica": 4782,
      "Ġwife": 4783,
      "DB": 4784,
      "Ġmayo": 4785,
      "just": 4786,
      "Ġdescrib": 4787,
      "Ġclose": 4788,
      "Ġcharacter": 4789,
      "project": 4790,
      "Ġdan": 4791,
      "ĠResult": 4792,
      "pÃºbl": 4793,
      "vari": 4794,
      "Ġenter": 4795,
      "ĠÃºltimo": 4796,
      "exp": 4797,
      "Ġsen": 4798,
      "acciÃ³n": 4799,
      "uit": 4800,
      "Ġbenef": 4801,
      "Manager": 4802,
      "Ġbed": 4803,
      "Ġevalu": 4804,
      "Ġelementos": 4805,
      "Ġsimilar": 4806,
      "don": 4807,
      "Ġleave": 4808,
      "MS": 4809,
      "cape": 4810,
      "Ġhandle": 4811,
      "inen": 4812,
      "Ġĉĉĉĉĉĉĉĉ": 4813,
      "256": 4814,
      "tex": 4815,
      "Number": 4816,
      "ĠThese": 4817,
      "Ġhot": 4818,
      "åĪ": 4819,
      "ĠsÃ³lo": 4820,
      "Ġscho": 4821,
      "Ġprovided": 4822,
      "93": 4823,
      "Ġinterpret": 4824,
      "ĠCuando": 4825,
      "ĠQue": 4826,
      "Ġcaball": 4827,
      "mount": 4828,
      "eda": 4829,
      "press": 4830,
      "zos": 4831,
      "estr": 4832,
      "Ġgovern": 4833,
      "ulos": 4834,
      "Ġbegin": 4835,
      "Ġsound": 4836,
      "Child": 4837,
      "Ġcondic": 4838,
      "ifest": 4839,
      "Ġmens": 4840,
      "ĠMed": 4841,
      "columns": 4842,
      "ĠSte": 4843,
      "ĠaplicaciÃ³n": 4844,
      "unca": 4845,
      "Ġescrib": 4846,
      "ĠConsejo": 4847,
      "Ġabs": 4848,
      "task": 4849,
      "uint": 4850,
      "ĠMÃ©": 4851,
      "Ġinfo": 4852,
      "ä½": 4853,
      "Ġniin": 4854,
      "uj": 4855,
      "Ġking": 4856,
      "Ġabsol": 4857,
      "Ġyear": 4858,
      "Ġanything": 4859,
      "ĠPaul": 4860,
      "Ġproto": 4861,
      "design": 4862,
      "acy": 4863,
      "ause": 4864,
      "Ad": 4865,
      "Auth": 4866,
      "Ġhumanos": 4867,
      "Ġfeet": 4868,
      "Ġ>=": 4869,
      "Ġ${": 4870,
      "Ġlado": 4871,
      "elig": 4872,
      "Ġbytes": 4873,
      "bool": 4874,
      "Ġcentro": 4875,
      "Ġaccept": 4876,
      "uments": 4877,
      "ĠPython": 4878,
      "Ġnom": 4879,
      "What": 4880,
      ".)": 4881,
      "\"))": 4882,
      "Ġremo": 4883,
      "Ġappend": 4884,
      "Ġblan": 4885,
      "Start": 4886,
      "sort": 4887,
      "Ġmac": 4888,
      "shal": 4889,
      "Ġstrong": 4890,
      "Ġfrente": 4891,
      "ĠseÃ±al": 4892,
      "Ġnormal": 4893,
      "Ġpropied": 4894,
      "ola": 4895,
      "cepto": 4896,
      "ĠDurante": 4897,
      "esome": 4898,
      "Ġsun": 4899,
      "Ġdeber": 4900,
      "Ġdiciembre": 4901,
      "Ġban": 4902,
      "Ã¡b": 4903,
      "ĠXV": 4904,
      "ĠSp": 4905,
      "Ã´": 4906,
      "ĠEm": 4907,
      "iet": 4908,
      "store": 4909,
      "Ġinclud": 4910,
      "Ġoften": 4911,
      "fully": 4912,
      "Open": 4913,
      "Ġconten": 4914,
      "rÃ³": 4915,
      "cient": 4916,
      "ensions": 4917,
      "Ġoperation": 4918,
      "det": 4919,
      "áº": 4920,
      ".\"\"\"": 4921,
      "Ġavec": 4922,
      "Ġsecret": 4923,
      "ĠArray": 4924,
      "ĠÃ©x": 4925,
      "enty": 4926,
      "Ġnames": 4927,
      "Ġbur": 4928,
      "enda": 4929,
      "Ġreadonly": 4930,
      "zen": 4931,
      "ĠDefault": 4932,
      "Ġfellow": 4933,
      "Ġlanguage": 4934,
      "ĠTur": 4935,
      "Ġprimeros": 4936,
      "Ġpract": 4937,
      "RA": 4938,
      "ued": 4939,
      "ĠRed": 4940,
      "ogn": 4941,
      "Ġjunio": 4942,
      "Ġaff": 4943,
      "ources": 4944,
      "Ġcontinue": 4945,
      "ĠÙ": 4946,
      "buffer": 4947,
      "Ġorigin": 4948,
      "ĠQuij": 4949,
      "ĠAsÃŃ": 4950,
      "Ġearth": 4951,
      "Ġmagn": 4952,
      "'d": 4953,
      "rate": 4954,
      "Ã¡f": 4955,
      "ĠÃ©t": 4956,
      "****************": 4957,
      "ĠnÃ¤": 4958,
      "ements": 4959,
      "pool": 4960,
      "ĠcÃ©lulas": 4961,
      "Pol": 4962,
      "Ġemit": 4963,
      "='": 4964,
      "Ġappear": 4965,
      "cios": 4966,
      "81": 4967,
      "User": 4968,
      "step": 4969,
      "Ġdistribu": 4970,
      "lat": 4971,
      "Ġcop": 4972,
      "ories": 4973,
      "ansa": 4974,
      "Ġcity": 4975,
      "itive": 4976,
      "Ġnous": 4977,
      "cons": 4978,
      "isto": 4979,
      "Ġproblema": 4980,
      "Ġcirc": 4981,
      "Ġtuple": 4982,
      "Ġcut": 4983,
      "produ": 4984,
      "Ġbatch": 4985,
      "img": 4986,
      "45": 4987,
      "Ġ64": 4988,
      "Ġtab": 4989,
      "gles": 4990,
      "ĠArg": 4991,
      "Ġsociedad": 4992,
      "Ġproyecto": 4993,
      "Ġsav": 4994,
      "ZE": 4995,
      "quitect": 4996,
      "Ġjulio": 4997,
      "35": 4998,
      "Ġlibre": 4999,
      "Ġservicios": 5000,
      "Return": 5001,
      "kg": 5002,
      "cted": 5003,
      "came": 5004,
      "uy": 5005,
      "ĠXI": 5006,
      "Cache": 5007,
      "Ġluz": 5008,
      "Ġacross": 5009,
      "Ġseptiembre": 5010,
      "TE": 5011,
      "ATE": 5012,
      "Ġlabel": 5013,
      "Ġcare": 5014,
      "Target": 5015,
      "ientÃŃf": 5016,
      "Ġlearn": 5017,
      "Ġdeta": 5018,
      "Ġaspect": 5019,
      "apa": 5020,
      "precated": 5021,
      "NA": 5022,
      "das": 5023,
      "Ġheight": 5024,
      "ification": 5025,
      "ĠQuijote": 5026,
      "Sl": 5027,
      "ificar": 5028,
      "Hel": 5029,
      "Ġcause": 5030,
      "Sec": 5031,
      "Ġgone": 5032,
      "ensiÃ³n": 5033,
      "ĠcompaÃ±": 5034,
      "vÃ¤": 5035,
      "Ġaud": 5036,
      "izado": 5037,
      "Ġcover": 5038,
      "ðŁ": 5039,
      "cias": 5040,
      "Ġ[\"": 5041,
      "512": 5042,
      "idget": 5043,
      "ĠaÃºn": 5044,
      "Ġanun": 5045,
      "Ġ!==": 5046,
      "Ġgrupos": 5047,
      "Ġ--------": 5048,
      "à¯į": 5049,
      "Ġfirm": 5050,
      "Ġ\"\"": 5051,
      "Ġhope": 5052,
      "Ġcosas": 5053,
      "ĠFrom": 5054,
      "sup": 5055,
      "ĠMay": 5056,
      "pc": 5057,
      "Ġpuer": 5058,
      "Ġorg": 5059,
      "Ġpartido": 5060,
      "ĠUniÃ³n": 5061,
      "umb": 5062,
      "Create": 5063,
      "tokens": 5064,
      "Ġlabor": 5065,
      "service": 5066,
      "Ġtim": 5067,
      "Ġsegunda": 5068,
      "annot": 5069,
      "enn": 5070,
      "Ã¢": 5071,
      "Ġinfer": 5072,
      "ĠrÃ¡p": 5073,
      "ĠÃ©poca": 5074,
      "Ġrequire": 5075,
      "Ġperman": 5076,
      "Ġinstant": 5077,
      "Statement": 5078,
      "Store": 5079,
      "meta": 5080,
      "ship": 5081,
      "Ġlonger": 5082,
      "ĠOption": 5083,
      "ving": 5084,
      "ying": 5085,
      "collection": 5086,
      "Ġmais": 5087,
      "Ġ50": 5088,
      "Ġmol": 5089,
      "emon": 5090,
      "Ġimportantes": 5091,
      "graph": 5092,
      "ĠRobert": 5093,
      "Ġmaster": 5094,
      "ibility": 5095,
      "Ġpadre": 5096,
      "pÃºblica": 5097,
      "Ġcrate": 5098,
      "null": 5099,
      "Ġcel": 5100,
      "Ġdet": 5101,
      "ottom": 5102,
      "Ġtitle": 5103,
      "Ġjok": 5104,
      "enses": 5105,
      "Ġtool": 5106,
      "ĠcomÃºn": 5107,
      "Ġjuego": 5108,
      "Ġtur": 5109,
      "toBe": 5110,
      "Ġmuest": 5111,
      "ĠHen": 5112,
      "ho": 5113,
      "Ã¡lisis": 5114,
      "rot": 5115,
      "Ġseveral": 5116,
      "cience": 5117,
      "Ġcantidad": 5118,
      "mark": 5119,
      "ĠMundial": 5120,
      "Ġ_{": 5121,
      "eline": 5122,
      "Ġcho": 5123,
      "Ġvot": 5124,
      "ĠCheck": 5125,
      "Ġbecame": 5126,
      "Ġreq": 5127,
      "ĠGer": 5128,
      "Parameter": 5129,
      "End": 5130,
      "ĠDel": 5131,
      "Ġheld": 5132,
      "Ġpesar": 5133,
      "iado": 5134,
      "names": 5135,
      "Ġadopt": 5136,
      "Ġfriends": 5137,
      "Ġreconoci": 5138,
      "Ġsudden": 5139,
      "istencia": 5140,
      "Ġley": 5141,
      "Ġbehind": 5142,
      "ĠlÃŃnea": 5143,
      "unid": 5144,
      "ÑģÑĤ": 5145,
      "Part": 5146,
      "Ġagr": 5147,
      "71": 5148,
      "ÑĮ": 5149,
      "ĠpodrÃŃa": 5150,
      "Ġnorte": 5151,
      "teriormente": 5152,
      "Ġobser": 5153,
      "Ġregard": 5154,
      "cÃ³": 5155,
      "Identifier": 5156,
      "Ġpud": 5157,
      "Ġlin": 5158,
      "anger": 5159,
      "Ġnoviembre": 5160,
      "ĠcientÃŃf": 5161,
      "Ġord": 5162,
      "Ġpermite": 5163,
      "Ġsociales": 5164,
      "Ġminutes": 5165,
      "VER": 5166,
      "ampl": 5167,
      "ĠTra": 5168,
      "Ġoctubre": 5169,
      "Ġmarzo": 5170,
      "where": 5171,
      "ĠLog": 5172,
      "auto": 5173,
      "Handler": 5174,
      "Ġresultado": 5175,
      "metadata": 5176,
      "Ġpersona": 5177,
      "Ġnature": 5178,
      "Ġalone": 5179,
      "Ġeso": 5180,
      "Ġstre": 5181,
      "Ġcad": 5182,
      "Ġdicho": 5183,
      "Ġwish": 5184,
      "ĠserÃŃa": 5185,
      "pha": 5186,
      "Ġaround": 5187,
      "Ġcandid": 5188,
      "stit": 5189,
      "isiones": 5190,
      "85": 5191,
      "anas": 5192,
      "range": 5193,
      "Ġparameter": 5194,
      "\")]": 5195,
      "ĠgÃ©n": 5196,
      "ĠcÃ³mo": 5197,
      "berg": 5198,
      "ucle": 5199,
      "rar": 5200,
      "Ġhombres": 5201,
      "Ġdescription": 5202,
      "scale": 5203,
      "Oh": 5204,
      "tw": 5205,
      "ĠPort": 5206,
      "adora": 5207,
      "Ġdear": 5208,
      "Ġnego": 5209,
      "Ġka": 5210,
      "Ġfront": 5211,
      "Ġproperty": 5212,
      "Label": 5213,
      "72": 5214,
      "Range": 5215,
      "lab": 5216,
      "uter": 5217,
      "annel": 5218,
      "omet": 5219,
      "ĠPre": 5220,
      "Ġ'@": 5221,
      "Ġsend": 5222,
      "Ã¡uo": 5223,
      "Ġhistor": 5224,
      "Ġtarde": 5225,
      "aged": 5226,
      "ĠDon": 5227,
      "trol": 5228,
      "alg": 5229,
      "ĠSE": 5230,
      "Ġrespecto": 5231,
      "ĠtÃ©rmino": 5232,
      "Ġground": 5233,
      "oll": 5234,
      "igger": 5235,
      "gre": 5236,
      "ĠMat": 5237,
      "95": 5238,
      "Null": 5239,
      "forma": 5240,
      "pid": 5241,
      "Ġmetadata": 5242,
      "ĠNueva": 5243,
      "tom": 5244,
      "decl": 5245,
      "bound": 5246,
      "Ġquick": 5247,
      "acity": 5248,
      "train": 5249,
      "actions": 5250,
      "Foot": 5251,
      "Tensor": 5252,
      "Ġconstruct": 5253,
      "runtime": 5254,
      "ĠsituaciÃ³n": 5255,
      "Ġsatisf": 5256,
      "ĠOpen": 5257,
      "arge": 5258,
      "ech": 5259,
      "Ġinitial": 5260,
      "xico": 5261,
      "Ġstore": 5262,
      "Ġsave": 5263,
      "curr": 5264,
      "Ġmedida": 5265,
      "ges": 5266,
      "pass": 5267,
      "Ġcalcul": 5268,
      "light": 5269,
      "Ġresid": 5270,
      "Ġofre": 5271,
      "engine": 5272,
      "Ġsrc": 5273,
      "Ø±": 5274,
      "igos": 5275,
      "[:": 5276,
      "older": 5277,
      "82": 5278,
      "uge": 5279,
      "ĠEntre": 5280,
      "ĠSymbol": 5281,
      "emo": 5282,
      "msg": 5283,
      "Ġast": 5284,
      "Ð¿": 5285,
      "Ġaus": 5286,
      "Ġquer": 5287,
      "![": 5288,
      "Ġhath": 5289,
      "ĠCON": 5290,
      "Ġskip": 5291,
      "Header": 5292,
      "Ġaquell": 5293,
      "Ġreun": 5294,
      "Ġreceived": 5295,
      "Ġparameters": 5296,
      "Ġlady": 5297,
      "Pre": 5298,
      "romise": 5299,
      "Ġcentral": 5300,
      "]]": 5301,
      "ĠÃ³r": 5302,
      "aca": 5303,
      ")))": 5304,
      "Ġstud": 5305,
      "utta": 5306,
      "Format": 5307,
      "ĠNote": 5308,
      "42": 5309,
      "sche": 5310,
      "Ġub": 5311,
      "Ġconfiguration": 5312,
      "ename": 5313,
      "Ġsix": 5314,
      "Ġps": 5315,
      "ĠState": 5316,
      "itude": 5317,
      "ĠtÃŃt": 5318,
      "Ġflow": 5319,
      "Ġrecursos": 5320,
      "adow": 5321,
      "ĠBer": 5322,
      "ĠJos": 5323,
      "Ġprincipio": 5324,
      "Vari": 5325,
      "split": 5326,
      "ĠĠĠĠĠĠĠĠĠĠĠĠĠĠ": 5327,
      "isl": 5328,
      "Ġwhy": 5329,
      "script": 5330,
      "cious": 5331,
      "Ġbecome": 5332,
      "ĠID": 5333,
      "ironment": 5334,
      "tensor": 5335,
      "Ġlow": 5336,
      "Ġprincipios": 5337,
      "Ġsenci": 5338,
      "ĠDesde": 5339,
      "ĠSoci": 5340,
      "ĠAfter": 5341,
      "Fields": 5342,
      "Ġcinco": 5343,
      "Ġlim": 5344,
      "commit": 5345,
      "Ġunderstand": 5346,
      "Ġoffset": 5347,
      "ploy": 5348,
      "ĠNaciones": 5349,
      "Ġsupported": 5350,
      "Ġwidth": 5351,
      "band": 5352,
      "Ġnuevas": 5353,
      "Local": 5354,
      "Ġaction": 5355,
      "Ġnamespace": 5356,
      "ĠMic": 5357,
      "ranch": 5358,
      "Ġfilter": 5359,
      "account": 5360,
      "omic": 5361,
      "Provider": 5362,
      "ĠHere": 5363,
      "Ġobjetivo": 5364,
      "cket": 5365,
      "Ġmulti": 5366,
      "Like": 5367,
      "ĠvÃŃ": 5368,
      "mÃ¤": 5369,
      "Ġespec": 5370,
      "rado": 5371,
      "Ġcarg": 5372,
      "aring": 5373,
      "ĠmÃŃ": 5374,
      "Ġayud": 5375,
      "Lay": 5376,
      "Ġthrow": 5377,
      "Ġalto": 5378,
      "Ġescal": 5379,
      "jas": 5380,
      "!(\"": 5381,
      "Ġagosto": 5382,
      "optional": 5383,
      "ĠPe": 5384,
      "Write": 5385,
      "Ġabril": 5386,
      "mac": 5387,
      "orge": 5388,
      "Ġpuesto": 5389,
      "Ġrey": 5390,
      "ijk": 5391,
      "Column": 5392,
      "OK": 5393,
      "portun": 5394,
      "Can": 5395,
      "dot": 5396,
      "height": 5397,
      "Ġdispon": 5398,
      "Ġsentido": 5399,
      "ĠSch": 5400,
      "cup": 5401,
      "ifica": 5402,
      "Ġreplied": 5403,
      "Ġthread": 5404,
      "Ġvector": 5405,
      "lamento": 5406,
      "Fil": 5407,
      "hs": 5408,
      "ians": 5409,
      "Ġwrap": 5410,
      "Ġvideo": 5411,
      "URL": 5412,
      "Ġib": 5413,
      "Ġestad": 5414,
      "Ġsoul": 5415,
      "ĠGran": 5416,
      "ĠCons": 5417,
      "Ġkeys": 5418,
      "Ġestadounid": 5419,
      "ualmente": 5420,
      "tool": 5421,
      "ĠValueError": 5422,
      "\\\\": 5423,
      "Ġfaci": 5424,
      "Ġ(*": 5425,
      "Ġable": 5426,
      "tained": 5427,
      "park": 5428,
      "Ġmel": 5429,
      "ĠEngland": 5430,
      "brero": 5431,
      "ĠBrit": 5432,
      "ĠFe": 5433,
      "ĠWhy": 5434,
      "amento": 5435,
      "import": 5436,
      "ĠUse": 5437,
      "ingly": 5438,
      "axis": 5439,
      "Ġsex": 5440,
      "exec": 5441,
      "Footnote": 5442,
      "CI": 5443,
      "APTER": 5444,
      "header": 5445,
      "Ġok": 5446,
      "imum": 5447,
      "Ġvig": 5448,
      "ĠObject": 5449,
      "Ġnunca": 5450,
      "Ġenero": 5451,
      "ĠTw": 5452,
      "Ġprofes": 5453,
      "46": 5454,
      "Ġtipos": 5455,
      "Ġconnect": 5456,
      "false": 5457,
      "ĠUnidas": 5458,
      "Ġherman": 5459,
      "90": 5460,
      "Length": 5461,
      "sera": 5462,
      "Ġllamado": 5463,
      "ĠregiÃ³n": 5464,
      "Ð·": 5465,
      "Ġsomet": 5466,
      "ingu": 5467,
      "Ġaband": 5468,
      "ĠÐ²": 5469,
      "clam": 5470,
      "Ġantigu": 5471,
      "amientos": 5472,
      "Ac": 5473,
      "Yes": 5474,
      "Ġremove": 5475,
      "ulaciÃ³n": 5476,
      "claim": 5477,
      "Ġnecessary": 5478,
      "ferencias": 5479,
      "ops": 5480,
      "ĠAlgun": 5481,
      "Ġinstrument": 5482,
      "Ġ\"/": 5483,
      "aga": 5484,
      "apter": 5485,
      "ham": 5486,
      "Ġnone": 5487,
      "Ġpartes": 5488,
      "Ġhol": 5489,
      "property": 5490,
      "Ġwatch": 5491,
      "Ġinsp": 5492,
      "Ġespecialmente": 5493,
      "çĶ": 5494,
      "python": 5495,
      "Ġmonth": 5496,
      "Ġorigen": 5497,
      "Ġcondiciones": 5498,
      "zy": 5499,
      "should": 5500,
      "aleza": 5501,
      "Ġbelow": 5502,
      "96": 5503,
      "VE": 5504,
      "copy": 5505,
      "ostr": 5506,
      "eds": 5507,
      "idor": 5508,
      "Ġproporcion": 5509,
      "Ġencuentra": 5510,
      "Direct": 5511,
      "Ġbring": 5512,
      "INT": 5513,
      "Ġafect": 5514,
      "Ġspecific": 5515,
      "Ġcuanto": 5516,
      "ĠserÃ¡": 5517,
      "SIZE": 5518,
      "Ġdio": 5519,
      "Ã©tico": 5520,
      "ocr": 5521,
      "Ġenfermed": 5522,
      "Ġrock": 5523,
      "HT": 5524,
      "Ġinici": 5525,
      "ĠId": 5526,
      "Ġimpos": 5527,
      "Rel": 5528,
      "Ġbad": 5529,
      "ĠdÃ©cada": 5530,
      "Ġregular": 5531,
      "ĠCHAPTER": 5532,
      "Ġmark": 5533,
      "AND": 5534,
      "Ġaproxim": 5535,
      "iously": 5536,
      "Ġindeed": 5537,
      "Ġlost": 5538,
      "Ġpropio": 5539,
      "Ð½Ð¸": 5540,
      "Ġdoubt": 5541,
      "abl": 5542,
      "ĠOR": 5543,
      "insert": 5544,
      "Ġentry": 5545,
      "III": 5546,
      "puesto": 5547,
      "Ġoficial": 5548,
      "ĠRE": 5549,
      "Ġrealidad": 5550,
      "Update": 5551,
      "UP": 5552,
      "Ġhers": 5553,
      "Ġtown": 5554,
      "Ġocas": 5555,
      "Ġsuperior": 5556,
      "ĠCall": 5557,
      "Ġaltern": 5558,
      "Ġcontainer": 5559,
      "etes": 5560,
      "Ġavailable": 5561,
      "plied": 5562,
      "Ġurl": 5563,
      ")(": 5564,
      "Ġcommit": 5565,
      "bin": 5566,
      "Ġgente": 5567,
      "ema": 5568,
      "Ġattem": 5569,
      "Ġwonder": 5570,
      "Over": 5571,
      "usiÃ³n": 5572,
      "INE": 5573,
      "inner": 5574,
      "Change": 5575,
      "Ġfuerzas": 5576,
      "Ġfive": 5577,
      "Ġconc": 5578,
      "pez": 5579,
      "comple": 5580,
      "Ġdefine": 5581,
      "Ġinteres": 5582,
      "If": 5583,
      "uz": 5584,
      "Ġmoney": 5585,
      "Ġconnection": 5586,
      "Ġlibrary": 5587,
      ".[": 5588,
      "Ġpattern": 5589,
      "ĠÃ©xito": 5590,
      "ority": 5591,
      "Ã©ase": 5592,
      "Ġprem": 5593,
      "---": 5594,
      "transform": 5595,
      "Ġ'./": 5596,
      "iese": 5597,
      "ĠCopyright": 5598,
      "ĠVec": 5599,
      "Ġmine": 5600,
      "anged": 5601,
      "Ġengine": 5602,
      "estamp": 5603,
      "Ġtill": 5604,
      "teriores": 5605,
      "Ġarquitect": 5606,
      "Decl": 5607,
      "Ġio": 5608,
      "ĠVer": 5609,
      "ĠrÃŃo": 5610,
      "items": 5611,
      "Ed": 5612,
      "unta": 5613,
      "Ġvec": 5614,
      "ĠMag": 5615,
      "tact": 5616,
      "Ġobst": 5617,
      "ĠMÃ©xico": 5618,
      "ising": 5619,
      "Ġcumpl": 5620,
      "Ġdue": 5621,
      "Ġou": 5622,
      "ĠÂ»": 5623,
      "Ġalguna": 5624,
      "dp": 5625,
      "Ġë": 5626,
      "Ġmujeres": 5627,
      "Ġbrother": 5628,
      "Ġrep": 5629,
      "Ġcommun": 5630,
      "ĠDav": 5631,
      "Ġestructura": 5632,
      "ĠcomenzÃ³": 5633,
      "æĸ": 5634,
      "apping": 5635,
      "Ġideas": 5636,
      ",'": 5637,
      "vue": 5638,
      "ĠUp": 5639,
      "ÑĢÐ°": 5640,
      "ĠFrance": 5641,
      "Async": 5642,
      "'ve": 5643,
      "iam": 5644,
      "Ġtales": 5645,
      "Ġupd": 5646,
      "ĠkÃ¤": 5647,
      "Ġcelebr": 5648,
      "Ñĩ": 5649,
      "Ġready": 5650,
      "Debug": 5651,
      "ez": 5652,
      "iagnostics": 5653,
      "Ġconci": 5654,
      "ĠJo": 5655,
      "91": 5656,
      "Ġfuerza": 5657,
      "'m": 5658,
      "Ġtierra": 5659,
      "Ġapart": 5660,
      "imas": 5661,
      "ĠNacional": 5662,
      "Ġuses": 5663,
      "Ġspirit": 5664,
      "Ġavait": 5665,
      "Instance": 5666,
      "Ġinclude": 5667,
      "Ġcold": 5668,
      "Ġacept": 5669,
      "culo": 5670,
      "Ġquier": 5671,
      "ĠCreate": 5672,
      "(`": 5673,
      "App": 5674,
      "Ġpreg": 5675,
      "Ġrunning": 5676,
      "async": 5677,
      "Ġcuerpo": 5678,
      "Ġ((": 5679,
      "Ġadm": 5680,
      "La": 5681,
      "yd": 5682,
      "Record": 5683,
      "Ġcort": 5684,
      "Ġconoc": 5685,
      "ÃŃgen": 5686,
      "chunk": 5687,
      "Ġextr": 5688,
      "Ġorient": 5689,
      "Ġclar": 5690,
      "Ġprimero": 5691,
      "Ġvac": 5692,
      "Ġmedidas": 5693,
      "icon": 5694,
      "Ġrema": 5695,
      "Ġgas": 5696,
      "expr": 5697,
      "Resource": 5698,
      "NO": 5699,
      "Ġdraw": 5700,
      "Ġentire": 5701,
      "Ġcasos": 5702,
      "expression": 5703,
      "Ġcreated": 5704,
      "Ġbusiness": 5705,
      "Ġefecto": 5706,
      "erved": 5707,
      "arrow": 5708,
      "Ġvoc": 5709,
      "Ġ22": 5710,
      "Ġcompl": 5711,
      "cheduler": 5712,
      "Ġmaking": 5713,
      "antas": 5714,
      "Ġejecut": 5715,
      "Ġslow": 5716,
      "Ã¡nica": 5717,
      "Ġlie": 5718,
      "etas": 5719,
      "ĠAunque": 5720,
      "prefix": 5721,
      "Ġfinales": 5722,
      "uta": 5723,
      "Ġaz": 5724,
      "Ġhur": 5725,
      "Ġlive": 5726,
      "Ġlik": 5727,
      "Ġole": 5728,
      "Ġheader": 5729,
      "ĠJuan": 5730,
      "pring": 5731,
      "Ġdistributed": 5732,
      "Ġincor": 5733,
      "pop": 5734,
      "Ġprecis": 5735,
      "ium": 5736,
      "Ġdice": 5737,
      "Ġschema": 5738,
      "Offset": 5739,
      "Ġtrib": 5740,
      "Ġmir": 5741,
      "Ġattention": 5742,
      "printf": 5743,
      "imos": 5744,
      "Ġtherefore": 5745,
      "Ġpagc": 5746,
      "Ġeff": 5747,
      "ĠNum": 5748,
      "Ġresp": 5749,
      "ĠsÃ©": 5750,
      "etime": 5751,
      "Ġconvers": 5752,
      "aza": 5753,
      "Ġindividual": 5754,
      "Ġbi": 5755,
      "stable": 5756,
      "Ġdeben": 5757,
      "Ġworks": 5758,
      "ĠRepÃºblica": 5759,
      "Ġmultiple": 5760,
      "Ġdom": 5761,
      "STR": 5762,
      "ails": 5763,
      "Ġcabo": 5764,
      "iso": 5765,
      "ragment": 5766,
      "enso": 5767,
      "Ġzona": 5768,
      "Ġalloc": 5769,
      "Ġservicio": 5770,
      "ĠList": 5771,
      "that": 5772,
      "ĠHar": 5773,
      "strucciÃ³n": 5774,
      "ĠâĢĵ": 5775,
      "Ġdiscover": 5776,
      "Ġproductos": 5777,
      "Ġblood": 5778,
      "\").": 5779,
      "hi": 5780,
      "Ġhappen": 5781,
      "nn": 5782,
      "Ġdeep": 5783,
      "Ġignore": 5784,
      "find": 5785,
      "ises": 5786,
      "endif": 5787,
      "ategy": 5788,
      "frac": 5789,
      "Ġpose": 5790,
      "Ġaccord": 5791,
      "Ġnada": 5792,
      "Ġmercado": 5793,
      "ĠCong": 5794,
      "ĠMal": 5795,
      "ĠpÃºblico": 5796,
      "Ġnuevos": 5797,
      "long": 5798,
      "Ġloss": 5799,
      "rl": 5800,
      "Ġmand": 5801,
      "Ġarguments": 5802,
      "Ġsweet": 5803,
      "Ġfra": 5804,
      "Ġfot": 5805,
      "auth": 5806,
      "Max": 5807,
      "ilos": 5808,
      "ively": 5809,
      "Ġcallback": 5810,
      "Ġkuin": 5811,
      "Ġdit": 5812,
      "ĠAmerican": 5813,
      "Ġlad": 5814,
      "Ãºtbol": 5815,
      "Ġconocido": 5816,
      "UB": 5817,
      "Resol": 5818,
      "âĶĢâĶĢâĶĢâĶĢ": 5819,
      "Exception": 5820,
      "Ġ(_": 5821,
      "Ġfoot": 5822,
      "Ġcerca": 5823,
      "Ġbelieve": 5824,
      "Ġfunciones": 5825,
      "Co": 5826,
      "ĠhistÃ³r": 5827,
      "Ġconsist": 5828,
      "ĠIII": 5829,
      "Ġadapt": 5830,
      "ĠAleman": 5831,
      "issues": 5832,
      "CO": 5833,
      "Ġsost": 5834,
      "Ġlock": 5835,
      "ĠCopa": 5836,
      "before": 5837,
      "impl": 5838,
      "ĠAnton": 5839,
      "Ġmanner": 5840,
      "number": 5841,
      "page": 5842,
      "Ġeye": 5843,
      "signment": 5844,
      "ĠTras": 5845,
      "ferencia": 5846,
      "ORT": 5847,
      "olo": 5848,
      "ĠmÃ¡xim": 5849,
      "Ġaquel": 5850,
      "ĠAct": 5851,
      "ughter": 5852,
      "Ġapare": 5853,
      "Ġbrit": 5854,
      "ĠWest": 5855,
      "Ġfamilia": 5856,
      "Ġapoyo": 5857,
      "Ġgirl": 5858,
      "Ġdro": 5859,
      "ĠSegÃºn": 5860,
      "IG": 5861,
      "Ġran": 5862,
      "Ġfamily": 5863,
      "Ġdefined": 5864,
      "Ġlibro": 5865,
      "aset": 5866,
      "azo": 5867,
      "Ġoccas": 5868,
      "safe": 5869,
      "nos": 5870,
      "Ġwall": 5871,
      "ĠconvirtiÃ³": 5872,
      "Ġstatement": 5873,
      "Ġremember": 5874,
      "iful": 5875,
      "stats": 5876,
      "ponents": 5877,
      "ÑĤÐµ": 5878,
      "rt": 5879,
      "Ġcy": 5880,
      "Ġ32": 5881,
      "Ġinstitu": 5882,
      "ĠAmÃ©rica": 5883,
      "Ġjur": 5884,
      "ĠclÃ¡s": 5885,
      "Ġ<=": 5886,
      "isolate": 5887,
      "rupt": 5888,
      "LS": 5889,
      "Ġfine": 5890,
      "ienen": 5891,
      "logger": 5892,
      "Ġobjects": 5893,
      "samples": 5894,
      "nd": 5895,
      "Color": 5896,
      "Ġ['": 5897,
      "pto": 5898,
      "Ġelimin": 5899,
      "ĠGuerra": 5900,
      "astic": 5901,
      "ocidad": 5902,
      "orithm": 5903,
      "Ġsed": 5904,
      "Ġformas": 5905,
      "coursera": 5906,
      "bro": 5907,
      "izada": 5908,
      "Ġaux": 5909,
      "quir": 5910,
      "SSL": 5911,
      "PRO": 5912,
      "Ġcri": 5913,
      "ĠCode": 5914,
      "Ġresults": 5915,
      "Ġvuest": 5916,
      "Ġemp": 5917,
      "cop": 5918,
      "Ġtrop": 5919,
      "READ": 5920,
      "Ġellas": 5921,
      "orig": 5922,
      "Ġhours": 5923,
      "Ġdisput": 5924,
      "Container": 5925,
      "Ġfeature": 5926,
      "template": 5927,
      "Ġfebrero": 5928,
      "Ġ978": 5929,
      "ULT": 5930,
      "Ġmiles": 5931,
      "Ġnoble": 5932,
      "addr": 5933,
      "ĠJean": 5934,
      "Ġtensor": 5935,
      "Ġbig": 5936,
      "ĠBO": 5937,
      "ierto": 5938,
      "Ġage": 5939,
      "ABLE": 5940,
      "Ġconform": 5941,
      "Ġanswer": 5942,
      "entry": 5943,
      "Ġprevent": 5944,
      "Ġmedios": 5945,
      "Ġtemporada": 5946,
      "Cla": 5947,
      "depend": 5948,
      "Ġfunctions": 5949,
      "Ġaprend": 5950,
      "sv": 5951,
      "ĠMiss": 5952,
      "Ġrevol": 5953,
      "ĠanÃ¡lisis": 5954,
      "Ġpolit": 5955,
      "Ġworth": 5956,
      "rededor": 5957,
      "Ġtag": 5958,
      "Ġstra": 5959,
      "ãĢģ": 5960,
      "ĠÑģ": 5961,
      "none": 5962,
      "inn": 5963,
      "Ġ23": 5964,
      "gine": 5965,
      "Ġital": 5966,
      "Ġemper": 5967,
      "ĠinvestigaciÃ³n": 5968,
      "ben": 5969,
      "anges": 5970,
      "Ġobjeto": 5971,
      "Ġcup": 5972,
      "celona": 5973,
      "rera": 5974,
      "Ġconserv": 5975,
      "ĠHTTP": 5976,
      "Ġvariable": 5977,
      "Page": 5978,
      "grafÃŃa": 5979,
      "Ġcou": 5980,
      "arqu": 5981,
      "Op": 5982,
      "Ġcrist": 5983,
      "entina": 5984,
      "Ġjoka": 5985,
      "Ġpint": 5986,
      "Ġfell": 5987,
      "Ġambos": 5988,
      "Ġapply": 5989,
      "================": 5990,
      "ITH": 5991,
      "Ġallowed": 5992,
      "ledge": 5993,
      "Ġvie": 5994,
      "Ã³digo": 5995,
      "Ġespect": 5996,
      "orrow": 5997,
      "illas": 5998,
      "erry": 5999,
      "indows": 6000,
      "Ġlenguaje": 6001,
      "Ġdetect": 6002,
      "Min": 6003,
      "Ġmask": 6004,
      "Ġconcepto": 6005,
      "Ġalcanz": 6006,
      "Init": 6007,
      "Ġflags": 6008,
      "Ġcombin": 6009,
      "Ġwel": 6010,
      "Ġata": 6011,
      "stract": 6012,
      "ĠMart": 6013,
      "ported": 6014,
      "Ġauth": 6015,
      "frica": 6016,
      "Metadata": 6017,
      "isen": 6018,
      "Ġperhaps": 6019,
      "Ġpresidente": 6020,
      ">;": 6021,
      "rio": 6022,
      "Ġsang": 6023,
      "Ġ28": 6024,
      "Ġfacil": 6025,
      "hes": 6026,
      "Ġprove": 6027,
      "Ġrend": 6028,
      "Ġnote": 6029,
      "Ġpeace": 6030,
      "ague": 6031,
      "Ġcomes": 6032,
      "ĠLat": 6033,
      "ney": 6034,
      "Ġsalud": 6035,
      "Ġestaban": 6036,
      "vector": 6037,
      "Ġcoming": 6038,
      "oles": 6039,
      "rie": 6040,
      "Ġelements": 6041,
      "Address": 6042,
      "Ġavoid": 6043,
      "Ġcub": 6044,
      "Ġ27": 6045,
      "ĠFun": 6046,
      "ĠOl": 6047,
      "IA": 6048,
      "Ġtruth": 6049,
      "Ġcontains": 6050,
      "`]": 6051,
      "ĠEj": 6052,
      "Ġtit": 6053,
      "iÃ©nd": 6054,
      "ĠLLVM": 6055,
      "ĠTom": 6056,
      "unic": 6057,
      "ĠBarcelona": 6058,
      "ĠAlemania": 6059,
      "92": 6060,
      "Ġdado": 6061,
      "ideos": 6062,
      "Ġhijo": 6063,
      "Ġpray": 6064,
      "memory": 6065,
      "Ġvelocidad": 6066,
      "proto": 6067,
      "Ð¾Ð²": 6068,
      "Schema": 6069,
      "uid": 6070,
      "Ġsight": 6071,
      "Ġhus": 6072,
      "ĠBal": 6073,
      "Ġimmedi": 6074,
      "Ġbatt": 6075,
      "åħ": 6076,
      "Ġ21": 6077,
      "Ġfuture": 6078,
      "Ġsleep": 6079,
      "ignment": 6080,
      "Ġkept": 6081,
      "Ġruntime": 6082,
      "awesome": 6083,
      "LOCK": 6084,
      "fficient": 6085,
      "Ã®": 6086,
      "Ġprotocol": 6087,
      "Ġsyn": 6088,
      "ĠCap": 6089,
      "ĠNOT": 6090,
      "Ġbackend": 6091,
      "Ġacceso": 6092,
      "thread": 6093,
      "ãģĻ": 6094,
      "Ġamor": 6095,
      "Ġswitch": 6096,
      "Ġcit": 6097,
      "ality": 6098,
      "Ġearly": 6099,
      "ĠChina": 6100,
      "ĠminÃ¤": 6101,
      "ĠImperio": 6102,
      "Ġcabe": 6103,
      "pull": 6104,
      "ett": 6105,
      "ĠFre": 6106,
      "itter": 6107,
      "Ġmano": 6108,
      "Ġcuar": 6109,
      "mÃ¡n": 6110,
      "usion": 6111,
      "pecif": 6112,
      "loss": 6113,
      "Ġfollowed": 6114,
      "Ġcross": 6115,
      "ria": 6116,
      "Ġpartidos": 6117,
      "Ġsuperfic": 6118,
      "files": 6119,
      "cher": 6120,
      "ĠSup": 6121,
      "vas": 6122,
      "eles": 6123,
      "Ġletter": 6124,
      "ighb": 6125,
      "uten": 6126,
      "Ġdouble": 6127,
      "column": 6128,
      "Ġabandon": 6129,
      "PC": 6130,
      "ucion": 6131,
      "Ġarms": 6132,
      "argin": 6133,
      "Ġped": 6134,
      "Ġforth": 6135,
      "Ġopts": 6136,
      "TYPE": 6137,
      "Ġhid": 6138,
      "Ġvista": 6139,
      "teen": 6140,
      "ayload": 6141,
      "Ġapi": 6142,
      "custom": 6143,
      "Ġpict": 6144,
      "Ġpuntos": 6145,
      "Ġreference": 6146,
      "Ġdirectory": 6147,
      "ĠEg": 6148,
      "ĠGra": 6149,
      "Ġremain": 6150,
      "Command": 6151,
      "Ġpros": 6152,
      "Ġschool": 6153,
      "Scope": 6154,
      "elen": 6155,
      "Ġextre": 6156,
      "cut": 6157,
      "Ġfen": 6158,
      "Exec": 6159,
      "Ġdiffic": 6160,
      "SQL": 6161,
      "iber": 6162,
      "tesis": 6163,
      "ĠMil": 6164,
      "Ġimper": 6165,
      "ancias": 6166,
      "Ġrequer": 6167,
      "aste": 6168,
      "ĠWell": 6169,
      "Ġchunk": 6170,
      "Reference": 6171,
      "ĠEstos": 6172,
      "cular": 6173,
      "ĠUniversidad": 6174,
      "RL": 6175,
      "got": 6176,
      "Ġces": 6177,
      "ivat": 6178,
      "Ġmeses": 6179,
      "Ġment": 6180,
      "Ġresultados": 6181,
      "features": 6182,
      "Ġrespuesta": 6183,
      "ained": 6184,
      "Ġtwenty": 6185,
      "Ġvariables": 6186,
      "Ġmethods": 6187,
      "Only": 6188,
      "ĠdiseÃ±o": 6189,
      "Ġkill": 6190,
      "ueblo": 6191,
      "Ġwomen": 6192,
      "Ã¡o": 6193,
      "âĢĶ,": 6194,
      "Ġ26": 6195,
      "atorio": 6196,
      "Ġinstall": 6197,
      "Ġimplementation": 6198,
      "lease": 6199,
      "Ġclean": 6200,
      "orÃŃas": 6201,
      "connect": 6202,
      "Ã¡ticos": 6203,
      "manager": 6204,
      "ige": 6205,
      "Ġnovel": 6206,
      "Ġdb": 6207,
      "Ġfi": 6208,
      ",--": 6209,
      "inct": 6210,
      "ony": 6211,
      "Ġparty": 6212,
      "Ġrich": 6213,
      "Ġ~": 6214,
      "ĠespecÃŃf": 6215,
      "Invalid": 6216,
      "button": 6217,
      "Ġacab": 6218,
      ">)": 6219,
      "Global": 6220,
      "ìĿ": 6221,
      "Ġmenor": 6222,
      "ĠPrim": 6223,
      "inf": 6224,
      "element": 6225,
      "Ġfailed": 6226,
      "rad": 6227,
      "Ġdepart": 6228,
      "ĠAh": 6229,
      "ĠpolÃŃticas": 6230,
      "Well": 6231,
      "cell": 6232,
      "otros": 6233,
      "Ġ29": 6234,
      "Ġactu": 6235,
      "ĠÃī": 6236,
      "Handle": 6237,
      "ĠDu": 6238,
      "Ġjson": 6239,
      "Ġpodr": 6240,
      "Ġlooking": 6241,
      "Ġactividades": 6242,
      "Ġlista": 6243,
      "Ġfer": 6244,
      "izes": 6245,
      "yÃ³": 6246,
      "inta": 6247,
      "Ġgust": 6248,
      "cb": 6249,
      "ernel": 6250,
      "Ġalgorit": 6251,
      "ĠpelÃŃcula": 6252,
      "fd": 6253,
      "riÃ³": 6254,
      "Ġpalabras": 6255,
      "gn": 6256,
      "alo": 6257,
      "ĠHay": 6258,
      "ĠParis": 6259,
      "Ġcrit": 6260,
      "Root": 6261,
      "ĠWhere": 6262,
      "sr": 6263,
      "erve": 6264,
      "Ġsolic": 6265,
      "Ġconqu": 6266,
      "ĠPat": 6267,
      "rible": 6268,
      "Ġfilos": 6269,
      "bel": 6270,
      "Ġcried": 6271,
      "Ġvill": 6272,
      "Ġcomme": 6273,
      "obern": 6274,
      "voke": 6275,
      "Ġderiv": 6276,
      "layer": 6277,
      "Ġherself": 6278,
      "Ġtoward": 6279,
      "Ġeleg": 6280,
      "igen": 6281,
      "ĠCos": 6282,
      "Ġestilo": 6283,
      "ARD": 6284,
      "wood": 6285,
      "Ġdra": 6286,
      "Ġcompat": 6287,
      "ĠAND": 6288,
      "Ġgarant": 6289,
      "eto": 6290,
      "ubern": 6291,
      "å¤": 6292,
      "izaje": 6293,
      "ĠStates": 6294,
      "Rem": 6295,
      "rito": 6296,
      "Ġestudios": 6297,
      "translation": 6298,
      "ĠÃºnico": 6299,
      ".\",": 6300,
      "AST": 6301,
      "Task": 6302,
      "ĠÃºltima": 6303,
      "props": 6304,
      "Ø§Ù": 6305,
      "parameters": 6306,
      "ĠĠĠĠĠĠĠĠĠĠĠĠĠĠĠĠĠĠĠĠĠ": 6307,
      "ogra": 6308,
      "Ġpresente": 6309,
      "Ġwind": 6310,
      "ĠCre": 6311,
      "Ġfeatures": 6312,
      "SC": 6313,
      "Ġsano": 6314,
      "Ġalta": 6315,
      ":**": 6316,
      "ÃŃos": 6317,
      "Ġtroub": 6318,
      "Ġlig": 6319,
      "izing": 6320,
      "very": 6321,
      "ĠRead": 6322,
      "Ġpaper": 6323,
      "Ġnuestro": 6324,
      "ĠdÃ³": 6325,
      "encion": 6326,
      "Ġcausa": 6327,
      "iden": 6328,
      "though": 6329,
      "Ġhumano": 6330,
      "Ġexiste": 6331,
      "ĠelectrÃ³n": 6332,
      "react": 6333,
      "nes": 6334,
      "Ġmakes": 6335,
      "Ġmostr": 6336,
      "ĠSeries": 6337,
      "Ġhorse": 6338,
      "(()": 6339,
      "`)": 6340,
      "Ġlink": 6341,
      "Ġunknown": 6342,
      "ĠMo": 6343,
      "comput": 6344,
      "Ġobj": 6345,
      "criptor": 6346,
      "Ġdevelop": 6347,
      "edding": 6348,
      "Ġattempt": 6349,
      "eless": 6350,
      "Ġfit": 6351,
      "Ġllegar": 6352,
      "Ġlic": 6353,
      "itan": 6354,
      "ĠclassName": 6355,
      "ardo": 6356,
      "Ġrob": 6357,
      "Ġproduce": 6358,
      "Ġconduct": 6359,
      "Ġaffect": 6360,
      "Ġdisplay": 6361,
      "Ġprincipalmente": 6362,
      "Ġbased": 6363,
      "idence": 6364,
      "Ġ2012": 6365,
      "RAN": 6366,
      "mary": 6367,
      "Ġmateria": 6368,
      "Ġretr": 6369,
      "Ġseis": 6370,
      "Ġstrings": 6371,
      "TO": 6372,
      "Ġalrededor": 6373,
      "ĠBol": 6374,
      "}{": 6375,
      "ĠSur": 6376,
      "Ġrealizar": 6377,
      "Ġreligios": 6378,
      "Ġoffer": 6379,
      "rank": 6380,
      "Ġcolumns": 6381,
      "ĠeconomÃŃa": 6382,
      "Meta": 6383,
      "ĠĠĠĠĠĠĠĠĠĠĠĠĠĠĠĠĠĠĠĠĠĠĠĠĠĠĠĠĠĠĠĠĠĠĠ": 6384,
      "Ġinsert": 6385,
      "Ġtowards": 6386,
      "ianos": 6387,
      "Ġbuena": 6388,
      "><": 6389,
      "Ġmist": 6390,
      "ĠExt": 6391,
      "ĠHash": 6392,
      "oco": 6393,
      "Ġmadre": 6394,
      "LAS": 6395,
      "Ġcrow": 6396,
      "Ġdiferencia": 6397,
      "render": 6398,
      "Ġconsid": 6399,
      "Shape": 6400,
      "Def": 6401,
      "Ġmort": 6402,
      "idores": 6403,
      "ãĥ³": 6404,
      "Ġllevar": 6405,
      "Ġfurther": 6406,
      "Ġreached": 6407,
      "Component": 6408,
      "ĠFrancis": 6409,
      "master": 6410,
      "VAL": 6411,
      "cen": 6412,
      "ĠJack": 6413,
      "ĠllegÃ³": 6414,
      "Ġnuestra": 6415,
      "ĠJosÃ©": 6416,
      "Ġhidden": 6417,
      "agement": 6418,
      "Ġ2020": 6419,
      "Ġsiguientes": 6420,
      "slot": 6421,
      "Ġzijn": 6422,
      "Ġcette": 6423,
      "ĠNeg": 6424,
      "icha": 6425,
      "blob": 6426,
      "ĠposiciÃ³n": 6427,
      "Ġ2010": 6428,
      "Ġlines": 6429,
      "Ġcomien": 6430,
      "pected": 6431,
      "ĠDespuÃ©s": 6432,
      "ooks": 6433,
      "ĠversiÃ³n": 6434,
      "free": 6435,
      "Ġciudades": 6436,
      "Ġnaturaleza": 6437,
      "fill": 6438,
      "antos": 6439,
      "Ġhat": 6440,
      "Ġhoy": 6441,
      "Ġtemp": 6442,
      "ĠVI": 6443,
      "ĠUnited": 6444,
      "ãĤĴ": 6445,
      "ude": 6446,
      "Ġmundial": 6447,
      "Ġdifficult": 6448,
      "BU": 6449,
      "Mem": 6450,
      "ĠMark": 6451,
      "Ġwritten": 6452,
      "}\"": 6453,
      "osp": 6454,
      "Ġtransaction": 6455,
      "ĠejÃ©rcito": 6456,
      "Ġmemoria": 6457,
      "Ġchanges": 6458,
      "skip": 6459,
      "Ġclase": 6460,
      "Ġreally": 6461,
      "works": 6462,
      "ea": 6463,
      "iro": 6464,
      "Ġenvi": 6465,
      "irs": 6466,
      "Ġevening": 6467,
      "ĠdÃ³lar": 6468,
      "ĠpartÃŃcul": 6469,
      "oft": 6470,
      "sm": 6471,
      "ĠRem": 6472,
      "Ġeverything": 6473,
      "Ġlibertad": 6474,
      "ÃŃng": 6475,
      "Ġspecial": 6476,
      "uciones": 6477,
      "zero": 6478,
      "Ġencuentran": 6479,
      "mock": 6480,
      "Ġmanifest": 6481,
      "NAME": 6482,
      "Ġbos": 6483,
      "inger": 6484,
      "Ġdatabase": 6485,
      "hidden": 6486,
      "uos": 6487,
      "à¦": 6488,
      "Ġalias": 6489,
      "Ġrespond": 6490,
      "lecture": 6491,
      "gramming": 6492,
      "ĠcreaciÃ³n": 6493,
      "Ġprompt": 6494,
      "Ġflu": 6495,
      "Ġelle": 6496,
      "Ġ102": 6497,
      "ĠÐ½": 6498,
      "limit": 6499,
      "ili": 6500,
      "Ġllamada": 6501,
      "Option": 6502,
      "Ġpron": 6503,
      "ĠacciÃ³n": 6504,
      "ĠcaracterÃŃsticas": 6505,
      "laces": 6506,
      "trace": 6507,
      "Ġ2000": 6508,
      "Ġprocesos": 6509,
      "Ġecu": 6510,
      "Ġgenerated": 6511,
      "Ġmig": 6512,
      "Ġvolv": 6513,
      "IONS": 6514,
      "ĠSuper": 6515,
      "wait": 6516,
      "google": 6517,
      "Ġdirectly": 6518,
      "Ġcosa": 6519,
      "PAR": 6520,
      "Ġquar": 6521,
      "title": 6522,
      "Ġcert": 6523,
      "Ã¡ticas": 6524,
      "Ġhusband": 6525,
      "sig": 6526,
      "Ġnaci": 6527,
      "chn": 6528,
      "ĠÃ©tait": 6529,
      "Ġflag": 6530,
      "ĠcomunicaciÃ³n": 6531,
      "Ã¤t": 6532,
      "Ġintelig": 6533,
      "ĠInternet": 6534,
      "hd": 6535,
      "Ġgrow": 6536,
      "Ġotherwise": 6537,
      "\"],": 6538,
      "íķ": 6539,
      "Ġcod": 6540,
      "Ġctx": 6541,
      "Ġscript": 6542,
      "ĠOtr": 6543,
      "ERR": 6544,
      "isa": 6545,
      "Ġimportancia": 6546,
      "hy": 6547,
      "Ã¡st": 6548,
      "Ã©m": 6549,
      "ĠJust": 6550,
      "Collection": 6551,
      "Ð¹": 6552,
      "Ġfight": 6553,
      "Ġnucle": 6554,
      "utos": 6555,
      "Ġpermission": 6556,
      "Filter": 6557,
      "shard": 6558,
      "Ġwrong": 6559,
      "Fn": 6560,
      "uous": 6561,
      "bert": 6562,
      "Ġnoche": 6563,
      "MIT": 6564,
      "ĠCas": 6565,
      "Ġask": 6566,
      "rÃ¡f": 6567,
      "Ġrepe": 6568,
      "Ġunto": 6569,
      "Ġstrange": 6570,
      "Ġlogger": 6571,
      "Ġesf": 6572,
      "example": 6573,
      "Ġcorri": 6574,
      "AI": 6575,
      "ĠallÃŃ": 6576,
      ":`_": 6577,
      "Ġpaz": 6578,
      "ĠAnt": 6579,
      "Ġempresas": 6580,
      "ring": 6581,
      "plugin": 6582,
      "Ġcondition": 6583,
      "mathbf": 6584,
      "UD": 6585,
      "vin": 6586,
      "inline": 6587,
      "Ġsta": 6588,
      "aten": 6589,
      "iction": 6590,
      "Fact": 6591,
      "Ġpaso": 6592,
      "ĠĠĠĠĠĠĠĠĠĠĠĠĠĠĠĠĠĠĠĠĠĠĠĠĠĠĠĠĠĠĠĠĠĠĠĠĠĠĠĠĠĠĠĠĠĠĠĠĠĠĠĠĠĠĠĠĠĠĠĠĠĠĠĠ": 6593,
      "Ġinc": 6594,
      "pth": 6595,
      "Ġtradicion": 6596,
      "dantic": 6597,
      "Ã©g": 6598,
      "ĠniÃ±os": 6599,
      "å®": 6600,
      "Ġchain": 6601,
      "itable": 6602,
      "ĠSub": 6603,
      "cls": 6604,
      "ĠpolÃŃtico": 6605,
      "ej": 6606,
      "istry": 6607,
      "Ġplain": 6608,
      "Ġhabl": 6609,
      "Ġpropia": 6610,
      "Ġhref": 6611,
      "Ġanterior": 6612,
      "Ġbeg": 6613,
      "Ġmatem": 6614,
      "Ġconocimiento": 6615,
      "Ġdescribe": 6616,
      "ĠEX": 6617,
      "avior": 6618,
      "Ġneeded": 6619,
      "Ġinputs": 6620,
      "Ġwat": 6621,
      "ĠMor": 6622,
      "Ġfuerte": 6623,
      "Ġinfluencia": 6624,
      "ĠLondon": 6625,
      "Ġdut": 6626,
      "Ġimpres": 6627,
      "Ġaj": 6628,
      "Ġcore": 6629,
      "Ġaliment": 6630,
      "Ġ40": 6631,
      "ĠMus": 6632,
      "Ġeditor": 6633,
      "Ġfrances": 6634,
      "Ġmach": 6635,
      "ĠalgÃºn": 6636,
      "Ġempresa": 6637,
      "ĠJap": 6638,
      "ĠediciÃ³n": 6639,
      "Ġwriting": 6640,
      "Ġenfrent": 6641,
      "zer": 6642,
      "clos": 6643,
      "ĠReal": 6644,
      "Ġdog": 6645,
      "ĠPath": 6646,
      "ĠWor": 6647,
      "Ġmicro": 6648,
      "ĠmÃ©d": 6649,
      "plot": 6650,
      "ĠDem": 6651,
      "ecen": 6652,
      "Import": 6653,
      "ÙĪ": 6654,
      "Ġdress": 6655,
      "Ġinm": 6656,
      "Ġsugg": 6657,
      "Ġhistory": 6658,
      "Ð±": 6659,
      "Ġmiddle": 6660,
      "Ġbox": 6661,
      "Ã§a": 6662,
      "Ġnodes": 6663,
      "Ġrelaciones": 6664,
      "airs": 6665,
      "ĠRus": 6666,
      "'],": 6667,
      "Ġparam": 6668,
      "css": 6669,
      "ĠfÃ¡": 6670,
      "Ġsuces": 6671,
      "Ġmenudo": 6672,
      "Ġapplication": 6673,
      "full": 6674,
      "åĲ": 6675,
      "urrent": 6676,
      "Ġprison": 6677,
      "Ġcrear": 6678,
      "Ġedad": 6679,
      "Entry": 6680,
      "Ġcambios": 6681,
      "ODO": 6682,
      "ĠDr": 6683,
      "ĠRich": 6684,
      "Ġtrata": 6685,
      "Ġrequests": 6686,
      "Ġpurpose": 6687,
      "EM": 6688,
      "agu": 6689,
      "ipeline": 6690,
      "Ã¡nan": 6691,
      "Ġencontrar": 6692,
      "how": 6693,
      "ĠSim": 6694,
      "Ġbuen": 6695,
      "Ġdoesn": 6696,
      "Ġpain": 6697,
      "ÃŃp": 6698,
      "ĠADN": 6699,
      "Route": 6700,
      "AY": 6701,
      "else": 6702,
      "Ġtout": 6703,
      "ĠReino": 6704,
      "Values": 6705,
      "ĠdÃ³lares": 6706,
      "Ġdedic": 6707,
      "rael": 6708,
      "ĠGobierno": 6709,
      "Ġinterior": 6710,
      "onia": 6711,
      "Ġwit": 6712,
      "quis": 6713,
      "Ġhandler": 6714,
      "ĠGoogle": 6715,
      "total": 6716,
      "aint": 6717,
      "Ġcul": 6718,
      "Ġequival": 6719,
      "çĶ¨": 6720,
      "></": 6721,
      "Ġappeared": 6722,
      "JSON": 6723,
      "ĠIV": 6724,
      "ĠMet": 6725,
      "refix": 6726,
      "########": 6727,
      "Ġhip": 6728,
      "debug": 6729,
      "Ġdistance": 6730,
      "Ġprogramas": 6731,
      "elem": 6732,
      "epend": 6733,
      "Ġmove": 6734,
      "genes": 6735,
      "ĠCent": 6736,
      "Ġflat": 6737,
      "Ġpoints": 6738,
      "Ġwood": 6739,
      "ĠBib": 6740,
      "Ġadv": 6741,
      "reas": 6742,
      "she": 6743,
      "Ġcolabor": 6744,
      "ĠWeb": 6745,
      "Ġaseg": 6746,
      "ĠMari": 6747,
      "conf": 6748,
      "Ġagre": 6749,
      "Ġled": 6750,
      "cida": 6751,
      "ĠÐº": 6752,
      "Ptr": 6753,
      "Snapshot": 6754,
      "ĠSm": 6755,
      "Ġcomport": 6756,
      "Ġcrecimiento": 6757,
      "ĠproteÃŃn": 6758,
      "pg": 6759,
      "Ġpec": 6760,
      "Ġtokens": 6761,
      "Ġmsg": 6762,
      "ĠSus": 6763,
      "Ġprefix": 6764,
      "Ġtrees": 6765,
      "AGE": 6766,
      "Ú©": 6767,
      "Ġlower": 6768,
      "Ġpueblo": 6769,
      "Ã¡yo": 6770,
      "Ġefectos": 6771,
      "ĠconstrucciÃ³n": 6772,
      "ini": 6773,
      "Ġvend": 6774,
      "arden": 6775,
      "Ġ2014": 6776,
      "PD": 6777,
      "pkg": 6778,
      "Ġà®": 6779,
      "chas": 6780,
      "Ġtesting": 6781,
      "Ġurb": 6782,
      "Ġunas": 6783,
      "break": 6784,
      "Ġobjetos": 6785,
      "Ġ\"$": 6786,
      "Ġayuda": 6787,
      "ĠSign": 6788,
      "ÃŃg": 6789,
      "Vector": 6790,
      "erras": 6791,
      "Ġom": 6792,
      "prev": 6793,
      "Ġoccup": 6794,
      "cim": 6795,
      "uman": 6796,
      "Ġactividad": 6797,
      "backend": 6798,
      "Ġprovoc": 6799,
      "Ġsteps": 6800,
      "Ġparts": 6801,
      "pository": 6802,
      "ĠLou": 6803,
      "Ġsurg": 6804,
      "ĠbÃ¡s": 6805,
      "Ġimpro": 6806,
      "Ġoperations": 6807,
      "ĠJSON": 6808,
      "ĠHenry": 6809,
      "Ġvalores": 6810,
      "Ġsays": 6811,
      "tera": 6812,
      "Ãªme": 6813,
      "ĠCharles": 6814,
      "ĠIP": 6815,
      "Ġwarn": 6816,
      "chen": 6817,
      "Ġkm": 6818,
      "Ġsurpr": 6819,
      "Ġfac": 6820,
      "Ġjoy": 6821,
      "ĠinterÃ©s": 6822,
      "iant": 6823,
      "ianza": 6824,
      "Ġbuf": 6825,
      "Ġdemos": 6826,
      "acio": 6827,
      "ĠDef": 6828,
      "Ġroad": 6829,
      "Ġtomar": 6830,
      "Signature": 6831,
      "Ġmecan": 6832,
      "ĠHÃ¤n": 6833,
      "ĠItalia": 6834,
      "alias": 6835,
      "Ġhast": 6836,
      "ĠDataFrame": 6837,
      "stop": 6838,
      "ĠMach": 6839,
      "eign": 6840,
      "Ġgentle": 6841,
      "abs": 6842,
      "Ã©es": 6843,
      "ORD": 6844,
      "Ġniet": 6845,
      "Ġnecesario": 6846,
      "Ġfaith": 6847,
      "bal": 6848,
      "Ġfs": 6849,
      "Ġnu": 6850,
      "Ġplata": 6851,
      "aching": 6852,
      "pecial": 6853,
      "cpu": 6854,
      "amen": 6855,
      "ĠFin": 6856,
      "Ġcalls": 6857,
      "Pool": 6858,
      "Ġposit": 6859,
      "ĠHistoria": 6860,
      "alpha": 6861,
      "Ġedific": 6862,
      "NE": 6863,
      "Ġgod": 6864,
      "extra": 6865,
      "Ġneeds": 6866,
      "ander": 6867,
      "ialized": 6868,
      "Fe": 6869,
      "Ġpit": 6870,
      "ifiers": 6871,
      "Ġspace": 6872,
      "Row": 6873,
      "tools": 6874,
      "ĠYo": 6875,
      "FE": 6876,
      "xjs": 6877,
      "Ġeg": 6878,
      "estruct": 6879,
      "ĠSecret": 6880,
      "Ġefic": 6881,
      "ĠÐ¸": 6882,
      "Ġtema": 6883,
      "utions": 6884,
      "callback": 6885,
      "exto": 6886,
      "Ġcultura": 6887,
      "Ġparece": 6888,
      "factory": 6889,
      "Self": 6890,
      "Ġatra": 6891,
      "Keyword": 6892,
      "++)": 6893,
      "Em": 6894,
      "Ã©tr": 6895,
      "ords": 6896,
      "enum": 6897,
      "Ġ[[": 6898,
      "Ġactive": 6899,
      "ington": 6900,
      "ĠFue": 6901,
      "ĠÃ¡rea": 6902,
      "cidental": 6903,
      "slice": 6904,
      "orno": 6905,
      "Ġredes": 6906,
      "Ġstage": 6907,
      "Ġremoved": 6908,
      "Ġgobern": 6909,
      "Ġacom": 6910,
      "128": 6911,
      "ĠJava": 6912,
      "ĠIndex": 6913,
      "Ġnumeros": 6914,
      "Ġ2006": 6915,
      "NoError": 6916,
      "Ġaplicaciones": 6917,
      "ĠLuis": 6918,
      "imen": 6919,
      "riage": 6920,
      "Ġstory": 6921,
      "ielo": 6922,
      "Ġequal": 6923,
      "Msg": 6924,
      "ultura": 6925,
      "Ġmusical": 6926,
      "Ġsuc": 6927,
      "essed": 6928,
      "Ġcases": 6929,
      "win": 6930,
      "ĠUnion": 6931,
      "Ġinforme": 6932,
      "Param": 6933,
      "Ġsession": 6934,
      "Ġdetails": 6935,
      "Ġinvers": 6936,
      "ecciones": 6937,
      "Ġinternal": 6938,
      "Ġhonor": 6939,
      "Ġexclus": 6940,
      "after": 6941,
      "ĠvÃ¤": 6942,
      "ablemente": 6943,
      "\"}": 6944,
      "anda": 6945,
      "ĠorganizaciÃ³n": 6946,
      "Image": 6947,
      "Names": 6948,
      "Ġprefer": 6949,
      "ĠColomb": 6950,
      "Ġjugador": 6951,
      "Ġsmo": 6952,
      "queue": 6953,
      "found": 6954,
      "Policy": 6955,
      "clock": 6956,
      "Ġmanos": 6957,
      "collect": 6958,
      "cret": 6959,
      "Ġattribute": 6960,
      "Ġvoy": 6961,
      "Ġinstal": 6962,
      "Ġremote": 6963,
      "xx": 6964,
      "ĠâĢĺ": 6965,
      "Ġmount": 6966,
      "register": 6967,
      "ĠrazÃ³n": 6968,
      "onel": 6969,
      "ĠcÃ³digo": 6970,
      "Ġstrength": 6971,
      "Ġbuilt": 6972,
      "Ø§Ø": 6973,
      "Ġvirtual": 6974,
      "ogrÃ¡f": 6975,
      "ondo": 6976,
      "ulta": 6977,
      "defer": 6978,
      "pread": 6979,
      "Ġfrequ": 6980,
      "Ġanswered": 6981,
      "entic": 6982,
      "ĠCa": 6983,
      "Ġresto": 6984,
      "coded": 6985,
      "Load": 6986,
      "äº": 6987,
      "Ġtama": 6988,
      "contin": 6989,
      "Ġquiet": 6990,
      "Ġcry": 6991,
      "Ġloop": 6992,
      "PORT": 6993,
      "Ġtele": 6994,
      "Ġcompuest": 6995,
      "ĠformaciÃ³n": 6996,
      "Ġmusic": 6997,
      "handle": 6998,
      "ilib": 6999,
      "Ġstay": 7000,
      "Ġstorage": 7001,
      "Ġexpress": 7002,
      "Alias": 7003,
      "Ġdemostr": 7004,
      "]);": 7005,
      "Ġoption": 7006,
      "ĠMu": 7007,
      "ĠWho": 7008,
      "Parent": 7009,
      "Ġnecesidad": 7010,
      "Ġwild": 7011,
      "Ġusuarios": 7012,
      "cd": 7013,
      "Ġfif": 7014,
      "states": 7015,
      "Ġvon": 7016,
      "ĠMont": 7017,
      "Ġries": 7018,
      "ĠFr": 7019,
      "ology": 7020,
      "Bound": 7021,
      "acer": 7022,
      "Ġmedia": 7023,
      "Args": 7024,
      "ĠInternacional": 7025,
      "Ġcontenido": 7026,
      "epoch": 7027,
      "pciÃ³n": 7028,
      "erialize": 7029,
      "ĠTer": 7030,
      "Ġdesem": 7031,
      "Ġdistingu": 7032,
      "Icon": 7033,
      "delete": 7034,
      "Ġlayer": 7035,
      "utorial": 7036,
      "yl": 7037,
      "lete": 7038,
      "Ġsufic": 7039,
      "uros": 7040,
      "izÃ³": 7041,
      "Ġ2008": 7042,
      "eft": 7043,
      "Ġrelativ": 7044,
      "save": 7045,
      "Ġzero": 7046,
      "ĠClub": 7047,
      "ĠexpresiÃ³n": 7048,
      "cmd": 7049,
      "è®": 7050,
      "Ġevents": 7051,
      "ban": 7052,
      "Ġdoing": 7053,
      "ÑĢÐµ": 7054,
      "Ġunsigned": 7055,
      "Ġsuffer": 7056,
      "Ġconven": 7057,
      "ĠField": 7058,
      "Head": 7059,
      "OUT": 7060,
      "eli": 7061,
      "ÃŃli": 7062,
      "Ġassoci": 7063,
      "Ġacer": 7064,
      "llo": 7065,
      "inst": 7066,
      "Ġdf": 7067,
      "Ġclave": 7068,
      "Bytes": 7069,
      "Ġprevious": 7070,
      "åŃ": 7071,
      "Ġade": 7072,
      "curity": 7073,
      "ĠdemÃ¡s": 7074,
      "Ġsaber": 7075,
      "lem": 7076,
      "angle": 7077,
      "Ġray": 7078,
      "etry": 7079,
      "ĠMaster": 7080,
      "Ġcontinued": 7081,
      "Ġbeautiful": 7082,
      "ĠVir": 7083,
      "Ġvolunt": 7084,
      "Ġoll": 7085,
      "Ġgraph": 7086,
      "istic": 7087,
      "erous": 7088,
      "Ġregres": 7089,
      "declar": 7090,
      "GET": 7091,
      "global": 7092,
      "Ġsense": 7093,
      "Ġmaj": 7094,
      "Ġnav": 7095,
      "avÃŃa": 7096,
      "Ġpalabra": 7097,
      "Ġconce": 7098,
      "agg": 7099,
      "Ġbey": 7100,
      "ĠPromise": 7101,
      "ĠDat": 7102,
      "Ġinternacionales": 7103,
      "Ġcarried": 7104,
      "Ġfamiliar": 7105,
      "OF": 7106,
      "asc": 7107,
      "Ġrech": 7108,
      "ĠIr": 7109,
      "container": 7110,
      "reshold": 7111,
      "png": 7112,
      "Ġinvalid": 7113,
      "ĠForm": 7114,
      "Ġinvol": 7115,
      "oce": 7116,
      "ĠLin": 7117,
      "Ġsuced": 7118,
      "ny": 7119,
      "Ġyield": 7120,
      "Ġafirm": 7121,
      "onical": 7122,
      "Ġsafe": 7123,
      "ĠChristian": 7124,
      "cÃ©s": 7125,
      "chan": 7126,
      "Ġterc": 7127,
      "cidos": 7128,
      "Ġdios": 7129,
      "Ġprovinci": 7130,
      "Ġopened": 7131,
      "System": 7132,
      "git": 7133,
      "remove": 7134,
      "Ġingres": 7135,
      "Ġproducto": 7136,
      "JSDoc": 7137,
      "Ġts": 7138,
      "utdown": 7139,
      "Ġcluster": 7140,
      "curso": 7141,
      "ĠBase": 7142,
      "Ġentered": 7143,
      "Ġchanged": 7144,
      "erable": 7145,
      "components": 7146,
      "Ġadel": 7147,
      "ãģ«": 7148,
      "sync": 7149,
      "inc": 7150,
      "Ġcatch": 7151,
      "Ġcamino": 7152,
      "points": 7153,
      "Ġtaking": 7154,
      "Ġsys": 7155,
      "ĠCast": 7156,
      "apes": 7157,
      "=\\\"": 7158,
      "ĠPrem": 7159,
      "ĠJer": 7160,
      "Callback": 7161,
      "Ġterror": 7162,
      "Ġmessages": 7163,
      "ocus": 7164,
      "cest": 7165,
      "cita": 7166,
      "Comple": 7167,
      "`:": 7168,
      "ushed": 7169,
      "ĠReferencias": 7170,
      "Ġhonour": 7171,
      "ĠmÃ¡qu": 7172,
      "iance": 7173,
      "ĠquÃŃm": 7174,
      "Ġconcent": 7175,
      "ĠÐ´": 7176,
      "Ġciencia": 7177,
      "Ġesfuer": 7178,
      "Non": 7179,
      "tc": 7180,
      "room": 7181,
      "ãĤ¹": 7182,
      "Ġexisting": 7183,
      "Ġaquellos": 7184,
      "PO": 7185,
      "Ġgrave": 7186,
      "crate": 7187,
      "Func": 7188,
      "Ġbir": 7189,
      "cip": 7190,
      "ĠMc": 7191,
      "llÃ¤": 7192,
      "LECT": 7193,
      "Ġissue": 7194,
      "Dat": 7195,
      "othing": 7196,
      "iin": 7197,
      "arlo": 7198,
      "omitem": 7199,
      "Ġcuya": 7200,
      "Ġaleman": 7201,
      "omitempty": 7202,
      "Ġases": 7203,
      "Ġescape": 7204,
      "Props": 7205,
      "Ġtalk": 7206,
      "ĠMen": 7207,
      "Stack": 7208,
      "Ġgracias": 7209,
      "hr": 7210,
      "ala": 7211,
      "settings": 7212,
      "ĠmÃ©todo": 7213,
      "dig": 7214,
      "Ġclosed": 7215,
      "spec": 7216,
      "Ġcompany": 7217,
      "ĠNegro": 7218,
      "Ġpack": 7219,
      "Ġtrack": 7220,
      "ĠConst": 7221,
      "Ġpresencia": 7222,
      "Ġdinero": 7223,
      "kv": 7224,
      "shared": 7225,
      "Ã¡cter": 7226,
      "Ġsn": 7227,
      "switch": 7228,
      "Ġbeyond": 7229,
      "Ġlate": 7230,
      "ulation": 7231,
      "ishing": 7232,
      "Env": 7233,
      "eps": 7234,
      "Ġbin": 7235,
      "Ġpagca": 7236,
      "ĠdiseÃ±": 7237,
      "CHE": 7238,
      "à¹": 7239,
      "ĠtÃº": 7240,
      "arious": 7241,
      "uses": 7242,
      "Attribute": 7243,
      "lers": 7244,
      "Ġretir": 7245,
      "ĠParÃŃs": 7246,
      "Ġdecor": 7247,
      "ĠColombia": 7248,
      "kÃ¤": 7249,
      "Ġbaj": 7250,
      "ÃŃd": 7251,
      "Ġproper": 7252,
      "ĠOri": 7253,
      "Const": 7254,
      "ceeded": 7255,
      "Ġincrement": 7256,
      "è¯": 7257,
      "atu": 7258,
      "ĠTy": 7259,
      "ĠKey": 7260,
      "Ġ2016": 7261,
      "Tree": 7262,
      "\\\",": 7263,
      "Ġingen": 7264,
      "SH": 7265,
      "Ġtables": 7266,
      "Ġcra": 7267,
      "icto": 7268,
      "Ġclim": 7269,
      "unc": 7270,
      "Ġincorpor": 7271,
      "real": 7272,
      "isk": 7273,
      "ciente": 7274,
      "lej": 7275,
      "rier": 7276,
      "Ġadmit": 7277,
      "Addr": 7278,
      "Ġbast": 7279,
      "ĠDie": 7280,
      "IND": 7281,
      "ĠExamples": 7282,
      "ĠtÃ©rminos": 7283,
      "ĠComput": 7284,
      "ĠtÃŃtulo": 7285,
      "flutter": 7286,
      "Ġinicial": 7287,
      "Ġobtener": 7288,
      "ĠbritÃ¡n": 7289,
      "ĠPub": 7290,
      "pair": 7291,
      "Point": 7292,
      "ĠGeorge": 7293,
      "Ġfalta": 7294,
      "Ġterritorio": 7295,
      "Ġspoke": 7296,
      "section": 7297,
      "aco": 7298,
      "Ġinside": 7299,
      "Action": 7300,
      "Ã³ng": 7301,
      "ĠBel": 7302,
      "Ġimportant": 7303,
      "ĠConfig": 7304,
      "Ġ2018": 7305,
      "ĠMax": 7306,
      "ĠLes": 7307,
      "HTTP": 7308,
      "Ġcontact": 7309,
      "ĠSQL": 7310,
      "Ġsector": 7311,
      "Ġarmas": 7312,
      "maz": 7313,
      "Struct": 7314,
      "vanced": 7315,
      "Ġbind": 7316,
      "Ġ\"'": 7317,
      "Ġhair": 7318,
      "pri": 7319,
      "Ġhapp": 7320,
      "Ġesos": 7321,
      "Ġoutside": 7322,
      "ĠcarÃ¡cter": 7323,
      "Ġmasa": 7324,
      "ĠningÃºn": 7325,
      "SA": 7326,
      "venciÃ³n": 7327,
      "Ġestados": 7328,
      "ĠSeÃ±": 7329,
      "ĠpodÃŃa": 7330,
      "ĠCi": 7331,
      "private": 7332,
      "ERT": 7333,
      "ĠeducaciÃ³n": 7334,
      "Ġestadounidense": 7335,
      "vuejs": 7336,
      "Body": 7337,
      "bas": 7338,
      "poon": 7339,
      "ĠURL": 7340,
      "Ġgenerate": 7341,
      "Spec": 7342,
      "ĠWal": 7343,
      "Ġcomprom": 7344,
      "Chain": 7345,
      "ĠdirecciÃ³n": 7346,
      "well": 7347,
      "Ġ----": 7348,
      "counter": 7349,
      "ĠEstas": 7350,
      "issa": 7351,
      "Alloc": 7352,
      "Ġninguna": 7353,
      "Float": 7354,
      "Ġrose": 7355,
      "ãĤĭ": 7356,
      "Do": 7357,
      "Nota": 7358,
      "Ġkwargs": 7359,
      "Ġelev": 7360,
      "Render": 7361,
      "Ġinvent": 7362,
      "Ġroll": 7363,
      "ĠCla": 7364,
      "ieran": 7365,
      "Ġutilizar": 7366,
      "Ġeffort": 7367,
      "License": 7368,
      "ethe": 7369,
      "Ġphys": 7370,
      "Level": 7371,
      "Ġexternos": 7372,
      "Es": 7373,
      "sx": 7374,
      "Ġsubs": 7375,
      "Ġcamp": 7376,
      "ĠeconÃ³mica": 7377,
      "ividad": 7378,
      "acen": 7379,
      "Ġplatform": 7380,
      "Ġpull": 7381,
      "ĠTODO": 7382,
      "look": 7383,
      "ĠDoug": 7384,
      "area": 7385,
      "Ġsometimes": 7386,
      "entemente": 7387,
      "Ġprogress": 7388,
      "Process": 7389,
      "QuÃ©": 7390,
      "mu": 7391,
      "ango": 7392,
      "ificado": 7393,
      "Ġestudi": 7394,
      "cipl": 7395,
      "ĠHel": 7396,
      "force": 7397,
      "command": 7398,
      "Ġ---": 7399,
      "ĠeconÃ³mico": 7400,
      "eks": 7401,
      "ĠdifÃŃ": 7402,
      "anj": 7403,
      "Ġhic": 7404,
      "ieve": 7405,
      "Ġignor": 7406,
      "Ul": 7407,
      "Ġsche": 7408,
      "ĠBre": 7409,
      "}}}": 7410,
      "vision": 7411,
      "het": 7412,
      "ĠJames": 7413,
      "Ġsett": 7414,
      "Ġoccasion": 7415,
      "Duration": 7416,
      "Ġbor": 7417,
      "Ġcierto": 7418,
      "GE": 7419,
      "visiÃ³n": 7420,
      "andas": 7421,
      "Ġplaced": 7422,
      "Ġconsegu": 7423,
      "Ġgentleman": 7424,
      "Prefix": 7425,
      "storage": 7426,
      "Ġsuddenly": 7427,
      "][": 7428,
      "ĠLiga": 7429,
      "nodes": 7430,
      "Ġrat": 7431,
      "ĠVol": 7432,
      "Ġpick": 7433,
      "address": 7434,
      "Ġcargo": 7435,
      "Ġbear": 7436,
      "Ġ2015": 7437,
      "My": 7438,
      "ĠcanciÃ³n": 7439,
      "ÃŃculos": 7440,
      "ĠprÃ¡ctica": 7441,
      "Ġfab": 7442,
      "unci": 7443,
      "ĠCle": 7444,
      "ĠatenciÃ³n": 7445,
      "olÃ³gica": 7446,
      "prompt": 7447,
      "isten": 7448,
      "Ġconflict": 7449,
      "uno": 7450,
      "ãĥĪ": 7451,
      "assa": 7452,
      "acto": 7453,
      "Ġcalidad": 7454,
      "ĠtamaÃ±o": 7455,
      "XX": 7456,
      "job": 7457,
      "ĠSon": 7458,
      "Ġyouth": 7459,
      "Ġapplic": 7460,
      "Ġbatalla": 7461,
      "claimed": 7462,
      "ĠOper": 7463,
      "Ġmatr": 7464,
      "Ġlegisl": 7465,
      "Ġtexto": 7466,
      "Ġhop": 7467,
      "ĠAlgunos": 7468,
      "lad": 7469,
      "Ġvin": 7470,
      "Ġneighb": 7471,
      "Ġraw": 7472,
      "Ġ2011": 7473,
      "Ġbon": 7474,
      "see": 7475,
      "Ġtuv": 7476,
      "tered": 7477,
      "ĠMap": 7478,
      "Ġprogres": 7479,
      "cepciÃ³n": 7480,
      "Ġfigure": 7481,
      "Ġfond": 7482,
      "alle": 7483,
      "Ġcuyo": 7484,
      "Ġensure": 7485,
      "Ġwa": 7486,
      "serde": 7487,
      "OW": 7488,
      "Ġsint": 7489,
      "Ġjob": 7490,
      "ao": 7491,
      "di": 7492,
      "Ġprotest": 7493,
      "Ġexisten": 7494,
      "Ġdestin": 7495,
      "Ġtyped": 7496,
      "Ġllama": 7497,
      "ĠresoluciÃ³n": 7498,
      "ĠCarlos": 7499,
      "Ġshared": 7500,
      "multi": 7501,
      "Ġpil": 7502,
      "KEY": 7503,
      "Ġhappy": 7504,
      "Ġexecution": 7505,
      "rest": 7506,
      "Ã©is": 7507,
      "::<": 7508,
      "Ġstack": 7509,
      "under": 7510,
      "Ġregister": 7511,
      "cident": 7512,
      "Ġmantener": 7513,
      "Ġburn": 7514,
      "Ġpreced": 7515,
      "invalid": 7516,
      "edu": 7517,
      "ĠJac": 7518,
      "ĠComitÃ©": 7519,
      "Ġplease": 7520,
      "enga": 7521,
      "ĠâĨ": 7522,
      "SD": 7523,
      "Ġinn": 7524,
      "Ġ2009": 7525,
      "Ġå": 7526,
      "Ġsou": 7527,
      "ĠBill": 7528,
      "Ġcontem": 7529,
      "Ġdocs": 7530,
      "Layout": 7531,
      "Ġful": 7532,
      "Ġbow": 7533,
      "Ġcuad": 7534,
      "headers": 7535,
      "Ġaprendizaje": 7536,
      "lines": 7537,
      "ciendo": 7538,
      "idamente": 7539,
      "elled": 7540,
      "Ġcook": 7541,
      "Ġsch": 7542,
      "Ġot": 7543,
      "yles": 7544,
      "Ġevitar": 7545,
      "izados": 7546,
      "ĠJes": 7547,
      "Ġdate": 7548,
      "ĠMer": 7549,
      "Ġdebug": 7550,
      "blog": 7551,
      "ĠDan": 7552,
      "ĠKen": 7553,
      "Ġadditional": 7554,
      "struction": 7555,
      "Ġsitio": 7556,
      "Ġbene": 7557,
      "quet": 7558,
      "plicit": 7559,
      "Ġ2005": 7560,
      "Ġheaven": 7561,
      "').": 7562,
      ")?;": 7563,
      "oon": 7564,
      "ÃŃr": 7565,
      "ĠTH": 7566,
      "Ġ\"\",": 7567,
      "ĠcuÃ¡nt": 7568,
      "pattern": 7569,
      "Ġvast": 7570,
      "itting": 7571,
      "Ġtests": 7572,
      "Build": 7573,
      "ĠÃºltimos": 7574,
      "How": 7575,
      "Ġpaci": 7576,
      "ously": 7577,
      "Ġfinalmente": 7578,
      "Ġcomplete": 7579,
      "è¿": 7580,
      "errors": 7581,
      "Ġresource": 7582,
      "PR": 7583,
      "ĠCr": 7584,
      "Ġpasado": 7585,
      "ĠDavid": 7586,
      "Ġsplit": 7587,
      "ĠQuery": 7588,
      "Work": 7589,
      "ocra": 7590,
      "Ġcarry": 7591,
      "Ġaprob": 7592,
      "pas": 7593,
      "ĠCab": 7594,
      "Ġneither": 7595,
      "ĠOnly": 7596,
      "Ġgreater": 7597,
      "That": 7598,
      "Ġattack": 7599,
      "culos": 7600,
      "Ġknowledge": 7601,
      "ĠtecnologÃŃa": 7602,
      "Ġconcept": 7603,
      "ĠVÃ©ase": 7604,
      "ĠPagc": 7605,
      "Ġmoral": 7606,
      "jax": 7607,
      "Ġdoctor": 7608,
      "ĠpÃºblica": 7609,
      "ĠEuropea": 7610,
      "Ġimmediately": 7611,
      "rez": 7612,
      "alÃ¡": 7613,
      "acl": 7614,
      "CC": 7615,
      "ĠUN": 7616,
      "Ã¶n": 7617,
      "opts": 7618,
      "Transaction": 7619,
      "Ġmid": 7620,
      "seq": 7621,
      "Ġidx": 7622,
      "ĠfrancÃ©s": 7623,
      "Ġdirection": 7624,
      "Ġdial": 7625,
      "Ġstarted": 7626,
      "Ġcontaining": 7627,
      "Ġseems": 7628,
      "eur": 7629,
      "ĠSw": 7630,
      "aven": 7631,
      "ustr": 7632,
      "Ġhaya": 7633,
      "ĠrecibiÃ³": 7634,
      "Ġusize": 7635,
      "Ġsomew": 7636,
      "uring": 7637,
      "ocup": 7638,
      "Ġchurch": 7639,
      "101": 7640,
      "ĠAuth": 7641,
      "Ġasc": 7642,
      "rosoft": 7643,
      "Ġmembers": 7644,
      "Ġsaying": 7645,
      "ACK": 7646,
      "Ġtraining": 7647,
      "Ġubic": 7648,
      "ĠOh": 7649,
      "make": 7650,
      "Ġperten": 7651,
      "Ġaquella": 7652,
      "puestas": 7653,
      "Ġmodelos": 7654,
      "ĠDist": 7655,
      "erram": 7656,
      "ugg": 7657,
      "mael": 7658,
      "ografÃŃa": 7659,
      "Ġintr": 7660,
      "Ġquant": 7661,
      "ĠPeter": 7662,
      "Ġmayores": 7663,
      "structor": 7664,
      "center": 7665,
      "Ġtong": 7666,
      "Ġneut": 7667,
      "Ġpubl": 7668,
      "Ġremark": 7669,
      "pb": 7670,
      "Ġocur": 7671,
      "ĠevoluciÃ³n": 7672,
      "ĠCome": 7673,
      "()),": 7674,
      "Ġleur": 7675,
      "Ġgeneration": 7676,
      "Ġdestru": 7677,
      "Ġdaughter": 7678,
      "ĠLoc": 7679,
      "Ġponer": 7680,
      "aux": 7681,
      "send": 7682,
      "Ġshard": 7683,
      "builder": 7684,
      "ofÃŃa": 7685,
      "Ġdiversos": 7686,
      "AX": 7687,
      "iltin": 7688,
      "PY": 7689,
      "()))": 7690,
      "begin": 7691,
      "Ġeasy": 7692,
      "night": 7693,
      "umen": 7694,
      "ĠFile": 7695,
      "Ġnombr": 7696,
      "ĠSen": 7697,
      "ĠFil": 7698,
      "urar": 7699,
      "ĠWil": 7700,
      "Ġ2013": 7701,
      "Ġlabels": 7702,
      "Ġpretty": 7703,
      "Ġnegro": 7704,
      "bind": 7705,
      "ĠEt": 7706,
      "Ġcompan": 7707,
      "ĠYour": 7708,
      "ĠtodavÃŃa": 7709,
      "ĠGerman": 7710,
      "chron": 7711,
      "Ġmitad": 7712,
      "Ġvisto": 7713,
      "ĠST": 7714,
      "Mock": 7715,
      "Ġlif": 7716,
      "Ġprot": 7717,
      "Ã¡mica": 7718,
      "ky": 7719,
      "æķ": 7720,
      "ENSE": 7721,
      "Ġ2007": 7722,
      "Pat": 7723,
      "Que": 7724,
      "Wrap": 7725,
      "some": 7726,
      "Ġsy": 7727,
      "chunks": 7728,
      "cluster": 7729,
      "ĠmÃ©todos": 7730,
      "Mut": 7731,
      "Ġbits": 7732,
      "Ã©ctr": 7733,
      "Ġrandom": 7734,
      "crates": 7735,
      "Ġextend": 7736,
      "Extension": 7737,
      "kel": 7738,
      "ĠIsh": 7739,
      "ĠArt": 7740,
      "Ġpatr": 7741,
      "Ġhoras": 7742,
      "Ġjugadores": 7743,
      "plan": 7744,
      "Ġdisposit": 7745,
      "Port": 7746,
      "Ġmouth": 7747,
      "Ġinline": 7748,
      "ĠBen": 7749,
      "derive": 7750,
      "Ġconstant": 7751,
      "Ġ2019": 7752,
      "ĠArgentina": 7753,
      "ĠMore": 7754,
      "Ġamen": 7755,
      "ĠColumn": 7756,
      "NGP": 7757,
      "fos": 7758,
      "ÙĨ": 7759,
      "heid": 7760,
      "Ġenabled": 7761,
      "Ġresolve": 7762,
      "Document": 7763,
      "ĠArgs": 7764,
      "Ã»": 7765,
      "ĠPan": 7766,
      "\"\"\"": 7767,
      "cn": 7768,
      "ipped": 7769,
      "Ġnetwork": 7770,
      "PLUl": 7771,
      "cNGP": 7772,
      "sim": 7773,
      "ugins": 7774,
      "ignore": 7775,
      "Ġ84": 7776,
      "ĠXIX": 7777,
      "Ġevol": 7778,
      "pename": 7779,
      "tils": 7780,
      "tuple": 7781,
      "voc": 7782,
      "asi": 7783,
      "Ġnave": 7784,
      "Ġestabl": 7785,
      "Ġtrace": 7786,
      "Ġcrisis": 7787,
      "Ġcomponent": 7788,
      "hood": 7789,
      "second": 7790,
      "Ġslice": 7791,
      "Ġentrada": 7792,
      "Ġscale": 7793,
      "nen": 7794,
      "æĪ": 7795,
      "Ġquel": 7796,
      "amble": 7797,
      "Expr": 7798,
      "Ġsuperficie": 7799,
      "ois": 7800,
      "Ġ101": 7801,
      "ĠRome": 7802,
      "ĠWik": 7803,
      "Ġtimeout": 7804,
      "Ġutiliza": 7805,
      "warn": 7806,
      "iner": 7807,
      "Ġsqu": 7808,
      "allet": 7809,
      "Ġgold": 7810,
      "irÃ¡": 7811,
      "Ġko": 7812,
      "Ġmaxim": 7813,
      "Ġsetting": 7814,
      "icht": 7815,
      "Ġlaid": 7816,
      "Ġdisap": 7817,
      "-.": 7818,
      "600": 7819,
      "Has": 7820,
      "iados": 7821,
      "ĠtÃ¡uo": 7822,
      "unique": 7823,
      "metrics": 7824,
      "IF": 7825,
      "ĠHann": 7826,
      "Ġobtain": 7827,
      "External": 7828,
      "Ġrecogn": 7829,
      "FAULT": 7830,
      "Assignment": 7831,
      "ĠprotecciÃ³n": 7832,
      "marshal": 7833,
      "Ġmanten": 7834,
      "Ġaumento": 7835,
      "ĠDouglas": 7836,
      "Ġpied": 7837,
      "ening": 7838,
      "Ġcloud": 7839,
      "Ġroute": 7840,
      "ĠModel": 7841,
      "Ġpregunt": 7842,
      "svg": 7843,
      "iding": 7844,
      "ĠOut": 7845,
      "ellÃ¤": 7846,
      "otion": 7847,
      "ĠTierra": 7848,
      "Exit": 7849,
      "509": 7850,
      "Ġfase": 7851,
      "enden": 7852,
      "Char": 7853,
      "Ġconsidered": 7854,
      "Ġresolved": 7855,
      "ĠAmerica": 7856,
      "Ġincluyen": 7857,
      "texto": 7858,
      "Ġreprodu": 7859,
      "ĠFirst": 7860,
      "ixir": 7861,
      "Net": 7862,
      "ĠPos": 7863,
      "Ġcollect": 7864,
      "Ġ60": 7865,
      "inputs": 7866,
      "Ġdiez": 7867,
      "Ġpelig": 7868,
      "Ġcic": 7869,
      "Ġcart": 7870,
      "Ġfactor": 7871,
      "Vol": 7872,
      "Ġdidn": 7873,
      "Ġprimeras": 7874,
      "ueba": 7875,
      "ĠInt": 7876,
      "Ġih": 7877,
      "desc": 7878,
      "ĠTypeFlags": 7879,
      "Ġmissing": 7880,
      "ĠRun": 7881,
      "ĠHand": 7882,
      "ttp": 7883,
      "Ġutter": 7884,
      "Enum": 7885,
      "Ġpayload": 7886,
      "yal": 7887,
      "Ġfir": 7888,
      "ĠGal": 7889,
      "Ġik": 7890,
      "CS": 7891,
      "Ġcred": 7892,
      "Ġpointer": 7893,
      "Ġvisible": 7894,
      "Ġuseful": 7895,
      "Stats": 7896,
      "ãģĹ": 7897,
      "Ġspeech": 7898,
      "FS": 7899,
      "Ġcompart": 7900,
      "ĠYet": 7901,
      "Arch": 7902,
      "bad": 7903,
      "Ġdeal": 7904,
      "Ġense": 7905,
      "isted": 7906,
      "clip": 7907,
      "Ġexistencia": 7908,
      "Ġconsidera": 7909,
      "aran": 7910,
      "tract": 7911,
      "Ġexists": 7912,
      "Attributes": 7913,
      "sible": 7914,
      "esis": 7915,
      "Ġvoz": 7916,
      "ests": 7917,
      "ĠSystem": 7918,
      "Ġleyes": 7919,
      "ĠUnido": 7920,
      "Ġsilence": 7921,
      "Ġsencillo": 7922,
      "ionales": 7923,
      "rique": 7924,
      "Ġarmy": 7925,
      "Ġempez": 7926,
      "ologÃŃas": 7927,
      "Ġspeed": 7928,
      "oe": 7929,
      "Ġrevel": 7930,
      "Ġyourself": 7931,
      "ĠWilliam": 7932,
      "iÃ©ndose": 7933,
      "Dict": 7934,
      "Ġcarrera": 7935,
      "Ġimagen": 7936,
      "Tim": 7937,
      "Ġur": 7938,
      "ĠEr": 7939,
      "ĠDi": 7940,
      "Ġriver": 7941,
      "Ġweak": 7942,
      "Url": 7943,
      "Ġentren": 7944,
      "Ġartific": 7945,
      "Ġcomercial": 7946,
      "Ġlect": 7947,
      "oder": 7948,
      "Ġsuf": 7949,
      "ĠWar": 7950,
      "...)": 7951,
      "Ġoverride": 7952,
      "inks": 7953,
      "Ġcif": 7954,
      "icate": 7955,
      "uby": 7956,
      "Ġdesp": 7957,
      "ĠdecisiÃ³n": 7958,
      "Nd": 7959,
      "ĠIshmael": 7960,
      "sÃ¤": 7961,
      "readme": 7962,
      "Ġvalidate": 7963,
      "Ġheavy": 7964,
      "direct": 7965,
      "wer": 7966,
      "enabled": 7967,
      "Ġflex": 7968,
      "âĢĵ": 7969,
      "Ġacciones": 7970,
      "crimin": 7971,
      "Ġnacionales": 7972,
      "Ġzonas": 7973,
      "partial": 7974,
      "session": 7975,
      "Ġaudio": 7976,
      "ĠReact": 7977,
      "Ġconfirm": 7978,
      "åº": 7979,
      "Ġbul": 7980,
      "usal": 7981,
      "Ġagu": 7982,
      "Ñħ": 7983,
      "Ġhumana": 7984,
      "space": 7985,
      "ICE": 7986,
      "Pub": 7987,
      "ëĭ": 7988,
      "replace": 7989,
      "Ġfle": 7990,
      "Ġnamed": 7991,
      "Ġreply": 7992,
      "Keys": 7993,
      "Ġamount": 7994,
      "apache": 7995,
      "Ġperi": 7996,
      "ln": 7997,
      "itario": 7998,
      "ĠfenÃ³m": 7999,
      "Empty": 8000,
      "ĠAy": 8001,
      "Ġ(`": 8002,
      "ĠOther": 8003,
      "Ġexperiencia": 8004,
      "operator": 8005,
      "Ġreferencia": 8006,
      "Ġdag": 8007,
      "ĠpÃ©r": 8008,
      "Ġcurs": 8009,
      "poonful": 8010,
      "Ġimm": 8011,
      "Ġjourn": 8012,
      "Ġanimales": 8013,
      "Ġincluyendo": 8014,
      "Clause": 8015,
      "nan": 8016,
      "esa": 8017,
      "Ġdeux": 8018,
      "ĠnÃºcle": 8019,
      "ĠRusia": 8020,
      "etheus": 8021,
      "illÃ¤": 8022,
      "forward": 8023,
      "ICENSE": 8024,
      "ä¸Ģ": 8025,
      "Ġenemy": 8026,
      "Raw": 8027,
      "Ġelabor": 8028,
      "itecture": 8029,
      "Ġfix": 8030,
      "access": 8031,
      "ĠGree": 8032,
      "ĠPhil": 8033,
      "Ok": 8034,
      "icks": 8035,
      "Ġcomment": 8036,
      "Internal": 8037,
      "high": 8038,
      "txt": 8039,
      "vid": 8040,
      "ĠPress": 8041,
      "Ġformer": 8042,
      "ATION": 8043,
      "Ġblue": 8044,
      "iagnostic": 8045,
      "ffffffff": 8046,
      "Var": 8047,
      "ility": 8048,
      "aya": 8049,
      "Ġrot": 8050,
      "models": 8051,
      "Ġnosotros": 8052,
      "Ġperformance": 8053,
      "Api": 8054,
      "aped": 8055,
      "cuencias": 8056,
      "Ġcampe": 8057,
      "Ġencarg": 8058,
      "----------------------------------------------------------------": 8059,
      "Ġitems": 8060,
      "Ġdistintos": 8061,
      "Pod": 8062,
      "Ġdas": 8063,
      "Ġfan": 8064,
      "ulg": 8065,
      "Ġrank": 8066,
      "Ġ\\\"": 8067,
      "ĠGrand": 8068,
      "hab": 8069,
      "ĠcÃ¡l": 8070,
      "adem": 8071,
      "lying": 8072,
      "igned": 8073,
      "Ġestrateg": 8074,
      "Ġchief": 8075,
      "adoras": 8076,
      "Ġbelong": 8077,
      "ĠÃºnica": 8078,
      "Ġhijos": 8079,
      "ĠÄ": 8080,
      "ĠNet": 8081,
      "Ġconcern": 8082,
      "Ġposibilidad": 8083,
      "stein": 8084,
      "Go": 8085,
      "Namespace": 8086,
      "arÃ¡n": 8087,
      "ĠRel": 8088,
      "Parse": 8089,
      "Ġspl": 8090,
      "Ġentend": 8091,
      "ĠComp": 8092,
      "Ġvictoria": 8093,
      "ĠfÃŃsica": 8094,
      "Ġusuario": 8095,
      ")).": 8096,
      "Ġshadow": 8097,
      "ĠJul": 8098,
      "TypeOf": 8099,
      "Ġniveles": 8100,
      "Ġapoy": 8101,
      "Ġdescubr": 8102,
      "Ġdol": 8103,
      "elas": 8104,
      "Ġconsecuencia": 8105,
      "Ġmere": 8106,
      "itaciÃ³n": 8107,
      "Ġoffice": 8108,
      "Ġbreath": 8109,
      "Ġbattle": 8110,
      "Ġthr": 8111,
      "Ġexped": 8112,
      "playlist": 8113,
      "Session": 8114,
      "arl": 8115,
      "mail": 8116,
      "Ġplugin": 8117,
      "dar": 8118,
      "eb": 8119,
      "stÃ¤": 8120,
      "ĠPR": 8121,
      "()`": 8122,
      "Ġrequerida": 8123,
      "ining": 8124,
      "Ġdob": 8125,
      "Ġvarious": 8126,
      "Ġpreocup": 8127,
      "Ġconsol": 8128,
      "ROM": 8129,
      "Ġbanda": 8130,
      "Sync": 8131,
      "hon": 8132,
      "uture": 8133,
      "Ġmatrix": 8134,
      "Ġacerca": 8135,
      "Ġsalt": 8136,
      "ÃŃstico": 8137,
      "Button": 8138,
      "vat": 8139,
      "Ġlang": 8140,
      "Ã¹": 8141,
      "ĠKING": 8142,
      "FO": 8143,
      "Ġdeport": 8144,
      "Ġvideos": 8145,
      "Ġgro": 8146,
      "ĠPed": 8147,
      "fp": 8148,
      "Ġfij": 8149,
      "road": 8150,
      "ÃŃl": 8151,
      "Ġchance": 8152,
      "{},": 8153,
      "éĢ": 8154,
      "iografÃŃa": 8155,
      "asses": 8156,
      "123": 8157,
      "ĠfÃºtbol": 8158,
      "ciales": 8159,
      "Ġdismin": 8160,
      "fera": 8161,
      "Ġraised": 8162,
      "Ġcourt": 8163,
      "Search": 8164,
      "burg": 8165,
      "Ġconvent": 8166,
      "cht": 8167,
      "Ġemploy": 8168,
      "ĠÃ¡mb": 8169,
      "ituciÃ³n": 8170,
      "itudes": 8171,
      "Ġdiversas": 8172,
      "Ġrule": 8173,
      "elles": 8174,
      "ĠÐ¾": 8175,
      "Ġcomercio": 8176,
      "aml": 8177,
      "ĠPers": 8178,
      "Ġclaim": 8179,
      "ysis": 8180,
      "Ġpropiedad": 8181,
      "drop": 8182,
      "iaciÃ³n": 8183,
      "Ġcls": 8184,
      "Vec": 8185,
      "Ġmeta": 8186,
      "Logger": 8187,
      "Ġaccording": 8188,
      "Ġbol": 8189,
      "fc": 8190,
      "Ġsacr": 8191,
      "Arguments": 8192,
      "Ġbeginning": 8193,
      "ffers": 8194,
      "Ġfeeling": 8195,
      "uns": 8196,
      "ĠDere": 8197,
      "taa": 8198,
      "Export": 8199,
      "aries": 8200,
      "ani": 8201,
      "Ġbank": 8202,
      "ĠMutta": 8203,
      "Ġ2017": 8204,
      "Ġrxjs": 8205,
      "Ã¯": 8206,
      "ellow": 8207,
      "Ġreach": 8208,
      "oud": 8209,
      "Ġvoor": 8210,
      "Ġsection": 8211,
      "istent": 8212,
      "Ġlearning": 8213,
      "Ġfuente": 8214,
      "HER": 8215,
      "document": 8216,
      "resp": 8217,
      "Ġmoved": 8218,
      "Ġadecu": 8219,
      "su": 8220,
      "Ġli": 8221,
      "change": 8222,
      "ĠSant": 8223,
      "Ġinterval": 8224,
      "Ġmuestra": 8225,
      "Ġals": 8226,
      "Ġexplicit": 8227,
      "mend": 8228,
      "rq": 8229,
      "scope": 8230,
      "Ġfecha": 8231,
      "Ġtransporte": 8232,
      "Ġmonta": 8233,
      "Selector": 8234,
      "ĠÃŃn": 8235,
      "Ġconocida": 8236,
      "Ġcarb": 8237,
      "variant": 8238,
      "Variable": 8239,
      "ĠAntonio": 8240,
      "Ill": 8241,
      "Ġserve": 8242,
      "Ġaproximadamente": 8243,
      "fit": 8244,
      "cribe": 8245,
      "_;": 8246,
      "Ġminist": 8247,
      "puestos": 8248,
      "ashion": 8249,
      "uccess": 8250,
      "ĠpartÃŃculas": 8251,
      "arp": 8252,
      "ulated": 8253,
      "ĠCO": 8254,
      "ÐµÐ½": 8255,
      "Ġterrible": 8256,
      "yen": 8257,
      "Ġlips": 8258,
      "idÃ¤n": 8259,
      "Ġvos": 8260,
      "ĠMary": 8261,
      "Runtime": 8262,
      "camb": 8263,
      "Ã³v": 8264,
      "Ġunique": 8265,
      "ĠFern": 8266,
      "ĠÃ¡r": 8267,
      "iciales": 8268,
      "Act": 8269,
      "ĠTor": 8270,
      "Ãºa": 8271,
      "Ġobstante": 8272,
      "meth": 8273,
      "Â¡": 8274,
      "Ġdeleg": 8275,
      "Ġtouch": 8276,
      "Ġ31": 8277,
      "Ġpueda": 8278,
      "olÃ³gico": 8279,
      "ĠTO": 8280,
      "ĠPas": 8281,
      "Ġpresence": 8282,
      "Ġfron": 8283,
      "ĠespaÃ±ola": 8284,
      "ĠgÃ©nero": 8285,
      "=(": 8286,
      "Ġtengo": 8287,
      "Ġoperaciones": 8288,
      "Implement": 8289,
      "Ġwarm": 8290,
      "GB": 8291,
      "Ġinner": 8292,
      "ĠtÃ©cnicas": 8293,
      "Current": 8294,
      "Ġunless": 8295,
      "Ġjuegos": 8296,
      "Ġespecies": 8297,
      "MD": 8298,
      "rat": 8299,
      "Ġ'/": 8300,
      "Ġbehavior": 8301,
      "Each": 8302,
      "bed": 8303,
      "fetch": 8304,
      "Ġpush": 8305,
      "plos": 8306,
      "Ġusar": 8307,
      "ĠEnlaces": 8308,
      "eddings": 8309,
      "ĠtÃ©cnica": 8310,
      "ĠLondres": 8311,
      "MO": 8312,
      "ĠllevÃ³": 8313,
      "random": 8314,
      "hern": 8315,
      "Ġquickly": 8316,
      "eler": 8317,
      "Ġvul": 8318,
      "Ġgather": 8319,
      "ĠDiagnostics": 8320,
      "Ġconsult": 8321,
      "Bar": 8322,
      "So": 8323,
      "oin": 8324,
      "Ġhal": 8325,
      "Ġcontrario": 8326,
      "Operation": 8327,
      "FOR": 8328,
      "Ġdelete": 8329,
      "Ġfresh": 8330,
      "Ġpropiedades": 8331,
      "Ã©ticos": 8332,
      "handler": 8333,
      "Ġcircum": 8334,
      "Ġfamos": 8335,
      "Ġojos": 8336,
      "Ġenable": 8337,
      "(\"/": 8338,
      "Ġboys": 8339,
      "ĠWhich": 8340,
      "Ġrecuper": 8341,
      "Ġpred": 8342,
      "Ġgrav": 8343,
      "Ġexpans": 8344,
      "Ġfilled": 8345,
      "padding": 8346,
      "tis": 8347,
      "ĠpÃ¤Ã¤": 8348,
      "Ġinmedi": 8349,
      "ensed": 8350,
      "ĠVersion": 8351,
      "Ġworking": 8352,
      "Height": 8353,
      "ALL": 8354,
      "Ġpleas": 8355,
      "Ġscope": 8356,
      "americ": 8357,
      "Ġmencion": 8358,
      "Ġhi": 8359,
      "\":\"": 8360,
      "cry": 8361,
      "Ġsean": 8362,
      "Ġstrict": 8363,
      "ĠrÃ©g": 8364,
      "Ġcerr": 8365,
      "urales": 8366,
      "Ġintens": 8367,
      "ttÃ¤": 8368,
      "iÃ¨re": 8369,
      "Ġmang": 8370,
      ".\")": 8371,
      "ĠÃģfrica": 8372,
      "ĠanunciÃ³": 8373,
      "CHECK": 8374,
      "Ġdign": 8375,
      "Ġjos": 8376,
      "Ġseries": 8377,
      "TypeNode": 8378,
      "iten": 8379,
      "Ġsigue": 8380,
      "gas": 8381,
      "Timeout": 8382,
      "utt": 8383,
      "esty": 8384,
      "ptim": 8385,
      "acters": 8386,
      "Ġbases": 8387,
      "ĠcategorÃŃa": 8388,
      "estar": 8389,
      "ĠSam": 8390,
      "onds": 8391,
      "timeout": 8392,
      "Vis": 8393,
      "ibly": 8394,
      "Ġattributes": 8395,
      "ĠlanzÃ³": 8396,
      "Position": 8397,
      "åĬ": 8398,
      "Ġcere": 8399,
      "Ã¡genes": 8400,
      "Ã³nica": 8401,
      "Ġquienes": 8402,
      "Ġbeauty": 8403,
      "Ġpsic": 8404,
      "rasil": 8405,
      "Ġcalling": 8406,
      "SN": 8407,
      "Ġvain": 8408,
      "Ġchunks": 8409,
      "Ġcooper": 8410,
      "Ġorganizaciones": 8411,
      ")\\": 8412,
      "Ġconex": 8413,
      "ĠDirect": 8414,
      "tail": 8415,
      "Expected": 8416,
      "ĠsoluciÃ³n": 8417,
      "Ġaddr": 8418,
      "Interface": 8419,
      "Ġextranj": 8420,
      "Ġconcre": 8421,
      "then": 8422,
      "ãģ§": 8423,
      "aterra": 8424,
      "Ġmutta": 8425,
      "Ġvert": 8426,
      "structures": 8427,
      "Ġvirus": 8428,
      "Ã¡fico": 8429,
      "emp": 8430,
      "Ġmodels": 8431,
      "Ġnearly": 8432,
      "Ġarquitectura": 8433,
      "ror": 8434,
      "Ġcomfort": 8435,
      "Ġvolver": 8436,
      "Plugin": 8437,
      "ĠMarius": 8438,
      "atado": 8439,
      "atically": 8440,
      "Ġfactores": 8441,
      "ĠalemÃ¡n": 8442,
      "Af": 8443,
      "Ġmiel": 8444,
      "Ġvio": 8445,
      "Ġ*)": 8446,
      "Ġidi": 8447,
      "Ġtyping": 8448,
      "Ġenfermedad": 8449,
      "ĠRichard": 8450,
      "/**": 8451,
      "Ġexclaimed": 8452,
      "ĠChurch": 8453,
      "Ġenvironment": 8454,
      "Ġiz": 8455,
      "ingle": 8456,
      "ĠCour": 8457,
      "enge": 8458,
      "plicate": 8459,
      "Ġincluye": 8460,
      "imedia": 8461,
      "ĠBlock": 8462,
      "Ġjnp": 8463,
      "Ġadquir": 8464,
      "Ãºsqu": 8465,
      ".Â»": 8466,
      "anut": 8467,
      "Ġfixed": 8468,
      "Ġnpy": 8469,
      "linux": 8470,
      "TL": 8471,
      "ĠmitÃ¤": 8472,
      "itary": 8473,
      "ĠSC": 8474,
      "Ġhablar": 8475,
      "Comment": 8476,
      "dan": 8477,
      "Ġhier": 8478,
      "ĠDeb": 8479,
      "Ġslight": 8480,
      "fol": 8481,
      "iest": 8482,
      "erate": 8483,
      "Ġlaugh": 8484,
      "ĠPet": 8485,
      "Ġfat": 8486,
      "Ġenjo": 8487,
      "ĠLady": 8488,
      "Ġactor": 8489,
      "Ġmember": 8490,
      "Ġ2021": 8491,
      "Ġproblem": 8492,
      "([]": 8493,
      "ĠWorld": 8494,
      "ĠpÃ©rd": 8495,
      "Î±": 8496,
      "ĠSouth": 8497,
      "ĠIter": 8498,
      "Ġrapid": 8499,
      "Comp": 8500,
      "Scal": 8501,
      "reat": 8502,
      "ĠHa": 8503,
      "ners": 8504,
      "ilidad": 8505,
      "glaterra": 8506,
      "Assert": 8507,
      "Ġblocks": 8508,
      ",)": 8509,
      "ialization": 8510,
      "Ġheaders": 8511,
      "ĠApache": 8512,
      "Ġtropas": 8513,
      "Ġ./": 8514,
      "Ġcoraz": 8515,
      "may": 8516,
      "ĠFI": 8517,
      "Parameters": 8518,
      "Ġreceive": 8519,
      "ĠlÃ³g": 8520,
      "Ġliving": 8521,
      "Chunk": 8522,
      "Ġartista": 8523,
      "imonio": 8524,
      "audio": 8525,
      "áĥ": 8526,
      "icle": 8527,
      "Ġapplied": 8528,
      "Ġhoriz": 8529,
      "Ġdeclaration": 8530,
      "itation": 8531,
      "oured": 8532,
      "Ġago": 8533,
      "Ġcoordin": 8534,
      "Ġgreen": 8535,
      "ĠâĨĴ": 8536,
      "Ġperiodo": 8537,
      "Ġsans": 8538,
      "Ġoportun": 8539,
      "bled": 8540,
      "Ġremained": 8541,
      "ende": 8542,
      "Ġdelight": 8543,
      "essa": 8544,
      "ĠRequest": 8545,
      "dole": 8546,
      "ĠWhile": 8547,
      "Ġglad": 8548,
      "Ġseguir": 8549,
      "////////////////": 8550,
      "(--": 8551,
      "Ġfait": 8552,
      "///": 8553,
      "acia": 8554,
      "sec": 8555,
      "Ġequipos": 8556,
      "Description": 8557,
      "Ġpra": 8558,
      "hem": 8559,
      "ĠmÃºl": 8560,
      "Ġmedic": 8561,
      "annels": 8562,
      "Obj": 8563,
      "Ġ2004": 8564,
      "Ġbroad": 8565,
      "ĠdistribuciÃ³n": 8566,
      "ĠCount": 8567,
      "Ġdependencies": 8568,
      "resolve": 8569,
      "Link": 8570,
      "iate": 8571,
      "cles": 8572,
      "!--": 8573,
      "*.": 8574,
      "ĠcuestiÃ³n": 8575,
      "Ġmoun": 8576,
      "Ġ2001": 8577,
      "hist": 8578,
      "lang": 8579,
      "nem": 8580,
      "Ġpng": 8581,
      "Ġsont": 8582,
      "Ġpasar": 8583,
      "ĠCe": 8584,
      "ãģ¾": 8585,
      "wiki": 8586,
      "ĠfÃ¡cil": 8587,
      "Pattern": 8588,
      "Det": 8589,
      "Ġere": 8590,
      "asm": 8591,
      "tries": 8592,
      "ĠService": 8593,
      "Ġmonths": 8594,
      "\"):": 8595,
      "IE": 8596,
      "Ġdrew": 8597,
      "Ġba": 8598,
      "roid": 8599,
      "Ġdirectamente": 8600,
      "numpy": 8601,
      "ĠFrancisco": 8602,
      "erramient": 8603,
      "Ġpun": 8604,
      "Ġont": 8605,
      "Ġprobably": 8606,
      "Found": 8607,
      "dest": 8608,
      "ĠdÃŃli": 8609,
      "Ġconstante": 8610,
      "ĠContext": 8611,
      "Ġquiere": 8612,
      "ĠparticipaciÃ³n": 8613,
      "ĠBOOST": 8614,
      "AA": 8615,
      "Union": 8616,
      "Ġbackground": 8617,
      "ĠNorte": 8618,
      "rect": 8619,
      "Ġblow": 8620,
      "Attr": 8621,
      "Ġbuilding": 8622,
      "unes": 8623,
      "Ġtools": 8624,
      "Ġ\"#": 8625,
      "acing": 8626,
      "Ġesas": 8627,
      "avo": 8628,
      "Ġamigo": 8629,
      "ĠStan": 8630,
      "Ġoccur": 8631,
      "Ġaspectos": 8632,
      "beta": 8633,
      "Ġbyte": 8634,
      "checkpoint": 8635,
      "'.": 8636,
      "uraciÃ³n": 8637,
      "Ġannot": 8638,
      "ĠMÃ¡s": 8639,
      "Ġalmacen": 8640,
      "hip": 8641,
      "Ġequilib": 8642,
      "MI": 8643,
      "jar": 8644,
      "Ġtul": 8645,
      "ouble": 8646,
      "Ġpolic": 8647,
      "blocks": 8648,
      "ĠPlan": 8649,
      "Ġprior": 8650,
      "Bl": 8651,
      "ii": 8652,
      "close": 8653,
      "Ġdicha": 8654,
      "ĠHowever": 8655,
      "Ġtypedef": 8656,
      "Ġeight": 8657,
      "Ġ\"_": 8658,
      "ĠInglaterra": 8659,
      "Ġcareful": 8660,
      "MAX": 8661,
      "ĠmÃŃn": 8662,
      "router": 8663,
      "Ġthick": 8664,
      "ĠAsia": 8665,
      "extension": 8666,
      "validate": 8667,
      "Ġmejores": 8668,
      "_(": 8669,
      "Ġbot": 8670,
      "remote": 8671,
      "ÑĪ": 8672,
      "acciones": 8673,
      "posite": 8674,
      "prend": 8675,
      "Ġgeneralmente": 8676,
      "Ġgoles": 8677,
      "Me": 8678,
      "Ġfundamental": 8679,
      "Ġgovernment": 8680,
      "Ġespos": 8681,
      "ĠFeder": 8682,
      "ensors": 8683,
      "Ġsegment": 8684,
      "ĠParameters": 8685,
      "you": 8686,
      "Ġsample": 8687,
      "abc": 8688,
      "ĠGood": 8689,
      "Ġobten": 8690,
      "Storage": 8691,
      "Ġcaught": 8692,
      "ĠSaint": 8693,
      "Iterator": 8694,
      "Ġstreet": 8695,
      "itas": 8696,
      "Ġconclus": 8697,
      "ÃŃdo": 8698,
      "Ġcontro": 8699,
      "Ġsusp": 8700,
      "ĠcompaÃ±ÃŃa": 8701,
      "tip": 8702,
      "Ġenfo": 8703,
      "indices": 8704,
      "Ġdispos": 8705,
      "Ġregiones": 8706,
      "Ġsignature": 8707,
      "Ġbusc": 8708,
      "ichael": 8709,
      "Ð³": 8710,
      "undle": 8711,
      "Ġdestroy": 8712,
      "ĠlÃ¤": 8713,
      "Ġpadding": 8714,
      "ĠThou": 8715,
      "Pointer": 8716,
      "ller": 8717,
      "Ġindustrial": 8718,
      "ĠproteÃŃnas": 8719,
      "IST": 8720,
      "ÃŁ": 8721,
      "Ġliv": 8722,
      "ĠMac": 8723,
      "Ġ2002": 8724,
      "aaaa": 8725,
      "ris": 8726,
      "ĠJose": 8727,
      "grade": 8728,
      "ĠmÃªme": 8729,
      "Ġmah": 8730,
      "Ġhaciendo": 8731,
      "ĠMachine": 8732,
      "atas": 8733,
      "Ġmoon": 8734,
      "Ġproducir": 8735,
      "Close": 8736,
      "Ġadministr": 8737,
      "Writer": 8738,
      "ĠsitÃ¤": 8739,
      "Ã©cul": 8740,
      "export": 8741,
      "END": 8742,
      "Ġtercer": 8743,
      "ĠBritish": 8744,
      "NdEx": 8745,
      "Reader": 8746,
      "ĠUniversity": 8747,
      "ĠHannah": 8748,
      "ĠimÃ¡genes": 8749,
      "Ġstraight": 8750,
      "RES": 8751,
      "ulado": 8752,
      "Ġejec": 8753,
      "Ġtreat": 8754,
      "Ġdiscipl": 8755,
      "Ġcrowd": 8756,
      "Next": 8757,
      "tl": 8758,
      "Ġpow": 8759,
      "idencia": 8760,
      "ĠgestiÃ³n": 8761,
      "Ġalber": 8762,
      "Ġbecom": 8763,
      "ĠprÃ³": 8764,
      "asti": 8765,
      "iÃ³t": 8766,
      "Ġfool": 8767,
      "Ġconditions": 8768,
      "Tuple": 8769,
      "Ġcomunidad": 8770,
      "Ġantig": 8771,
      "Ġwanted": 8772,
      "NOT": 8773,
      "rg": 8774,
      "Ġship": 8775,
      "ÑĤÐ°": 8776,
      "steps": 8777,
      "istant": 8778,
      "ftware": 8779,
      "aug": 8780,
      "Ġsequence": 8781,
      "Ġtrust": 8782,
      "ustration": 8783,
      "Ġmismos": 8784,
      "=\\": 8785,
      "tion": 8786,
      "Ġcro": 8787,
      "ĠTel": 8788,
      "ellig": 8789,
      "Ġlengua": 8790,
      "HTML": 8791,
      "PP": 8792,
      "Ġpant": 8793,
      "asa": 8794,
      "ĠEvery": 8795,
      "ualType": 8796,
      "Ġrace": 8797,
      "llas": 8798,
      "Ġorganismos": 8799,
      "Ġtakes": 8800,
      "uh": 8801,
      "rob": 8802,
      "Ġvas": 8803,
      "Ġrelation": 8804,
      "Flow": 8805,
      "ĠelÃ©ctr": 8806,
      "using": 8807,
      "Ġ\".": 8808,
      "Ġ128": 8809,
      "Ġpassing": 8810,
      "Ġsync": 8811,
      "alÃ¡y": 8812,
      "ĠTen": 8813,
      "Ġ2003": 8814,
      "Ġtratamiento": 8815,
      "mÃ¤n": 8816,
      "}`": 8817,
      "ĠPyObject": 8818,
      "ĠLouis": 8819,
      "sq": 8820,
      "uting": 8821,
      "Ã©f": 8822,
      "Ġpolicy": 8823,
      "UC": 8824,
      "Ġwound": 8825,
      "estre": 8826,
      "minal": 8827,
      "ĠtenÃŃan": 8828,
      "ÑĢÐ¸": 8829,
      "ĠpolÃŃticos": 8830,
      "Ġfuturo": 8831,
      "Ġuniversal": 8832,
      "Ġĉĉĉĉĉĉĉĉĉĉ": 8833,
      "Ġagreed": 8834,
      "sys": 8835,
      "ĠOur": 8836,
      "ĠWAR": 8837,
      "Ġsignifica": 8838,
      "Settings": 8839,
      "sen": 8840,
      "kaan": 8841,
      "Ġhora": 8842,
      "ulate": 8843,
      "Ġantic": 8844,
      "Ġestablecer": 8845,
      "ĠcrÃŃtica": 8846,
      "orio": 8847,
      "Ġsufficient": 8848,
      "Ġthoughts": 8849,
      "Ġindustria": 8850,
      "oted": 8851,
      "ĠSr": 8852,
      "Ġpleasure": 8853,
      "Ġpermissions": 8854,
      "Ter": 8855,
      "Ġmock": 8856,
      "idge": 8857,
      "ĠDiv": 8858,
      "Ġwalk": 8859,
      "Ġhors": 8860,
      "loom": 8861,
      "Ġoperator": 8862,
      "Ġkaik": 8863,
      "ĠCiudad": 8864,
      "Have": 8865,
      "NS": 8866,
      "Nodes": 8867,
      "Ġattr": 8868,
      "Delete": 8869,
      "Ġconflicto": 8870,
      "Ġllen": 8871,
      "Ġalthough": 8872,
      "Ġparal": 8873,
      "Ġmeant": 8874,
      "Ġsoldados": 8875,
      "Ġveh": 8876,
      "ĠIsrael": 8877,
      "Ġlatter": 8878,
      "sdk": 8879,
      "Ste": 8880,
      "pod": 8881,
      "}\")": 8882,
      "Ġcell": 8883,
      "ĠTime": 8884,
      "Why": 8885,
      "Ġflour": 8886,
      "500": 8887,
      "Øª": 8888,
      "Ġmarco": 8889,
      "Ġdific": 8890,
      "Ġadicion": 8891,
      "Ġweek": 8892,
      "Ġintercamb": 8893,
      "ãĥ¼ãĥ": 8894,
      "Ġdecisiones": 8895,
      "ĠOrgan": 8896,
      "GEN": 8897,
      "ĠSource": 8898,
      "ills": 8899,
      "Ġsaf": 8900,
      "ambda": 8901,
      "Ġprovide": 8902,
      "zz": 8903,
      "Ġton": 8904,
      "Ġbottom": 8905,
      "--\"": 8906,
      "Ġexception": 8907,
      "ĠBrasil": 8908,
      "rip": 8909,
      "Ġpool": 8910,
      "Ġavanz": 8911,
      "}}\\": 8912,
      "Core": 8913,
      "Ph": 8914,
      "Ag": 8915,
      "è¨": 8916,
      "Ġcard": 8917,
      "ĠAug": 8918,
      "Ġprohib": 8919,
      "como": 8920,
      "ĠdifÃŃcil": 8921,
      "'),": 8922,
      "Ġpid": 8923,
      "Connection": 8924,
      "azz": 8925,
      "604": 8926,
      "Web": 8927,
      "Ġsangre": 8928,
      "adie": 8929,
      "otes": 8930,
      "ĠLey": 8931,
      "ĠInst": 8932,
      "Ġterms": 8933,
      "Ġgrace": 8934,
      "Ġdistintas": 8935,
      "Ġdeps": 8936,
      "platform": 8937,
      "Ġprofund": 8938,
      "Ã³lica": 8939,
      "ĠselecciÃ³n": 8940,
      "Argument": 8941,
      "nil": 8942,
      "ĠsÃŃn": 8943,
      "aled": 8944,
      "Ġconect": 8945,
      "Ġgaz": 8946,
      "ĠNa": 8947,
      "ãģ¯": 8948,
      "Ġ80": 8949,
      "Ġreflect": 8950,
      "Ġdivid": 8951,
      "Â°": 8952,
      "anÃŃa": 8953,
      "requ": 8954,
      "ĠSud": 8955,
      "Ġpagb": 8956,
      "ĠFunction": 8957,
      "Ġcob": 8958,
      "attention": 8959,
      "acc": 8960,
      "Ġones": 8961,
      "protocol": 8962,
      "uela": 8963,
      "ĠPresidente": 8964,
      "labels": 8965,
      "jes": 8966,
      "rict": 8967,
      "}\",": 8968,
      "edL": 8969,
      "Ġstat": 8970,
      "Ġresist": 8971,
      "COM": 8972,
      "most": 8973,
      "yr": 8974,
      "arca": 8975,
      "reference": 8976,
      "Ġmetrics": 8977,
      "tach": 8978,
      "Ġobjetivos": 8979,
      "Account": 8980,
      "Ġcabeza": 8981,
      "Ġfabric": 8982,
      ")->": 8983,
      "redu": 8984,
      "istics": 8985,
      "Ġpredic": 8986,
      "Ġelemento": 8987,
      "Ġriesgo": 8988,
      "Â¿": 8989,
      "Ġtin": 8990,
      "ĠHam": 8991,
      "ioso": 8992,
      "Optional": 8993,
      "QU": 8994,
      "Ġborder": 8995,
      "ĠbÃºsqu": 8996,
      "Ġhealth": 8997,
      "parallel": 8998,
      "``.": 8999,
      "orp": 9000,
      "Ġpin": 9001,
      "umed": 9002,
      "Ġtoma": 9003,
      "holder": 9004,
      "Ġdream": 9005,
      "Ġdemas": 9006,
      "Ġplant": 9007,
      "Ġknows": 9008,
      "Ġhacen": 9009,
      "Ġproyectos": 9010,
      "Ġizquier": 9011,
      "final": 9012,
      "lim": 9013,
      "ĠPRO": 9014,
      "Enabled": 9015,
      "ĠpublicÃ³": 9016,
      "Ġmatches": 9017,
      "amblea": 9018,
      "Ġtx": 9019,
      "esti": 9020,
      "Ġisla": 9021,
      "Ġcharge": 9022,
      "Style": 9023,
      "Ġsettings": 9024,
      "Decor": 9025,
      "Ġist": 9026,
      "Ġherramient": 9027,
      "estions": 9028,
      "ĠPen": 9029,
      "Ġutilizan": 9030,
      "Ġactually": 9031,
      "ĠenseÃ±": 9032,
      "cciones": 9033,
      "fy": 9034,
      "igher": 9035,
      "ĠFast": 9036,
      "Ġmarc": 9037,
      "Ġrights": 9038,
      "Ġjoin": 9039,
      "Ġeasily": 9040,
      "Ġconocer": 9041,
      "ĠmÃ¡ximo": 9042,
      "imismo": 9043,
      "Ġ*,": 9044,
      "Ġdesire": 9045,
      "Ġze": 9046,
      "ĠÐ·": 9047,
      "Location": 9048,
      "Ġtemperatura": 9049,
      "Ġupdated": 9050,
      "Ġæ": 9051,
      "enable": 9052,
      "Ġlicense": 9053,
      "ĠpasÃ³": 9054,
      "ĠnÃºmeros": 9055,
      "Ġollut": 9056,
      "ĠKenel": 9057,
      "CA": 9058,
      "elt": 9059,
      "ĠAlex": 9060,
      "ayo": 9061,
      "Ġchair": 9062,
      "workflow": 9063,
      "attn": 9064,
      "Ġfaire": 9065,
      "Ġwaiting": 9066,
      "Ġquiero": 9067,
      "kk": 9068,
      "lle": 9069,
      "Ġsql": 9070,
      "Cast": 9071,
      "Ġproperties": 9072,
      "apply": 9073,
      "Ġbrill": 9074,
      "Ġradio": 9075,
      "ae": 9076,
      "yml": 9077,
      "Ġdesap": 9078,
      "Ġmateriales": 9079,
      "Ã¡met": 9080,
      "amber": 9081,
      "ulares": 9082,
      "Ġhija": 9083,
      "Ab": 9084,
      "Ġmilitares": 9085,
      "ĠacompaÃ±": 9086,
      "Span": 9087,
      "eld": 9088,
      "plica": 9089,
      "ĠHT": 9090,
      "Ġlevant": 9091,
      "creen": 9092,
      "Ġduty": 9093,
      "Ġcomportamiento": 9094,
      "Ġspect": 9095,
      "isions": 9096,
      "Ġomit": 9097,
      "Ġplante": 9098,
      "ĠChile": 9099,
      "Ġfactory": 9100,
      "ĠPerÃº": 9101,
      "Ġlearned": 9102,
      "Emit": 9103,
      "Ġthird": 9104,
      "Ġdigital": 9105,
      "house": 9106,
      "Ġnn": 9107,
      "Ġnyt": 9108,
      "ĠCPU": 9109,
      "ĠEven": 9110,
      "ĠBern": 9111,
      "endas": 9112,
      "Ġinspir": 9113,
      "\"{": 9114,
      "Binding": 9115,
      "required": 9116,
      "Ġsuele": 9117,
      "Ġcampos": 9118,
      "ni": 9119,
      "ĠWITH": 9120,
      "Ġpobre": 9121,
      "Ġdiff": 9122,
      "Ġ2024": 9123,
      "Now": 9124,
      "Sp": 9125,
      "Tx": 9126,
      "Ġexternal": 9127,
      "There": 9128,
      "Ġinstituciones": 9129,
      "window": 9130,
      "Ġthir": 9131,
      "ĠCapt": 9132,
      "enciales": 9133,
      "Ġcertainly": 9134,
      "SP": 9135,
      "imitive": 9136,
      "Ġfinally": 9137,
      "ĠOtros": 9138,
      "wind": 9139,
      "Ġpudo": 9140,
      "ipedia": 9141,
      "mult": 9142,
      "Ġpier": 9143,
      "Ġinher": 9144,
      "ĠMur": 9145,
      "application": 9146,
      "ĠOc": 9147,
      "ĠAlso": 9148,
      "Cluster": 9149,
      "(__": 9150,
      "lap": 9151,
      "mine": 9152,
      "Ġvest": 9153,
      "Ġesqu": 9154,
      "Ġfrecu": 9155,
      "Ġpurs": 9156,
      "Ġbomb": 9157,
      "irÃŃa": 9158,
      "ierta": 9159,
      "Ġslowly": 9160,
      "ĠTal": 9161,
      "Ġsujet": 9162,
      "ĠWash": 9163,
      "iterals": 9164,
      "unknown": 9165,
      "Ġtemas": 9166,
      "Ġrows": 9167,
      "pdf": 9168,
      "Ġhappened": 9169,
      "Ġ::": 9170,
      "ĠÚ©": 9171,
      "Ġbread": 9172,
      "ĠUE": 9173,
      "neg": 9174,
      "Ġlocation": 9175,
      "Ġambiente": 9176,
      "README": 9177,
      "namespace": 9178,
      "Ġspr": 9179,
      "ĠCity": 9180,
      "ĠMake": 9181,
      "ĠMientras": 9182,
      "artin": 9183,
      "Ġsetup": 9184,
      "Ġedit": 9185,
      "ACE": 9186,
      "Ġuniverso": 9187,
      "ĠescribiÃ³": 9188,
      "Ġcadena": 9189,
      "algorithms": 9190,
      ">::": 9191,
      "Ġreading": 9192,
      "Ġhang": 9193,
      "ĠRoma": 9194,
      "Ġartistas": 9195,
      "NU": 9196,
      "Some": 9197,
      "kio": 9198,
      "Ġcontexto": 9199,
      "resource": 9200,
      "ĠCommon": 9201,
      "added": 9202,
      "Ġsosten": 9203,
      "Ġpp": 9204,
      "Ġcarta": 9205,
      "Ġbroken": 9206,
      "ĠPortug": 9207,
      "Post": 9208,
      "ĠallÃ¡": 9209,
      "Ġautores": 9210,
      "Ġlogging": 9211,
      "ĠfilosofÃŃa": 9212,
      "Factory": 9213,
      ">`": 9214,
      "writ": 9215,
      "inces": 9216,
      "eca": 9217,
      "(-": 9218,
      "Ġinic": 9219,
      "ĠIgles": 9220,
      "peed": 9221,
      "upo": 9222,
      "Ġexpand": 9223,
      "rich": 9224,
      "Ġpure": 9225,
      "ĠMAR": 9226,
      "Ġsober": 9227,
      "Ġ500": 9228,
      "ĠaÃ±ad": 9229,
      "Ġservices": 9230,
      "\"));": 9231,
      "ASK": 9232,
      "Buf": 9233,
      "Ġlucha": 9234,
      "compat": 9235,
      "Ġappearance": 9236,
      "Ġcarga": 9237,
      "Ġatrib": 9238,
      "ald": 9239,
      "Ġpound": 9240,
      "ishment": 9241,
      "Ġcriter": 9242,
      "Ġreform": 9243,
      "ĠBoy": 9244,
      "Ġmez": 9245,
      "Ġsimply": 9246,
      "Ð¾Ð»": 9247,
      "Ġplaneta": 9248,
      "kit": 9249,
      "Ãī": 9250,
      "ĠðŁ": 9251,
      "Ġdied": 9252,
      "Ġideal": 9253,
      "WY": 9254,
      "Ġalign": 9255,
      "ĠÃ¡reas": 9256,
      "Ġsimil": 9257,
      "overn": 9258,
      "ĠPedro": 9259,
      "Mar": 9260,
      "images": 9261,
      "001": 9262,
      "Ġdespl": 9263,
      "Errors": 9264,
      "Ġnegoci": 9265,
      "arle": 9266,
      "rief": 9267,
      "llm": 9268,
      "Ġ####": 9269,
      "Ġdescend": 9270,
      "layers": 9271,
      "Ġrequires": 9272,
      "ĠIndia": 9273,
      "Ġselected": 9274,
      "Ġqual": 9275,
      "``,": 9276,
      "Ġbright": 9277,
      "Ġsabe": 9278,
      "ĠSanta": 9279,
      "network": 9280,
      "iller": 9281,
      "Ġkne": 9282,
      "Ġtransport": 9283,
      "Ġmerced": 9284,
      "Ġdinner": 9285,
      "Ġfigura": 9286,
      "One": 9287,
      "Ġbacter": 9288,
      "ĠgeneraciÃ³n": 9289,
      "Ġcru": 9290,
      "Ġgrab": 9291,
      "Ġlegal": 9292,
      "HS": 9293,
      "Limit": 9294,
      "crit": 9295,
      "Ġtum": 9296,
      "quant": 9297,
      "Ġsister": 9298,
      "ĠLO": 9299,
      "ĠDar": 9300,
      "ĠJa": 9301,
      "Ġpropag": 9302,
      "clear": 9303,
      "Ġopinion": 9304,
      "Ġtags": 9305,
      "ĠMem": 9306,
      "atever": 9307,
      "ĠRom": 9308,
      "Ġmodific": 9309,
      "ĠPagca": 9310,
      "Ġdocumentation": 9311,
      "Ġcultural": 9312,
      "Ġpale": 9313,
      "enter": 9314,
      "statement": 9315,
      "Ġdistancia": 9316,
      "ĠâĶ": 9317,
      "Ġtus": 9318,
      "umin": 9319,
      "Ġcontiene": 9320,
      "Ġnaturales": 9321,
      "Ġinteger": 9322,
      "Ð´Ðµ": 9323,
      "usa": 9324,
      "ĠWindows": 9325,
      "mous": 9326,
      "erts": 9327,
      "Ġcruel": 9328,
      "Ġnullptr": 9329,
      "ĠdefiniciÃ³n": 9330,
      "Ġdeliver": 9331,
      "Ġ[],": 9332,
      "cking": 9333,
      "Ġclases": 9334,
      "Series": 9335,
      "uebas": 9336,
      "Ã´t": 9337,
      "Ġprueba": 9338,
      "Ġpodemos": 9339,
      "Python": 9340,
      "Ġpensamiento": 9341,
      "children": 9342,
      "ĠmolÃ©cul": 9343,
      "Ġocasiones": 9344,
      "istÃ¤": 9345,
      "prop": 9346,
      "Ġ48": 9347,
      "Ġ----------": 9348,
      "Volume": 9349,
      "flex": 9350,
      "Ġann": 9351,
      "ĠWhether": 9352,
      "uks": 9353,
      "Ġfont": 9354,
      "Ġcharacters": 9355,
      "Ġmachine": 9356,
      "inject": 9357,
      "Ġdens": 9358,
      "unch": 9359,
      "ĠChe": 9360,
      "ĠBas": 9361,
      "cks": 9362,
      "Ġedge": 9363,
      "allo": 9364,
      "ĠNorth": 9365,
      "Ġdefinit": 9366,
      "Ġrode": 9367,
      "à¯ģ": 9368,
      "Ġhabitantes": 9369,
      "Failed": 9370,
      "kw": 9371,
      "uf": 9372,
      "uebl": 9373,
      "ĠMarÃŃa": 9374,
      "tagon": 9375,
      "Backend": 9376,
      "ĠBibl": 9377,
      "trÃ¡s": 9378,
      "Ġdram": 9379,
      "Ġallows": 9380,
      "itales": 9381,
      "Ġconn": 9382,
      "ANT": 9383,
      "amentos": 9384,
      "Ġdificult": 9385,
      "unsigned": 9386,
      "show": 9387,
      "Ġsiete": 9388,
      "merge": 9389,
      "ĠAtl": 9390,
      "(\\": 9391,
      "Files": 9392,
      "Ġdang": 9393,
      "Ġdoth": 9394,
      "Ġ{},": 9395,
      "Ġproxy": 9396,
      "ĠOd": 9397,
      "ensÃ¤": 9398,
      "ĠVen": 9399,
      "Ġtenido": 9400,
      "Ã§Ã£o": 9401,
      "ÑĨ": 9402,
      "encoder": 9403,
      "Ġtail": 9404,
      "Ġboat": 9405,
      "ãģĦ": 9406,
      "ĠComun": 9407,
      "ĠganÃ³": 9408,
      "Ġalcanzar": 9409,
      "bles": 9410,
      "Ġtap": 9411,
      "Ġaun": 9412,
      "Ġestoy": 9413,
      "liot": 9414,
      "Ġvalidation": 9415,
      "Ġnuestros": 9416,
      "tiples": 9417,
      "users": 9418,
      "Ah": 9419,
      "Hist": 9420,
      "take": 9421,
      "ĠBlack": 9422,
      "She": 9423,
      "è§": 9424,
      "Ġasign": 9425,
      "Ġextension": 9426,
      "Ġimpossible": 9427,
      "Ġhog": 9428,
      "Ġestuvo": 9429,
      "Ġtiempos": 9430,
      "Ġcheckpoint": 9431,
      "Ġdemanda": 9432,
      "00000000000000000000000000000000": 9433,
      "Ġvuestra": 9434,
      "entos": 9435,
      "Ġhun": 9436,
      "ugu": 9437,
      "Ġperf": 9438,
      "Ġframework": 9439,
      "eunt": 9440,
      "Ġwhe": 9441,
      "ĠBell": 9442,
      "Engine": 9443,
      "Ġespecially": 9444,
      "ridge": 9445,
      "details": 9446,
      "greg": 9447,
      "Ġproduced": 9448,
      "Ver": 9449,
      "ĠEcon": 9450,
      "Ġinterf": 9451,
      "framework": 9452,
      "erto": 9453,
      "arte": 9454,
      "Ġrepet": 9455,
      "deo": 9456,
      "ĠEsp": 9457,
      "card": 9458,
      "Ġ^": 9459,
      "Ġdanger": 9460,
      "Ġjot": 9461,
      "Ġkir": 9462,
      "Ġscene": 9463,
      "Ġsmile": 9464,
      "Ġpicture": 9465,
      "ĠTre": 9466,
      "ĠMig": 9467,
      "ieur": 9468,
      "Ġconstraint": 9469,
      "ENE": 9470,
      "ĠÐ¼": 9471,
      "ĠExpression": 9472,
      "geno": 9473,
      "Tool": 9474,
      "cluded": 9475,
      "aud": 9476,
      "gel": 9477,
      "Ġletters": 9478,
      "signature": 9479,
      "Ġleading": 9480,
      "Est": 9481,
      "Ġcpu": 9482,
      "ading": 9483,
      "Ġindu": 9484,
      "clean": 9485,
      "MB": 9486,
      "isp": 9487,
      "Ġham": 9488,
      "Ġexit": 9489,
      "irtual": 9490,
      "610": 9491,
      "Ø¯": 9492,
      "Ġconoce": 9493,
      "Ġgate": 9494,
      "Ġalter": 9495,
      "Ġcuy": 9496,
      "ariamente": 9497,
      "interface": 9498,
      "arme": 9499,
      "Ġsets": 9500,
      "Ġtall": 9501,
      "Ġaccom": 9502,
      "Ġcanal": 9503,
      "Ġmarch": 9504,
      "Ġgroups": 9505,
      "Ġsaved": 9506,
      "Ġox": 9507,
      "itted": 9508,
      "ĠLeon": 9509,
      "Ġspec": 9510,
      "Ġadelante": 9511,
      "ĠejecuciÃ³n": 9512,
      "Ġlit": 9513,
      "Ġincl": 9514,
      "ĠInstit": 9515,
      "Ġ47": 9516,
      "Ġrelease": 9517,
      "FC": 9518,
      "Ã©nd": 9519,
      "flat": 9520,
      "ASS": 9521,
      "ĠPrince": 9522,
      "Ġresolution": 9523,
      "ĠValid": 9524,
      "Ġmeaning": 9525,
      "ubernetes": 9526,
      "hu": 9527,
      "Ġnative": 9528,
      "ogram": 9529,
      "Ã©nt": 9530,
      "Ġcorte": 9531,
      "Ġsizeof": 9532,
      "Ġcandidate": 9533,
      "Ġdam": 9534,
      "ĠAT": 9535,
      "ĠThus": 9536,
      "Ġposteriormente": 9537,
      "Ġ...,": 9538,
      "generate": 9539,
      "Men": 9540,
      "oring": 9541,
      "Ġbaja": 9542,
      "ĠConstant": 9543,
      "SY": 9544,
      "Ġanx": 9545,
      "ĠPost": 9546,
      "umes": 9547,
      "Ġindices": 9548,
[...]
