{
  "version": "1.0",
  "truncation": null,
  "padding": null,
  "added_tokens": [
    {
      "id": 0,
      "content": "<pad>",
      "single_word": false,
      "lstrip": false,
      "rstrip": false,
      "normalized": false,
      "special": true
    },
    {
      "id": 1,
      "content": "<unk>",
      "single_word": false,
      "lstrip": false,
      "rstrip": false,
      "normalized": false,
      "special": true
    },
    {
      "id": 2,
      "content": "<bos>",
      "single_word": false,
      "lstrip": false,
      "rstrip": false,
      "normalized": false,
      "special": true
    },
    {
      "id": 3,
      "content": "<eos>",
      "single_word": false,
      "lstrip": false,
      "rstrip": false,
      "normalized": false,
      "special": true
    },
    {
      "id": 4,
      "content": "<sep>",
      "single_word": false,
      "lstrip": false,
      "rstrip": false,
      "normalized": false,
      "special": true
    },
    {
      "id": 5,
      "content": "<code>",
      "single_word": false,
      "lstrip": false,
      "rstrip": false,
      "normalized": false,
      "special": true
    }
  ],
  "normalizer": {
    "type": "NFKC"
  },
  "pre_tokenizer": {
    "type": "ByteLevel",
    "add_prefix_space": true,
    "trim_offsets": true,
    "use_regex": true
  },
  "post_processor": null,
  "decoder": {
    "type": "ByteLevel",
    "add_prefix_space": true,
    "trim_offsets": true,
    "use_regex": true
  },
  "model": {
    "type": "BPE",
    "dropout": null,
    "unk_token": "<unk>",
    "continuing_subword_prefix": null,
    "end_of_word_suffix": null,
    "fuse_unk": false,
    "byte_fallback": false,
    "ignore_merges": false,
    "vocab": {
      "<pad>": 0,
      "<unk>": 1,
      "<bos>": 2,
      "<eos>": 3,
      "<sep>": 4,
      "<code>": 5,
      "!": 6,
      "\"": 7,
      "#": 8,
      "$": 9,
      "%": 10,
      "&": 11,
      "'": 12,
      "(": 13,
      ")": 14,
      "*": 15,
      "+": 16,
      ",": 17,
      "-": 18,
      ".": 19,
      "/": 20,
      "0": 21,
      "1": 22,
      "2": 23,
      "3": 24,
      "4": 25,
      "5": 26,
      "6": 27,
      "7": 28,
      "8": 29,
      "9": 30,
      ":": 31,
      ";": 32,
      "<": 33,
      "=": 34,
      ">": 35,
      "?": 36,
      "@": 37,
      "A": 38,
      "B": 39,
      "C": 40,
      "D": 41,
      "E": 42,
      "F": 43,
      "G": 44,
      "H": 45,
      "I": 46,
      "J": 47,
      "K": 48,
      "L": 49,
      "M": 50,
      "N": 51,
      "O": 52,
      "P": 53,
      "Q": 54,
      "R": 55,
      "S": 56,
      "T": 57,
      "U": 58,
      "V": 59,
      "W": 60,
      "X": 61,
      "Y": 62,
      "Z": 63,
      "[": 64,
      "\\": 65,
      "]": 66,
      "^": 67,
      "_": 68,
      "`": 69,
      "a": 70,
      "b": 71,
      "c": 72,
      "d": 73,
      "e": 74,
      "f": 75,
      "g": 76,
      "h": 77,
      "i": 78,
      "j": 79,
      "k": 80,
      "l": 81,
      "m": 82,
      "n": 83,
      "o": 84,
      "p": 85,
      "q": 86,
      "r": 87,
      "s": 88,
      "t": 89,
      "u": 90,
      "v": 91,
      "w": 92,
      "x": 93,
      "y": 94,
      "z": 95,
      "{": 96,
      "|": 97,
      "}": 98,
      "~": 99,
      "¡": 100,
      "¢": 101,
      "£": 102,
      "¤": 103,
      "¥": 104,
      "¦": 105,
      "§": 106,
      "¨": 107,
      "©": 108,
      "ª": 109,
      "«": 110,
      "¬": 111,
      "®": 112,
      "¯": 113,
      "°": 114,
      "±": 115,
      "²": 116,
      "³": 117,
      "´": 118,
      "µ": 119,
      "¶": 120,
      "·": 121,
      "¸": 122,
      "¹": 123,
      "º": 124,
      "»": 125,
      "¼": 126,
      "½": 127,
      "¾": 128,
      "¿": 129,
      "Â": 130,
      "Ã": 131,
      "Ä": 132,
      "Å": 133,
      "Æ": 134,
      "Ç": 135,
      "È": 136,
      "É": 137,
      "Ê": 138,
      "Ë": 139,
      "Ì": 140,
      "Í": 141,
      "Î": 142,
      "Ï": 143,
      "Ð": 144,
      "Ñ": 145,
      "Ò": 146,
      "Ó": 147,
      "Õ": 148,
      "Ö": 149,
      "×": 150,
      "Ø": 151,
      "Ù": 152,
      "Ú": 153,
      "Û": 154,
      "Ü": 155,
      "Ý": 156,
      "Þ": 157,
      "ß": 158,
      "à": 159,
      "á": 160,
      "â": 161,
      "ã": 162,
      "ä": 163,
      "å": 164,
      "æ": 165,
      "ç": 166,
      "è": 167,
      "é": 168,
      "ê": 169,
      "ë": 170,
      "ì": 171,
      "í": 172,
      "ï": 173,
      "ð": 174,
      "ĉ": 175,
      "Ċ": 176,
      "Ġ": 177,
      "Ģ": 178,
      "ģ": 179,
      "Ĥ": 180,
      "ĥ": 181,
      "Ħ": 182,
      "ħ": 183,
      "Ĩ": 184,
      "ĩ": 185,
      "Ī": 186,
      "ī": 187,
      "Ĭ": 188,
      "ĭ": 189,
      "Į": 190,
      "į": 191,
      "İ": 192,
      "ı": 193,
      "Ĳ": 194,
      "ĳ": 195,
      "Ĵ": 196,
      "ĵ": 197,
      "Ķ": 198,
      "ķ": 199,
      "ĸ": 200,
      "Ĺ": 201,
      "ĺ": 202,
      "Ļ": 203,
      "ļ": 204,
      "Ľ": 205,
      "ľ": 206,
      "Ŀ": 207,
      "ŀ": 208,
      "Ł": 209,
      "ł": 210,
      "Ń": 211,
      "ĠĠ": 212,
      "ĠĠĠĠ": 213,
      "en": 214,
      "er": 215,
      "es": 216,
      "Ġt": 217,
      "Ġd": 218,
      "Ġa": 219,
      "on": 220,
      "in": 221,
      "Ġs": 222,
      "Ġc": 223,
      "Ġl": 224,
      "or": 225,
      "Ġp": 226,
      "Ġde": 227,
      "ar": 228,
      "an": 229,
      "os": 230,
      "as": 231,
      "re": 232,
      "he": 233,
      "at": 234,
      "Ġm": 235,
      "ĠĠĠ": 236,
      "al": 237,
      "el": 238,
      "is": 239,
      "ĠĠĠĠĠĠĠĠ": 240,
      "it": 241,
      "ad": 242,
      "Ġf": 243,
      "ent": 244,
      "qu": 245,
      "ed": 246,
      "un": 247,
      "ic": 248,
      "Ġh": 249,
      "ĠĊ": 250,
      "Ġo": 251,
      "Ġthe": 252,
      "Ġn": 253,
      "om": 254,
      "Ġb": 255,
      "Ġw": 256,
      "ci": 257,
      "le": 258,
      "Ġy": 259,
      "Ġla": 260,
      "ro": 261,
      "Ġin": 262,
      "id": 263,
      "Ã³": 264,
      "et": 265,
      "Ġqu": 266,
      "am": 267,
      "ur": 268,
      "ion": 269,
      "Ġen": 270,
      "ing": 271,
      "st": 272,
      "Ġel": 273,
      "Ġcon": 274,
      "ct": 275,
      "Ġan": 276,
      "im": 277,
      "Ġv": 278,
      "est": 279,
      "il": 280,
      "ut": 281,
      "Ġque": 282,
      "Ġto": 283,
      "ÃŃ": 284,
      "ĠĠĠĠĠĠĠ": 285,
      "Ġ=": 286,
      "Ġre": 287,
      "ab": 288,
      "Ġe": 289,
      "Ã¡": 290,
      "us": 291,
      "ol": 292,
      "Ġof": 293,
      "ul": 294,
      "Ġg": 295,
      "Ġun": 296,
      "ig": 297,
      "--": 298,
      "Ġth": 299,
      "Ġ\"": 300,
      "ra": 301,
      "ch": 302,
      "Ġse": 303,
      "od": 304,
      "ot": 305,
      "ĠA": 306,
      "Ġand": 307,
      "Ã©": 308,
      "Ã³n": 309,
      "ĠS": 310,
      "em": 311,
      "Ġ{": 312,
      "ĠC": 313,
      "ĠT": 314,
      "res": 315,
      "ce": 316,
      "if": 317,
      "iv": 318,
      "pe": 319,
      "ĠE": 320,
      "ir": 321,
      "Ġ(": 322,
      "Ġal": 323,
      "//": 324,
      "ĠI": 325,
      "lo": 326,
      "do": 327,
      "Ġlos": 328,
      "Ġsu": 329,
      "te": 330,
      "Ġ*": 331,
      "tr": 332,
      "Ġcom": 333,
      "se": 334,
      "ĠĠĠĠĠĠĠĠĠĠĠ": 335,
      "ter": 336,
      "ĠP": 337,
      "ag": 338,
      "aci": 339,
      "Ġpar": 340,
      "Ġ}": 341,
      "ac": 342,
      "ĠL": 343,
      "de": 344,
      "ĠM": 345,
      "Ġes": 346,
      "ĉĉ": 347,
      "ue": 348,
      "um": 349,
      "to": 350,
      "Ġ1": 351,
      "Ġdel": 352,
      "Ġfor": 353,
      "Ġest": 354,
      "âĢ": 355,
      "ist": 356,
      "Ġno": 357,
      "ap": 358,
      "ith": 359,
      "Ġlas": 360,
      "ay": 361,
      ");": 362,
      "iz": 363,
      "ers": 364,
      "Ġbe": 365,
      "ÃŃa": 366,
      "ĠD": 367,
      "ado": 368,
      "Ġr": 369,
      "Ġex": 370,
      "ate": 371,
      "Ġpor": 372,
      "Ġpro": 373,
      "Ġas": 374,
      "Ġis": 375,
      "pl": 376,
      "io": 377,
      "pt": 378,
      "ht": 379,
      "ation": 380,
      "Ġwh": 381,
      "..": 382,
      "Ġhe": 383,
      "ib": 384,
      "ort": 385,
      "ĠN": 386,
      "Ġ#": 387,
      "av": 388,
      "end": 389,
      "ente": 390,
      "ĠR": 391,
      "ub": 392,
      "ĠĠĠĠĠĠĠĠĠĠĠĠĠĠĠĠ": 393,
      "ta": 394,
      "Ġlo": 395,
      "and": 396,
      "ĠB": 397,
      "ver": 398,
      "00": 399,
      "Ġon": 400,
      "ly": 401,
      "Ġ`": 402,
      "ect": 403,
      "ame": 404,
      "ant": 405,
      "up": 406,
      "Ã±": 407,
      "urn": 408,
      "ia": 409,
      "Ġ//": 410,
      "ere": 411,
      "()": 412,
      "Ġ_": 413,
      "th": 414,
      "ec": 415,
      "ou": 416,
      "ĠF": 417,
      "Ġthat": 418,
      "Ġdes": 419,
      "aciÃ³n": 420,
      "ĠH": 421,
      "con": 422,
      "\":": 423,
      "Ġso": 424,
      "Ġtr": 425,
      "Ġit": 426,
      "\",": 427,
      "ier": 428,
      "rom": 429,
      "ien": 430,
      "ype": 431,
      "Ġuna": 432,
      "----": 433,
      "ke": 434,
      "ess": 435,
      "Ġle": 436,
      "per": 437,
      "ĠĠĠĠĠ": 438,
      "Ġst": 439,
      "ill": 440,
      "Ġ2": 441,
      "oc": 442,
      "Ġ-": 443,
      "all": 444,
      "Ġwith": 445,
      "Ġj": 446,
      "Ġ[": 447,
      "elf": 448,
      "Ġor": 449,
      "Ġim": 450,
      "ient": 451,
      "Ġif": 452,
      "turn": 453,
      "Ġnot": 454,
      "ĠG": 455,
      "Ġpara": 456,
      "ult": 457,
      "ud": 458,
      "port": 459,
      "Ġpr": 460,
      "cl": 461,
      "::": 462,
      "Ġĉĉ": 463,
      "ĠO": 464,
      "ust": 465,
      "ie": 466,
      "ĠĠĠĠĠĠĠĠĠĠĠĠĠĠĠ": 467,
      "for": 468,
      "able": 469,
      "Ġĉ": 470,
      "ex": 471,
      "int": 472,
      "com": 473,
      "ow": 474,
      "Ġ'": 475,
      "Ã¡s": 476,
      "Ġcu": 477,
      "Ġme": 478,
      "==": 479,
      "par": 480,
      "Ġwas": 481,
      "Ġus": 482,
      "ada": 483,
      "ero": 484,
      "Ġar": 485,
      "Ġ0": 486,
      "err": 487,
      "ass": 488,
      "our": 489,
      "Ġres": 490,
      "Ãº": 491,
      "ĠÃ¡": 492,
      "ode": 493,
      "ri": 494,
      "Ġat": 495,
      "ĠW": 496,
      "po": 497,
      "ĠÂ": 498,
      "ck": 499,
      "ando": 500,
      "arg": 501,
      "Ġ|": 502,
      "Ġcomo": 503,
      "ens": 504,
      "enci": 505,
      "age": 506,
      "idad": 507,
      "ug": 508,
      "ma": 509,
      "Ġcl": 510,
      "),": 511,
      "Ġ<": 512,
      "ang": 513,
      "ine": 514,
      "aba": 515,
      "**": 516,
      "ase": 517,
      "ps": 518,
      "und": 519,
      "la": 520,
      "ight": 521,
      "Ġmu": 522,
      "ath": 523,
      "Ġreturn": 524,
      "ones": 525,
      "Ġne": 526,
      "one": 527,
      "ĠV": 528,
      "ĠU": 529,
      "ĠThe": 530,
      "Ġk": 531,
      "Ġhis": 532,
      "ica": 533,
      "co": 534,
      "ction": 535,
      "Ġent": 536,
      "ast": 537,
      "bre": 538,
      "Ġfrom": 539,
      "iÃ³n": 540,
      "ire": 541,
      "Ġthis": 542,
      "ios": 543,
      "Ġser": 544,
      "ard": 545,
      "ile": 546,
      "str": 547,
      "Ġsh": 548,
      "era": 549,
      "Ġch": 550,
      "ich": 551,
      "Ã¤": 552,
      "mo": 553,
      "ido": 554,
      "ĠJ": 555,
      "ple": 556,
      "ales": 557,
      "Ġco": 558,
      "ave": 559,
      "ata": 560,
      "ans": 561,
      "ĠâĢ": 562,
      "ados": 563,
      "que": 564,
      "ack": 565,
      "Ġby": 566,
      "Ġyou": 567,
      "pon": 568,
      "ff": 569,
      "uld": 570,
      "nd": 571,
      "ĠmÃ¡s": 572,
      "out": 573,
      "Ġper": 574,
      "ost": 575,
      "Ġad": 576,
      "ment": 577,
      "ure": 578,
      "jo": 579,
      "ve": 580,
      "Ġdis": 581,
      "ption": 582,
      "ciÃ³n": 583,
      "pa": 584,
      "ĠEn": 585,
      "ord": 586,
      "Ġpre": 587,
      "Ġcont": 588,
      "ore": 589,
      "Ġac": 590,
      "Ġsa": 591,
      "unt": 592,
      "Ġman": 593,
      "Ġhab": 594,
      "ip": 595,
      "Ġob": 596,
      "In": 597,
      "Ġdef": 598,
      "ign": 599,
      "ial": 600,
      "ize": 601,
      "Ġab": 602,
      "go": 603,
      "Ġap": 604,
      "ind": 605,
      "Ġgr": 606,
      "ell": 607,
      "...": 608,
      "Ġpu": 609,
      "ĠEl": 610,
      "ive": 611,
      "ies": 612,
      ").": 613,
      "Ġdo": 614,
      "ser": 615,
      "Ġstr": 616,
      "put": 617,
      "ener": 618,
      "Ġself": 619,
      "Ġ&": 620,
      "ĠÐ": 621,
      "Ġwe": 622,
      "://": 623,
      "Ġsus": 624,
      "=\"": 625,
      "art": 626,
      "ice": 627,
      "ok": 628,
      "form": 629,
      "Ġall": 630,
      "ime": 631,
      "ide": 632,
      "alue": 633,
      "ante": 634,
      "ĠTh": 635,
      "ico": 636,
      "htt": 637,
      "Ġhad": 638,
      "xt": 639,
      "Ġma": 640,
      "uer": 641,
      "der": 642,
      "Ġher": 643,
      "pro": 644,
      "ose": 645,
      "Ã¡n": 646,
      "Ġam": 647,
      "Ġimport": 648,
      "gr": 649,
      "Ġ:": 650,
      "--------": 651,
      "ãģ": 652,
      "ĠY": 653,
      "che": 654,
      "Ġconst": 655,
      "ber": 656,
      "ity": 657,
      "Ġ==": 658,
      "âĢĻ": 659,
      "ject": 660,
      "pres": 661,
      "Ġ3": 662,
      "ces": 663,
      "ĠIn": 664,
      "ould": 665,
      "ores": 666,
      "get": 667,
      "og": 668,
      "ĠRe": 669,
      "Ġem": 670,
      "rit": 671,
      "Ġver": 672,
      "Con": 673,
      "Ġsi": 674,
      "->": 675,
      "Ġ--": 676,
      "ne": 677,
      "self": 678,
      "ĠâĢľ": 679,
      "op": 680,
      "Ġfun": 681,
      "ong": 682,
      "ĠLa": 683,
      "du": 684,
      "Ġare": 685,
      "âĢĿ": 686,
      "ll": 687,
      "ca": 688,
      "Ġhave": 689,
      "fer": 690,
      "amente": 691,
      "Ġ/": 692,
      "Ġwhich": 693,
      "Ġhas": 694,
      "._": 695,
      "Ġinter": 696,
      "act": 697,
      "Ġpl": 698,
      "Ġro": 699,
      "pr": 700,
      "Ġint": 701,
      "iÃ³": 702,
      "low": 703,
      "Ġsin": 704,
      "(\"": 705,
      "fig": 706,
      "Ð¾": 707,
      "Ġup": 708,
      "Ġmod": 709,
      "ä¸": 710,
      "za": 711,
      "Ġgo": 712,
      "amb": 713,
      "Ġcan": 714,
      "Ġbut": 715,
      "encia": 716,
      "ĠĠĠĠĠĠĠĠĠĠĠĠĠĠĠĠĠĠĠ": 717,
      "Ġhim": 718,
      "les": 719,
      "Ġag": 720,
      "ance": 721,
      "pos": 722,
      "ĠÃ©": 723,
      "Ġha": 724,
      "):": 725,
      "](": 726,
      "type": 727,
      "ak": 728,
      "Re": 729,
      "iel": 730,
      "https": 731,
      "ome": 732,
      "Ġerr": 733,
      "',": 734,
      "ual": 735,
      "Ġtod": 736,
      "lic": 737,
      "ida": 738,
      "Ã©s": 739,
      "text": 740,
      "Ġpart": 741,
      "iento": 742,
      "ull": 743,
      "ated": 744,
      "Ġmis": 745,
      "))": 746,
      "cho": 747,
      "Ġcre": 748,
      "Ã©n": 749,
      "ER": 750,
      "ĠĠĠĠĠĠĠĠĠ": 751,
      "ext": 752,
      "name": 753,
      "py": 754,
      "ros": 755,
      "Ġ+": 756,
      "min": 757,
      "pre": 758,
      "St": 759,
      "atch": 760,
      "Ġmy": 761,
      "aciones": 762,
      "sh": 763,
      "ĠUn": 764,
      "],": 765,
      "ĠCon": 766,
      "me": 767,
      "uest": 768,
      "Ġbo": 769,
      "Type": 770,
      "pect": 771,
      "Ð°": 772,
      "rr": 773,
      "ON": 774,
      "ĠEst": 775,
      "IN": 776,
      "key": 777,
      "Ġcol": 778,
      "Ġ@": 779,
      "Ġcons": 780,
      "Ġ.": 781,
      "},": 782,
      "Ġmay": 783,
      "ob": 784,
      "Ġwill": 785,
      "fa": 786,
      "Ġ4": 787,
      "eng": 788,
      "01": 789,
      "set": 790,
      "yn": 791,
      "Ðµ": 792,
      "ain": 793,
      "Ġout": 794,
      "Ġ///": 795,
      "ork": 796,
      "fo": 797,
      "ias": 798,
      "Ġ*/": 799,
      "tain": 800,
      "Ġmi": 801,
      "ence": 802,
      "Ġcar": 803,
      "Ġson": 804,
      "Ġpres": 805,
      "Ġet": 806,
      "ras": 807,
      "ary": 808,
      "'s": 809,
      "ition": 810,
      "ator": 811,
      "ãĢ": 812,
      "adas": 813,
      "ora": 814,
      "ura": 815,
      "ĠAr": 816,
      "ix": 817,
      "ran": 818,
      "ray": 819,
      "ument": 820,
      "plic": 821,
      "Ġsobre": 822,
      "tra": 823,
      "ĠK": 824,
      "``": 825,
      "Ġone": 826,
      "ÑĤ": 827,
      "vent": 828,
      "Ġvo": 829,
      "ther": 830,
      "ivo": 831,
      "Ġsol": 832,
      "Ġcas": 833,
      "Ġlet": 834,
      "man": 835,
      "Ġte": 836,
      "Ġ)": 837,
      "val": 838,
      "ific": 839,
      "use": 840,
      "Ġmar": 841,
      "ty": 842,
      "ithub": 843,
      "vo": 844,
      "ian": 845,
      "cal": 846,
      "cess": 847,
      "ĠSe": 848,
      "ement": 849,
      "Ġbu": 850,
      "ied": 851,
      "</": 852,
      "tern": 853,
      "Ġdon": 854,
      "github": 855,
      "cre": 856,
      "ÃŃan": 857,
      "Ġwere": 858,
      "mente": 859,
      "ven": 860,
      "cri": 861,
      "ict": 862,
      "Ġentre": 863,
      "so": 864,
      "Ġfin": 865,
      "cur": 866,
      "Ġthey": 867,
      "Ġ!": 868,
      "Ġpub": 869,
      "peci": 870,
      "ild": 871,
      "ĠÂ«": 872,
      "Ð¸": 873,
      "Â»": 874,
      "ina": 875,
      "quest": 876,
      "ues": 877,
      "Ġpos": 878,
      "ĠAn": 879,
      "Ġ===": 880,
      "tes": 881,
      "Ġra": 882,
      "ield": 883,
      "##": 884,
      "ink": 885,
      "Ġpued": 886,
      "uct": 887,
      "Ġaqu": 888,
      "Err": 889,
      "ĠÃ": 890,
      "Ġfe": 891,
      "dex": 892,
      "à¤": 893,
      "Ġpo": 894,
      "ite": 895,
      "Ġval": 896,
      "ory": 897,
      "return": 898,
      "ĠAl": 899,
      "eth": 900,
      "aron": 901,
      "Ġtan": 902,
      "col": 903,
      "ĠCom": 904,
      "lock": 905,
      ".\"": 906,
      "no": 907,
      "ible": 908,
      "çļ": 909,
      "Ġaut": 910,
      "çļĦ": 911,
      "cr": 912,
      "Ġclass": 913,
      "cu": 914,
      "pend": 915,
      "Ġ19": 916,
      "Ġcor": 917,
      "Ġtra": 918,
      "ach": 919,
      "Ġ5": 920,
      "Ġmed": 921,
      "cia": 922,
      "ĠNone": 923,
      "ular": 924,
      "ree": 925,
      "Ãºn": 926,
      "aban": 927,
      "ft": 928,
      "Ġact": 929,
      "ert": 930,
      "row": 931,
      "ĠÂ¿": 932,
      "02": 933,
      "her": 934,
      "ãĤ": 935,
      "Ġget": 936,
      "64": 937,
      "Ġwhen": 938,
      "Ġseg": 939,
      "Ġi": 940,
      "iendo": 941,
      "alse": 942,
      "Ġreg": 943,
      "EN": 944,
      "are": 945,
      "Ġvar": 946,
      "Ġshe": 947,
      "fic": 948,
      "Ġve": 949,
      "orm": 950,
      "iÃ©n": 951,
      "ãĥ": 952,
      "Ġuse": 953,
      "iones": 954,
      "va": 955,
      "ld": 956,
      "ise": 957,
      "ings": 958,
      "Ġrel": 959,
      "eb": 960,
      "Ġni": 961,
      "Ġti": 962,
      "Ġnew": 963,
      "Ġpero": 964,
      "();": 965,
      "Ġ```": 966,
      "Ġprim": 967,
      "Ġtype": 968,
      "Ġform": 969,
      "trib": 970,
      "Ġsal": 971,
      "ĠĠĠĠĠĠĠĠĠĠĠĠĠĠĠĠĠĠĠĠĠĠĠĠĠĠĠĠĠĠĠĠ": 972,
      "mod": 973,
      "ced": 974,
      "_,": 975,
      "Ġca": 976,
      "Error": 977,
      "32": 978,
      "Ġpas": 979,
      "Ġaf": 980,
      "Ġlle": 981,
      "Ex": 982,
      "Ġĉĉĉ": 983,
      "Ġtheir": 984,
      "12": 985,
      "bo": 986,
      "Ġthem": 987,
      "Ġalg": 988,
      "Ġpa": 989,
      "Ġpers": 990,
      "js": 991,
      "Ġind": 992,
      "ST": 993,
      "arse": 994,
      "Ġpod": 995,
      ",\"": 996,
      "ache": 997,
      "\")": 998,
      "Ġany": 999,
      "ÃŃs": 1000,
      "Ġ},": 1001,
      "\">": 1002,
      "Ġinst": 1003,
      "ions": 1004,
      "cul": 1005,
      "Ġmen": 1006,
      "def": 1007,
      "Ġcr": 1008,
      "ĠCh": 1009,
      "Ð¾Ð": 1010,
      "Ġtem": 1011,
      "Ġset": 1012,
      "Ġ=>": 1013,
      "AR": 1014,
      "ater": 1015,
      "OR": 1016,
      "bl": 1017,
      "ense": 1018,
      "ations": 1019,
      "clu": 1020,
      "now": 1021,
      "10": 1022,
      "Ġthere": 1023,
      "ij": 1024,
      "be": 1025,
      "Ġgener": 1026,
      "Ġwho": 1027,
      "__": 1028,
      "ph": 1029,
      "Ġ:=": 1030,
      "Ġeste": 1031,
      "Ġmuch": 1032,
      "====": 1033,
      "Ġll": 1034,
      "Ã±o": 1035,
      "Ġten": 1036,
      "ge": 1037,
      "ino": 1038,
      "Ġfa": 1039,
      "\"\"": 1040,
      "ĠHe": 1041,
      "tt": 1042,
      "Ġera": 1043,
      "Ġyour": 1044,
      "ange": 1045,
      "vel": 1046,
      "Ġname": 1047,
      "aj": 1048,
      "ader": 1049,
      "Ġpe": 1050,
      "ors": 1051,
      "oug": 1052,
      "ponse": 1053,
      "Ġwould": 1054,
      "16": 1055,
      "Ð½": 1056,
      "atic": 1057,
      "wn": 1058,
      "Res": 1059,
      "ĠDe": 1060,
      "acion": 1061,
      "pen": 1062,
      "ario": 1063,
      "amos": 1064,
      "ock": 1065,
      "Ġelse": 1066,
      "read": 1067,
      "mit": 1068,
      "Ġcap": 1069,
      "ano": 1070,
      "Ġcall": 1071,
      "Ġprop": 1072,
      "ern": 1073,
      "den": 1074,
      "ĠEs": 1075,
      "ade": 1076,
      "ish": 1077,
      "Pro": 1078,
      "Ġĉĉĉĉ": 1079,
      "rc": 1080,
      "string": 1081,
      "pu": 1082,
      "ambiÃ©n": 1083,
      "Ġsub": 1084,
      "Ġtodo": 1085,
      "Ã±os": 1086,
      "Ġmore": 1087,
      "icos": 1088,
      "ito": 1089,
      "ask": 1090,
      "los": 1091,
      "Ġbeen": 1092,
      "ÑĢ": 1093,
      "Ġz": 1094,
      "ista": 1095,
      "PI": 1096,
      "Ġtime": 1097,
      "igu": 1098,
      "path": 1099,
      "Ġmo": 1100,
      "paÃ±": 1101,
      "Ġtrans": 1102,
      "Name": 1103,
      "Ġ>": 1104,
      "entes": 1105,
      "Ġ**": 1106,
      "tro": 1107,
      "Ġnum": 1108,
      "tring": 1109,
      "ĠNo": 1110,
      "Ġlib": 1111,
      "Ġsaid": 1112,
      "irect": 1113,
      "vice": 1114,
      "Ġotr": 1115,
      "ike": 1116,
      "=,": 1117,
      "Ġdif": 1118,
      "ger": 1119,
      "uc": 1120,
      "pan": 1121,
      "tent": 1122,
      "ersion": 1123,
      "cid": 1124,
      "19": 1125,
      "fore": 1126,
      "Ġyo": 1127,
      "br": 1128,
      "ĠIt": 1129,
      "Ġesta": 1130,
      "ped": 1131,
      "test": 1132,
      "eces": 1133,
      "AT": 1134,
      "Ġdos": 1135,
      "size": 1136,
      "cs": 1137,
      "ĠÂ¡": 1138,
      "Ġdi": 1139,
      "Ġperson": 1140,
      "vid": 1141,
      "ĠWh": 1142,
      "ey": 1143,
      "util": 1144,
      "ena": 1145,
      "ule": 1146,
      "Ġ->": 1147,
      "ick": 1148,
      "RE": 1149,
      "ãĢĤ": 1150,
      "ador": 1151,
      "we": 1152,
      "iss": 1153,
      "ry": 1154,
      "eros": 1155,
      "Ġtrue": 1156,
      "press": 1157,
      "----------------": 1158,
      "Ġpol": 1159,
      "code": 1160,
      "ĠhabÃŃa": 1161,
      "Ġvalue": 1162,
      "Ġ6": 1163,
      "ento": 1164,
      "Ġfunction": 1165,
      "Ġfue": 1166,
      "not": 1167,
      "Ġshould": 1168,
      "ource": 1169,
      "add": 1170,
      "ep": 1171,
      "ĠPar": 1172,
      "Ġother": 1173,
      "ait": 1174,
      "ĠThis": 1175,
      "Ìĥ": 1176,
      "Ġpublic": 1177,
      "Ġfr": 1178,
      "idos": 1179,
      "ese": 1180,
      "icas": 1181,
      "Ġ8": 1182,
      "ä»": 1183,
      "âĢĶ": 1184,
      "bu": 1185,
      "Ġcam": 1186,
      "ash": 1187,
      "param": 1188,
      "arn": 1189,
      "itu": 1190,
      "Ġtu": 1191,
      "eta": 1192,
      "ont": 1193,
      "ĠAnd": 1194,
      "Ġtien": 1195,
      "tribut": 1196,
      "irst": 1197,
      "ĠQ": 1198,
      "Ġx": 1199,
      "ical": 1200,
      "antes": 1201,
      "AN": 1202,
      "ined": 1203,
      "Ġinto": 1204,
      "red": 1205,
      "ana": 1206,
      "ÃŃt": 1207,
      "Ġhac": 1208,
      "uel": 1209,
      "Ġover": 1210,
      "ĠĠĠĠĠĠĠĠĠĠĠĠĠĠĠĠĠĠĠĠĠĠĠ": 1211,
      "11": 1212,
      "Ġadd": 1213,
      "Ñģ": 1214,
      "Ġhom": 1215,
      "ptions": 1216,
      "('": 1217,
      "Ã©r": 1218,
      "ĠAs": 1219,
      "ress": 1220,
      "ĠSt": 1221,
      "IT": 1222,
      "Ġles": 1223,
      "Ġreal": 1224,
      "Ġya": 1225,
      "Ġresult": 1226,
      "åı": 1227,
      "ely": 1228,
      "Ġonly": 1229,
      "ÃŃn": 1230,
      "atur": 1231,
      "Ġstring": 1232,
      "Ġcuando": 1233,
      "ars": 1234,
      "ates": 1235,
      "uro": 1236,
      "Ġhand": 1237,
      "Ġfl": 1238,
      "mos": 1239,
      "Ġ7": 1240,
      "log": 1241,
      "ciones": 1242,
      "ved": 1243,
      "mon": 1244,
      "Ġcur": 1245,
      "ĠLos": 1246,
      "pes": 1247,
      "LL": 1248,
      "ÃŃas": 1249,
      "ender": 1250,
      "gan": 1251,
      "Ġbien": 1252,
      "ior": 1253,
      "ten": 1254,
      "Ġtodos": 1255,
      "Ġmuy": 1256,
      "inci": 1257,
      "Ġsome": 1258,
      "Ġgran": 1259,
      "Ġ\\": 1260,
      "ĠtambiÃ©n": 1261,
      "Ġed": 1262,
      "ken": 1263,
      "fl": 1264,
      "rent": 1265,
      "Ġcab": 1266,
      "arget": 1267,
      "iew": 1268,
      "Ġprodu": 1269,
      "Ġthan": 1270,
      "Ġmin": 1271,
      "ts": 1272,
      "mb": 1273,
      "ama": 1274,
      "ful": 1275,
      "Ġalgun": 1276,
      "Ġunder": 1277,
      "iciÃ³n": 1278,
      "Ġcomp": 1279,
      "Ġ!=": 1280,
      "iles": 1281,
      "roup": 1282,
      "way": 1283,
      "quire": 1284,
      "ethod": 1285,
      "Ġho": 1286,
      "Ġdeb": 1287,
      "gl": 1288,
      "ĠX": 1289,
      "Ġmon": 1290,
      "Ġ\"\"\"": 1291,
      "ames": 1292,
      "Ġgu": 1293,
      "Ġ9": 1294,
      "Ġinform": 1295,
      "Ġcal": 1296,
      "atus": 1297,
      "cept": 1298,
      "LE": 1299,
      "ĠestÃ¡": 1300,
      "ik": 1301,
      "ieron": 1302,
      "En": 1303,
      "Ġ$": 1304,
      "sert": 1305,
      "var": 1306,
      "ton": 1307,
      "az": 1308,
      "ength": 1309,
      "data": 1310,
      "cion": 1311,
      "Ġthen": 1312,
      "ref": 1313,
      "Ar": 1314,
      "ĠÃ©l": 1315,
      "Ġvis": 1316,
      "Ġtw": 1317,
      "Ġvol": 1318,
      "Com": 1319,
      "Ġfo": 1320,
      "Ġcos": 1321,
      "essage": 1322,
      "of": 1323,
      "mas": 1324,
      "iva": 1325,
      "Ġhasta": 1326,
      "ĠIf": 1327,
      "Ġid": 1328,
      "Ġ%": 1329,
      "app": 1330,
      "iter": 1331,
      "erc": 1332,
      "emb": 1333,
      "Ġdata": 1334,
      "cript": 1335,
      "Ġcual": 1336,
      "Ġ200": 1337,
      "Ġfuer": 1338,
      "ous": 1339,
      "Ġche": 1340,
      "dd": 1341,
      "Ġpal": 1342,
      "idas": 1343,
      "Ġfile": 1344,
      "Ġgre": 1345,
      "****": 1346,
      "old": 1347,
      "ks": 1348,
      "ĠseÃ±": 1349,
      "yle": 1350,
      "own": 1351,
      "ward": 1352,
      "Ġì": 1353,
      "Ġsup": 1354,
      "'t": 1355,
      "itt": 1356,
      "undo": 1357,
      "ID": 1358,
      "led": 1359,
      "Ġsent": 1360,
      "Ġend": 1361,
      "iente": 1362,
      "ismo": 1363,
      "ä½": 1364,
      "ote": 1365,
      "Ġmet": 1366,
      "Ġej": 1367,
      "Ġbl": 1368,
      "back": 1369,
      "ags": 1370,
      "Ġmodel": 1371,
      "Ġnue": 1372,
      "value": 1373,
      "Id": 1374,
      "Ġwhat": 1375,
      "Ġ/*": 1376,
      "15": 1377,
      "lar": 1378,
      "ĠTr": 1379,
      "Ġdur": 1380,
      "Ġtest": 1381,
      "AS": 1382,
      "Ġknow": 1383,
      "new": 1384,
      "ĠPro": 1385,
      "ature": 1386,
      "(),": 1387,
      "Ġarg": 1388,
      "fe": 1389,
      "Ġ10": 1390,
      "0000": 1391,
      "Ġnil": 1392,
      "Ġext": 1393,
      "ES": 1394,
      "config": 1395,
      "Ġhum": 1396,
      "mand": 1397,
      "Ã¤n": 1398,
      "ww": 1399,
      "Ġour": 1400,
      "14": 1401,
      "med": 1402,
      "Ġtiem": 1403,
      "Ġoc": 1404,
      "uth": 1405,
      ".--": 1406,
      "Ġu": 1407,
      "Ġ18": 1408,
      "its": 1409,
      "Ġconf": 1410,
      "ond": 1411,
      "fault": 1412,
      "ita": 1413,
      "æľ": 1414,
      "18": 1415,
      "ync": 1416,
      "ream": 1417,
      "Ġ&&": 1418,
      "Ġparte": 1419,
      "Ch": 1420,
      "por": 1421,
      "ugh": 1422,
      "icense": 1423,
      "des": 1424,
      "Ġmust": 1425,
      "Ġpass": 1426,
      "Un": 1427,
      "De": 1428,
      "Ġcould": 1429,
      "dis": 1430,
      "Ġerror": 1431,
      "ric": 1432,
      "reg": 1433,
      "Ġfalse": 1434,
      "ery": 1435,
      "Ġdist": 1436,
      "Cl": 1437,
      "Ġinv": 1438,
      "ren": 1439,
      "Ġfu": 1440,
      "yst": 1441,
      "Ġsab": 1442,
      "igo": 1443,
      "Ġnos": 1444,
      "Ġpuede": 1445,
      "elect": 1446,
      "25": 1447,
      "Ġprinci": 1448,
      "orn": 1449,
      "ble": 1450,
      "idades": 1451,
      "ew": 1452,
      ".âĢĿ": 1453,
      "Ġbr": 1454,
      "Ġporque": 1455,
      "Ġever": 1456,
      "ĠÃ³": 1457,
      "Ġhay": 1458,
      "13": 1459,
      "Ġdest": 1460,
      "Ġfunc": 1461,
      "Ġmal": 1462,
      "Ġwork": 1463,
      "Ġlong": 1464,
      "ages": 1465,
      "arch": 1466,
      "Ġart": 1467,
      "Ġkey": 1468,
      "enta": 1469,
      "ĠArch": 1470,
      "li": 1471,
      "Ġesc": 1472,
      "ffer": 1473,
      "Ġnow": 1474,
      "dad": 1475,
      "clude": 1476,
      "emos": 1477,
      "args": 1478,
      "Ġmat": 1479,
      "by": 1480,
      "model": 1481,
      "Ġlu": 1482,
      "unto": 1483,
      "Ġaquel": 1484,
      "vis": 1485,
      "eno": 1486,
      "pace": 1487,
      "Ġits": 1488,
      "Ġlist": 1489,
      "ĠLe": 1490,
      "ider": 1491,
      "load": 1492,
      "Ġrec": 1493,
      "Ġop": 1494,
      "cir": 1495,
      "ious": 1496,
      "Ġsim": 1497,
      "ample": 1498,
      "ua": 1499,
      "inal": 1500,
      "Ġcase": 1501,
      "ner": 1502,
      "map": 1503,
      "Ġvez": 1504,
      "rap": 1505,
      "date": 1506,
      "Ġvoid": 1507,
      "tim": 1508,
      "md": 1509,
      "ja": 1510,
      "amiento": 1511,
      "AL": 1512,
      "jos": 1513,
      "mar": 1514,
      "ins": 1515,
      "puÃ©s": 1516,
      "Ġesto": 1517,
      "Ã¨": 1518,
      "line": 1519,
      "itor": 1520,
      "String": 1521,
      "ĠasÃŃ": 1522,
      "Ġsee": 1523,
      "file": 1524,
      "Ġlike": 1525,
      "Ġng": 1526,
      "Ġdonde": 1527,
      "Ã§": 1528,
      "Ġmismo": 1529,
      "const": 1530,
      "arro": 1531,
      "Ġabout": 1532,
      "inter": 1533,
      "ys": 1534,
      "itar": 1535,
      "Ġdiv": 1536,
      "Ġref": 1537,
      "17": 1538,
      "Ð°Ð": 1539,
      "ody": 1540,
      "Ġfirst": 1541,
      "cha": 1542,
      "IC": 1543,
      "Ġnuest": 1544,
      "ault": 1545,
      "Ġtiempo": 1546,
      "ux": 1547,
      "':": 1548,
      "Ġprincip": 1549,
      "Ġhtt": 1550,
      "ms": 1551,
      "las": 1552,
      "iera": 1553,
      "Ġ/**": 1554,
      "äº": 1555,
      "oth": 1556,
      "ole": 1557,
      "llo": 1558,
      "ato": 1559,
      "oci": 1560,
      "ake": 1561,
      "Ġwhere": 1562,
      "99": 1563,
      "ml": 1564,
      "Ġenc": 1565,
      "Par": 1566,
      "çĶ": 1567,
      "Ġbefore": 1568,
      "Ġjust": 1569,
      "Ġsoci": 1570,
      "Ñĥ": 1571,
      "count": 1572,
      "Ġemb": 1573,
      "tem": 1574,
      "part": 1575,
      "Ġback": 1576,
      "Ġins": 1577,
      "`,": 1578,
      "().": 1579,
      "hed": 1580,
      "Ġlleg": 1581,
      "Ġsur": 1582,
      "ents": 1583,
      "ables": 1584,
      "Ã¡t": 1585,
      "work": 1586,
      "Ġtal": 1587,
      "cciÃ³n": 1588,
      "Ġ###": 1589,
      "ĠĠĠĠĠĠĠĠĠĠĠĠĠ": 1590,
      "oria": 1591,
      "Ġafter": 1592,
      "num": 1593,
      "Ġdesde": 1594,
      "ĠPor": 1595,
      "Ġcontin": 1596,
      "Ġconfig": 1597,
      "../": 1598,
      "SE": 1599,
      "ene": 1600,
      "Ġstatic": 1601,
      "Ġoff": 1602,
      "loat": 1603,
      "ĠMar": 1604,
      "ough": 1605,
      "33": 1606,
      "ves": 1607,
      "Ġ15": 1608,
      "argo": 1609,
      "Ġgra": 1610,
      "âĶ": 1611,
      "rite": 1612,
      "000": 1613,
      "20": 1614,
      "play": 1615,
      "Ġtraba": 1616,
      "Ġread": 1617,
      "lob": 1618,
      "bject": 1619,
      "Ġhan": 1620,
      "ĠaÃ±os": 1621,
      "ĠArchivo": 1622,
      "Ġer": 1623,
      "Ġotros": 1624,
      "Tr": 1625,
      "Ġdefault": 1626,
      "igh": 1627,
      "Ġspeci": 1628,
      "ĠâĢĶ": 1629,
      "RO": 1630,
      "Ġsize": 1631,
      "Ġsuper": 1632,
      "api": 1633,
      "org": 1634,
      "Ġconv": 1635,
      "Ġdirect": 1636,
      "Ġpag": 1637,
      "To": 1638,
      "Ġvery": 1639,
      "Ġdid": 1640,
      "other": 1641,
      "ĠBut": 1642,
      "åĪ": 1643,
      "API": 1644,
      "Ġpla": 1645,
      "Ġhacer": 1646,
      "è¿": 1647,
      "Ġesp": 1648,
      "ler": 1649,
      "Ġlog": 1650,
      "Ġtom": 1651,
      "crib": 1652,
      "umn": 1653,
      "anos": 1654,
      "docs": 1655,
      "Â¡": 1656,
      "Ġ</": 1657,
      "almente": 1658,
      "fr": 1659,
      "da": 1660,
      "(&": 1661,
      "ĠEx": 1662,
      "iud": 1663,
      "Mod": 1664,
      "plo": 1665,
      "cis": 1666,
      "{\"": 1667,
      "jer": 1668,
      "Ġcomple": 1669,
      "Ġneces": 1670,
      "zo": 1671,
      "Key": 1672,
      "Ġoper": 1673,
      "Ġtwo": 1674,
      "Ġmayor": 1675,
      "Ġagain": 1676,
      "II": 1677,
      "ather": 1678,
      "Ã±a": 1679,
      "No": 1680,
      "adores": 1681,
      "ils": 1682,
      "ax": 1683,
      "Ġchar": 1684,
      "Ġrest": 1685,
      "the": 1686,
      "imiento": 1687,
      "ĠÃł": 1688,
      "ĠFor": 1689,
      "));": 1690,
      "ret": 1691,
      "].": 1692,
      "åħ": 1693,
      "Ġnom": 1694,
      "round": 1695,
      "ann": 1696,
      "try": 1697,
      "Ġvida": 1698,
      "å®": 1699,
      "Ġda": 1700,
      "ung": 1701,
      "Ġ12": 1702,
      "ĠDes": 1703,
      "Ġdat": 1704,
      "Ġ##": 1705,
      "nect": 1706,
      "Ġupon": 1707,
      "Ġella": 1708,
      "Ã¡nd": 1709,
      "eter": 1710,
      "ystem": 1711,
      "Ġbre": 1712,
      "gu": 1713,
      "node": 1714,
      "fect": 1715,
      "ute": 1716,
      "Ġpath": 1717,
      "Ġused": 1718,
      "Ġty": 1719,
      "Ġtiene": 1720,
      "Ġmej": 1721,
      "Value": 1722,
      "ally": 1723,
      "iudad": 1724,
      "Ġpoc": 1725,
      "`.": 1726,
      "Ġexist": 1727,
      "iar": 1728,
      "Ġcontra": 1729,
      "struct": 1730,
      "index": 1731,
      "Ġhow": 1732,
      "Bu": 1733,
      "Ġllam": 1734,
      "Ġdar": 1735,
      "Ġfol": 1736,
      "Ġ201": 1737,
      "amil": 1738,
      "Ġbel": 1739,
      "Ġsom": 1740,
      "Ġmake": 1741,
      "illa": 1742,
      "30": 1743,
      "ternal": 1744,
      "item": 1745,
      "Ġbool": 1746,
      "init": 1747,
      "ivos": 1748,
      "ative": 1749,
      "Ġpartic": 1750,
      "Ġserv": 1751,
      "point": 1752,
      "enc": 1753,
      "istem": 1754,
      "Ġpresent": 1755,
      "ng": 1756,
      "Ġbet": 1757,
      "sl": 1758,
      "ĠpaÃŃs": 1759,
      "AC": 1760,
      "quot": 1761,
      "Ġrun": 1762,
      "sw": 1763,
      "Ġsign": 1764,
      "imit": 1765,
      "ĠĠĠĠĠĠ": 1766,
      "ĠMr": 1767,
      "Ġespeci": 1768,
      "mer": 1769,
      "Ġday": 1770,
      "Ġmas": 1771,
      "jet": 1772,
      "Ġuno": 1773,
      "ape": 1774,
      "Ġlook": 1775,
      "Ġmom": 1776,
      "can": 1777,
      "acional": 1778,
      "Ã©t": 1779,
      "ace": 1780,
      "DE": 1781,
      "Ġprom": 1782,
      "Ġsuch": 1783,
      "Ġthese": 1784,
      "endo": 1785,
      "irt": 1786,
      "Ġotro": 1787,
      "ION": 1788,
      "Ġgl": 1789,
      "gen": 1790,
      "Ġsay": 1791,
      "Ġequ": 1792,
      "ĠLicense": 1793,
      "thon": 1794,
      "ush": 1795,
      "Ser": 1796,
      "Ġutil": 1797,
      "Ġsig": 1798,
      "cription": 1799,
      "Ġsame": 1800,
      "ĠRepo": 1801,
      "ized": 1802,
      "Ġparam": 1803,
      "ife": 1804,
      "ale": 1805,
      "car": 1806,
      "sa": 1807,
      "Ġdown": 1808,
      "len": 1809,
      "ĠLas": 1810,
      "Ġconsider": 1811,
      "ats": 1812,
      "Ġtor": 1813,
      "error": 1814,
      "Ġos": 1815,
      "adre": 1816,
      "Context": 1817,
      "usted": 1818,
      "Config": 1819,
      "wh": 1820,
      "ittle": 1821,
      "ines": 1822,
      "Ġhist": 1823,
      "Ġcer": 1824,
      "Ġ...": 1825,
      "Ġpriv": 1826,
      "unction": 1827,
      "ugar": 1828,
      "Ġcent": 1829,
      "let": 1830,
      "Ġdesc": 1831,
      "Ġdoc": 1832,
      "Ġgood": 1833,
      "je": 1834,
      "Data": 1835,
      "80": 1836,
      "ĠdespuÃ©s": 1837,
      "Th": 1838,
      "els": 1839,
      "ava": 1840,
      "LO": 1841,
      "Ġnull": 1842,
      "pression": 1843,
      "Ġrepres": 1844,
      "UT": 1845,
      "Ġgreat": 1846,
      "list": 1847,
      "Ġter": 1848,
      "ga": 1849,
      "ME": 1850,
      "ples": 1851,
      "abil": 1852,
      "ĠquÃ©": 1853,
      "Ġinf": 1854,
      "ete": 1855,
      "Ġcada": 1856,
      "rop": 1857,
      "Ġobject": 1858,
      "ÃŃcul": 1859,
      "Ġciudad": 1860,
      "Ġstd": 1861,
      "50": 1862,
      "Set": 1863,
      "ness": 1864,
      "ĠĠĠĠĠĠĠĠĠĠĠĠĠĠĠĠĠĠĠĠĠĠĠĠĠĠĠ": 1865,
      "Node": 1866,
      "Ġassert": 1867,
      "gra": 1868,
      "json": 1869,
      "ĠWe": 1870,
      "Ġ[]": 1871,
      "Ġil": 1872,
      "========": 1873,
      "izaciÃ³n": 1874,
      "vol": 1875,
      "ank": 1876,
      "åĲ": 1877,
      "Ġba": 1878,
      "ba": 1879,
      "Ġtanto": 1880,
      "ws": 1881,
      "Ġaun": 1882,
      "Ġown": 1883,
      "div": 1884,
      "Ã³m": 1885,
      "Ãºl": 1886,
      "uciÃ³n": 1887,
      "ister": 1888,
      "ÃŃo": 1889,
      "http": 1890,
      "Ġqui": 1891,
      "Ġ__": 1892,
      "())": 1893,
      "Ġbar": 1894,
      "vert": 1895,
      "_.": 1896,
      "')": 1897,
      "Ġpat": 1898,
      "serv": 1899,
      "Ñĸ": 1900,
      "ched": 1901,
      "sign": 1902,
      "Ġrequest": 1903,
      "vi": 1904,
      "ilter": 1905,
      "face": 1906,
      "Ġ||": 1907,
      "ptional": 1908,
      "valid": 1909,
      "Ġneed": 1910,
      "yes": 1911,
      "Ġmade": 1912,
      "Ġant": 1913,
      "url": 1914,
      "æĸ": 1915,
      "Ġmujer": 1916,
      "plate": 1917,
      "67": 1918,
      "Ġlittle": 1919,
      "AD": 1920,
      "Ġcheck": 1921,
      "olog": 1922,
      "cel": 1923,
      ",âĢĿ": 1924,
      "Ġfn": 1925,
      "æĺ": 1926,
      "state": 1927,
      "ices": 1928,
      "Ġfield": 1929,
      "rough": 1930,
      "Ġnumber": 1931,
      "Ġav": 1932,
      "Ġir": 1933,
      "Ġsistem": 1934,
      "loc": 1935,
      "ector": 1936,
      "idth": 1937,
      "Ġmundo": 1938,
      "TP": 1939,
      "uego": 1940,
      "ientes": 1941,
      "Ġelement": 1942,
      "ĠSi": 1943,
      "bres": 1944,
      "Ġlab": 1945,
      "ĠYou": 1946,
      "HE": 1947,
      "Ġdesarro": 1948,
      "Ġhaci": 1949,
      "ply": 1950,
      "Ġah": 1951,
      "\");": 1952,
      "Ġotra": 1953,
      "Ġjo": 1954,
      "Ġtodas": 1955,
      "Ġorig": 1956,
      "isiÃ³n": 1957,
      "bar": 1958,
      "itle": 1959,
      "content": 1960,
      "Ġinput": 1961,
      "iven": 1962,
      "Ġhere": 1963,
      "ference": 1964,
      "çĶ¨": 1965,
      "Path": 1966,
      "Ð»": 1967,
      "Ġevery": 1968,
      "å¤": 1969,
      "ele": 1970,
      "Ġstart": 1971,
      "chos": 1972,
      "odo": 1973,
      "Ä±": 1974,
      "Ġold": 1975,
      "Ġlast": 1976,
      "class": 1977,
      "Ġbro": 1978,
      "indo": 1979,
      "Ġestaba": 1980,
      "info": 1981,
      "mbol": 1982,
      "cas": 1983,
      "Ġfinal": 1984,
      "Ðº": 1985,
      "Ġintern": 1986,
      "File": 1987,
      "rag": 1988,
      "Ġsp": 1989,
      "Ġbas": 1990,
      "Ġexpect": 1991,
      "cond": 1992,
      ".,": 1993,
      "Ġdere": 1994,
      "ĠSan": 1995,
      "Ġdu": 1996,
      "ientos": 1997,
      "style": 1998,
      "ĠPero": 1999,
      "user": 2000,
      "ron": 2001,
      "Qu": 2002,
      "ception": 2003,
      "Ġprof": 2004,
      "ware": 2005,
      "Ġ16": 2006,
      "])": 2007,
      "Ġreci": 2008,
      "Get": 2009,
      "ho": 2010,
      "src": 2011,
      "Ġide": 2012,
      "Ã¼": 2013,
      "Ġmil": 2014,
      "amp": 2015,
      "til": 2016,
      "Ġway": 2017,
      "als": 2018,
      "chema": 2019,
      "Ġquien": 2020,
      "34": 2021,
      "zas": 2022,
      "lect": 2023,
      "ima": 2024,
      "37": 2025,
      "cer": 2026,
      "right": 2027,
      "ru": 2028,
      "ä¸Ģ": 2029,
      "define": 2030,
      "Ġlugar": 2031,
      "encias": 2032,
      "pty": 2033,
      "Ġsl": 2034,
      "Ġhead": 2035,
      "Ġusted": 2036,
      "ating": 2037,
      "Ġcond": 2038,
      "Ġdecir": 2039,
      "ĠPy": 2040,
      "ĠTo": 2041,
      "af": 2042,
      "Ġmost": 2043,
      "Ġwell": 2044,
      "wait": 2045,
      "27": 2046,
      "ĠZ": 2047,
      "yo": 2048,
      "Ġmem": 2049,
      "Ġye": 2050,
      "ecut": 2051,
      "max": 2052,
      "24": 2053,
      "Ñı": 2054,
      "ancia": 2055,
      "aut": 2056,
      "Ġexport": 2057,
      "ared": 2058,
      "Ġcasa": 2059,
      "Ġstruct": 2060,
      "The": 2061,
      "ments": 2062,
      "Ġtarget": 2063,
      "izer": 2064,
      "Ġsm": 2065,
      "Ġdej": 2066,
      "Object": 2067,
      "imo": 2068,
      "ĠCol": 2069,
      "Ġmejor": 2070,
      "ify": 2071,
      "pp": 2072,
      "met": 2073,
      "Ã³lo": 2074,
      "Col": 2075,
      "input": 2076,
      "Ġeven": 2077,
      "Ġpens": 2078,
      "quired": 2079,
      "[\"": 2080,
      "Ġfollow": 2081,
      "less": 2082,
      "ãĢģ": 2083,
      "Ġhor": 2084,
      "ulti": 2085,
      "List": 2086,
      "include": 2087,
      "default": 2088,
      "lection": 2089,
      "arios": 2090,
      "Ġcontain": 2091,
      "ĠdÃ©": 2092,
      "istas": 2093,
      "Ġfamil": 2094,
      "ici": 2095,
      "ustom": 2096,
      "Ġwithout": 2097,
      "gram": 2098,
      "Ġ};": 2099,
      "Request": 2100,
      "ateg": 2101,
      "this": 2102,
      "ye": 2103,
      "from": 2104,
      "ymbol": 2105,
      "ara": 2106,
      "Ġgeneral": 2107,
      "Ġantes": 2108,
      "ĠQu": 2109,
      "Ġcode": 2110,
      "Ġâ": 2111,
      "ijo": 2112,
      "Ġfound": 2113,
      "ning": 2114,
      "Info": 2115,
      "ither": 2116,
      "IS": 2117,
      "Ġtext": 2118,
      "Ġvi": 2119,
      "osa": 2120,
      "Ġsigu": 2121,
      "Ġgrand": 2122,
      "Ġusing": 2123,
      "Ġresponse": 2124,
      "Ġcomun": 2125,
      "Ġnatur": 2126,
      "Ġthrough": 2127,
      "Ġstate": 2128,
      "raw": 2129,
      "stance": 2130,
      "Ġnever": 2131,
      "ierra": 2132,
      "87": 2133,
      "cor": 2134,
      "ĠEuro": 2135,
      "ĠpolÃŃt": 2136,
      "Ġforma": 2137,
      "sub": 2138,
      "Ġeach": 2139,
      "ought": 2140,
      "Ġmethod": 2141,
      "æķ": 2142,
      "Ġmight": 2143,
      "Ġmenos": 2144,
      "Ġpes": 2145,
      "izar": 2146,
      "ivers": 2147,
      "Ġright": 2148,
      "Ġwhile": 2149,
      "Ġmes": 2150,
      "ĠRes": 2151,
      "As": 2152,
      "cle": 2153,
      "ULL": 2154,
      "Ġbeing": 2155,
      "æĪ": 2156,
      "perty": 2157,
      "Ġsino": 2158,
      "Ġdich": 2159,
      "rÃŃa": 2160,
      "Ġentr": 2161,
      "55": 2162,
      "elo": 2163,
      "CT": 2164,
      "Ġste": 2165,
      "Ġspe": 2166,
      "US": 2167,
      "sum": 2168,
      "Ġqued": 2169,
      "Ġbus": 2170,
      "He": 2171,
      "ensor": 2172,
      "word": 2173,
      "link": 2174,
      "ets": 2175,
      "iled": 2176,
      "ager": 2177,
      "uso": 2178,
      "Ġtres": 2179,
      "Ġdecl": 2180,
      "pi": 2181,
      "////": 2182,
      "Ġë": 2183,
      "Ġret": 2184,
      "39": 2185,
      "miento": 2186,
      "ona": 2187,
      "Im": 2188,
      "89": 2189,
      "eturn": 2190,
      "ING": 2191,
      "ĠLo": 2192,
      "ics": 2193,
      "Ġorgan": 2194,
      "Ġcontr": 2195,
      "Ġhombre": 2196,
      "ET": 2197,
      "ogle": 2198,
      "Ġå": 2199,
      "è¯": 2200,
      "\"]": 2201,
      "Ġthose": 2202,
      "Ġrepresent": 2203,
      "Ġalso": 2204,
      "><": 2205,
      "ĠdÃŃa": 2206,
      "una": 2207,
      "Ġextra": 2208,
      "Ãºltim": 2209,
      ">>": 2210,
      "ĠAd": 2211,
      "angu": 2212,
      "AP": 2213,
      "Ġotras": 2214,
      "60": 2215,
      "cio": 2216,
      "ctor": 2217,
      "Ġ?": 2218,
      "Ġsea": 2219,
      "ED": 2220,
      "Ġcontext": 2221,
      "empre": 2222,
      "Ġresol": 2223,
      "ĠÃºltim": 2224,
      "?\"": 2225,
      "Param": 2226,
      "Ġellos": 2227,
      "Ġshall": 2228,
      "arÃ¡": 2229,
      "84": 2230,
      "na": 2231,
      "head": 2232,
      "oso": 2233,
      "eg": 2234,
      "mem": 2235,
      "ĠSo": 2236,
      "ting": 2237,
      "dict": 2238,
      "Ġvari": 2239,
      "contr": 2240,
      "sk": 2241,
      "ĠPr": 2242,
      "aria": 2243,
      "ique": 2244,
      "img": 2245,
      "Ġcome": 2246,
      "35": 2247,
      "}}": 2248,
      "Ġmucho": 2249,
      "iciones": 2250,
      "Ġincl": 2251,
      "ked": 2252,
      "pond": 2253,
      "men": 2254,
      "uration": 2255,
      "ted": 2256,
      "time": 2257,
      "29": 2258,
      "Ġsac": 2259,
      "ĠÐ²": 2260,
      "Ġdr": 2261,
      "Ġcel": 2262,
      "Ġsido": 2263,
      "rid": 2264,
      "ctx": 2265,
      "cos": 2266,
      "acter": 2267,
      "[]": 2268,
      "æĺ¯": 2269,
      "Ġpoco": 2270,
      "Ġlarg": 2271,
      "uda": 2272,
      "à¥": 2273,
      "UR": 2274,
      "Ġtoda": 2275,
      "ension": 2276,
      "defined": 2277,
      "ponent": 2278,
      "ierno": 2279,
      "mp": 2280,
      "core": 2281,
      "agn": 2282,
      "orld": 2283,
      "ffect": 2284,
      "._,": 2285,
      "Ġsto": 2286,
      "Â».": 2287,
      "Ġ17": 2288,
      "ever": 2289,
      "adata": 2290,
      "Ġdurante": 2291,
      "anto": 2292,
      "Ġmax": 2293,
      "icio": 2294,
      "leg": 2295,
      "69": 2296,
      "start": 2297,
      "Ġaplic": 2298,
      "Ġese": 2299,
      "Ġmatch": 2300,
      "abel": 2301,
      "mut": 2302,
      "Ġsolo": 2303,
      "Ġdoes": 2304,
      "Dec": 2305,
      "ìĿ": 2306,
      "ya": 2307,
      "65": 2308,
      "iste": 2309,
      "erg": 2310,
      "iment": 2311,
      "td": 2312,
      "with": 2313,
      "gs": 2314,
      "Ġestud": 2315,
      "Ð¼": 2316,
      "trans": 2317,
      "Ġpues": 2318,
      "Ġcontro": 2319,
      "Ġke": 2320,
      "Ġfel": 2321,
      "Ġindex": 2322,
      "entro": 2323,
      "pert": 2324,
      "Ġcier": 2325,
      "Ġol": 2326,
      "An": 2327,
      "Ġterr": 2328,
      "Ġbase": 2329,
      "Ġconse": 2330,
      "view": 2331,
      "LI": 2332,
      "Ġcaus": 2333,
      "At": 2334,
      "Ġcamb": 2335,
      "son": 2336,
      "Ġopen": 2337,
      "Ġobjet": 2338,
      "Ġsil": 2339,
      "Ġwant": 2340,
      "Ġder": 2341,
      "ĠEstados": 2342,
      "ÑĮ": 2343,
      "Ġhon": 2344,
      "ital": 2345,
      "Ġnode": 2346,
      "âĶĢ": 2347,
      "check": 2348,
      "Ã¶": 2349,
      "Ġdifer": 2350,
      "Ġsupport": 2351,
      "íķ": 2352,
      "cias": 2353,
      "erte": 2354,
      "ĠSu": 2355,
      "cent": 2356,
      "ades": 2357,
      "State": 2358,
      "unc": 2359,
      "span": 2360,
      "istr": 2361,
      "Ġ{\\": 2362,
      "field": 2363,
      "block": 2364,
      "Ġay": 2365,
      "?âĢĿ": 2366,
      "ackage": 2367,
      "Ġpoint": 2368,
      "Ã¡l": 2369,
      "By": 2370,
      "ament": 2371,
      "Ġsiempre": 2372,
      "over": 2373,
      "Ġencontr": 2374,
      "Ã³g": 2375,
      "Ġ(!": 2376,
      "Ġcurrent": 2377,
      "ĠOr": 2378,
      "Ġarr": 2379,
      "Index": 2380,
      "ĠaÃ±o": 2381,
      "Ġword": 2382,
      "aces": 2383,
      "Ġpare": 2384,
      "Ġ,": 2385,
      "Ġprimer": 2386,
      "ons": 2387,
      ">(": 2388,
      "ĠFran": 2389,
      "pet": 2390,
      "ç»": 2391,
      "itos": 2392,
      "Ġdijo": 2393,
      "length": 2394,
      "mt": 2395,
      "Ġprote": 2396,
      "Add": 2397,
      "ĠDios": 2398,
      "Ġtoo": 2399,
      "ĠString": 2400,
      "ĠsÃŃ": 2401,
      "Ġdem": 2402,
      "Ġven": 2403,
      "ĠaquÃŃ": 2404,
      "Ġevent": 2405,
      "aje": 2406,
      "Ġdir": 2407,
      "Ġestos": 2408,
      "Ġenv": 2409,
      "unk": 2410,
      "Ġamb": 2411,
      "ek": 2412,
      "Val": 2413,
      "Ġmor": 2414,
      "Ġaunque": 2415,
      "ract": 2416,
      "Ġhecho": 2417,
      "ENT": 2418,
      "Ġpap": 2419,
      "--------------------------------": 2420,
      "/*": 2421,
      "display": 2422,
      "TTP": 2423,
      "ĠIs": 2424,
      "ĠseÃ±or": 2425,
      "au": 2426,
      "ÃŃst": 2427,
      "ëĭ": 2428,
      "eters": 2429,
      "Fl": 2430,
      "Ġcolor": 2431,
      "termin": 2432,
      "omin": 2433,
      "Ġden": 2434,
      "ui": 2435,
      "Sh": 2436,
      "Map": 2437,
      "ah": 2438,
      "Ġmany": 2439,
      "plication": 2440,
      "OT": 2441,
      "åľ": 2442,
      "********": 2443,
      "ĠcÃ³": 2444,
      "Ġhimself": 2445,
      "miss": 2446,
      "Ġline": 2447,
      "array": 2448,
      "Ġthink": 2449,
      "Ġejem": 2450,
      "Ġpueden": 2451,
      "22": 2452,
      "oh": 2453,
      "ativ": 2454,
      "ession": 2455,
      "oles": 2456,
      "ends": 2457,
      "atro": 2458,
      "ĠÐ¿": 2459,
      "ptr": 2460,
      "AG": 2461,
      "www": 2462,
      "Kind": 2463,
      "ĠCar": 2464,
      "04": 2465,
      "enciÃ³n": 2466,
      "call": 2467,
      "ĠOn": 2468,
      "Ġ14": 2469,
      "rem": 2470,
      "Ġsour": 2471,
      "Ġoutput": 2472,
      "embre": 2473,
      "85": 2474,
      "ĠSer": 2475,
      "Response": 2476,
      "ibil": 2477,
      "Ġchild": 2478,
      "amento": 2479,
      "];": 2480,
      "oper": 2481,
      "amples": 2482,
      "Or": 2483,
      "Ġquer": 2484,
      "Ġdocument": 2485,
      "iver": 2486,
      "ĠSh": 2487,
      "Al": 2488,
      "Ġsat": 2489,
      "\".": 2490,
      "action": 2491,
      "oder": 2492,
      "UN": 2493,
      "dir": 2494,
      "tax": 2495,
      "stru": 2496,
      "Ġtry": 2497,
      "Ġdie": 2498,
      "char": 2499,
      "lement": 2500,
      "Ġpalab": 2501,
      "ived": 2502,
      "ĠAng": 2503,
      "ques": 2504,
      "Ġnon": 2505,
      "ization": 2506,
      "AM": 2507,
      "plement": 2508,
      "ished": 2509,
      "Ġestado": 2510,
      "html": 2511,
      "ĠnÃº": 2512,
      "Ġapar": 2513,
      "Ġprimera": 2514,
      "lobal": 2515,
      "Ġesper": 2516,
      "Ġseem": 2517,
      "Ġgiven": 2518,
      "None": 2519,
      "Ġmut": 2520,
      "Ġmater": 2521,
      "Ġ{}": 2522,
      "Ġplan": 2523,
      "ka": 2524,
      "depend": 2525,
      "uery": 2526,
      "Ġcreate": 2527,
      "Ġmir": 2528,
      "sol": 2529,
      "arÃŃa": 2530,
      "Ãºbl": 2531,
      "Ġprov": 2532,
      "Ġimp": 2533,
      "ĠShe": 2534,
      "ĠĠĠĠĠĠĠĠĠĠĠĠĠĠĠĠĠĠĠĠĠĠĠĠĠĠĠĠĠĠĠ": 2535,
      "Ãª": 2536,
      "Ġfal": 2537,
      "Ġrespect": 2538,
      "Ġlocal": 2539,
      "ffset": 2540,
      "net": 2541,
      "Ġfar": 2542,
      "Ġprocess": 2543,
      "ĠlÃŃ": 2544,
      "ways": 2545,
      "ientras": 2546,
      "Ġtrat": 2547,
      "Result": 2548,
      "ä¸ª": 2549,
      "CH": 2550,
      "uv": 2551,
      "ĠType": 2552,
      "ower": 2553,
      "ove": 2554,
      "Ġmill": 2555,
      "';": 2556,
      "Ġà¤": 2557,
      "pec": 2558,
      "Ãºs": 2559,
      "Ġwrit": 2560,
      "Ġja": 2561,
      "ccess": 2562,
      "imes": 2563,
      "Ġactual": 2564,
      "Se": 2565,
      "context": 2566,
      "olean": 2567,
      "result": 2568,
      "ily": 2569,
      "inas": 2570,
      "Ġclient": 2571,
      "Ġnombre": 2572,
      "Ġlen": 2573,
      "ifier": 2574,
      "paÃ±a": 2575,
      "202": 2576,
      "Ġmov": 2577,
      "Array": 2578,
      "Ġmanera": 2579,
      "Ġllev": 2580,
      "Ġfact": 2581,
      "è®": 2582,
      "Ġexper": 2583,
      "ween": 2584,
      "Ġmedio": 2585,
      "ral": 2586,
      "Ġhub": 2587,
      "quier": 2588,
      "Ã©nd": 2589,
      "Co": 2590,
      "izo": 2591,
      "Ġhttps": 2592,
      "Ġva": 2593,
      "Ġthought": 2594,
      "Ġestas": 2595,
      "Ġred": 2596,
      "ĠsÃ³lo": 2597,
      "Ġleft": 2598,
      "ĠCu": 2599,
      "base": 2600,
      "With": 2601,
      "Ġversion": 2602,
      "Ġsc": 2603,
      "Ġinclu": 2604,
      "ĠAt": 2605,
      "Ġtake": 2606,
      "Ġlife": 2607,
      "Ġstill": 2608,
      "ught": 2609,
      "Ġuser": 2610,
      "token": 2611,
      "zÃ³n": 2612,
      "Â¿": 2613,
      "zar": 2614,
      "itch": 2615,
      "case": 2616,
      "Size": 2617,
      "Ġblock": 2618,
      "cause": 2619,
      "Ã¡r": 2620,
      "emÃ¡s": 2621,
      "Ġfran": 2622,
      "Bo": 2623,
      "Ġsistema": 2624,
      "Ġposs": 2625,
      "Ġactiv": 2626,
      "ste": 2627,
      "order": 2628,
      "PE": 2629,
      "Ġbreak": 2630,
      "Ġturn": 2631,
      "Ġcame": 2632,
      "my": 2633,
      "Ġprivate": 2634,
      "ceso": 2635,
      "ĠNULL": 2636,
      "Ġfind": 2637,
      "Ġcir": 2638,
      "ĠBu": 2639,
      "Ġalgo": 2640,
      "tal": 2641,
      "Ġcour": 2642,
      "Ġhaber": 2643,
      "icios": 2644,
      "Ġefect": 2645,
      "Ġhref": 2646,
      "OL": 2647,
      "Ġpon": 2648,
      "Ġcontinu": 2649,
      "Ġalgunos": 2650,
      "ĠWhen": 2651,
      "ueb": 2652,
      "å°": 2653,
      "ason": 2654,
      "Ġsk": 2655,
      "26": 2656,
      "main": 2657,
      "color": 2658,
      "Ġbecause": 2659,
      "05": 2660,
      "ĠGener": 2661,
      "Ġtro": 2662,
      "ĠestÃ¡n": 2663,
      "Ġestable": 2664,
      "åĬ": 2665,
      "abled": 2666,
      "yntax": 2667,
      "áĢ": 2668,
      "enas": 2669,
      "âĶĢâĶĢ": 2670,
      "Ġ#[": 2671,
      "Ġverdad": 2672,
      "Ġvan": 2673,
      "36": 2674,
      "request": 2675,
      "astAPI": 2676,
      "oken": 2677,
      "uras": 2678,
      "vers": 2679,
      "\":[": 2680,
      "anguage": 2681,
      "Ġ})": 2682,
      "Ġfil": 2683,
      "ĠAp": 2684,
      "inos": 2685,
      "Ġmg": 2686,
      "Ġhace": 2687,
      "Ġsing": 2688,
      "Ġsegu": 2689,
      "ĠThere": 2690,
      "></": 2691,
      "Ġplace": 2692,
      "Ġdepend": 2693,
      "Ġtras": 2694,
      "Ġfri": 2695,
      "Ġleg": 2696,
      "Ġcast": 2697,
      "ela": 2698,
      "Ġviv": 2699,
      "Ġsitu": 2700,
      "ari": 2701,
      "ls": 2702,
      "Ġautor": 2703,
      "Ġproble": 2704,
      "Ġlat": 2705,
      "Ġfav": 2706,
      "version": 2707,
      "Ġargument": 2708,
      "iene": 2709,
      "ĠDE": 2710,
      "86": 2711,
      "Ġparticular": 2712,
      "expect": 2713,
      "uerra": 2714,
      "OS": 2715,
      "Ð²": 2716,
      "ola": 2717,
      "Ġcosas": 2718,
      "tos": 2719,
      "Ġyet": 2720,
      "((": 2721,
      "ĠCo": 2722,
      "Ġhacia": 2723,
      "47": 2724,
      "Ġarray": 2725,
      "Ġhel": 2726,
      "ilder": 2727,
      "itud": 2728,
      "Ġhij": 2729,
      "\"),": 2730,
      "200": 2731,
      "ols": 2732,
      "uan": 2733,
      "Hand": 2734,
      "Ġgen": 2735,
      "output": 2736,
      "att": 2737,
      "Ġig": 2738,
      "ants": 2739,
      "Ġtierra": 2740,
      "pons": 2741,
      "Ġallow": 2742,
      "ĠAll": 2743,
      "OM": 2744,
      "urs": 2745,
      "Ġahora": 2746,
      "ling": 2747,
      "wrap": 2748,
      "Ġenton": 2749,
      "Ġsw": 2750,
      "terior": 2751,
      "Ã¡ct": 2752,
      "());": 2753,
      "ares": 2754,
      "On": 2755,
      "Options": 2756,
      "Ġnames": 2757,
      "esto": 2758,
      "ross": 2759,
      "Ġĉĉĉĉĉĉ": 2760,
      "Ġdin": 2761,
      "Ġfueron": 2762,
      "Ð´": 2763,
      "ĠCl": 2764,
      "Ġexp": 2765,
      "Ã©d": 2766,
      "irm": 2767,
      "éĢ": 2768,
      "Ġprovid": 2769,
      "Ġnor": 2770,
      "Ġestr": 2771,
      "Ġsource": 2772,
      "Ġecon": 2773,
      "Ġvalues": 2774,
      "fix": 2775,
      "ĠAPI": 2776,
      "Ã¡ndose": 2777,
      "....": 2778,
      "ciÃ³": 2779,
      "++": 2780,
      "Ġq": 2781,
      "!(": 2782,
      "AB": 2783,
      "medi": 2784,
      "Ġdetermin": 2785,
      "TR": 2786,
      "tre": 2787,
      "Ġpersonas": 2788,
      "ĠtenÃŃa": 2789,
      "ules": 2790,
      "plied": 2791,
      "Ġdese": 2792,
      "Ġ]": 2793,
      "Ġanim": 2794,
      "æķ°": 2795,
      "Ġning": 2796,
      "åı¯": 2797,
      "bin": 2798,
      "ĠInd": 2799,
      "ĠIm": 2800,
      "Ġmer": 2801,
      "Ġveces": 2802,
      "Ġnada": 2803,
      "Ġ202": 2804,
      "Ġcle": 2805,
      "ĠSin": 2806,
      "gin": 2807,
      "Ġtener": 2808,
      "Ġvers": 2809,
      "ĠnÃºm": 2810,
      "Ġembargo": 2811,
      "Ġtrabajo": 2812,
      "Client": 2813,
      "Ġneg": 2814,
      "Ġvalid": 2815,
      "ĠAN": 2816,
      "97": 2817,
      "iese": 2818,
      "odes": 2819,
      "cido": 2820,
      "Ġple": 2821,
      "Ġtak": 2822,
      "uple": 2823,
      "create": 2824,
      "curs": 2825,
      "zÃ³": 2826,
      "Ã¡g": 2827,
      "lay": 2828,
      "lib": 2829,
      "ĠespaÃ±": 2830,
      "Ġcalled": 2831,
      "ä¹": 2832,
      "ĠMad": 2833,
      "Ġnorm": 2834,
      "group": 2835,
      "Ġhttp": 2836,
      "bs": 2837,
      "ĠSee": 2838,
      "Ġnext": 2839,
      "Ġinit": 2840,
      "07": 2841,
      "ood": 2842,
      "45": 2843,
      "Ġentonces": 2844,
      "For": 2845,
      "heck": 2846,
      "Ġetc": 2847,
      "Ġonce": 2848,
      "Ġrecon": 2849,
      "Time": 2850,
      "Ġcoun": 2851,
      "Ġ+=": 2852,
      "ane": 2853,
      "Ġhombres": 2854,
      "arr": 2855,
      "Ġproduct": 2856,
      "Ġpel": 2857,
      "raciÃ³n": 2858,
      "CE": 2859,
      "king": 2860,
      "lex": 2861,
      "ti": 2862,
      "Ġmuchos": 2863,
      "Ġpoder": 2864,
      "Ġbetween": 2865,
      "Ġaway": 2866,
      "Not": 2867,
      "ures": 2868,
      "Ġorder": 2869,
      "ution": 2870,
      "vas": 2871,
      "Ġejemplo": 2872,
      "Ġput": 2873,
      ">,": 2874,
      "Of": 2875,
      "ĠReturn": 2876,
      "Ġale": 2877,
      "atures": 2878,
      "Ã©l": 2879,
      "Ġcaso": 2880,
      "Ġojos": 2881,
      "ities": 2882,
      "Ġce": 2883,
      "EX": 2884,
      "Ġrange": 2885,
      "Ġeso": 2886,
      "hing": 2887,
      "ift": 2888,
      "Ġ});": 2889,
      "aving": 2890,
      "ĠPer": 2891,
      "ÑģÑĤ": 2892,
      "Ġesa": 2893,
      "db": 2894,
      "land": 2895,
      "Ġanother": 2896,
      "atal": 2897,
      "Des": 2898,
      "ĠmÃŃ": 2899,
      "21": 2900,
      "untime": 2901,
      "Wh": 2902,
      "Ġeran": 2903,
      "oca": 2904,
      "Ġdesarrollo": 2905,
      "Ġfre": 2906,
      "ĠVal": 2907,
      "Ġgrandes": 2908,
      "Ġpour": 2909,
      "Ġcount": 2910,
      "Ġopt": 2911,
      "Po": 2912,
      "Ġbra": 2913,
      "å¼": 2914,
      "Ġaquella": 2915,
      "åŃ": 2916,
      "opt": 2917,
      "Field": 2918,
      "ula": 2919,
      "ĠMan": 2920,
      "Ġtre": 2921,
      "ĠhÃ¤n": 2922,
      "Ġgrup": 2923,
      "wargs": 2924,
      "Int": 2925,
      "IG": 2926,
      "Ġmap": 2927,
      "Ġmant": 2928,
      "Ġboth": 2929,
      "ä»¥": 2930,
      "Ġcant": 2931,
      "Ġante": 2932,
      "imos": 2933,
      "Ġbajo": 2934,
      "Ã³r": 2935,
      "yect": 2936,
      "Ġcopy": 2937,
      "Ġprev": 2938,
      "\";": 2939,
      "lig": 2940,
      "hand": 2941,
      "Ġeyes": 2942,
      "parent": 2943,
      "Ġpob": 2944,
      "Ġexpl": 2945,
      "tin": 2946,
      "Ġcommand": 2947,
      "Ġ20": 2948,
      "Ġlay": 2949,
      "è¡": 2950,
      "Ġnuevo": 2951,
      "iencia": 2952,
      "Ġapro": 2953,
      "query": 2954,
      "ulo": 2955,
      "Ġdec": 2956,
      "ĠAm": 2957,
      "Ġkind": 2958,
      "Ġfut": 2959,
      "ĠNew": 2960,
      "Man": 2961,
      "qual": 2962,
      "anc": 2963,
      "Ref": 2964,
      "åº": 2965,
      "Ġvia": 2966,
      "100": 2967,
      "Ġnoche": 2968,
      "pose": 2969,
      "illo": 2970,
      "Ġsir": 2971,
      "nection": 2972,
      "?:": 2973,
      "})": 2974,
      "Lo": 2975,
      "Text": 2976,
      "Ġmot": 2977,
      "types": 2978,
      "ople": 2979,
      "down": 2980,
      "Ġpermit": 2981,
      "ĠallÃŃ": 2982,
      "Ġcompr": 2983,
      "client": 2984,
      "Ġmessage": 2985,
      "../../": 2986,
      "Ġfig": 2987,
      "Ġcost": 2988,
      "ited": 2989,
      "ublic": 2990,
      "tas": 2991,
      "une": 2992,
      "ters": 2993,
      "std": 2994,
      "Ġalm": 2995,
      "Ġrelig": 2996,
      "doc": 2997,
      "aves": 2998,
      "ql": 2999,
      "vant": 3000,
      "uto": 3001,
      "move": 3002,
      "uble": 3003,
      "Ġje": 3004,
      "Le": 3005,
      "Ñĩ": 3006,
      "SS": 3007,
      "Ġprint": 3008,
      "ging": 3009,
      "cil": 3010,
      "Ġlimit": 3011,
      "Ġhal": 3012,
      "ĠPara": 3013,
      "Ġcabe": 3014,
      "Ġtar": 3015,
      "Form": 3016,
      "Ġcomer": 3017,
      "Ġhigh": 3018,
      "Ġrece": 3019,
      "23": 3020,
      "New": 3021,
      "Ġauto": 3022,
      "opy": 3023,
      "ĠThey": 3024,
      "El": 3025,
      "reate": 3026,
      "ĠSome": 3027,
      "Ġworld": 3028,
      "tribute": 3029,
      "Ġdict": 3030,
      "Ġtend": 3031,
      "anza": 3032,
      "status": 3033,
      "ĠÃºn": 3034,
      "ires": 3035,
      "itions": 3036,
      "tx": 3037,
      "Query": 3038,
      "print": 3039,
      "Call": 3040,
      "displaystyle": 3041,
      "utor": 3042,
      "Ġrecib": 3043,
      "09": 3044,
      "####": 3045,
      "\"},": 3046,
      "ief": 3047,
      "TER": 3048,
      "Ġalways": 3049,
      "Ġfund": 3050,
      "ĠGu": 3051,
      "rist": 3052,
      "Status": 3053,
      "Ġundefined": 3054,
      "Ġcontent": 3055,
      "Ġtoken": 3056,
      "Ġlight": 3057,
      "TI": 3058,
      "Ġdebe": 3059,
      "ged": 3060,
      "Ġpop": 3061,
      "gos": 3062,
      "ĠBe": 3063,
      "ecer": 3064,
      "Event": 3065,
      "]:": 3066,
      "ried": 3067,
      "Ġvirt": 3068,
      "Ġear": 3069,
      "si": 3070,
      "Ġtienen": 3071,
      "oman": 3072,
      "ride": 3073,
      "Ġmientras": 3074,
      "QuÃ©": 3075,
      "And": 3076,
      "Ġappe": 3077,
      "ĠinformaciÃ³n": 3078,
      "Ġhall": 3079,
      "object": 3080,
      "Ġexample": 3081,
      "ĠRo": 3082,
      "ĠpaÃŃses": 3083,
      "49": 3084,
      "zos": 3085,
      "åľ¨": 3086,
      "Ġshow": 3087,
      "Ġbuild": 3088,
      "Ġinfl": 3089,
      "table": 3090,
      "Token": 3091,
      "del": 3092,
      "Is": 3093,
      "Ġserver": 3094,
      "void": 3095,
      "ologÃŃa": 3096,
      "Ġcosa": 3097,
      "Ġluego": 3098,
      "Ġcuer": 3099,
      "ached": 3100,
      "ille": 3101,
      "ott": 3102,
      "cale": 3103,
      "Ġfloat": 3104,
      "ĠfuÃ©": 3105,
      "={": 3106,
      "ume": 3107,
      "assert": 3108,
      "Ġmisma": 3109,
      "Ġsit": 3110,
      "tributed": 3111,
      "Ġ);": 3112,
      "ĠIS": 3113,
      "ready": 3114,
      "Ãĥ": 3115,
      "57": 3116,
      "Ġæ": 3117,
      "SON": 3118,
      "Ġpunto": 3119,
      "cap": 3120,
      "Ġcuenta": 3121,
      "Ġthough": 3122,
      "lat": 3123,
      "null": 3124,
      "Ġmain": 3125,
      "tainer": 3126,
      "thing": 3127,
      "Ġwent": 3128,
      "Ġperd": 3129,
      "True": 3130,
      "Ġph": 3131,
      "Ġredu": 3132,
      "acio": 3133,
      "aw": 3134,
      "cord": 3135,
      "Ġune": 3136,
      "Ġencu": 3137,
      "ĠBo": 3138,
      "Ġorden": 3139,
      "æľī": 3140,
      "image": 3141,
      "unca": 3142,
      "ustr": 3143,
      "Ġutiliz": 3144,
      "201": 3145,
      "ĠTrue": 3146,
      "Ġpeque": 3147,
      "flow": 3148,
      "antic": 3149,
      "88": 3150,
      "Ġ()": 3151,
      "sp": 3152,
      "Ġdans": 3153,
      "Ġcorre": 3154,
      "tings": 3155,
      "Ġeither": 3156,
      "Ġmomento": 3157,
      "Ġgroup": 3158,
      "Ġprob": 3159,
      "Ġraise": 3160,
      "ĠPag": 3161,
      "edad": 3162,
      "Ġmiemb": 3163,
      "Ġbest": 3164,
      "ered": 3165,
      "icia": 3166,
      "ison": 3167,
      "ĠMe": 3168,
      "({": 3169,
      "cope": 3170,
      "ĠGod": 3171,
      "Ġface": 3172,
      "03": 3173,
      "Ã±as": 3174,
      "Ġgot": 3175,
      "Ġaquell": 3176,
      "ĠEspaÃ±a": 3177,
      "Ġauth": 3178,
      "ches": 3179,
      "Ġuint": 3180,
      "Ġquier": 3181,
      "px": 3182,
      "Ġang": 3183,
      "['": 3184,
      "Ġheart": 3185,
      "cn": 3186,
      "xy": 3187,
      "Ġvuel": 3188,
      "Ġsecre": 3189,
      "tocol": 3190,
      "current": 3191,
      "Ġmoment": 3192,
      "uerdo": 3193,
      "gar": 3194,
      "width": 3195,
      "Ġhizo": 3196,
      "Ġpadre": 3197,
      "target": 3198,
      "ativa": 3199,
      "event": 3200,
      "uesto": 3201,
      "Ġava": 3202,
      "source": 3203,
      "\":\"": 3204,
      "orage": 3205,
      "ugin": 3206,
      "ÃŃculo": 3207,
      "Ġsrc": 3208,
      "Ġrefer": 3209,
      "eras": 3210,
      "Ġign": 3211,
      "iod": 3212,
      "Ġrep": 3213,
      "only": 3214,
      "Model": 3215,
      "Ġru": 3216,
      "Ġrequ": 3217,
      "Ġprepar": 3218,
      "body": 3219,
      "idd": 3220,
      "ha": 3221,
      "Ñĭ": 3222,
      "ĠBy": 3223,
      "Ġib": 3224,
      "Ġpeople": 3225,
      "Ġtrad": 3226,
      "Ġdeclar": 3227,
      "ãģ®": 3228,
      "Ġagainst": 3229,
      "Ġgan": 3230,
      "ĠnÃºmero": 3231,
      "ping": 3232,
      "ĠhabÃŃan": 3233,
      "Flags": 3234,
      "Ġthree": 3235,
      "Ġgob": 3236,
      "cast": 3237,
      "Out": 3238,
      "Ġyoung": 3239,
      "Ġdiffer": 3240,
      "ialize": 3241,
      "plit": 3242,
      "Ġtrav": 3243,
      "instance": 3244,
      "Ġses": 3245,
      "Ġconoci": 3246,
      "edd": 3247,
      "open": 3248,
      "ĠGr": 3249,
      "Ġcult": 3250,
      "estig": 3251,
      "Ġ``": 3252,
      "CK": 3253,
      "ency": 3254,
      "Ġdone": 3255,
      "IL": 3256,
      "ground": 3257,
      "Message": 3258,
      "Ġasync": 3259,
      "Ġinte": 3260,
      "Ġsoft": 3261,
      "gn": 3262,
      "Ġcompar": 3263,
      "used": 3264,
      "ential": 3265,
      "ĠdÃŃas": 3266,
      "Ġexcept": 3267,
      "Ġev": 3268,
      "ivel": 3269,
      "dev": 3270,
      "anci": 3271,
      "Ġimag": 3272,
      "PT": 3273,
      "dat": 3274,
      "uster": 3275,
      "fg": 3276,
      "ĠOF": 3277,
      "Ġgive": 3278,
      "!\"": 3279,
      "sel": 3280,
      "Ġ{\"": 3281,
      "Ġmano": 3282,
      "Ġunos": 3283,
      "Ġpur": 3284,
      "indow": 3285,
      "Ġloc": 3286,
      "untos": 3287,
      "function": 3288,
      "ĠTest": 3289,
      "Ġnothing": 3290,
      "run": 3291,
      "Up": 3292,
      "Ġtable": 3293,
      "uz": 3294,
      "Ġspecif": 3295,
      "pol": 3296,
      "ĠComisiÃ³n": 3297,
      "ĠDo": 3298,
      "Ġproyect": 3299,
      "Ġsiglo": 3300,
      "Ġguard": 3301,
      "jas": 3302,
      "ĥ½": 3303,
      "ilo": 3304,
      "icion": 3305,
      "Ġfort": 3306,
      "Ġtorch": 3307,
      "esta": 3308,
      "arm": 3309,
      "OD": 3310,
      "into": 3311,
      "process": 3312,
      "83": 3313,
      "çĽ": 3314,
      "Ġformat": 3315,
      "Ġoriginal": 3316,
      "options": 3317,
      "Ġ25": 3318,
      "åĽ": 3319,
      "Ġnight": 3320,
      "Ġhouse": 3321,
      "ä¼": 3322,
      "otros": 3323,
      "place": 3324,
      "Ġmodule": 3325,
      "hether": 3326,
      "np": 3327,
      "ances": 3328,
      "44": 3329,
      "Ġorg": 3330,
      "Ġdire": 3331,
      "itÃ©": 3332,
      "Ġport": 3333,
      "Ġreco": 3334,
      "rs": 3335,
      "Ġoptions": 3336,
      "aps": 3337,
      "params": 3338,
      "Ġleng": 3339,
      "63": 3340,
      "isto": 3341,
      "Ġamor": 3342,
      "buf": 3343,
      "Ġbeh": 3344,
      "Ġstand": 3345,
      "Ġhabl": 3346,
      "format": 3347,
      "Ġvent": 3348,
      "77": 3349,
      "fast": 3350,
      "Ġprogram": 3351,
      "ctions": 3352,
      "Ġtipo": 3353,
      "resh": 3354,
      "Exception": 3355,
      "Ġ199": 3356,
      "ä¸Ń": 3357,
      "emente": 3358,
      "Ġtell": 3359,
      "uesta": 3360,
      "Ġagr": 3361,
      "Ġdev": 3362,
      "EL": 3363,
      "Ġsepar": 3364,
      "seg": 3365,
      "kens": 3366,
      "orth": 3367,
      "Ġbody": 3368,
      "Ġvie": 3369,
      "Ð¾Ð²": 3370,
      "Ġsocial": 3371,
      "Log": 3372,
      "Ġrem": 3373,
      "ĠConse": 3374,
      "cep": 3375,
      "\":{\"": 3376,
      "uridad": 3377,
      "Ġfall": 3378,
      "Ã¡b": 3379,
      "00000000": 3380,
      "Ġpie": 3381,
      "ĠAdd": 3382,
      "Ġident": 3383,
      "message": 3384,
      "Ġmodo": 3385,
      "ured": 3386,
      "Num": 3387,
      "Ġmind": 3388,
      "irse": 3389,
      "Ġpreg": 3390,
      "FF": 3391,
      "Ġmerc": 3392,
      "float": 3393,
      "ended": 3394,
      "Ġoblig": 3395,
      "Ġcontrol": 3396,
      "Ġsum": 3397,
      "ĠĠĠĠĠĠĠĠĠĠ": 3398,
      "ef": 3399,
      "Ġtermin": 3400,
      "Ġsmall": 3401,
      "pir": 3402,
      "Ġmur": 3403,
      "åĩ": 3404,
      "ilar": 3405,
      "quence": 3406,
      "Ġpen": 3407,
      "Ġtotal": 3408,
      "write": 3409,
      "ai": 3410,
      "response": 3411,
      "stream": 3412,
      "iqu": 3413,
      "oot": 3414,
      "anges": 3415,
      "Ġfuera": 3416,
      "ives": 3417,
      "From": 3418,
      "air": 3419,
      "Ġatt": 3420,
      "Ġdicho": 3421,
      "pat": 3422,
      "ä¸į": 3423,
      "Ġawait": 3424,
      "Ġthings": 3425,
      "ĠThat": 3426,
      "Ġguerra": 3427,
      "ĠEste": 3428,
      "Ġapp": 3429,
      "Ġselect": 3430,
      "ĠSal": 3431,
      "iler": 3432,
      "Ġnear": 3433,
      "Ġexpres": 3434,
      "duct": 3435,
      "mes": 3436,
      "imin": 3437,
      "ently": 3438,
      "arning": 3439,
      "iano": 3440,
      "Ġ100": 3441,
      "Ġviol": 3442,
      "Ġestar": 3443,
      "Ġgente": 3444,
      "Ġau": 3445,
      "riter": 3446,
      "Ġbuen": 3447,
      "Ġcum": 3448,
      "Ġinstance": 3449,
      "Ġthrow": 3450,
      "La": 3451,
      "igos": 3452,
      "Ty": 3453,
      "Ġcin": 3454,
      "ids": 3455,
      "has": 3456,
      "Py": 3457,
      "Ġapo": 3458,
      "Ġdice": 3459,
      "tree": 3460,
      "ides": 3461,
      "jar": 3462,
      "ĠWhat": 3463,
      "Ġfavor": 3464,
      "à¦": 3465,
      "Â»,": 3466,
      "Ġdatos": 3467,
      "Ġfull": 3468,
      "pc": 3469,
      "Ġgrande": 3470,
      "description": 3471,
      "Ġdentro": 3472,
      "Ġpy": 3473,
      "ago": 3474,
      "ÐµÐ½": 3475,
      "utorial": 3476,
      "tot": 3477,
      "Ġcorres": 3478,
      "Ġmedi": 3479,
      "wards": 3480,
      "Ġ--Â¡": 3481,
      "ĠGo": 3482,
      "éĩ": 3483,
      "Doc": 3484,
      "Ġexc": 3485,
      "Ġ(_": 3486,
      "iga": 3487,
      "ĠFalse": 3488,
      "Ġwater": 3489,
      "Ġcomen": 3490,
      "Ġantigu": 3491,
      "ĠCuando": 3492,
      "Ġmuerte": 3493,
      "ĠThen": 3494,
      "Ġdefin": 3495,
      "ÐµÑĢ": 3496,
      "Ġitem": 3497,
      "lin": 3498,
      "olo": 3499,
      "Element": 3500,
      "ius": 3501,
      "UL": 3502,
      "Ġelect": 3503,
      "28": 3504,
      "rel": 3505,
      "Ġĉĉĉĉĉ": 3506,
      "env": 3507,
      "ĠJuan": 3508,
      "iron": 3509,
      "Ġescu": 3510,
      "ĠGet": 3511,
      "Ġnivel": 3512,
      "Test": 3513,
      "Trans": 3514,
      "Ġ<<": 3515,
      "mir": 3516,
      "ours": 3517,
      "Be": 3518,
      "Ġ{},": 3519,
      "Ġescrib": 3520,
      "estion": 3521,
      "Ġhistoria": 3522,
      "elle": 3523,
      "Ġimplement": 3524,
      "sing": 3525,
      "ĠErr": 3526,
      "Ġlove": 3527,
      "Ġobserv": 3528,
      "icamente": 3529,
      "shape": 3530,
      "ono": 3531,
      "Ġagua": 3532,
      "hash": 3533,
      "ĠPres": 3534,
      "ãĥ¼": 3535,
      "Ġtransform": 3536,
      "ĠUna": 3537,
      "append": 3538,
      "Ġescrit": 3539,
      "ound": 3540,
      "Ġrequired": 3541,
      "Ġens": 3542,
      "ised": 3543,
      "Ġass": 3544,
      "Ġindic": 3545,
      "],\"": 3546,
      "Ġfew": 3547,
      "ira": 3548,
      "Ġside": 3549,
      "Ġcasi": 3550,
      "${": 3551,
      "IM": 3552,
      "Ġimage": 3553,
      "build": 3554,
      "Source": 3555,
      "ibles": 3556,
      "oma": 3557,
      "ail": 3558,
      "bit": 3559,
      "ĠTe": 3560,
      "Dis": 3561,
      "Ð¿": 3562,
      "75": 3563,
      "æī": 3564,
      "Ġmulti": 3565,
      "06": 3566,
      "ĠBar": 3567,
      "ĠÃģ": 3568,
      "gener": 3569,
      "Ġview": 3570,
      "cache": 3571,
      "Ġnunca": 3572,
      "Ġsince": 3573,
      "ze": 3574,
      ")]": 3575,
      "ĠĠĠĠĠĠĠĠĠĠĠĠĠĠĠĠĠ": 3576,
      "Ġ13": 3577,
      "server": 3578,
      "Ġpost": 3579,
      "top": 3580,
      "Ġmuchas": 3581,
      "attr": 3582,
      "cket": 3583,
      "ĠEurope": 3584,
      "unda": 3585,
      "Ġfollowing": 3586,
      "Ġpobl": 3587,
      "Ãºblica": 3588,
      "icial": 3589,
      "Inter": 3590,
      "IO": 3591,
      "ĠConsejo": 3592,
      "uy": 3593,
      "å¾": 3594,
      "Ġtitle": 3595,
      "\",\"": 3596,
      "Ġcannot": 3597,
      "Ġcuatro": 3598,
      "},\"": 3599,
      "Ġalready": 3600,
      "ä½¿": 3601,
      "UE": 3602,
      "cd": 3603,
      "Ġyears": 3604,
      "iff": 3605,
      "bytes": 3606,
      "Ġge": 3607,
      "illas": 3608,
      "Reg": 3609,
      "enda": 3610,
      "Ġlad": 3611,
      "Ġsaw": 3612,
      "Loc": 3613,
      "Group": 3614,
      "nown": 3615,
      "Ġnuestra": 3616,
      "Ġload": 3617,
      "ĠIN": 3618,
      "Code": 3619,
      "nap": 3620,
      "ĠDon": 3621,
      "():": 3622,
      "Ġ],": 3623,
      "host": 3624,
      "Block": 3625,
      "erta": 3626,
      "Ġhabit": 3627,
      "Ġnp": 3628,
      "web": 3629,
      "rÃ¡": 3630,
      "Ġbene": 3631,
      "ðŁ": 3632,
      "CON": 3633,
      "Ġ>>>": 3634,
      "ases": 3635,
      "ette": 3636,
      "Str": 3637,
      "Ġstyle": 3638,
      "Ġherman": 3639,
      "ĠSet": 3640,
      "ä¾": 3641,
      "ivid": 3642,
      "true": 3643,
      "Ġlength": 3644,
      "Ġmand": 3645,
      "ĠĠĠĠĠĠĠĠĠĠĠĠĠĠĠĠĠĠĠĠĠĠĠĠĠĠĠĠĠĠĠĠĠĠĠĠĠĠĠĠĠĠĠĠĠĠĠĠĠĠĠĠĠĠĠĠĠĠĠĠĠĠĠĠ": 3646,
      "æĹ": 3647,
      "Ġarm": 3648,
      "module": 3649,
      "Ġidea": 3650,
      "itional": 3651,
      "Ġpassed": 3652,
      "items": 3653,
      "Ġmillones": 3654,
      "!âĢĿ": 3655,
      "Ġthou": 3656,
      "ĠGeneral": 3657,
      "Ġnuestro": 3658,
      "ĠMod": 3659,
      "isa": 3660,
      "Ġboolean": 3661,
      "Ã£": 3662,
      "ĠNot": 3663,
      "dos": 3664,
      "ĠMon": 3665,
      "ĠSeg": 3666,
      "iddle": 3667,
      "ensa": 3668,
      "Pr": 3669,
      "Ã³s": 3670,
      "Ġpackage": 3671,
      "Ġnec": 3672,
      "__(": 3673,
      "Ġsecond": 3674,
      "='": 3675,
      "ĠEstado": 3676,
      "atement": 3677,
      "van": 3678,
      "Ġtop": 3679,
      "fn": 3680,
      "idente": 3681,
      "Ġigual": 3682,
      "Ġcuanto": 3683,
      "ird": 3684,
      "Ġmad": 3685,
      "just": 3686,
      "utton": 3687,
      "auth": 3688,
      "dim": 3689,
      "gres": 3690,
      "ĠtravÃ©s": 3691,
      "ething": 3692,
      "66": 3693,
      "Ġrom": 3694,
      "View": 3695,
      "Ġofre": 3696,
      "Ġmus": 3697,
      "cy": 3698,
      "à°": 3699,
      "],[": 3700,
      "Ġhar": 3701,
      "ueblo": 3702,
      "IR": 3703,
      "ĠHis": 3704,
      "tor": 3705,
      "Ġmos": 3706,
      "è¿Ļ": 3707,
      "Ġdescub": 3708,
      "kwargs": 3709,
      "ump": 3710,
      "ĠTHE": 3711,
      "Item": 3712,
      "ĠsegÃºn": 3713,
      "Ġvalor": 3714,
      "ilable": 3715,
      "Base": 3716,
      "ieve": 3717,
      "ideo": 3718,
      "Ġconvert": 3719,
      "ĠaÃºn": 3720,
      "ĠtÃº": 3721,
      "eron": 3722,
      "================": 3723,
      "ordin": 3724,
      "Ġ24": 3725,
      "signed": 3726,
      "Ġalgunas": 3727,
      "tÃ¤": 3728,
      "odos": 3729,
      "stand": 3730,
      "title": 3731,
      "Ġdivers": 3732,
      "atos": 3733,
      "08": 3734,
      "Ġhost": 3735,
      "_{": 3736,
      "Ġoffset": 3737,
      "ival": 3738,
      "ificaciÃ³n": 3739,
      "ĠPh": 3740,
      "update": 3741,
      "Ġmujeres": 3742,
      "Ġcabeza": 3743,
      "ĠEngl": 3744,
      "Ġnatural": 3745,
      ":\"": 3746,
      "ified": 3747,
      "ãģĻ": 3748,
      "([": 3749,
      "ev": 3750,
      "Ġsort": 3751,
      "ĠĠĠĠĠĠĠĠĠĠĠĠ": 3752,
      "Ġrecord": 3753,
      "Ġ11": 3754,
      "mark": 3755,
      "edia": 3756,
      "Ġblan": 3757,
      "mask": 3758,
      "cimiento": 3759,
      "orÃŃa": 3760,
      "Ġwrite": 3761,
      "Ġencuent": 3762,
      "Ġargs": 3763,
      "59": 3764,
      "ĠMin": 3765,
      "Ġtemplate": 3766,
      "Ġcertain": 3767,
      "ĠEsta": 3768,
      "uint": 3769,
      "Ġalguna": 3770,
      "ativo": 3771,
      "åĨ": 3772,
      "Ġexcl": 3773,
      "acionales": 3774,
      "ĠJoh": 3775,
      "grama": 3776,
      "Ġansw": 3777,
      "ĠrÃ©": 3778,
      "schema": 3779,
      "Met": 3780,
      "alla": 3781,
      "omb": 3782,
      "gress": 3783,
      "ased": 3784,
      "Ġempres": 3785,
      "Ġimpl": 3786,
      "Ġplay": 3787,
      "iza": 3788,
      "Ġdispos": 3789,
      "Ġmit": 3790,
      "mi": 3791,
      "Mode": 3792,
      "Ġlan": 3793,
      "dic": 3794,
      "gg": 3795,
      "ots": 3796,
      "Ġpalabras": 3797,
      "ocket": 3798,
      "Ġtask": 3799,
      "Ġkeep": 3800,
      "Ġ====": 3801,
      "Ġenem": 3802,
      "Ġcualquier": 3803,
      "iness": 3804,
      "Ġquery": 3805,
      "Buffer": 3806,
      "amed": 3807,
      "Ġcolumn": 3808,
      "idden": 3809,
      "ĠsÃ©": 3810,
      "FA": 3811,
      "Ġthing": 3812,
      "Ġdirig": 3813,
      "è¦": 3814,
      "Ġ[`": 3815,
      "Ġhuman": 3816,
      "ĠReturns": 3817,
      "ĠcÃ³mo": 3818,
      "Ġabr": 3819,
      "Ġproject": 3820,
      "Ġconj": 3821,
      "Ġhijo": 3822,
      "uper": 3823,
      "Ã£o": 3824,
      "Ġapr": 3825,
      "VER": 3826,
      "method": 3827,
      "Ġbal": 3828,
      "ĠCopy": 3829,
      "next": 3830,
      "ĠCor": 3831,
      "anged": 3832,
      "Ġposible": 3833,
      "ĠÑ": 3834,
      "ello": 3835,
      "ead": 3836,
      "fs": 3837,
      "ences": 3838,
      "Ġsatis": 3839,
      "Ġlow": 3840,
      "Class": 3841,
      "Ġfur": 3842,
      "Ġpron": 3843,
      "']": 3844,
      "wise": 3845,
      "¦Ĥ": 3846,
      "CP": 3847,
      "Ġdescrib": 3848,
      "Ġpast": 3849,
      "Ġdistributed": 3850,
      "Rec": 3851,
      "Ġderechos": 3852,
      "fico": 3853,
      "Ġdeber": 3854,
      "urb": 3855,
      "Ġsimple": 3856,
      "\\\"": 3857,
      "Ġciv": 3858,
      "Equal": 3859,
      "Ġped": 3860,
      "Ġgust": 3861,
      "Ġsor": 3862,
      "come": 3863,
      "Ġspeak": 3864,
      "å¯": 3865,
      "Content": 3866,
      "Ġdifferent": 3867,
      "Version": 3868,
      "Ã³l": 3869,
      "æŀ": 3870,
      "Ġcono": 3871,
      "ety": 3872,
      "Ġlado": 3873,
      "Ġinm": 3874,
      "Ġcomput": 3875,
      "!--": 3876,
      "Ġaument": 3877,
      "local": 3878,
      "Ġless": 3879,
      "Ġservice": 3880,
      "Ġpot": 3881,
      "tutorial": 3882,
      "oto": 3883,
      "Ð°Ñ": 3884,
      "IP": 3885,
      "ĠcompaÃ±": 3886,
      "Ġngx": 3887,
      "internal": 3888,
      "Ġpi": 3889,
      "indows": 3890,
      "Ġdisc": 3891,
      "amin": 3892,
      "è§": 3893,
      "valu": 3894,
      "erto": 3895,
      "ĠÐ·": 3896,
      "Ġinformation": 3897,
      "ĠII": 3898,
      "Ġthy": 3899,
      "Module": 3900,
      "Ġax": 3901,
      "ĠÎ": 3902,
      "Valid": 3903,
      "Ġindivid": 3904,
      "AA": 3905,
      "Ġbetter": 3906,
      "mary": 3907,
      "_;": 3908,
      "Ġwithin": 3909,
      "root": 3910,
      "à´": 3911,
      "pid": 3912,
      "Ġlanguage": 3913,
      "Ġenerg": 3914,
      "Ġsystem": 3915,
      "ired": 3916,
      "TE": 3917,
      "sc": 3918,
      "Ġdoor": 3919,
      "Ġtook": 3920,
      "Count": 3921,
      "ĠpolÃŃtica": 3922,
      "Ġpueblo": 3923,
      "ĠCan": 3924,
      "parse": 3925,
      "79": 3926,
      "Ġgobierno": 3927,
      "Ġmiembros": 3928,
      "Ġfather": 3929,
      "Ġpersonal": 3930,
      "upport": 3931,
      "Ġagu": 3932,
      "Ġpower": 3933,
      "ĠIntern": 3934,
      "Ġproced": 3935,
      "encies": 3936,
      "loud": 3937,
      "annel": 3938,
      "eric": 3939,
      "perties": 3940,
      "Ġhard": 3941,
      "Ġfast": 3942,
      "Input": 3943,
      "uch": 3944,
      "ĠEd": 3945,
      ".Â»": 3946,
      "Ġbaj": 3947,
      "Script": 3948,
      "Ġfiles": 3949,
      "lease": 3950,
      "æĸĩ": 3951,
      "OP": 3952,
      "Ġtypes": 3953,
      "ÑĤÐ¸": 3954,
      "iere": 3955,
      "Ġado": 3956,
      "Ġsiendo": 3957,
      "./": 3958,
      "Ġreturns": 3959,
      "ĠAc": 3960,
      "Ġpud": 3961,
      "Function": 3962,
      "bra": 3963,
      "ota": 3964,
      "Ġuntil": 3965,
      "rary": 3966,
      "udio": 3967,
      "testing": 3968,
      "ĠMy": 3969,
      "Service": 3970,
      "Ġobra": 3971,
      "31": 3972,
      "eline": 3973,
      "ĠEsto": 3974,
      "Ġgover": 3975,
      "push": 3976,
      "este": 3977,
      "iana": 3978,
      "Ġpage": 3979,
      "Ġdim": 3980,
      "Ġocup": 3981,
      "Ġliter": 3982,
      "Ġluz": 3983,
      "Ġceleb": 3984,
      "ĠWith": 3985,
      "Ġenfer": 3986,
      "Ġrecom": 3987,
      "ĠMa": 3988,
      "cto": 3989,
      "////////": 3990,
      "imas": 3991,
      "Ġdisp": 3992,
      "TY": 3993,
      "Ġdecis": 3994,
      "Ġmadre": 3995,
      "Ġtrain": 3996,
      "Ġcub": 3997,
      "pack": 3998,
      "Ġgal": 3999,
      "Expression": 4000,
      "Ġresp": 4001,
      "filter": 4002,
      "ĠPa": 4003,
      "38": 4004,
      "Ġhalf": 4005,
      "inte": 4006,
      "Ġuso": 4007,
      "ises": 4008,
      "Ġupdate": 4009,
      "Ġgar": 4010,
      "ĠOptional": 4011,
      "ĠartÃŃculo": 4012,
      "Ġplus": 4013,
      "ĠHTTP": 4014,
      "Ġincre": 4015,
      "Ġvolv": 4016,
      "any": 4017,
      "left": 4018,
      "ĠHow": 4019,
      "icy": 4020,
      "ĠÐ´": 4021,
      "Ġeng": 4022,
      "Ġabove": 4023,
      "uss": 4024,
      "Ġsever": 4025,
      "Ġstatus": 4026,
      "prom": 4027,
      "Ġcort": 4028,
      "ceed": 4029,
      "Ġcora": 4030,
      "bol": 4031,
      "dr": 4032,
      "Ġcustom": 4033,
      "iving": 4034,
      "Ġjug": 4035,
      "Ġinstead": 4036,
      "ĠCal": 4037,
      "Ġrender": 4038,
      "Ġinflu": 4039,
      "blank": 4040,
      "Ġwait": 4041,
      "æł": 4042,
      "Ġ(\"": 4043,
      "Ã©e": 4044,
      "Ġparece": 4045,
      "select": 4046,
      "ĠâĪ": 4047,
      "iling": 4048,
      "Ġalt": 4049,
      "Ġmanos": 4050,
      "}.": 4051,
      "ĠPl": 4052,
      "Ġreturned": 4053,
      "You": 4054,
      "ĠeconÃ³m": 4055,
      "Ġcare": 4056,
      "54": 4057,
      "urg": 4058,
      "weight": 4059,
      "Ġderecho": 4060,
      "æ³": 4061,
      "');": 4062,
      "Ġhands": 4063,
      "Auth": 4064,
      "ĠÐ½": 4065,
      "ested": 4066,
      "ĠYo": 4067,
      "MA": 4068,
      "font": 4069,
      "hel": 4070,
      "Ġhelp": 4071,
      "Ġwon": 4072,
      "olÃ³g": 4073,
      ".__": 4074,
      "Ġcomb": 4075,
      "box": 4076,
      "Ġprincipal": 4077,
      "cida": 4078,
      "61": 4079,
      "antas": 4080,
      "google": 4081,
      "enses": 4082,
      "fin": 4083,
      "Ġsure": 4084,
      "common": 4085,
      "ĠEuropa": 4086,
      "ÐµÑĤ": 4087,
      "project": 4088,
      "ĠOR": 4089,
      "abor": 4090,
      "Ġseen": 4091,
      "Ġ([": 4092,
      "ĠDis": 4093,
      "Arg": 4094,
      "Ġcirc": 4095,
      "Ġimportante": 4096,
      "ince": 4097,
      "ored": 4098,
      "Ġroom": 4099,
      "Ġspecific": 4100,
      "iso": 4101,
      "Ġconoc": 4102,
      "Ġê": 4103,
      "Ġ\"/": 4104,
      "foo": 4105,
      "tention": 4106,
      "Ġinvestig": 4107,
      "False": 4108,
      "expected": 4109,
      "Ġexplic": 4110,
      "ĠQue": 4111,
      "Ġcountry": 4112,
      "åĮ": 4113,
      "outh": 4114,
      "prim": 4115,
      "Ġcommon": 4116,
      "Ġsingle": 4117,
      "ips": 4118,
      "Ġseemed": 4119,
      "ĠRec": 4120,
      "ns": 4121,
      "Ġren": 4122,
      "Ġclos": 4123,
      "ĠCap": 4124,
      "batch": 4125,
      "ley": 4126,
      "Ġrespons": 4127,
      "dom": 4128,
      "Ġchange": 4129,
      "dantic": 4130,
      "ãĤĴ": 4131,
      "Ġgoing": 4132,
      "æĿ": 4133,
      "Ġsomething": 4134,
      "Ġdol": 4135,
      "Ġmag": 4136,
      "ucciÃ³n": 4137,
      "ä½ł": 4138,
      "vider": 4139,
      "ML": 4140,
      "ĠOpen": 4141,
      "ecÃŃa": 4142,
      "rics": 4143,
      "ĠAny": 4144,
      "Ġdic": 4145,
      "CL": 4146,
      "Ġacab": 4147,
      "utes": 4148,
      "Ġrad": 4149,
      "Ġstream": 4150,
      "offset": 4151,
      "Ġlarge": 4152,
      "Ġgol": 4153,
      "Ġfriend": 4154,
      "ately": 4155,
      "Ġexpress": 4156,
      ".]": 4157,
      "SI": 4158,
      "ĠperÃŃ": 4159,
      "endif": 4160,
      "Ġpret": 4161,
      "aced": 4162,
      "etch": 4163,
      "oks": 4164,
      "rodu": 4165,
      "ĠComo": 4166,
      "iado": 4167,
      "atura": 4168,
      "etwork": 4169,
      "Oh": 4170,
      "78": 4171,
      "ĠJohn": 4172,
      "Ġwhole": 4173,
      "Ġello": 4174,
      "python": 4175,
      "ĠÑģ": 4176,
      "igr": 4177,
      "ĠLu": 4178,
      "Ġopin": 4179,
      "äºĨ": 4180,
      "ened": 4181,
      "gether": 4182,
      "ĠÐ¾": 4183,
      "empl": 4184,
      "Ġlaw": 4185,
      "èĥ½": 4186,
      "acidad": 4187,
      "Ġsiguiente": 4188,
      "Ġcuerpo": 4189,
      "column": 4190,
      "TH": 4191,
      "selves": 4192,
      "ĠAsÃŃ": 4193,
      "Over": 4194,
      "Stream": 4195,
      "cp": 4196,
      "number": 4197,
      "eda": 4198,
      "Ġheader": 4199,
      "ä½¿çĶ¨": 4200,
      "Ġhap": 4201,
      "Ġheav": 4202,
      "Ġclar": 4203,
      "Ġtip": 4204,
      "Ã¡tica": 4205,
      "ĠFr": 4206,
      "74": 4207,
      "tributes": 4208,
      "Ġhome": 4209,
      "Ġcri": 4210,
      "Declar": 4211,
      "'ll": 4212,
      "(_": 4213,
      "Ġproceso": 4214,
      "erÃŃa": 4215,
      "Ġemple": 4216,
      "!...": 4217,
      "Ġgir": 4218,
      "cios": 4219,
      "ĠCON": 4220,
      "Ġgent": 4221,
      "ending": 4222,
      "ĠSec": 4223,
      "Ġvoc": 4224,
      "ielo": 4225,
      "Ġaz": 4226,
      "Ġhaving": 4227,
      "ĠNaciones": 4228,
      "Ġsaber": 4229,
      "Ġtarde": 4230,
      "Ġheard": 4231,
      "alth": 4232,
      "curr": 4233,
      "èĢ": 4234,
      "Ġdesarroll": 4235,
      "ators": 4236,
      "Ġmean": 4237,
      "fter": 4238,
      "Ġcaball": 4239,
      "Ã©rica": 4240,
      "png": 4241,
      "ĠMadrid": 4242,
      "è¦ģ": 4243,
      "Ġrey": 4244,
      "func": 4245,
      "Ġfeel": 4246,
      "ëĭ¤": 4247,
      "Ġtab": 4248,
      "Ġpan": 4249,
      "ually": 4250,
      "Ġeduc": 4251,
      "Tra": 4252,
      "uvo": 4253,
      "ĠserÃ¡": 4254,
      "Ġautom": 4255,
      "isis": 4256,
      "ifest": 4257,
      "ĠJe": 4258,
      "udo": 4259,
      "Ġjud": 4260,
      "Ġpersona": 4261,
      "Ġland": 4262,
      "Ġfrente": 4263,
      "ä¸º": 4264,
      "buffer": 4265,
      "AV": 4266,
      "Ġhu": 4267,
      "Ġshort": 4268,
      "Ġmode": 4269,
      "Ã©ndose": 4270,
      "Ġug": 4271,
      "ĠUnidas": 4272,
      "Ð·": 4273,
      "Ġnosotros": 4274,
      "Ãł": 4275,
      "Ġbes": 4276,
      "izado": 4277,
      "68": 4278,
      "Ġadmin": 4279,
      "Ġempe": 4280,
      "Ġposition": 4281,
      "ponents": 4282,
      "Ġfuncion": 4283,
      "Ġbuena": 4284,
      "Ġlogr": 4285,
      "UM": 4286,
      "ĠUnidos": 4287,
      "Select": 4288,
      "abilidad": 4289,
      "Ġexpected": 4290,
      "Sub": 4291,
      "Ġsuccess": 4292,
      "Ġsoon": 4293,
      "ĠXX": 4294,
      "Ġreason": 4295,
      "ĠFl": 4296,
      "napsh": 4297,
      "FI": 4298,
      "Ġinstr": 4299,
      "Ġweb": 4300,
      "allow": 4301,
      "Ġwhom": 4302,
      "\"`": 4303,
      "Ġwords": 4304,
      ".)": 4305,
      "estiÃ³n": 4306,
      "Ġ30": 4307,
      "Ġperform": 4308,
      "pull": 4309,
      "Ġunivers": 4310,
      "oo": 4311,
      "device": 4312,
      "Ġblo": 4313,
      "Ġment": 4314,
      "ym": 4315,
      "Ġwhether": 4316,
      "Handler": 4317,
      "Ġvisit": 4318,
      "task": 4319,
      "Ġum": 4320,
      "Ġvoz": 4321,
      "iers": 4322,
      "ĠaplicaciÃ³n": 4323,
      "last": 4324,
      "Ġduring": 4325,
      "fact": 4326,
      "ATE": 4327,
      "andom": 4328,
      "Ġnueva": 4329,
      "names": 4330,
      "undial": 4331,
      "abase": 4332,
      "Ġaddress": 4333,
      "Ġalcan": 4334,
      "Fr": 4335,
      "Ġsold": 4336,
      "Ġcorrespond": 4337,
      "rl": 4338,
      "Ext": 4339,
      "Ġcuales": 4340,
      "Read": 4341,
      "TO": 4342,
      "unic": 4343,
      "Ġeffect": 4344,
      "flags": 4345,
      "Ð°Ð½": 4346,
      "asta": 4347,
      "match": 4348,
      "ç¨": 4349,
      "aset": 4350,
      "Ġ}}": 4351,
      "ĠUR": 4352,
      "idx": 4353,
      "Ġju": 4354,
      "Ġlim": 4355,
      "Ġ[\"": 4356,
      "yntaxKind": 4357,
      "Ġacuerdo": 4358,
      "Ġnacional": 4359,
      "iedad": 4360,
      "aa": 4361,
      "unta": 4362,
      "ources": 4363,
      "Ġdet": 4364,
      "oding": 4365,
      "Ġpay": 4366,
      "aca": 4367,
      "post": 4368,
      "Ġbat": 4369,
      "Ġampl": 4370,
      "ional": 4371,
      "ience": 4372,
      "Del": 4373,
      "ĠTambiÃ©n": 4374,
      "Ġlargo": 4375,
      "ativas": 4376,
      "Check": 4377,
      "å¸": 4378,
      "Ġintrodu": 4379,
      "åı¯ä»¥": 4380,
      "fort": 4381,
      "dole": 4382,
      "åĢ": 4383,
      "Ġestre": 4384,
      "values": 4385,
      "Ġmeans": 4386,
      "join": 4387,
      "Ġappro": 4388,
      "Ġbuffer": 4389,
      "uls": 4390,
      "Method": 4391,
      "ĠPython": 4392,
      "iores": 4393,
      "Ġparent": 4394,
      "Ġrev": 4395,
      "ĠtÃ©r": 4396,
      "Ġcat": 4397,
      "fica": 4398,
      "åį": 4399,
      "Ã¨re": 4400,
      "Ġpossible": 4401,
      "erv": 4402,
      "Ġfamilia": 4403,
      "Ġenter": 4404,
      "Ġseguridad": 4405,
      "Ġvous": 4406,
      "Ġsust": 4407,
      "Ġinterface": 4408,
      "Ġlibert": 4409,
      "ĠCopyright": 4410,
      "æŃ": 4411,
      "ĠIl": 4412,
      "ĠPol": 4413,
      "Ġcaracter": 4414,
      "ipo": 4415,
      ":`": 4416,
      "Ġellas": 4417,
      "label": 4418,
      "(*": 4419,
      "imientos": 4420,
      "bert": 4421,
      "ITH": 4422,
      "Ġenough": 4423,
      "Manager": 4424,
      "Ġround": 4425,
      "apache": 4426,
      "inary": 4427,
      "unwrap": 4428,
      "acer": 4429,
      "clone": 4430,
      "antos": 4431,
      "Ġley": 4432,
      "Ġnamespace": 4433,
      "ĠpodÃŃa": 4434,
      "FastAPI": 4435,
      "Ġmostr": 4436,
      "ĠValue": 4437,
      "Ġhoy": 4438,
      "æİ": 4439,
      "Ġ--Â¿": 4440,
      ",--": 4441,
      "Ġcapital": 4442,
      "RAN": 4443,
      "Ġarch": 4444,
      "Ġsoftware": 4445,
      "aim": 4446,
      "Ġprecis": 4447,
      "è¡Į": 4448,
      "prec": 4449,
      "ably": 4450,
      "Ġempty": 4451,
      "etr": 4452,
      "ination": 4453,
      "posed": 4454,
      "sg": 4455,
      "adamente": 4456,
      "Ġalmost": 4457,
      "ä¸Ģä¸ª": 4458,
      "Ġjunto": 4459,
      "height": 4460,
      "Ã¤Ã¤": 4461,
      "Ġpregunt": 4462,
      "Ġasked": 4463,
      "Line": 4464,
      "first": 4465,
      "edo": 4466,
      "thers": 4467,
      "cover": 4468,
      "Ġdom": 4469,
      "Ġconstitu": 4470,
      "éĹ": 4471,
      "Ġcrist": 4472,
      "Ġbit": 4473,
      "HTTP": 4474,
      "Ġcumpl": 4475,
      "Ġbytes": 4476,
      "usiÃ³n": 4477,
      "ĠseÃ±al": 4478,
      "Ġparticip": 4479,
      "lab": 4480,
      "Ġmult": 4481,
      "Ġreun": 4482,
      "Ġwal": 4483,
      "ĠÃºltimo": 4484,
      "arias": 4485,
      "Ġband": 4486,
      "Ġpartes": 4487,
      "Ġalma": 4488,
      "Ġsel": 4489,
      "search": 4490,
      "310": 4491,
      "ĠAb": 4492,
      "Ġcomplet": 4493,
      "ĠmÃºs": 4494,
      "agnost": 4495,
      "vos": 4496,
      "Server": 4497,
      "Ġinstall": 4498,
      "Ġwhite": 4499,
      "Ġindepend": 4500,
      "eles": 4501,
      "imum": 4502,
      "Ġtuvo": 4503,
      "Ġvec": 4504,
      "utils": 4505,
      "Ġperfect": 4506,
      "Ġapart": 4507,
      "æĢ": 4508,
      "adie": 4509,
      "ĴĮ": 4510,
      "Ġcomunic": 4511,
      "Ġisinstance": 4512,
      "Ġmediante": 4513,
      "Ġpuesto": 4514,
      "header": 4515,
      "Ġhablar": 4516,
      "Ġlooked": 4517,
      "ark": 4518,
      "cat": 4519,
      "ivas": 4520,
      "ĠÐº": 4521,
      "imon": 4522,
      "ĠademÃ¡s": 4523,
      "å·": 4524,
      "Gener": 4525,
      "cial": 4526,
      "Ġroot": 4527,
      "Ġaccess": 4528,
      "Ġvisto": 4529,
      "ĠDec": 4530,
      "uff": 4531,
      "QL": 4532,
      "Ġcompl": 4533,
      "ĠpÃ¡g": 4534,
      "Ġgrupo": 4535,
      "Ġfilter": 4536,
      "ÃŃdo": 4537,
      "\"><": 4538,
      "Ġnecess": 4539,
      "ioso": 4540,
      "PL": 4541,
      "position": 4542,
      "Rout": 4543,
      "Ġcompet": 4544,
      "Ġ/>": 4545,
      "Ġcamino": 4546,
      "Ġ>=": 4547,
      "resol": 4548,
      "Ġurl": 4549,
      "Ġcache": 4550,
      "ynam": 4551,
      "ists": 4552,
      "ism": 4553,
      "Ġvista": 4554,
      "};": 4555,
      "req": 4556,
      "tag": 4557,
      "Ã¨s": 4558,
      "Es": 4559,
      "Ġvig": 4560,
      "dtype": 4561,
      "zon": 4562,
      "Declaration": 4563,
      "iales": 4564,
      "Ġdiferentes": 4565,
      "Ġbast": 4566,
      "Ġknew": 4567,
      "Ġintent": 4568,
      "rix": 4569,
      "Ġaquellos": 4570,
      "Ġestaban": 4571,
      "à¤¾": 4572,
      "verse": 4573,
      "essages": 4574,
      "Ġinteres": 4575,
      "Ġtrib": 4576,
      "Ġdtype": 4577,
      "tribu": 4578,
      "space": 4579,
      "Ġwar": 4580,
      "side": 4581,
      "pret": 4582,
      "ĠĠĠĠĠĠĠĠĠĠĠĠĠĠ": 4583,
      "ĠHer": 4584,
      "95": 4585,
      "Pos": 4586,
      "Ġcivil": 4587,
      "Ġcourse": 4588,
      "Ġdecid": 4589,
      "ĠdemÃ¡s": 4590,
      "ÑĢÐ¸": 4591,
      "script": 4592,
      "ĠlÃŃne": 4593,
      "etas": 4594,
      "Ġdomin": 4595,
      "Ġrecurs": 4596,
      "Ġpobre": 4597,
      "Ġamong": 4598,
      "Ġacom": 4599,
      "ĠChrist": 4600,
      "Ġdig": 4601,
      "Ġfinanci": 4602,
      "ĠmÃ¡": 4603,
      "uo": 4604,
      "Ġcampo": 4605,
      "ajo": 4606,
      "sed": 4607,
      "alt": 4608,
      "Ġayud": 4609,
      "Ġfuerza": 4610,
      "****************": 4611,
      "ĠperÃŃodo": 4612,
      "Ġvarios": 4613,
      "anas": 4614,
      "KE": 4615,
      "false": 4616,
      "ivate": 4617,
      "ĠĠĠĠĠĠĠĠĠĠĠĠĠĠĠĠĠĠĠĠĠĠĠĠĠĠĠĠĠĠĠĠĠĠĠ": 4618,
      "fully": 4619,
      "roso": 4620,
      "Īëĭ¤": 4621,
      "Default": 4622,
      "Ġtrabaj": 4623,
      "Ġespecial": 4624,
      "Ġsens": 4625,
      "AME": 4626,
      "Ġcerca": 4627,
      "Ġhermos": 4628,
      "Ġpropor": 4629,
      "Ġmemory": 4630,
      "eder": 4631,
      "ĠXV": 4632,
      "^{": 4633,
      "adding": 4634,
      "ĠAdemÃ¡s": 4635,
      "ironment": 4636,
      "ploy": 4637,
      "ecciÃ³n": 4638,
      "Ġeas": 4639,
      "ds": 4640,
      "ĠtÃ©rmin": 4641,
      "ĠSeÃ±": 4642,
      "Ġconvers": 4643,
      "ibilidad": 4644,
      "mite": 4645,
      "Ġdays": 4646,
      "Ġtri": 4647,
      "Ġinclud": 4648,
      "Ġhear": 4649,
      "roy": 4650,
      "torch": 4651,
      "Ġwidth": 4652,
      "Ġdeath": 4653,
      "Ġwhose": 4654,
      "Ġalto": 4655,
      "umb": 4656,
      "INT": 4657,
      "ĠÐ¸": 4658,
      "Ġaccount": 4659,
      "frame": 4660,
      "require": 4661,
      "ãģĹ": 4662,
      "tains": 4663,
      "velop": 4664,
      "/)": 4665,
      "bool": 4666,
      "40": 4667,
      "Ġfree": 4668,
      "Ad": 4669,
      "ename": 4670,
      "Ġstep": 4671,
      "å¹": 4672,
      "ĠObject": 4673,
      "Ġrather": 4674,
      "Ġabs": 4675,
      "eq": 4676,
      "Ġ..": 4677,
      "arme": 4678,
      "ĠrelaciÃ³n": 4679,
      "known": 4680,
      "Ġoperation": 4681,
      "Ġwoman": 4682,
      "Ġtempor": 4683,
      "Ġesf": 4684,
      "ites": 4685,
      "ĠReg": 4686,
      "Ġtim": 4687,
      "ĠtÃ©": 4688,
      "usion": 4689,
      "Ġprimero": 4690,
      "ĠID": 4691,
      "Run": 4692,
      "ural": 4693,
      "ident": 4694,
      "Ġ((": 4695,
      "48": 4696,
      "child": 4697,
      "Ġhold": 4698,
      "import": 4699,
      "Ġpresente": 4700,
      "Ġban": 4701,
      "Ġesos": 4702,
      "Ġsegundo": 4703,
      "ĠAg": 4704,
      "vari": 4705,
      "UP": 4706,
      "{}": 4707,
      "Ġpopular": 4708,
      "level": 4709,
      "ko": 4710,
      "Ġprograma": 4711,
      "ĠÃ©p": 4712,
      "ĠRep": 4713,
      "napshot": 4714,
      "edor": 4715,
      "Ġsec": 4716,
      "utter": 4717,
      "Ġcierto": 4718,
      "active": 4719,
      "Ġlevel": 4720,
      "Ġsearch": 4721,
      "Ġcorr": 4722,
      "aste": 4723,
      "Ġsalud": 4724,
      "Ġdevice": 4725,
      "Ã¡tico": 4726,
      "Ġ),": 4727,
      "Ø§": 4728,
      "Ġfill": 4729,
      "light": 4730,
      "enos": 4731,
      "Ġextern": 4732,
      "Ġlevant": 4733,
      "Ġrequire": 4734,
      "nos": 4735,
      "Ġtold": 4736,
      "Ġinfo": 4737,
      "rown": 4738,
      "riÃ³": 4739,
      "cup": 4740,
      "ĠprÃ¡ct": 4741,
      "ĠUnivers": 4742,
      "Ġdescription": 4743,
      "trol": 4744,
      "Ġobras": 4745,
      "Ġalong": 4746,
      "Ġair": 4747,
      "ĠAh": 4748,
      "Ġbound": 4749,
      "Ġpad": 4750,
      "leman": 4751,
      "ierto": 4752,
      ".\",": 4753,
      "Create": 4754,
      "sche": 4755,
      "Ġfi": 4756,
      "Ġshape": 4757,
      "Ġsang": 4758,
      "arle": 4759,
      "ERR": 4760,
      "Ġspecified": 4761,
      "ĠPo": 4762,
      "ube": 4763,
      "Ġiba": 4764,
      "Ġnego": 4765,
      "Output": 4766,
      "We": 4767,
      "yt": 4768,
      "Color": 4769,
      "User": 4770,
      "ila": 4771,
      "PU": 4772,
      "iet": 4773,
      "Ġbur": 4774,
      "Ġparams": 4775,
      "mode": 4776,
      "Ġproyecto": 4777,
      "ĠÐ¼": 4778,
      "ëĭĪëĭ¤": 4779,
      "cuencia": 4780,
      "aster": 4781,
      "ĠNode": 4782,
      "conf": 4783,
      "Ġdeta": 4784,
      "Ġperman": 4785,
      "rÃ³n": 4786,
      "Mem": 4787,
      "Ġtogether": 4788,
      "Ã©is": 4789,
      "Ġtengo": 4790,
      "Ġcambio": 4791,
      "Ġexact": 4792,
      "Symbol": 4793,
      "Ġhowever": 4794,
      "Ġtimes": 4795,
      "ĠNor": 4796,
      "Ġeuro": 4797,
      "Ġaction": 4798,
      "ĠSyntaxKind": 4799,
      "ĠÂ»": 4800,
      "static": 4801,
      "ĠCH": 4802,
      "`:": 4803,
      "ss": 4804,
      "OUT": 4805,
      "ĠDur": 4806,
      "Pl": 4807,
      "ãģ§": 4808,
      "End": 4809,
      "Ġleast": 4810,
      "Ġpartir": 4811,
      "like": 4812,
      "ification": 4813,
      "Format": 4814,
      "pass": 4815,
      "Ġglobal": 4816,
      "Ġterc": 4817,
      "Ġchildren": 4818,
      "76": 4819,
      "alloc": 4820,
      "ilt": 4821,
      "ester": 4822,
      "Ã¡ne": 4823,
      "agger": 4824,
      "Ġcelebr": 4825,
      "iteral": 4826,
      "CO": 4827,
      "hib": 4828,
      ";:": 4829,
      "73": 4830,
      "ĠLord": 4831,
      "ĠPart": 4832,
      "ĠÃ¡r": 4833,
      "ĠCre": 4834,
      "Ġcarg": 4835,
      "uri": 4836,
      "Ġmedidas": 4837,
      "Ġsem": 4838,
      "ĠFastAPI": 4839,
      "oco": 4840,
      "Ġreport": 4841,
      "Ġadded": 4842,
      "](#": 4843,
      "TL": 4844,
      "Ġdesp": 4845,
      "Ġbor": 4846,
      "ondo": 4847,
      "Ġarte": 4848,
      "ãģ¾": 4849,
      "Ġframe": 4850,
      "ç®": 4851,
      "Property": 4852,
      "Ġabsol": 4853,
      "Ġku": 4854,
      "Ġmatter": 4855,
      "Types": 4856,
      "Ġconci": 4857,
      "Ġcausa": 4858,
      "Ġaband": 4859,
      "Ap": 4860,
      "All": 4861,
      "Ġfour": 4862,
      "ĠAmer": 4863,
      "Ġcomm": 4864,
      "ĠList": 4865,
      "mat": 4866,
      "Ġfix": 4867,
      "ĠpodrÃŃa": 4868,
      "Ġdefined": 4869,
      "ãģ«": 4870,
      "Start": 4871,
      "Ġhumanos": 4872,
      "agr": 4873,
      "Ġliber": 4874,
      "Ġinternacional": 4875,
      "Ġsan": 4876,
      "Ġthee": 4877,
      "Ġhund": 4878,
      "Ġlibre": 4879,
      "ĠMo": 4880,
      "ĠalgÃºn": 4881,
      "ability": 4882,
      "PRO": 4883,
      "Ġobt": 4884,
      "SH": 4885,
      "Ġexecut": 4886,
      "ĠserÃŃa": 4887,
      "Ġadopt": 4888,
      "Ð¹": 4889,
      "Ġenum": 4890,
      "Ñħ": 4891,
      "ĠTrans": 4892,
      "unci": 4893,
      "Ġclear": 4894,
      "gun": 4895,
      "Image": 4896,
      "Ġthus": 4897,
      "cÃ³": 4898,
      "ä½ľ": 4899,
      "Ã¡m": 4900,
      "Ġcalle": 4901,
      "81": 4902,
      "ĠNow": 4903,
      "Ġinitial": 4904,
      "apt": 4905,
      "70": 4906,
      "Ġmorn": 4907,
      "acil": 4908,
      "ESS": 4909,
      "ecn": 4910,
      "allel": 4911,
      "Ã¤Ã¤n": 4912,
      "Ġlink": 4913,
      "ĠNue": 4914,
      "Ã±ana": 4915,
      "ih": 4916,
      "Ġconform": 4917,
      "Ġcit": 4918,
      "ede": 4919,
      "ipeline": 4920,
      "Ġaspect": 4921,
      "tokens": 4922,
      "Ġdise": 4923,
      "CI": 4924,
      "cted": 4925,
      "Ġlabel": 4926,
      "Ġrespecto": 4927,
      "raph": 4928,
      "Ġheight": 4929,
      "Ġconsum": 4930,
      "It": 4931,
      "()`": 4932,
      "Ġconfiguration": 4933,
      "Ġpesar": 4934,
      "Ġstop": 4935,
      "94": 4936,
      "Ġdemand": 4937,
      "Ã¡p": 4938,
      "Ġpint": 4939,
      "custom": 4940,
      "oy": 4941,
      "Ġsud": 4942,
      "ĠniÃ±os": 4943,
      "iego": 4944,
      "Ġ${": 4945,
      "Ġvuest": 4946,
      "ĠsituaciÃ³n": 4947,
      "Ġoli": 4948,
      "Ġswe": 4949,
      "Oper": 4950,
      "ĠSa": 4951,
      "aleza": 4952,
      "ç½": 4953,
      "gles": 4954,
      "exp": 4955,
      "æ³ķ": 4956,
      "norm": 4957,
      "ä»¶": 4958,
      "ALL": 4959,
      "ĠPal": 4960,
      "posit": 4961,
      "Ġerrors": 4962,
      "ìĹ": 4963,
      "Ġord": 4964,
      "FL": 4965,
      "éĿ": 4966,
      "soci": 4967,
      "msg": 4968,
      "mac": 4969,
      "Ident": 4970,
      "arlo": 4971,
      "Tem": 4972,
      "ebug": 4973,
      "ffic": 4974,
      "posiciÃ³n": 4975,
      "Ġiss": 4976,
      "ĠespaÃ±ol": 4977,
      "stant": 4978,
      "pare": 4979,
      "ards": 4980,
      "chedul": 4981,
      "BU": 4982,
      "\\\\": 4983,
      "ements": 4984,
      "Ġsend": 4985,
      "Ġestruct": 4986,
      "Ġservicios": 4987,
      "glÃ©s": 4988,
      "ulos": 4989,
      "Ġlengu": 4990,
      "Ġquite": 4991,
      "Ġrevol": 4992,
      "external": 4993,
      "ÃŃr": 4994,
      "grad": 4995,
      "Ġtaken": 4996,
      "chas": 4997,
      "Ġdete": 4998,
      "sd": 4999,
      "Ġturned": 5000,
      "Sign": 5001,
      "Ġevid": 5002,
      "ç§": 5003,
      "graph": 5004,
      "roll": 5005,
      "uments": 5006,
      "åĪĨ": 5007,
      "eds": 5008,
      "Ġpuerta": 5009,
      "Ġrealiz": 5010,
      "Ġllegar": 5011,
      "Ġdue": 5012,
      "Ð¾Ð»": 5013,
      "å¦Ĥ": 5014,
      "ç¨ĭ": 5015,
      "ĠCr": 5016,
      "Ġobtain": 5017,
      "uales": 5018,
      "Ġprovided": 5019,
      "Ġproto": 5020,
      "æį": 5021,
      "thread": 5022,
      "Ġintegr": 5023,
      "Names": 5024,
      "ĠseÃ±ora": 5025,
      "AND": 5026,
      "Ġoro": 5027,
      "ORT": 5028,
      "pk": 5029,
      "Ġorganiz": 5030,
      "fil": 5031,
      "Ġmother": 5032,
      "à¨": 5033,
      "Ġparameter": 5034,
      "ĠGran": 5035,
      "Ġna": 5036,
      "çİ": 5037,
      "asure": 5038,
      "Ġiter": 5039,
      "empty": 5040,
      "ries": 5041,
      "summary": 5042,
      "ĠPre": 5043,
      "Ġparse": 5044,
      "Ġcuar": 5045,
      "ĠcorazÃ³n": 5046,
      "Ã³d": 5047,
      "comp": 5048,
      "Ġpaso": 5049,
      "keys": 5050,
      "Ġcand": 5051,
      "aga": 5052,
      "ĠGe": 5053,
      "ĠpoblaciÃ³n": 5054,
      "Ġí": 5055,
      "Ġitself": 5056,
      "ulio": 5057,
      "åĪ°": 5058,
      "Ġvir": 5059,
      "byte": 5060,
      "member": 5061,
      "Ġspo": 5062,
      "cidos": 5063,
      "ÑĤÑĮ": 5064,
      "Ġpermiss": 5065,
      "Ġsubject": 5066,
      "Ġsle": 5067,
      "istencia": 5068,
      "ÃŃos": 5069,
      "Ġgave": 5070,
      "62": 5071,
      "ingu": 5072,
      "Ã©tica": 5073,
      "RI": 5074,
      "Ġsignific": 5075,
      "ä¸ĭ": 5076,
      "Ġmyself": 5077,
      "Ġpodr": 5078,
      "ĠNe": 5079,
      "zado": 5080,
      "Ġblack": 5081,
      "Ġothers": 5082,
      "III": 5083,
      "Ġvot": 5084,
      "Ġjur": 5085,
      "æĶ": 5086,
      "Ġelif": 5087,
      "Ġmaterial": 5088,
      "ision": 5089,
      "Ġjoven": 5090,
      "ella": 5091,
      "æĸ¹": 5092,
      "Ġcharacter": 5093,
      "Ġdark": 5094,
      "ĠrazÃ³n": 5095,
      "Ġquestion": 5096,
      "ĠVer": 5097,
      "kind": 5098,
      "alias": 5099,
      "Ġfues": 5100,
      "oss": 5101,
      "Ġvolunt": 5102,
      "fÃŃa": 5103,
      "Ġcontinue": 5104,
      "Ġenf": 5105,
      "Ġllevar": 5106,
      "adora": 5107,
      "Ġdado": 5108,
      "rea": 5109,
      "Ġcinco": 5110,
      "Ġcateg": 5111,
      "Ġhandle": 5112,
      "Ġhot": 5113,
      "obj": 5114,
      "Ġvest": 5115,
      "ÃŃfic": 5116,
      "Ġknown": 5117,
      "Ġunas": 5118,
      "ensions": 5119,
      "Ġ_,": 5120,
      "ĠMed": 5121,
      "Ġhy": 5122,
      "Ġlabor": 5123,
      "Ġpalabra": 5124,
      "Ġthread": 5125,
      "Number": 5126,
      "unter": 5127,
      "Ġestim": 5128,
      "ĠOne": 5129,
      "Ġfmt": 5130,
      "Ã©rc": 5131,
      "Ġbegin": 5132,
      "Ġpasado": 5133,
      "long": 5134,
      "Ġsociedad": 5135,
      "pha": 5136,
      "Ġflow": 5137,
      "pth": 5138,
      "avÃŃa": 5139,
      "das": 5140,
      "ëĬ": 5141,
      "Resource": 5142,
      "Ġmorning": 5143,
      "Ġpaz": 5144,
      "Ġweight": 5145,
      "apping": 5146,
      "ĠRE": 5147,
      "Ġfelt": 5148,
      "ĠmayorÃŃa": 5149,
      "proto": 5150,
      "82": 5151,
      "Ġcul": 5152,
      "Ġamigo": 5153,
      "URL": 5154,
      "vector": 5155,
      "pool": 5156,
      "Ġnuestros": 5157,
      "ĠinglÃ©s": 5158,
      "dijo": 5159,
      "Ġhora": 5160,
      "omas": 5161,
      "Ġinfer": 5162,
      "Ġbatch": 5163,
      "ĠtÃ©cn": 5164,
      "Open": 5165,
      "ĠfunciÃ³n": 5166,
      "Ġvoice": 5167,
      "Pre": 5168,
      "Ġgrad": 5169,
      "NO": 5170,
      "dec": 5171,
      "LOG": 5172,
      "Null": 5173,
      "Ġconstru": 5174,
      "ĠEm": 5175,
      "Ġdoub": 5176,
      "day": 5177,
      "Ġhoras": 5178,
      "itect": 5179,
      "íķĺ": 5180,
      "Builder": 5181,
      "Frame": 5182,
      "{\\": 5183,
      "Ġsecret": 5184,
      "Ġdinero": 5185,
      "Hash": 5186,
      ")}": 5187,
      "Ġevalu": 5188,
      "Ġponer": 5189,
      "iosa": 5190,
      "Ġadel": 5191,
      "DB": 5192,
      "Ġbeaut": 5193,
      "ĠDespuÃ©s": 5194,
      "inding": 5195,
      "Ġavec": 5196,
      "Ġnormal": 5197,
      "math": 5198,
      "ĠÃī": 5199,
      "rew": 5200,
      "Ġtree": 5201,
      "Ġremo": 5202,
      "Per": 5203,
      "ee": 5204,
      "ĠenergÃŃa": 5205,
      "cc": 5206,
      "ĠDel": 5207,
      "Ġprofes": 5208,
      ".\"\"\"": 5209,
      "IND": 5210,
      "Component": 5211,
      "Ġcolon": 5212,
      "quÃ©": 5213,
      "Ġnadie": 5214,
      "cfg": 5215,
      "ĠJSON": 5216,
      "42": 5217,
      "lang": 5218,
      "ational": 5219,
      "aso": 5220,
      "portun": 5221,
      "Ġprincipio": 5222,
      "ĠgÃ©n": 5223,
      "ĠYork": 5224,
      "Ġauthor": 5225,
      "ĠðŁ": 5226,
      "Ġrelacion": 5227,
      "ocker": 5228,
      "Ġmol": 5229,
      "metadata": 5230,
      "ĠDefault": 5231,
      "Ġpapel": 5232,
      "Ġtales": 5233,
      "ĠArg": 5234,
      "256": 5235,
      "ĠUniÃ³n": 5236,
      "ĠMrs": 5237,
      "Match": 5238,
      "ench": 5239,
      "Ġ../../": 5240,
      "where": 5241,
      "Ã³t": 5242,
      "encion": 5243,
      "xim": 5244,
      "PO": 5245,
      "ker": 5246,
      "ĠSelf": 5247,
      "uck": 5248,
      "ĠBr": 5249,
      "ĠUse": 5250,
      "ories": 5251,
      "æĹ¶": 5252,
      "ĠmaÃ±ana": 5253,
      "Ġthemselves": 5254,
      "Ġefecto": 5255,
      "Ġquiero": 5256,
      "96": 5257,
      "Ġescal": 5258,
      "Ġagre": 5259,
      "ĠURL": 5260,
      "Ġmagn": 5261,
      "board": 5262,
      "ulas": 5263,
      "(|": 5264,
      "Ġoften": 5265,
      "apter": 5266,
      "ki": 5267,
      "deb": 5268,
      "alo": 5269,
      "isi": 5270,
      "ivamente": 5271,
      "ically": 5272,
      "porte": 5273,
      "Ġcabo": 5274,
      "Ġoct": 5275,
      "<'": 5276,
      "kes": 5277,
      "tait": 5278,
      "omen": 5279,
      "ĠChar": 5280,
      "Por": 5281,
      "][": 5282,
      "Ġinforme": 5283,
      "Ġcorrect": 5284,
      "ĠJos": 5285,
      "41": 5286,
      "pg": 5287,
      ".'": 5288,
      "Ġund": 5289,
      "Ġclose": 5290,
      "Ġill": 5291,
      "ying": 5292,
      "åŀ": 5293,
      "ĠUp": 5294,
      "Ġvict": 5295,
      "åĴĮ": 5296,
      "Ġobst": 5297,
      "enga": 5298,
      "ZE": 5299,
      "quiera": 5300,
      "Host": 5301,
      "ading": 5302,
      "Ġimper": 5303,
      "Ġmodern": 5304,
      "Ġoptim": 5305,
      "çī": 5306,
      "Ġresid": 5307,
      "Ġafect": 5308,
      "INE": 5309,
      "Ġcad": 5310,
      "ynamic": 5311,
      "Ġlibro": 5312,
      "Length": 5313,
      "Ġhl": 5314,
      "Header": 5315,
      "AY": 5316,
      "react": 5317,
      "ä¿": 5318,
      "Ġcompan": 5319,
      "older": 5320,
      "rows": 5321,
      "Any": 5322,
      "Ġmuest": 5323,
      "=\"_": 5324,
      "ĠmÃ©d": 5325,
      "haps": 5326,
      "Ġta": 5327,
      "Ġhic": 5328,
      "53": 5329,
      "public": 5330,
      "aged": 5331,
      "Ġterritor": 5332,
      "omÃŃa": 5333,
      "Ġeurope": 5334,
      "ÑĤÐµ": 5335,
      "ĠLib": 5336,
      "Ġreser": 5337,
      "Ġjob": 5338,
      "Ñİ": 5339,
      "Ġsistemas": 5340,
      "split": 5341,
      "ury": 5342,
      "Ġ{@": 5343,
      "Ġpoor": 5344,
      "Ġbegan": 5345,
      "Ġ//!": 5346,
      "ĠallÃ¡": 5347,
      "ismos": 5348,
      "ottom": 5349,
      "*/": 5350,
      "Ġmilitar": 5351,
      "æĪĳ": 5352,
      "App": 5353,
      "Ġpec": 5354,
      "Ġsentido": 5355,
      "atform": 5356,
      "Ġfields": 5357,
      "Ġaus": 5358,
      "Offset": 5359,
      "Ġwrap": 5360,
      "culo": 5361,
      "argin": 5362,
      "copy": 5363,
      "Access": 5364,
      "clam": 5365,
      "Ġavailable": 5366,
      "56": 5367,
      ")),": 5368,
      "master": 5369,
      "Ġhija": 5370,
      "optional": 5371,
      "Ġestudio": 5372,
      "Ġmetadata": 5373,
      "ster": 5374,
      "ÃŃm": 5375,
      "cident": 5376,
      "Ãºb": 5377,
      "printf": 5378,
      "extension": 5379,
      "Ġboy": 5380,
      "train": 5381,
      "istry": 5382,
      "files": 5383,
      "Ġcollection": 5384,
      "Ġcho": 5385,
      "à¥į": 5386,
      "vision": 5387,
      "Ġctx": 5388,
      "ìĦ": 5389,
      "Ġimpos": 5390,
      "Tensor": 5391,
      "Ġfire": 5392,
      "ints": 5393,
      "Ġentry": 5394,
      "ĠAqu": 5395,
      "Ġapplication": 5396,
      "Update": 5397,
      "Ð¾Ð´": 5398,
      "bern": 5399,
      "Ġocas": 5400,
      "ĠÃ³r": 5401,
      "ĠDi": 5402,
      "Ġdead": 5403,
      "Ġhash": 5404,
      "Params": 5405,
      "93": 5406,
      "\"}": 5407,
      "ĠOk": 5408,
      "Ġsolic": 5409,
      "43": 5410,
      "å½": 5411,
      "Ġanything": 5412,
      "Ġqual": 5413,
      "Ġproces": 5414,
      "yÃ³": 5415,
      "Ġdebido": 5416,
      "tex": 5417,
      "mm": 5418,
      "Ġsost": 5419,
      "Ġparameters": 5420,
      "inta": 5421,
      "Ġappear": 5422,
      "Ġespacio": 5423,
      "Ġlater": 5424,
      "cen": 5425,
      "Ġpet": 5426,
      "ãĤĭ": 5427,
      "é¢": 5428,
      "itas": 5429,
      "Ġdispon": 5430,
      "\"],": 5431,
      "Instance": 5432,
      "âĶĢâĶĢâĶĢâĶĢ": 5433,
      "ĠSol": 5434,
      "vec": 5435,
      "Ġforce": 5436,
      "example": 5437,
      "ĠYa": 5438,
      "container": 5439,
      "What": 5440,
      "Ġuses": 5441,
      "Ġnature": 5442,
      "async": 5443,
      "Ġsuperior": 5444,
      "cient": 5445,
      "Ġmic": 5446,
      "ĠData": 5447,
      "'re": 5448,
      "ABLE": 5449,
      "Ġaff": 5450,
      "Ġcop": 5451,
      "é¡": 5452,
      "Ġvos": 5453,
      "Ġproblemas": 5454,
      "ë¥": 5455,
      "Ġesas": 5456,
      "åŀĭ": 5457,
      "Ġproperty": 5458,
      "Ġvoy": 5459,
      "Ġproporcion": 5460,
      "deed": 5461,
      "pename": 5462,
      "rac": 5463,
      "structor": 5464,
      "Ġbrought": 5465,
      "ctr": 5466,
      "Ġvarias": 5467,
      "èĩ": 5468,
      "Table": 5469,
      "Ġcielo": 5470,
      "Ġ***": 5471,
      "ĠFrancia": 5472,
      "etes": 5473,
      "ÃŃrit": 5474,
      "Ġcapt": 5475,
      "Ġninguna": 5476,
      "Ã¡nt": 5477,
      "GL": 5478,
      "amientos": 5479,
      "Ġjue": 5480,
      "ëĬĶ": 5481,
      "MS": 5482,
      "ĠHol": 5483,
      "ĠError": 5484,
      "Ġrespond": 5485,
      "fd": 5486,
      "ĠcomÃºn": 5487,
      "Ġamo": 5488,
      "ĠMor": 5489,
      "Ġnaci": 5490,
      "HT": 5491,
      "Store": 5492,
      "ĠfÃ¡": 5493,
      "Command": 5494,
      "########": 5495,
      "Ð±": 5496,
      "Ġprincipales": 5497,
      "Ġforward": 5498,
      "ller": 5499,
      "äºİ": 5500,
      "Ġvolver": 5501,
      "]]": 5502,
      "prompt": 5503,
      "æĪĲ": 5504,
      "ĠOb": 5505,
      "90": 5506,
      "Can": 5507,
      "Ġnar": 5508,
      "Ġ{*": 5509,
      "Ġextends": 5510,
      "VAL": 5511,
      "Ġconten": 5512,
      "Ġlic": 5513,
      "bro": 5514,
      "Ġ32": 5515,
      "æĮ": 5516,
      "bb": 5517,
      "Ġinclude": 5518,
      "IONS": 5519,
      "_(": 5520,
      "ä¸Ĭ": 5521,
      "ĠThese": 5522,
      "Ġmel": 5523,
      "ĠPe": 5524,
      "ĠEra": 5525,
      "Ġdici": 5526,
      "Dir": 5527,
      "Ġcallback": 5528,
      "elig": 5529,
      "vm": 5530,
      "Ġdirectory": 5531,
      "Ġflo": 5532,
      "etry": 5533,
      "Ġstrong": 5534,
      "OK": 5535,
      "patch": 5536,
      "isl": 5537,
      "tool": 5538,
      "Ġsun": 5539,
      "Ġwindow": 5540,
      "Ġcause": 5541,
      "TYPE": 5542,
      "?;": 5543,
      "AI": 5544,
      "Ġapare": 5545,
      "UD": 5546,
      "Ġpasar": 5547,
      "Ġrecursos": 5548,
      "Ġ\"\"": 5549,
      "edro": 5550,
      "Ġense": 5551,
      "ĠGre": 5552,
      "Ġwriting": 5553,
      "Ġ64": 5554,
      "button": 5555,
      "ĠItal": 5556,
      "Ġdan": 5557,
      "ativos": 5558,
      "Ġresource": 5559,
      "Ġperiod": 5560,
      "Ġnote": 5561,
      "Range": 5562,
      "ĠCast": 5563,
      "ificar": 5564,
      "Ġobser": 5565,
      "Ã¡st": 5566,
      "ieran": 5567,
      "72": 5568,
      "Ġcontainer": 5569,
      "Ġextr": 5570,
      "totype": 5571,
      "abe": 5572,
      "Ġ*}": 5573,
      "å®ļ": 5574,
      "estr": 5575,
      "Ġcapacidad": 5576,
      "unque": 5577,
      "uta": 5578,
      "Ġcentro": 5579,
      "Ġfalta": 5580,
      "Back": 5581,
      "template": 5582,
      "ĠMag": 5583,
      "ajes": 5584,
      "Ġanal": 5585,
      "uter": 5586,
      "This": 5587,
      "stall": 5588,
      "Ġobjeto": 5589,
      "ĠTen": 5590,
      "Target": 5591,
      "ĠWeb": 5592,
      "Ġquick": 5593,
      "abl": 5594,
      "Ġep": 5595,
      "ENSE": 5596,
      "Ġabandon": 5597,
      "Lock": 5598,
      "irit": 5599,
      "page": 5600,
      "Sec": 5601,
      "Ġadmir": 5602,
      "Ġpropio": 5603,
      "ving": 5604,
      "Ġhaya": 5605,
      "BN": 5606,
      "å¤ļ": 5607,
      "Ġsimilar": 5608,
      "Yes": 5609,
      "unio": 5610,
      "Ġsomet": 5611,
      "Ġdrop": 5612,
      "acciÃ³n": 5613,
      "Ġsoy": 5614,
      "ĠOption": 5615,
      "oney": 5616,
      "scale": 5617,
      "ĠHist": 5618,
      "ÃŃtulo": 5619,
      "command": 5620,
      "Que": 5621,
      "igger": 5622,
      "ĠRed": 5623,
      "ãĥ³": 5624,
      "Ġdesign": 5625,
      "Ġconven": 5626,
      "STR": 5627,
      "Ġsabe": 5628,
      "Ġquiere": 5629,
      "(\"/": 5630,
      "await": 5631,
      "ĠAR": 5632,
      "Ġpronto": 5633,
      "nn": 5634,
      "asa": 5635,
      "Ġmask": 5636,
      "ĠBl": 5637,
      "Ġprimeros": 5638,
      "Ġfail": 5639,
      "46": 5640,
      "Cache": 5641,
      "Ġacept": 5642,
      "Ġpack": 5643,
      "Ġhijos": 5644,
      "å¼ı": 5645,
      "chain": 5646,
      "precated": 5647,
      "ĠMay": 5648,
      "Ġ50": 5649,
      "urch": 5650,
      "Ġestoy": 5651,
      "eca": 5652,
      "ĠÃ©st": 5653,
      "ĠÃºnico": 5654,
      "criptor": 5655,
      "Ġdeben": 5656,
      "Ġapplic": 5657,
      "cape": 5658,
      "ĠApache": 5659,
      "Ġideas": 5660,
      ",-": 5661,
      "ifica": 5662,
      "estamp": 5663,
      "Ġarguments": 5664,
      "92": 5665,
      "ium": 5666,
      "Ġtus": 5667,
      "ĠNOT": 5668,
      "Ġmovimiento": 5669,
      "Pol": 5670,
      "bas": 5671,
      "ĠVersion": 5672,
      "ĠSte": 5673,
      "emon": 5674,
      "ĠmÃ©t": 5675,
      "uno": 5676,
      "ĠSr": 5677,
      "ĠtodavÃŃa": 5678,
      "Ġtool": 5679,
      "Ġgoogle": 5680,
      "wo": 5681,
      "Ġsegunda": 5682,
      "Ġconjunto": 5683,
      "istro": 5684,
      "Ġmac": 5685,
      "Ġsept": 5686,
      "ĠMiss": 5687,
      "rosoft": 5688,
      "æ¨": 5689,
      "Ġfij": 5690,
      "Ġexpression": 5691,
      "Ġ):": 5692,
      "isan": 5693,
      "Ġtomar": 5694,
      "Ġequipo": 5695,
      "Ġnav": 5696,
      "ĠInter": 5697,
      "Ġalign": 5698,
      "Ġresults": 5699,
      "Ġcondiciones": 5700,
      "bound": 5701,
      "auto": 5702,
      "aml": 5703,
      "Ġlui": 5704,
      "ĠEnglish": 5705,
      "Ġservicio": 5706,
      "Ġpelig": 5707,
      "store": 5708,
      "icon": 5709,
      "Ġunderstand": 5710,
      "ĠĠĠĠĠĠĠĠĠĠĠĠĠĠĠĠĠĠĠĠĠ": 5711,
      "ĠÃ©poca": 5712,
      "Ġmedia": 5713,
      "Iter": 5714,
      "range": 5715,
      "ĠLet": 5716,
      "Ġmeses": 5717,
      "Ġaseg": 5718,
      "Ġclase": 5719,
      "ĠComitÃ©": 5720,
      "Ġeleg": 5721,
      "itan": 5722,
      "system": 5723,
      "Ġoffic": 5724,
      "Ġ21": 5725,
      "ICENSE": 5726,
      "Ġcuya": 5727,
      "Ġinterest": 5728,
      "ibility": 5729,
      "Ġast": 5730,
      "System": 5731,
      "ĠHay": 5732,
      "ĠIP": 5733,
      "pers": 5734,
      "ĠCheck": 5735,
      "ĠMi": 5736,
      "ĠMal": 5737,
      "stack": 5738,
      "Ġcompon": 5739,
      "Ġactividades": 5740,
      "Ġtherefore": 5741,
      "Ġesfuer": 5742,
      "Ġnuevas": 5743,
      "hello": 5744,
      "vin": 5745,
      "Ġsex": 5746,
      "ãģ¯": 5747,
      "Ġdign": 5748,
      "ĠAmÃ©rica": 5749,
      "ĠCreate": 5750,
      "umbre": 5751,
      "Ġaccept": 5752,
      "itive": 5753,
      "Ġdro": 5754,
      "Ġdij": 5755,
      "arge": 5756,
      "Ãºblico": 5757,
      "Ġsatisf": 5758,
      "Ġarro": 5759,
      "Errorf": 5760,
      "Ġcover": 5761,
      "Ġdisplay": 5762,
      "Ġcerr": 5763,
      "eto": 5764,
      "ubre": 5765,
      "ĠhacÃŃa": 5766,
      "Ġstood": 5767,
      "irs": 5768,
      "Ġfear": 5769,
      "98": 5770,
      "ÅŁ": 5771,
      "addr": 5772,
      "acity": 5773,
      "mn": 5774,
      "Ġsound": 5775,
      "Ġarmas": 5776,
      "Ġtemper": 5777,
      "Ġvariable": 5778,
      "è¾": 5779,
      "Ġclub": 5780,
      "ĠCons": 5781,
      "Ã¡y": 5782,
      "emo": 5783,
      "à¤°": 5784,
      "ĠGob": 5785,
      "Ġhour": 5786,
      "Ġaud": 5787,
      "feature": 5788,
      "ĠSeÃ±or": 5789,
      "fmt": 5790,
      "Ġhet": 5791,
      "sv": 5792,
      "Ġlibertad": 5793,
      "Ġwish": 5794,
      "ÃŃg": 5795,
      "css": 5796,
      "df": 5797,
      "ĠXI": 5798,
      "fields": 5799,
      "Ġprompt": 5800,
      "Ġleave": 5801,
      "step": 5802,
      "Ġground": 5803,
      "Override": 5804,
      "Ġseveral": 5805,
      "Ġasoci": 5806,
      "Ġregard": 5807,
      "Ġanterior": 5808,
      "ĠteorÃŃa": 5809,
      "fastapi": 5810,
      "gre": 5811,
      "ocup": 5812,
      "ampl": 5813,
      "Ġfir": 5814,
      "If": 5815,
      "ĠTra": 5816,
      "Ġtecn": 5817,
      "quir": 5818,
      "ĠcrÃŃt": 5819,
      "Ġmanifest": 5820,
      "\"))": 5821,
      "Ġech": 5822,
      "Ð¾Ð¼": 5823,
      "Ġ~": 5824,
      "ĠWill": 5825,
      "ĠPhil": 5826,
      "Ġ(*": 5827,
      "Ġstore": 5828,
      "ensiÃ³n": 5829,
      "58": 5830,
      "Ġatra": 5831,
      "orig": 5832,
      "Ġ<=": 5833,
      "Ġoption": 5834,
      "rot": 5835,
      "Ġupd": 5836,
      "ĠNote": 5837,
      "Ã±ad": 5838,
      "`)": 5839,
      "Ġaround": 5840,
      "Ġfeet": 5841,
      "åĳ": 5842,
      "ĠWAR": 5843,
      "Ġnous": 5844,
      "Ġapoyo": 5845,
      "prefix": 5846,
      "++)": 5847,
      "Ġyear": 5848,
      "Ġinstrument": 5849,
      "Ġmeet": 5850,
      "GET": 5851,
      "Ã©rcito": 5852,
      "ranch": 5853,
      "ĠmÃºsica": 5854,
      "Ġpied": 5855,
      "Ġrunning": 5856,
      "Ġhundred": 5857,
      "calar": 5858,
      "ĠâĶ": 5859,
      "Ġdiciembre": 5860,
      "Ġgrupos": 5861,
      "property": 5862,
      "Ġsuced": 5863,
      "Ġusu": 5864,
      "Ġnoble": 5865,
      "ragment": 5866,
      "Provider": 5867,
      ")(": 5868,
      "ĠMÃ©": 5869,
      "ìļ": 5870,
      "Ġrespet": 5871,
      "cional": 5872,
      "Ġio": 5873,
      "Ġmodelo": 5874,
      "ablemente": 5875,
      "VM": 5876,
      "Ġ[_": 5877,
      "ĠIII": 5878,
      "ship": 5879,
      "Ġlonger": 5880,
      "Ġvac": 5881,
      "sec": 5882,
      "Ġgarant": 5883,
      "Ġconflic": 5884,
      "Ġsave": 5885,
      "PC": 5886,
      "stract": 5887,
      "poch": 5888,
      "Return": 5889,
      "Ġsche": 5890,
      "ĠDesde": 5891,
      "Ġfundament": 5892,
      "ĠSir": 5893,
      "Ġrealidad": 5894,
      "Ġseman": 5895,
      "service": 5896,
      "/>": 5897,
      "Ġretr": 5898,
      "yen": 5899,
      "ÄŁ": 5900,
      "acy": 5901,
      "Ġseis": 5902,
      "Filter": 5903,
      "æı": 5904,
      "åĻ": 5905,
      "Ġscript": 5906,
      "ä¼ļ": 5907,
      "Ġwr": 5908,
      "Ġregular": 5909,
      "Ġprevious": 5910,
      "Ġfra": 5911,
      "Ġwife": 5912,
      "cker": 5913,
      "examples": 5914,
      "ĠfÃŃs": 5915,
      "License": 5916,
      "UB": 5917,
      "Ġ22": 5918,
      "ĠllegÃ³": 5919,
      "Ġjson": 5920,
      "Ġproductos": 5921,
      "Ġconc": 5922,
      "Ġpros": 5923,
      "æ¯": 5924,
      "ĠvÃŃ": 5925,
      "?.": 5926,
      "ĠpÃºblico": 5927,
      "ĠPort": 5928,
      "Do": 5929,
      "Tag": 5930,
      "Ġlearn": 5931,
      "ferencia": 5932,
      "lation": 5933,
      "find": 5934,
      "ç«": 5935,
      "yendo": 5936,
      "EM": 5937,
      "endido": 5938,
      "Ġsupported": 5939,
      "onas": 5940,
      "Ġcasos": 5941,
      "ĠCall": 5942,
      "ĠISBN": 5943,
      "ĠFrancis": 5944,
      "Ġexperiment": 5945,
      "Ġinstitu": 5946,
      "Ġconnect": 5947,
      "Ġdefine": 5948,
      "å¤§": 5949,
      "ancias": 5950,
      "Ġdouble": 5951,
      "jes": 5952,
      "ernel": 5953,
      "Ġcross": 5954,
      "curity": 5955,
      "Ġlig": 5956,
      "ĠSc": 5957,
      "Ġdistint": 5958,
      "Ġprove": 5959,
      "Ġ![": 5960,
      "iddleware": 5961,
      "Ġconnection": 5962,
      "ĠLond": 5963,
      "ffff": 5964,
      "Ã¢": 5965,
      "Ġmec": 5966,
      "Ġwatch": 5967,
      "Ġtran": 5968,
      "æľ¬": 5969,
      "ican": 5970,
      "Ġbecome": 5971,
      "ĠParam": 5972,
      "Ġcondu": 5973,
      "ializer": 5974,
      "cim": 5975,
      "Address": 5976,
      "rt": 5977,
      "Ġtur": 5978,
      "Ġmucha": 5979,
      "headers": 5980,
      "amas": 5981,
      "Ġinstant": 5982,
      "Ġcuyo": 5983,
      "Ġavoid": 5984,
      "ĠRepÃºblica": 5985,
      "Ac": 5986,
      "Ġces": 5987,
      "ÑĢÐ°Ð": 5988,
      "Lay": 5989,
      "cepto": 5990,
      "Child": 5991,
      "52": 5992,
      "ĠANY": 5993,
      "Ġproblema": 5994,
      "Ġelementos": 5995,
      "ULT": 5996,
      "non": 5997,
      "ĠUtil": 5998,
      "commit": 5999,
      "å¯¹": 6000,
      "ĠlÃŃnea": 6001,
      "cons": 6002,
      "illos": 6003,
      "enty": 6004,
      "ĠÃ©t": 6005,
      "iembre": 6006,
      "Ġaire": 6007,
      "uos": 6008,
      "ĠresoluciÃ³n": 6009,
      "brero": 6010,
      "Ġhope": 6011,
      "Ġmort": 6012,
      "stit": 6013,
      "çĲ": 6014,
      "Ġhur": 6015,
      "Ġtuv": 6016,
      "Ġfem": 6017,
      "Task": 6018,
      "Ġfellow": 6019,
      "ÃŃamos": 6020,
      "Ġsymbol": 6021,
      "GX": 6022,
      "Ġincluso": 6023,
      "entry": 6024,
      "Ġnave": 6025,
      "ÃŃsticas": 6026,
      "ãĤ¹": 6027,
      "Ah": 6028,
      "Ġalone": 6029,
      "nes": 6030,
      "transform": 6031,
      "Ġpract": 6032,
      "Ġmultiple": 6033,
      "Ġserie": 6034,
      "=\"#": 6035,
      "apa": 6036,
      "åĻ¨": 6037,
      "meta": 6038,
      "ĠKing": 6039,
      "ÑĤÐ¾": 6040,
      "ĠatenciÃ³n": 6041,
      "iance": 6042,
      "ĠOf": 6043,
      "Ġfacil": 6044,
      "51": 6045,
      "Ġsav": 6046,
      "stats": 6047,
      "Ġable": 6048,
      "ianos": 6049,
      "çĤ": 6050,
      "Fact": 6051,
      "ecen": 6052,
      "Ġcreated": 6053,
      "Ġappend": 6054,
      "ĠAfter": 6055,
      "Ġseguir": 6056,
      "ema": 6057,
      "SIZE": 6058,
      "prototype": 6059,
      "ĠrÃŃo": 6060,
      "uit": 6061,
      "utos": 6062,
      "off": 6063,
      "Ġremove": 6064,
      "Ġĉĉĉĉĉĉĉĉ": 6065,
      "Est": 6066,
      "book": 6067,
      "Ġsangre": 6068,
      "encial": 6069,
      "Ġbelieve": 6070,
      "amen": 6071,
      "Ġcuad": 6072,
      "ĠproducciÃ³n": 6073,
      "Ġmens": 6074,
      "note": 6075,
      "ienen": 6076,
      "teriores": 6077,
      "Ġsalir": 6078,
      "ĠÃºltima": 6079,
      "Template": 6080,
      "multi": 6081,
      "ĠNueva": 6082,
      "[:": 6083,
      "arÃ¡n": 6084,
      "Ġstud": 6085,
      "cry": 6086,
      "rupt": 6087,
      "------": 6088,
      "Ġpropia": 6089,
      "Ġelements": 6090,
      "elas": 6091,
      "Ġlock": 6092,
      "Ġreceived": 6093,
      "END": 6094,
      "Ġbad": 6095,
      "ering": 6096,
      "ising": 6097,
      "pop": 6098,
      "Ġextre": 6099,
      "enso": 6100,
      "Url": 6101,
      "iro": 6102,
      "Ġinici": 6103,
      "EXT": 6104,
      "dest": 6105,
      "----------------------------------------------------------------": 6106,
      "Ġtill": 6107,
      "Init": 6108,
      "::{": 6109,
      "iÃ©ndose": 6110,
      "Ġreference": 6111,
      "ÃŃritu": 6112,
      "ĠArray": 6113,
      "JS": 6114,
      "deta": 6115,
      "anger": 6116,
      "ĠÂ«Â¡": 6117,
      "sm": 6118,
      "ousand": 6119,
      "71": 6120,
      "Ġdiez": 6121,
      "Sl": 6122,
      "Ġjunio": 6123,
      "ensed": 6124,
      "ĠResult": 6125,
      "Ġnone": 6126,
      "Ġespos": 6127,
      "ìĿ´": 6128,
      "Ġingen": 6129,
      "Ġllamado": 6130,
      "Ed": 6131,
      "Ġ(`": 6132,
      "Ġearth": 6133,
      "ued": 6134,
      "blog": 6135,
      "Ġrepro": 6136,
      "tab": 6137,
      "iam": 6138,
      "Ġtir": 6139,
      "Ġmere": 6140,
      "Ġoptional": 6141,
      "ë¥¼": 6142,
      "ala": 6143,
      "Max": 6144,
      "Ġaux": 6145,
      "Ġnecesidad": 6146,
      "zen": 6147,
      "itude": 6148,
      "Part": 6149,
      "Ġ23": 6150,
      "Ġfuerte": 6151,
      "Ġsen": 6152,
      "Ġou": 6153,
      "Ġfair": 6154,
      "ĠEntre": 6155,
      "runtime": 6156,
      "break": 6157,
      "rar": 6158,
      "maps": 6159,
      "ĠGobierno": 6160,
      "center": 6161,
      ".=": 6162,
      "Ġgovern": 6163,
      "ĠSoci": 6164,
      "Ġhorr": 6165,
      "ĠLog": 6166,
      "Ð¾Ð¶": 6167,
      "Ġhaciendo": 6168,
      "Ġinc": 6169,
      "å¿": 6170,
      "ecute": 6171,
      "Ġimpres": 6172,
      "erous": 6173,
      "Ġmedida": 6174,
      "support": 6175,
      "global": 6176,
      "mej": 6177,
      "ĠacompaÃ±": 6178,
      "ìĬ": 6179,
      "Ġhol": 6180,
      "Ġsitio": 6181,
      "JSON": 6182,
      "ë¡": 6183,
      "Ġwhy": 6184,
      "ĠLL": 6185,
      "ãģ¦": 6186,
      "tensor": 6187,
      "Ġprior": 6188,
      "Ġamigos": 6189,
      "ÛĮ": 6190,
      "Ġbenefic": 6191,
      "Ġayuda": 6192,
      "Ġdear": 6193,
      "ĠJosÃ©": 6194,
      "ĠEN": 6195,
      "ĠEX": 6196,
      "Ġfuerzas": 6197,
      "Ġedad": 6198,
      "Ġcontains": 6199,
      "Write": 6200,
      "ini": 6201,
      "Ġinterior": 6202,
      "Ġcut": 6203,
      "Ġlive": 6204,
      "Ġenfermed": 6205,
      "Ġdul": 6206,
      "ä»¬": 6207,
      "Ġchanges": 6208,
      "ĠningÃºn": 6209,
      "æĽ": 6210,
      "quis": 6211,
      "aya": 6212,
      "ĠAnton": 6213,
      "Ġconduct": 6214,
      "forma": 6215,
      "Ġfriends": 6216,
      "Ġnaturaleza": 6217,
      "SL": 6218,
      "uid": 6219,
      "Ġjuego": 6220,
      "Ġacer": 6221,
      "ÃŃstica": 6222,
      "Ġnecessary": 6223,
      "IF": 6224,
      "Ġ26": 6225,
      "SC": 6226,
      "Ġpose": 6227,
      "Ġfailed": 6228,
      "dist": 6229,
      "Ġdestac": 6230,
      "Ġkeys": 6231,
      "Ġdoubt": 6232,
      "mock": 6233,
      "Ġcomponent": 6234,
      "ĠCam": 6235,
      "Ġencontrar": 6236,
      "Ġdele": 6237,
      "Ġhers": 6238,
      "ierta": 6239,
      "Ġmateria": 6240,
      "Ġsizeof": 6241,
      "ìĹĲ": 6242,
      "Ġgone": 6243,
      "Ġfunctions": 6244,
      "Ġnuevos": 6245,
      "rench": 6246,
      "comple": 6247,
      "that": 6248,
      "Ġdraw": 6249,
      "91": 6250,
      "Ġthousand": 6251,
      "Ġconserv": 6252,
      "bor": 6253,
      "ĠHab": 6254,
      "ford": 6255,
      "Ġmayo": 6256,
      "see": 6257,
      "points": 6258,
      "ĠFrom": 6259,
      "DN": 6260,
      "Ġsudden": 6261,
      "sql": 6262,
      "tils": 6263,
      "ĠSecret": 6264,
      "came": 6265,
      "Ġvino": 6266,
      "parameters": 6267,
      "Ġmedios": 6268,
      "Ġpreocup": 6269,
      "æŀľ": 6270,
      "Local": 6271,
      "Ġhemos": 6272,
      "Ġhonor": 6273,
      "ipe": 6274,
      "Ġacross": 6275,
      "Ġpuedo": 6276,
      "Ġorigin": 6277,
      "ĠparecÃŃa": 6278,
      "ĠìĿ": 6279,
      "tonces": 6280,
      "Ġ\"#": 6281,
      "decl": 6282,
      "Ġjulio": 6283,
      "bf": 6284,
      "ĠcÃ©l": 6285,
      "Ġcomprom": 6286,
      "xico": 6287,
      "NAME": 6288,
      "åĲĮ": 6289,
      "AGE": 6290,
      "ĠdiÃ³": 6291,
      "Ġisla": 6292,
      "ĠWITH": 6293,
      "Ġprincipios": 6294,
      "align": 6295,
      "Ġcombin": 6296,
      "Process": 6297,
      "Ġespecialmente": 6298,
      "Ġfrances": 6299,
      "Ġdescubr": 6300,
      "}\"": 6301,
      "ĠJo": 6302,
      "Ġrow": 6303,
      "ende": 6304,
      "Metadata": 6305,
      "Ġmais": 6306,
      "Ġimportantes": 6307,
      "Ġdio": 6308,
      "Ġfirm": 6309,
      "arc": 6310,
      "Ġreplied": 6311,
      "aco": 6312,
      "è¨": 6313,
      "Ġnecesario": 6314,
      "Ġbehind": 6315,
      "ĠenseÃ±": 6316,
      "Ġincor": 6317,
      "ĠFern": 6318,
      "berg": 6319,
      "tempt": 6320,
      "Ġconvirt": 6321,
      "Ġdolor": 6322,
      "Ob": 6323,
      "Identifier": 6324,
      "ĠProm": 6325,
      "Ġbelow": 6326,
      "Ġaxis": 6327,
      "embers": 6328,
      "Ġconqu": 6329,
      "Ġinternal": 6330,
      "Ġmercado": 6331,
      "Ġimportancia": 6332,
      "CC": 6333,
      "çĲĨ": 6334,
      "Ġcup": 6335,
      "Ġespec": 6336,
      "å®ĥ": 6337,
      "ĠAct": 6338,
      "Ġdetails": 6339,
      "Vari": 6340,
      "ãģ¨": 6341,
      "element": 6342,
      "Ġencuentra": 6343,
      "MO": 6344,
      "free": 6345,
      "ĠÃ©x": 6346,
      "ãģ¾ãģĻ": 6347,
      "collection": 6348,
      "éĻ": 6349,
      "Ġsiguientes": 6350,
      "zer": 6351,
      "ĠJes": 6352,
      "Ġgirl": 6353,
      "bg": 6354,
      "åī": 6355,
      "ĠMart": 6356,
      "Ġrob": 6357,
      "Ġresultado": 6358,
      "Ġhistor": 6359,
      "else": 6360,
      "ĠprÃ³": 6361,
      "æĬ": 6362,
      "ìĿĦ": 6363,
      "ĠGer": 6364,
      "Ġvirtud": 6365,
      "iesen": 6366,
      "Ġ####": 6367,
      "ports": 6368,
      "Schema": 6369,
      "FOR": 6370,
      "Ġvin": 6371,
      "Ġattention": 6372,
      "Bytes": 6373,
      "Ġsenci": 6374,
      "Ġbos": 6375,
      "PORT": 6376,
      "ĠEt": 6377,
      "Ġduda": 6378,
      "trÃ¡s": 6379,
      "Ġìŀ": 6380,
      "ÃŃfico": 6381,
      "Ġaltern": 6382,
      "Ġcoc": 6383,
      "ubern": 6384,
      "ianza": 6385,
      "uelo": 6386,
      "blob": 6387,
      "ĠÐ±": 6388,
      "Ġaffect": 6389,
      "tera": 6390,
      "Ġlibrary": 6391,
      "Ġambos": 6392,
      "ude": 6393,
      "ĠFel": 6394,
      "Ġejecut": 6395,
      "Ã¡cter": 6396,
      "ively": 6397,
      "Ġlord": 6398,
      "Args": 6399,
      "Ġheld": 6400,
      "è½": 6401,
      "ĠMat": 6402,
      "001": 6403,
      "grÃ¡": 6404,
      "Ġray": 6405,
      "Act": 6406,
      "ians": 6407,
      "Ġmiles": 6408,
      "Ġsix": 6409,
      "pring": 6410,
      "READ": 6411,
      "safe": 6412,
      "uebl": 6413,
      "rowser": 6414,
      "ĠAngular": 6415,
      "Ġtuple": 6416,
      "band": 6417,
      "git": 6418,
      "ĠSus": 6419,
      "Ġtele": 6420,
      "Ġindeed": 6421,
      "æį®": 6422,
      "ĠMic": 6423,
      "ĠNum": 6424,
      "issues": 6425,
      "ges": 6426,
      "Ġpattern": 6427,
      "sort": 6428,
      "Ġ([#": 6429,
      "bal": 6430,
      "aring": 6431,
      "ustri": 6432,
      "viembre": 6433,
      "pas": 6434,
      "ĠcarÃ¡cter": 6435,
      "ilos": 6436,
      "oded": 6437,
      "Ġdoctor": 6438,
      "Ġhubiera": 6439,
      "Ġpermissions": 6440,
      "required": 6441,
      "Ġorient": 6442,
      "Ġconsist": 6443,
      "ĠPresidente": 6444,
      "Ġschema": 6445,
      "Ġgobern": 6446,
      "Ġmark": 6447,
      "Ġhappen": 6448,
      "cada": 6449,
      "arte": 6450,
      "Work": 6451,
      "Ġskip": 6452,
      "Ġcreo": 6453,
      "Ġmanner": 6454,
      "osto": 6455,
      "Ġcatch": 6456,
      "Ð½Ð¾": 6457,
      "Ã§a": 6458,
      "ĠSub": 6459,
      "connect": 6460,
      "pciÃ³n": 6461,
      "enden": 6462,
      "Ġedific": 6463,
      "]);": 6464,
      "Ġinmedi": 6465,
      "Ġsoul": 6466,
      "Ġtruth": 6467,
      "Ġprest": 6468,
      "Parameter": 6469,
      "ĠHere": 6470,
      "debug": 6471,
      "Ġcert": 6472,
      "Ġorigen": 6473,
      "æ¨¡": 6474,
      "Ġprefix": 6475,
      "Ġscho": 6476,
      "ĠWARRAN": 6477,
      "Ġpudo": 6478,
      "gt": 6479,
      "Container": 6480,
      "RES": 6481,
      "PD": 6482,
      "ĠRey": 6483,
      "voke": 6484,
      "Mock": 6485,
      "Ġbecame": 6486,
      "Ġfer": 6487,
      "Ġevol": 6488,
      "Ã³nde": 6489,
      "tion": 6490,
      "Ġaccord": 6491,
      "ĠOut": 6492,
      "lb": 6493,
      "Ġalta": 6494,
      "Ġoficial": 6495,
      "'d": 6496,
      "iest": 6497,
      "Ġseptiembre": 6498,
      "Ġfont": 6499,
      "Ġfuese": 6500,
      "ĠSE": 6501,
      "Ġentire": 6502,
      "Ġsociales": 6503,
      "Ġclas": 6504,
      "Ġfront": 6505,
      "Async": 6506,
      "handle": 6507,
      ")))": 6508,
      "Ġmaster": 6509,
      "ops": 6510,
      "ĠregiÃ³n": 6511,
      "Ġimpro": 6512,
      "Ġignor": 6513,
      "FO": 6514,
      "Ġmaking": 6515,
      "ciendo": 6516,
      "pecial": 6517,
      "ĠAlgun": 6518,
      "Ġanswer": 6519,
      "Ġvul": 6520,
      "Ġreq": 6521,
      "Ġllama": 6522,
      "ĠDurante": 6523,
      "Ġslow": 6524,
      "izes": 6525,
      "ham": 6526,
      "Entry": 6527,
      "ĠTom": 6528,
      "ocus": 6529,
      "Ġcara": 6530,
      "çŃ": 6531,
      "Ġfeatures": 6532,
      "Ġready": 6533,
      "ĠEuropea": 6534,
      "($": 6535,
      "Direct": 6536,
      "Ġcantidad": 6537,
      "![": 6538,
      "Ġwonder": 6539,
      "skip": 6540,
      "fc": 6541,
      "Ġbir": 6542,
      "Ġtriste": 6543,
      "128": 6544,
      "QU": 6545,
      "Ġacc": 6546,
      "Action": 6547,
      "Ġbased": 6548,
      "full": 6549,
      "pit": 6550,
      "entic": 6551,
      "ĠLic": 6552,
      "Ġbusiness": 6553,
      "ĠacciÃ³n": 6554,
      "åħ¥": 6555,
      "Ġmemoria": 6556,
      "zy": 6557,
      "ĠçļĦ": 6558,
      "uture": 6559,
      "ERT": 6560,
      "Ġmoral": 6561,
      "ustria": 6562,
      "~~": 6563,
      "Ġbot": 6564,
      "Ġtag": 6565,
      "Ġbed": 6566,
      "Ġsacr": 6567,
      "bers": 6568,
      "Ã´": 6569,
      "ĠBAS": 6570,
      "ĠFile": 6571,
      "Ġindividual": 6572,
      "han": 6573,
      "Ġbrill": 6574,
      "entials": 6575,
      "Ġprefer": 6576,
      "extra": 6577,
      "Handle": 6578,
      "Ġobjects": 6579,
      "ĠUN": 6580,
      "Ġmonth": 6581,
      "Ġrema": 6582,
      "inado": 6583,
      "reet": 6584,
      "Ġgas": 6585,
      "Ġformas": 6586,
      "ãģĦ": 6587,
      "Ġexamin": 6588,
      "Ġ['": 6589,
      "Ġbig": 6590,
      "ÃŃd": 6591,
      "Ġdistingu": 6592,
      "Column": 6593,
      "uge": 6594,
      "Ġtrop": 6595,
      "inc": 6596,
      "Ġsemej": 6597,
      "ĠAuth": 6598,
      "ĠParÃŃs": 6599,
      "Record": 6600,
      "ĠâĢĵ": 6601,
      "Ġapply": 6602,
      "Ġfamily": 6603,
      "Ġsilenci": 6604,
      "åĩº": 6605,
      "Ġcommit": 6606,
      "Ġata": 6607,
      "ulta": 6608,
      "ocr": 6609,
      "Ġfac": 6610,
      "Ġases": 6611,
      "Ġarre": 6612,
      "ĠIV": 6613,
      "inen": 6614,
      "Ġpartido": 6615,
      "arla": 6616,
      "ĠAunque": 6617,
      "don": 6618,
      "Ġoverride": 6619,
      "Ġtrata": 6620,
      "å°±": 6621,
      "Ġ****": 6622,
      "Ġking": 6623,
      "Ġpier": 6624,
      "âĶģ": 6625,
      "render": 6626,
      "Op": 6627,
      "ĠTur": 6628,
      "OW": 6629,
      "venciÃ³n": 6630,
      "Ġlost": 6631,
      "Ġfat": 6632,
      "Ġhermano": 6633,
      "VE": 6634,
      "inct": 6635,
      "ĠcomenzÃ³": 6636,
      "Ġdemas": 6637,
      "Ġobjetivo": 6638,
      "Ð»Ñı": 6639,
      "Ġsint": 6640,
      "components": 6641,
      "Ġterror": 6642,
      "Option": 6643,
      "Ġfeature": 6644,
      "IB": 6645,
      "she": 6646,
      "Ġ---": 6647,
      "Ġ\"$": 6648,
      "(--": 6649,
      "uses": 6650,
      "Ġmoney": 6651,
      "symbol": 6652,
      "Ġfine": 6653,
      "memory": 6654,
      "Ġelev": 6655,
      "loss": 6656,
      "Ġretir": 6657,
      "Ġwor": 6658,
      "Ġnovel": 6659,
      "amble": 6660,
      "Ãºt": 6661,
      "Ġaprob": 6662,
      "ĠFrench": 6663,
      "Ġfuture": 6664,
      "edding": 6665,
      "But": 6666,
      "Ã©ase": 6667,
      "Ġsuelo": 6668,
      "Ġmarzo": 6669,
      "Func": 6670,
      "java": 6671,
      "Ġsufr": 6672,
      "frica": 6673,
      "genes": 6674,
      "ulaciÃ³n": 6675,
      "Ġfondo": 6676,
      "ĠâĢĻ": 6677,
      "direct": 6678,
      "Ġreb": 6679,
      "Ġran": 6680,
      "Ġhacen": 6681,
      "Web": 6682,
      "Ġlines": 6683,
      "Ġ\"\\": 6684,
      "ald": 6685,
      "agu": 6686,
      "lette": 6687,
      "Ġlooking": 6688,
      "hes": 6689,
      "Ġcient": 6690,
      "plugin": 6691,
      "Ġton": 6692,
      "Ġjava": 6693,
      "ĠdecÃŃa": 6694,
      "Fe": 6695,
      "insert": 6696,
      "models": 6697,
      "ueblos": 6698,
      "irÃ¡": 6699,
      "ĠMil": 6700,
      "Ġremember": 6701,
      "chn": 6702,
      "uestas": 6703,
      "ttp": 6704,
      "account": 6705,
      "ĠKey": 6706,
      "Ġoctubre": 6707,
      "AST": 6708,
      "enn": 6709,
      "Ġok": 6710,
      "Ġlengua": 6711,
      "ĠSw": 6712,
      "NE": 6713,
      "ĠcÃ³d": 6714,
      "Ġpermite": 6715,
      "ACK": 6716,
      "ingly": 6717,
      "Ġnegro": 6718,
      "arÃ©": 6719,
      "PAR": 6720,
      "ĠDeb": 6721,
      "ĠRegl": 6722,
      "KEY": 6723,
      "Ġtit": 6724,
      "Ġinterpret": 6725,
      "?...": 6726,
      "GB": 6727,
      "Ġbon": 6728,
      "ĠVI": 6729,
      "Ġpid": 6730,
      "users": 6731,
      "Ġattempt": 6732,
      "!(\"": 6733,
      "Ġaliment": 6734,
      "Ġdiffic": 6735,
      "Ġflags": 6736,
      "adow": 6737,
      "endas": 6738,
      "Ġprem": 6739,
      "ĠinterÃ©s": 6740,
      "none": 6741,
      "Ġcred": 6742,
      "callback": 6743,
      "Ġnoviembre": 6744,
      "riente": 6745,
      "iction": 6746,
      "Ġfoot": 6747,
      "logo": 6748,
      ".[": 6749,
      "sole": 6750,
      "Ġkn": 6751,
      "ĠSystem": 6752,
      "Ġcontempl": 6753,
      "Ġapl": 6754,
      "Ġasegur": 6755,
      "åŃĺ": 6756,
      "lev": 6757,
      "Ãºblic": 6758,
      "çº": 6759,
      "Ġemp": 6760,
      "Ġmenor": 6761,
      "Ġsteps": 6762,
      "APTER": 6763,
      "cher": 6764,
      "Ġvector": 6765,
      "Ġital": 6766,
      "Values": 6767,
      "Ġps": 6768,
      "Ġheaders": 6769,
      "ilidad": 6770,
      "Ġadv": 6771,
      "Ġprogramas": 6772,
      "\").": 6773,
      "rio": 6774,
      "uk": 6775,
      "Ġdorm": 6776,
      "ĠPaul": 6777,
      "Vector": 6778,
      "imple": 6779,
      "Ġbring": 6780,
      "Ġwritten": 6781,
      "Ġcity": 6782,
      "Ġcases": 6783,
      "ĠettÃ¤": 6784,
      "Ġalred": 6785,
      "mission": 6786,
      "ĠValueError": 6787,
      "Ġescap": 6788,
      "Ð°Ðº": 6789,
      "Ġdirectly": 6790,
      "Ġtenido": 6791,
      "ĠÐ²Ð¸": 6792,
      "Ġagreed": 6793,
      "Label": 6794,
      "SION": 6795,
      "łģ": 6796,
      "Ġtex": 6797,
      "Hub": 6798,
      "izada": 6799,
      "Ġtowards": 6800,
      "Ġlogger": 6801,
      "ardo": 6802,
      "Ġmethods": 6803,
      "ming": 6804,
      "cious": 6805,
      "Ġviaje": 6806,
      "èĩª": 6807,
      "Ġmaest": 6808,
      "inf": 6809,
      "orith": 6810,
      "Link": 6811,
      "Ġadditional": 6812,
      "Ġdesap": 6813,
      "ĠArgs": 6814,
      "rust": 6815,
      "inar": 6816,
      "Ġperhaps": 6817,
      "settings": 6818,
      "cidas": 6819,
      "cut": 6820,
      "ea": 6821,
      "kin": 6822,
      "cing": 6823,
      "Ġgrave": 6824,
      "Ġspecial": 6825,
      "what": 6826,
      "Ġacerca": 6827,
      "ĠÑĤ": 6828,
      "Ġtent": 6829,
      "Ġtown": 6830,
      "ĠPedro": 6831,
      "VK": 6832,
      "txt": 6833,
      "ĠDirect": 6834,
      "ĠØ": 6835,
      "Ġoccas": 6836,
      "Ġcomme": 6837,
      "512": 6838,
      "Hel": 6839,
      "ez": 6840,
      "Ġhier": 6841,
      "Ġ'@": 6842,
      "Ġgracias": 6843,
      "æĿ¥": 6844,
      "'ve": 6845,
      "ĠId": 6846,
      "ĠMundial": 6847,
      "Ġ28": 6848,
      "Ġunsigned": 6849,
      "cb": 6850,
      "Ġespect": 6851,
      "Ġplata": 6852,
      "Ġreconoci": 6853,
      ";,": 6854,
      "ĠDr": 6855,
      "ĠĠĠĠĠĠĠĠĠĠĠĠĠĠĠĠĠĠĠĠĠĠĠĠĠĠĠĠĠĠĠĠĠĠĠĠĠĠĠ": 6856,
      "close": 6857,
      "ĠAND": 6858,
      "Ġviejo": 6859,
      "ĠEntonces": 6860,
      "Ġadministr": 6861,
      "Ġrespuesta": 6862,
      "Ġmock": 6863,
      "Ġ!==": 6864,
      "éĢļ": 6865,
      "Ġaquellas": 6866,
      "æľĢ": 6867,
      "rate": 6868,
      "Ġallowed": 6869,
      "Ġconocido": 6870,
      "images": 6871,
      "Ġcart": 6872,
      "Ġcalls": 6873,
      "pkg": 6874,
      "application": 6875,
      "}\\": 6876,
      "Ġparts": 6877,
      "Ġbisan": 6878,
      "roid": 6879,
      "uros": 6880,
      "Ġhabia": 6881,
      "ĠForm": 6882,
      "._]": 6883,
      "Ġdedic": 6884,
      "otes": 6885,
      "ĠBer": 6886,
      "ĠMÃ©xico": 6887,
      "ÃŃsimo": 6888,
      "Ġsuces": 6889,
      "agement": 6890,
      "Ġ'./": 6891,
      "ç¬": 6892,
      "Literal": 6893,
      "Ġsue": 6894,
      "crit": 6895,
      "etime": 6896,
      "Ġprevent": 6897,
      "swagger": 6898,
      "Change": 6899,
      "rera": 6900,
      "zones": 6901,
      "contin": 6902,
      "ualmente": 6903,
      "ĠJust": 6904,
      "ook": 6905,
      "Ġlista": 6906,
      "Ġ40": 6907,
      "\"></": 6908,
      "Ġabril": 6909,
      "Ġtests": 6910,
      "visiÃ³n": 6911,
      "Resol": 6912,
      "ĠRem": 6913,
      "Ġpaci": 6914,
      "ĠpolÃŃticas": 6915,
      "register": 6916,
      "ãĥĪ": 6917,
      "itaciÃ³n": 6918,
      "Ġbox": 6919,
      "ë¡ľ": 6920,
      "Ġsession": 6921,
      "Ġcentral": 6922,
      "ĠBase": 6923,
      "Ġvoluntad": 6924,
      "tom": 6925,
      "Ġpien": 6926,
      "lines": 6927,
      "Ġdra": 6928,
      "Ġenero": 6929,
      "\")]": 6930,
      "fficient": 6931,
      "ĠFrancisco": 6932,
      "Ġfive": 6933,
      "ĠExt": 6934,
      "click": 6935,
      "hy": 6936,
      "Ġeff": 6937,
      "jero": 6938,
      "Ġcapit": 6939,
      "è§£": 6940,
      "(`": 6941,
      "Ġdoesn": 6942,
      "Ġremain": 6943,
      "DIT": 6944,
      "OF": 6945,
      "ĠJack": 6946,
      "Ġdenomin": 6947,
      "Ġ\"\",": 6948,
      "Ġotherwise": 6949,
      "Ġalloc": 6950,
      "istics": 6951,
      "Ġacceso": 6952,
      "Ġcondition": 6953,
      "Ag": 6954,
      "imen": 6955,
      "Body": 6956,
      "Ġprotocol": 6957,
      "ucle": 6958,
      "ughter": 6959,
      "ĠMarÃŃa": 6960,
      "Ġtipos": 6961,
      "Ġpueda": 6962,
      "Ġ27": 6963,
      "begin": 6964,
      "Interface": 6965,
      "unst": 6966,
      "Ġrend": 6967,
      "ĠDoc": 6968,
      "ĠÃ©ste": 6969,
      "Ġfamiliar": 6970,
      "ĠfÃ¡cil": 6971,
      "Ġherself": 6972,
      "Well": 6973,
      "Ġpueblos": 6974,
      "Ġspace": 6975,
      "trace": 6976,
      "Ġvivir": 6977,
      "columns": 6978,
      "Ġloss": 6979,
      "entemente": 6980,
      "åĲİ": 6981,
      "rad": 6982,
      "sig": 6983,
      "Ġarqu": 6984,
      "Ġpresencia": 6985,
      "elem": 6986,
      "uestos": 6987,
      "Ġequal": 6988,
      "Ã¡lisis": 6989,
      "Ġhus": 6990,
      "licenses": 6991,
      "fill": 6992,
      "expr": 6993,
      "Ġpuso": 6994,
      "Ġfab": 6995,
      "Ġsuerte": 6996,
      "shal": 6997,
      "Debug": 6998,
      "Ġcold": 6999,
      "COM": 7000,
      "spec": 7001,
      "Ġmach": 7002,
      "âĶģâĶģ": 7003,
      "ĠPath": 7004,
      "lamento": 7005,
      "sr": 7006,
      "remove": 7007,
      "axis": 7008,
      "Ġconsegu": 7009,
      "Ġswitch": 7010,
      "à¸": 7011,
      "clos": 7012,
      "Ġvideo": 7013,
      "Ġhours": 7014,
      "Ġboca": 7015,
      "Ġresultados": 7016,
      "Enc": 7017,
      "Ġignore": 7018,
      "ĠquerÃŃa": 7019,
      "Ġhath": 7020,
      "Ġcy": 7021,
      "ÃŃcula": 7022,
      "Ġnorte": 7023,
      "ç´": 7024,
      "Ġeen": 7025,
      "Ġimplementation": 7026,
      "shared": 7027,
      "ĠtÃ©rmino": 7028,
      "stat": 7029,
      "Ġcompat": 7030,
      "features": 7031,
      "native": 7032,
      "Ġtranqu": 7033,
      "Foot": 7034,
      "limit": 7035,
      "Ġdiscover": 7036,
      "Ġbrother": 7037,
      "è¿ĩ": 7038,
      "Ġub": 7039,
      "creen": 7040,
      "Ġregister": 7041,
      "Ġwind": 7042,
      "Ġimmedi": 7043,
      "ĠtenÃŃan": 7044,
      "ĠdÃ³": 7045,
      "Ġlik": 7046,
      "strucciÃ³n": 7047,
      "ĠCas": 7048,
      "Ġrequests": 7049,
      "LICENSE": 7050,
      "éĩı": 7051,
      "ady": 7052,
      "Ġnetwork": 7053,
      "Ġvas": 7054,
      "SD": 7055,
      "Ã¡ndole": 7056,
      "ĠAnt": 7057,
      "Ġvisible": 7058,
      "ãĤĮ": 7059,
      "rado": 7060,
      "éģ": 7061,
      "Ġtensor": 7062,
      "olate": 7063,
      "Ġgenerated": 7064,
      "ĠaÃ±ad": 7065,
      "ĠinvestigaciÃ³n": 7066,
      "Ġcandid": 7067,
      "Ġentrada": 7068,
      "ĠReglamento": 7069,
      "ĠCode": 7070,
      "iful": 7071,
      "impl": 7072,
      "Ġletter": 7073,
      "Ġfollowed": 7074,
      "ĠSon": 7075,
      "Route": 7076,
      "Di": 7077,
      "ĠCHAPTER": 7078,
      "Ġsuel": 7079,
      "make": 7080,
      "ĠGra": 7081,
      "Ġcooper": 7082,
      "Ġcalcul": 7083,
      "Ġamena": 7084,
      "Level": 7085,
      "omic": 7086,
      "anda": 7087,
      "rez": 7088,
      "Ġdifficult": 7089,
      "ĠprotecciÃ³n": 7090,
      "mail": 7091,
      "Ġstra": 7092,
      "notation": 7093,
      "dig": 7094,
      "Ġescl": 7095,
      "ueba": 7096,
      "Ġadelante": 7097,
      "Ġemit": 7098,
      "Ġentend": 7099,
      "ledge": 7100,
      "atas": 7101,
      "Ġtiempos": 7102,
      "Ġsays": 7103,
      "Ġclean": 7104,
      "cheduler": 7105,
      "ĠespÃŃritu": 7106,
      "Ġempresas": 7107,
      "lares": 7108,
      "ATH": 7109,
      "Ġencarg": 7110,
      "Ġinputs": 7111,
      "){": 7112,
      "ĠFix": 7113,
      "Ġvariables": 7114,
      "oro": 7115,
      "%;": 7116,
      "ICE": 7117,
      "TIES": 7118,
      "ĠÃ©xito": 7119,
      "wik": 7120,
      "Ġconta": 7121,
      "unks": 7122,
      "final": 7123,
      "session": 7124,
      "Ġapi": 7125,
      "Ġalgu": 7126,
      "Page": 7127,
      "Ã©es": 7128,
      "ĠdifÃŃ": 7129,
      "Ġmaj": 7130,
      "ĠVec": 7131,
      "Ġage": 7132,
      "Ġcoming": 7133,
      "Ġentrar": 7134,
      "Ġvirtual": 7135,
      "Min": 7136,
      "iba": 7137,
      "Ð¾Ð³": 7138,
      "ĠvolviÃ³": 7139,
      "Ġinline": 7140,
      "Ġstrings": 7141,
      "çĽ®": 7142,
      "Ġcried": 7143,
      "got": 7144,
      "idget": 7145,
      "ĠJava": 7146,
      "annels": 7147,
      "openapi": 7148,
      "Ġyield": 7149,
      "Ġtyped": 7150,
      "Ġaproxim": 7151,
      "ĠNacional": 7152,
      "ERROR": 7153,
      "allo": 7154,
      "Ġaccom": 7155,
      "ĠÏ": 7156,
      "uj": 7157,
      "Ġdeep": 7158,
      "Ġtokens": 7159,
      "cpu": 7160,
      "Ġdepart": 7161,
      "Ġmismos": 7162,
      "åĮĸ": 7163,
      "Ġtier": 7164,
      "ĠConfig": 7165,
      "atter": 7166,
      "Em": 7167,
      "Ġconcl": 7168,
      "uten": 7169,
      "ĠcuestiÃ³n": 7170,
      "Reference": 7171,
      "Ġagosto": 7172,
      "Python": 7173,
      "Ġdevelop": 7174,
      "Ġperten": 7175,
      "ĠhistÃ³r": 7176,
      "mÃ¡n": 7177,
      "win": 7178,
      "Ġvend": 7179,
      "Ġdejar": 7180,
      "Ġmonta": 7181,
      "ategy": 7182,
      "ÑĪ": 7183,
      "Ġlie": 7184,
      "Ġoportun": 7185,
      "Ã©m": 7186,
      "should": 7187,
      "Ġcuid": 7188,
      "ä»£": 7189,
      "åıĳ": 7190,
      "æķ°æį®": 7191,
      "okie": 7192,
      "Render": 7193,
      "Ġpatr": 7194,
      "cks": 7195,
      "Ð¾Ð±": 7196,
      "Ġextran": 7197,
      "Ġcarta": 7198,
      "Ġhandler": 7199,
      "oll": 7200,
      "ĠRequest": 7201,
      "Ġzona": 7202,
      "Ġestudi": 7203,
      "Ġtenemos": 7204,
      "Ãį": 7205,
      "Ġcuy": 7206,
      "Ġnombr": 7207,
      "ĠSch": 7208,
      "Ġreally": 7209,
      "Ġneeded": 7210,
      "avior": 7211,
      "Ġcontest": 7212,
      "ĠWARRANTIES": 7213,
      "Ġlejos": 7214,
      "Non": 7215,
      ">)": 7216,
      "Ġfond": 7217,
      "queue": 7218,
      "Ġrepl": 7219,
      "ĠSur": 7220,
      "ky": 7221,
      "ACE": 7222,
      "Ġhubo": 7223,
      "Ł¥": 7224,
      "orge": 7225,
      "itHub": 7226,
      "Ġavait": 7227,
      "ablo": 7228,
      "Ġimplied": 7229,
      "second": 7230,
      "Ġestilo": 7231,
      "ĠRa": 7232,
      "Ġusar": 7233,
      "tar": 7234,
      "Ġ--------": 7235,
      "Ġexisting": 7236,
      "Ġstatement": 7237,
      "xx": 7238,
      "Ġrepe": 7239,
      "angle": 7240,
      "Ġempresa": 7241,
      "Ġcrate": 7242,
      "enum": 7243,
      "IA": 7244,
      "ximo": 7245,
      "ĠPrim": 7246,
      "Ġ29": 7247,
      "à¥ĩ": 7248,
      "Ġearly": 7249,
      "Ġlady": 7250,
      "Ġperf": 7251,
      "Ġgenerate": 7252,
      "åİ": 7253,
      "tools": 7254,
      "package": 7255,
      "Ġries": 7256,
      "Ġlocation": 7257,
      "Position": 7258,
      "Pref": 7259,
      "ĠMont": 7260,
      "æĭ": 7261,
      "PRE": 7262,
      "Ġsufic": 7263,
      "lace": 7264,
      "Ġdicha": 7265,
      "æİ¥": 7266,
      "Ġsight": 7267,
      "lint": 7268,
      "atar": 7269,
      "Ġelimin": 7270,
      "Ġdress": 7271,
      "ĠCos": 7272,
      "Ġfell": 7273,
      "Ġejerc": 7274,
      "troller": 7275,
      "cmd": 7276,
      "Ġtema": 7277,
      "ATION": 7278,
      "ĠPydantic": 7279,
      "OST": 7280,
      "gas": 7281,
      "orr": 7282,
      "ĠJul": 7283,
      "Callback": 7284,
      "uccess": 7285,
      "Float": 7286,
      "Ã§Ã£o": 7287,
      "////////////////": 7288,
      "Ġsyn": 7289,
      "Ġpain": 7290,
      "amo": 7291,
      "ĠEnter": 7292,
      "layer": 7293,
      "ĠWITHOUT": 7294,
      "Mo": 7295,
      "Ġenvironment": 7296,
      "Ġconocer": 7297,
      "Ġexiste": 7298,
      "ãģª": 7299,
      "Ġbuf": 7300,
      "uela": 7301,
      "Ġeditor": 7302,
      "inner": 7303,
      "atorio": 7304,
      "Ġfuego": 7305,
      "0000000000000000": 7306,
      "ĠquiÃ©n": 7307,
      "Ġmiser": 7308,
      "section": 7309,
      "LOCK": 7310,
      "éĿ¢": 7311,
      "è¡¨": 7312,
      "Spec": 7313,
      "ç¼": 7314,
      "Ġinternacionales": 7315,
      "Ġsleep": 7316,
      "ĠLicensed": 7317,
      "ÃŃculos": 7318,
      "Ġrelaciones": 7319,
      "Tree": 7320,
      "Ġinstru": 7321,
      "Īĺ": 7322,
      "cog": 7323,
      "Ġapenas": 7324,
      "Ġdios": 7325,
      "ĠÃºltimos": 7326,
      "å±": 7327,
      "Ġeye": 7328,
      "ĠrÃ¡p": 7329,
      "Ġask": 7330,
      "Ġpuntos": 7331,
      "very": 7332,
      "Ġfurther": 7333,
      "culos": 7334,
      ">`": 7335,
      "rael": 7336,
      "though": 7337,
      "angular": 7338,
      "Ġenci": 7339,
      "Ġsector": 7340,
      "Ġreadonly": 7341,
      "Ġzij": 7342,
      "Ġpies": 7343,
      "ĠCa": 7344,
      "ĠTer": 7345,
      "Ġarms": 7346,
      "Ġruntime": 7347,
      "Ġkill": 7348,
      "Ġprogres": 7349,
      "pb": 7350,
      "Ġassoci": 7351,
      "Ġkept": 7352,
      "ĠGoogle": 7353,
      "ĠLuis": 7354,
      "Ãĵ": 7355,
      "ç±": 7356,
      "Ġflag": 7357,
      "Ġhumano": 7358,
      "ä¾ĭ": 7359,
      "Ġalias": 7360,
      "Ġobj": 7361,
      "curso": 7362,
      "Ãªme": 7363,
      "ãĥ¼ãĤ": 7364,
      "ĠSie": 7365,
      "erry": 7366,
      "Ġrode": 7367,
      "Ġcargo": 7368,
      "itter": 7369,
      "icias": 7370,
      "Ġintelig": 7371,
      "Ġ2000": 7372,
      "urrent": 7373,
      "Ġdistance": 7374,
      "Ġbusc": 7375,
      "Ġwall": 7376,
      "istic": 7377,
      "Ġspirit": 7378,
      "Ġanswered": 7379,
      "Ġbastante": 7380,
      "Ġrevel": 7381,
      "Ġbyte": 7382,
      "Invalid": 7383,
      "anim": 7384,
      "Wrap": 7385,
      "enu": 7386,
      "åĬł": 7387,
      "Ġinvent": 7388,
      "collect": 7389,
      "ĠFe": 7390,
      "ĠejÃ©rcito": 7391,
      "GE": 7392,
      "Ã³mo": 7393,
      "Ġattribute": 7394,
      "Ġoffer": 7395,
      "**:": 7396,
      "bt": 7397,
      "chunk": 7398,
      "ODO": 7399,
      "Ġaj": 7400,
      "Ġverd": 7401,
      "Ġadmit": 7402,
      "ĠMu": 7403,
      "ĠniÃ±o": 7404,
      "Ġconce": 7405,
      "izing": 7406,
      "actions": 7407,
      "slice": 7408,
      "ĠespaÃ±oles": 7409,
      "delete": 7410,
      "Ġitems": 7411,
      "eless": 7412,
      "Ġregistr": 7413,
      "Fn": 7414,
      "ĠPas": 7415,
      "æĢ§": 7416,
      "Ġconsult": 7417,
      "Dat": 7418,
      "Ġplant": 7419,
      "elled": 7420,
      "ayload": 7421,
      "167": 7422,
      "æĥ": 7423,
      "Ġregion": 7424,
      "esa": 7425,
      "Ġgrow": 7426,
      "ĠState": 7427,
      "Ġnacionales": 7428,
      "rest": 7429,
      "scope": 7430,
      "Ġworth": 7431,
      "ĠST": 7432,
      "engine": 7433,
      "ertos": 7434,
      "éľ": 7435,
      "Ġcomien": 7436,
      "Footnote": 7437,
      "osas": 7438,
      "ĠSant": 7439,
      "ĠAhora": 7440,
      "zaron": 7441,
      "bind": 7442,
      "Ġconsid": 7443,
      "Ġsola": 7444,
      "Ã©tico": 7445,
      "åħ¶": 7446,
      "ĠWhy": 7447,
      "Ġseguro": 7448,
      "Ġeverything": 7449,
      "Collection": 7450,
      "ĠEngland": 7451,
      "Ġapplicable": 7452,
      "èµ": 7453,
      "ê³": 7454,
      "Ġmuerto": 7455,
      "Ġexistencia": 7456,
      "svg": 7457,
      "Ġefectos": 7458,
      "Ġcalidad": 7459,
      "ĠSancho": 7460,
      "Ġgod": 7461,
      "Ġmakes": 7462,
      "prend": 7463,
      ",'": 7464,
      "mis": 7465,
      "Ð³": 7466,
      "Ġinstal": 7467,
      "Ptr": 7468,
      "itable": 7469,
      "hi": 7470,
      "Ġneeds": 7471,
      "Ġcuarto": 7472,
      "Ġbueno": 7473,
      "background": 7474,
      "Enum": 7475,
      "Attribute": 7476,
      "Ġpresidente": 7477,
      "Search": 7478,
      "ige": 7479,
      "private": 7480,
      "Ġissue": 7481,
      "Ġcette": 7482,
      "Ġquis": 7483,
      "Ġfranc": 7484,
      "Ġquel": 7485,
      "Ġalrededor": 7486,
      "Ġproduce": 7487,
      "agnostics": 7488,
      "Cu": 7489,
      "well": 7490,
      "Ġinvalid": 7491,
      "ĠDere": 7492,
      "Ġmarch": 7493,
      "åīį": 7494,
      "Ġterrible": 7495,
      "Ġpolic": 7496,
      "Ġcontrario": 7497,
      "send": 7498,
      "Ġleaves": 7499,
      "ĠRead": 7500,
      "PR": 7501,
      "è·": 7502,
      "Ġvelo": 7503,
      "Ġestudios": 7504,
      "Ġsometimes": 7505,
      "Ġaver": 7506,
      "Ġsed": 7507,
      "Ġwomen": 7508,
      "Execut": 7509,
      "Ġdeseo": 7510,
      "_)": 7511,
      "Ġpray": 7512,
      "strong": 7513,
      "Ġ-->": 7514,
      "di": 7515,
      "Ġbook": 7516,
      "Ġpoints": 7517,
      "amblea": 7518,
      "alidad": 7519,
      "Ð°Ð»": 7520,
      "Ġdate": 7521,
      "LS": 7522,
      "Ġans": 7523,
      "Ġfing": 7524,
      "pressed": 7525,
      "Ġei": 7526,
      "errors": 7527,
      "Ġevening": 7528,
      "Ġevents": 7529,
      "late": 7530,
      "Ġdemos": 7531,
      "ĠTH": 7532,
      "logger": 7533,
      "Ġlenguaje": 7534,
      "hidden": 7535,
      "uma": 7536,
      "ĠWindows": 7537,
      "ĠJac": 7538,
      "Ġfamos": 7539,
      "ĠPat": 7540,
      "ĠclassName": 7541,
      "ĠeducaciÃ³n": 7542,
      "pair": 7543,
      "Env": 7544,
      "Ġchanged": 7545,
      "lbum": 7546,
      "itÃ³": 7547,
      "iados": 7548,
      "zan": 7549,
      "Ġtimeout": 7550,
      "ĠInt": 7551,
      "before": 7552,
      "atado": 7553,
      "ĠInternacional": 7554,
      "Ġsense": 7555,
      "amor": 7556,
      "Ġregres": 7557,
      "pository": 7558,
      "Ġaleg": 7559,
      "iencias": 7560,
      "ferencias": 7561,
      "ç®Ĺ": 7562,
      "mur": 7563,
      "Ġ*)": 7564,
      "ĠdoÃ±a": 7565,
      "hr": 7566,
      "ĠMax": 7567,
      "Ġrich": 7568,
      "Ġcruel": 7569,
      "ĠTy": 7570,
      "ĠOl": 7571,
      "My": 7572,
      "Ġdecor": 7573,
      "prev": 7574,
      "Ġmine": 7575,
      "Ã®": 7576,
      "Ġful": 7577,
      "chron": 7578,
      "Ã¡ticos": 7579,
      "hab": 7580,
      "Ġade": 7581,
      "Ġsean": 7582,
      "ĠChina": 7583,
      "Expr": 7584,
      "æīĢ": 7585,
      "ech": 7586,
      "alpha": 7587,
      "ĠBen": 7588,
      "ĠâĢĺ": 7589,
      "ificado": 7590,
      "poner": 7591,
      "tribution": 7592,
      "ASS": 7593,
      "ĠpÃ¡r": 7594,
      "Ġoperator": 7595,
      "usercontent": 7596,
      "Ġblood": 7597,
      "Ġenga": 7598,
      "Ġmiedo": 7599,
      "aders": 7600,
      "total": 7601,
      "SET": 7602,
      "'],": 7603,
      "ĠpÃºblic": 7604,
      "ART": 7605,
      "Ġtexto": 7606,
      "Ġchain": 7607,
      "Ġpolit": 7608,
      "Ġlibros": 7609,
      "Ġmanten": 7610,
      "ITY": 7611,
      "Ġsole": 7612,
      "ĠVol": 7613,
      "Button": 7614,
      "dependencies": 7615,
      "imonio": 7616,
      "Ġfunciones": 7617,
      "onia": 7618,
      "iero": 7619,
      "Ð¶": 7620,
      "ARD": 7621,
      "fp": 7622,
      "Ġmessages": 7623,
      "ĠKIND": 7624,
      "Ġdiciendo": 7625,
      "éľĢ": 7626,
      "ãģĮ": 7627,
      "aint": 7628,
      "MAX": 7629,
      "Ġpointer": 7630,
      "Ð»Ð¸": 7631,
      "Ġmez": 7632,
      "arnos": 7633,
      "Ġsweet": 7634,
      "Ġtamb": 7635,
      "Ġproper": 7636,
      "ĠAleman": 7637,
      "ĠâĪĴ": 7638,
      "Ġsubs": 7639,
      "Ġlucha": 7640,
      "Ġunto": 7641,
      "aker": 7642,
      "Ġpocos": 7643,
      "Ġprotest": 7644,
      "ĠexpresiÃ³n": 7645,
      ">;": 7646,
      "Ġpase": 7647,
      "Ġenabled": 7648,
      "Ġhat": 7649,
      "ucion": 7650,
      "Ġciencia": 7651,
      "Ġdelante": 7652,
      "manager": 7653,
      "Ġremoved": 7654,
      "githubusercontent": 7655,
      "Ġtot": 7656,
      "Ġdisput": 7657,
      "Ġplaced": 7658,
      "Ġhumana": 7659,
      "stop": 7660,
      "âĢľ": 7661,
      "Ġraw": 7662,
      "Ġwood": 7663,
      "ĠDav": 7664,
      "lass": 7665,
      "stra": 7666,
      "proxy": 7667,
      "Ġcrear": 7668,
      "Ġolvid": 7669,
      "attle": 7670,
      "ĠFrance": 7671,
      "unid": 7672,
      "ĠcÃ³digo": 7673,
      "Ġdil": 7674,
      "ĠStr": 7675,
      "ĠEstos": 7676,
      "Ġigles": 7677,
      "Ġminutes": 7678,
      "Ġcomes": 7679,
      "Ġjoy": 7680,
      "ĠdÃ³lares": 7681,
      "ĠcÃ¡": 7682,
      "editor": 7683,
      "abs": 7684,
      "Ġdivid": 7685,
      "ĠdirecciÃ³n": 7686,
      "itÃ¤": 7687,
      "Ġnuestras": 7688,
      "ĠSegÃºn": 7689,
      "âĢĿ.": 7690,
      "VERSION": 7691,
      "'m": 7692,
      "iber": 7693,
      "ĠHo": 7694,
      "ultura": 7695,
      "hs": 7696,
      "Ġtout": 7697,
      "after": 7698,
      "vil": 7699,
      "Ġsuc": 7700,
      "rec": 7701,
      "amÃ¡s": 7702,
      "ĠHum": 7703,
      "æĽ´": 7704,
      "Ġextension": 7705,
      "ç¤": 7706,
      "rique": 7707,
      "Ġsesiones": 7708,
      "but": 7709,
      "Ġcerc": 7710,
      "orno": 7711,
      "Ġcierta": 7712,
      "àµ": 7713,
      "osos": 7714,
      "ĠLA": 7715,
      "ostro": 7716,
      "Ġpreced": 7717,
      "Ġhistory": 7718,
      "ĠpasÃ³": 7719,
      "Ã¡ticas": 7720,
      "Ġocur": 7721,
      "Ġmantener": 7722,
      "Factory": 7723,
      "Ġplain": 7724,
      "Fields": 7725,
      "ÃŃnci": 7726,
      "Ġapoy": 7727,
      "Pero": 7728,
      "Ġconsigu": 7729,
      "Ġsober": 7730,
      "Ġrealizar": 7731,
      "Ġsos": 7732,
      "Ã³ven": 7733,
      "ĠposiciÃ³n": 7734,
      "yles": 7735,
      "gine": 7736,
      "Ġmove": 7737,
      "agnostic": 7738,
      "ĠLin": 7739,
      "Ġsuperfic": 7740,
      "Ġbuscar": 7741,
      "Ġgast": 7742,
      "ecciones": 7743,
      "ĠVir": 7744,
      "Ġfecha": 7745,
      "optim": 7746,
      "Ġimagin": 7747,
      "ciente": 7748,
      "ĠHen": 7749,
      "Ġfebrero": 7750,
      "Ġespecie": 7751,
      "Ġdocumentation": 7752,
      "ĠHar": 7753,
      "Ġsigue": 7754,
      "Settings": 7755,
      "ĠOpenAPI": 7756,
      "ĠJean": 7757,
      "Ġstorage": 7758,
      "ĠReal": 7759,
      "ĠcreaciÃ³n": 7760,
      "Ġcompliance": 7761,
      "riage": 7762,
      "steps": 7763,
      "entina": 7764,
      "FAULT": 7765,
      "IST": 7766,
      "ĠLat": 7767,
      "Ġpaper": 7768,
      "ĠEj": 7769,
      "osp": 7770,
      "Ġefic": 7771,
      "acia": 7772,
      "çĤ¹": 7773,
      "pto": 7774,
      "Ġhidden": 7775,
      "Ġidi": 7776,
      "asen": 7777,
      "elÃ©": 7778,
      "Ġpubl": 7779,
      "Ġquar": 7780,
      "avo": 7781,
      "pri": 7782,
      "ague": 7783,
      "ãĢģ[": 7784,
      "Ã¹": 7785,
      "atically": 7786,
      "ĠTem": 7787,
      "ĠÃºnica": 7788,
      "iously": 7789,
      "Ġviene": 7790,
      "ĠÃ¡lbum": 7791,
      "arden": 7792,
      "Ġhusband": 7793,
      "Ġborder": 7794,
      "Ġsequence": 7795,
      "\"/>": 7796,
      "usa": 7797,
      "Ġmsg": 7798,
      "äºĽ": 7799,
      "ORD": 7800,
      "Ġdemostr": 7801,
      "tw": 7802,
      "ĠtÃ¤": 7803,
      "toBe": 7804,
      "pecif": 7805,
      "å®ŀ": 7806,
      "Ġdetect": 7807,
      "ĠMas": 7808,
      "Ð°ÑĨ": 7809,
      "ĠdecisiÃ³n": 7810,
      "Ġsugg": 7811,
      "Ġtwenty": 7812,
      "Ġciudades": 7813,
      "ring": 7814,
      "ember": 7815,
      "Ġfilos": 7816,
      "Ġconocimiento": 7817,
      "aten": 7818,
      "ieren": 7819,
      "ĠTodo": 7820,
      "127": 7821,
      "ulation": 7822,
      "ksi": 7823,
      "},{\"": 7824,
      "Ġinside": 7825,
      "Ĥ¬": 7826,
      "unn": 7827,
      "ĠdebÃŃa": 7828,
      "Ġexped": 7829,
      "ìŀ": 7830,
      "Ġmencion": 7831,
      "ÑĢÐµ": 7832,
      "Ġestad": 7833,
      "åĽŀ": 7834,
      "IE": 7835,
      "Ġpensar": 7836,
      "Ġalegr": 7837,
      "ĠPues": 7838,
      "orme": 7839,
      "ialized": 7840,
      "Ġquiet": 7841,
      "ç±»": 7842,
      "Me": 7843,
      "Only": 7844,
      "handler": 7845,
      "Ġsn": 7846,
      "Ġdestru": 7847,
      "Ġscope": 7848,
      "Ġsuffer": 7849,
      "tribuciÃ³n": 7850,
      "ĠgÃ©nero": 7851,
      "timeout": 7852,
      "zaba": 7853,
      "Vis": 7854,
      "ĠUl": 7855,
      "Ġlimitations": 7856,
      "Ġorganizaciones": 7857,
      "Port": 7858,
      "Ġvel": 7859,
      "greg": 7860,
      "xd": 7861,
      "Ġmarido": 7862,
      "modules": 7863,
      "Ġzero": 7864,
      "Ġcuent": 7865,
      "Ġquienes": 7866,
      "Ġmatr": 7867,
      "ĠMet": 7868,
      "Ġdoing": 7869,
      "cf": 7870,
      "Ġecho": 7871,
      "ĠIr": 7872,
      "Ġevitar": 7873,
      "astic": 7874,
      "notated": 7875,
      "vanced": 7876,
      "Ġ000": 7877,
      "Ġmitad": 7878,
      "ority": 7879,
      "Ġalguien": 7880,
      "Root": 7881,
      "reshold": 7882,
      "zero": 7883,
      "inn": 7884,
      "anes": 7885,
      "crimin": 7886,
      "Validation": 7887,
      "Us": 7888,
      "æĪĳä»¬": 7889,
      "Ġpensamiento": 7890,
      "Box": 7891,
      "Ġrecomend": 7892,
      "Ġdelete": 7893,
      "ĠReact": 7894,
      "upo": 7895,
      "CHE": 7896,
      "Utils": 7897,
      "Ġtienes": 7898,
      "æĸ°": 7899,
      "ÃŃculas": 7900,
      "Ãī": 7901,
      "Ã©g": 7902,
      "encoder": 7903,
      "åĨħ": 7904,
      "Ġvill": 7905,
      "Ġbackground": 7906,
      "Rel": 7907,
      "Ġtard": 7908,
      "Ġhid": 7909,
      "Ġentender": 7910,
      "Rem": 7911,
      "Ġdelic": 7912,
      "grade": 7913,
      "ĠUnless": 7914,
      "Ġpodemos": 7915,
      "Description": 7916,
      "Ã³sito": 7917,
      "Ġasc": 7918,
      "ĠjÃ³ven": 7919,
      "component": 7920,
      "Ġconstant": 7921,
      "çİ°": 7922,
      "Ġmeta": 7923,
      "change": 7924,
      "term": 7925,
      "Ġworks": 7926,
      "Ġlicense": 7927,
      "uring": 7928,
      "Ġnegr": 7929,
      "Ġnumeros": 7930,
      "ĠSanta": 7931,
      "Ġhorse": 7932,
      "amentos": 7933,
      "ĠHash": 7934,
      "ĠNi": 7935,
      "grafÃŃa": 7936,
      "Ġmid": 7937,
      "ĠPRO": 7938,
      "Ġpou": 7939,
      "çĶŁ": 7940,
      "?--": 7941,
      "Ġtypename": 7942,
      "bd": 7943,
      "Ġ31": 7944,
      "æĸĩä»¶": 7945,
      "arlette": 7946,
      "Opt": 7947,
      "Ġavan": 7948,
      "Tim": 7949,
      "Ġconcre": 7950,
      "ĠAlemania": 7951,
      "orio": 7952,
      "çĽ¸": 7953,
      "pub": 7954,
      "Ġexit": 7955,
      "Ġllamada": 7956,
      "ĠtÃŃtulo": 7957,
      "ĠpÃºblica": 7958,
      "Ġconcepto": 7959,
      "Ġjusticia": 7960,
      "Prefix": 7961,
      "Ġdescribe": 7962,
      "ĠDu": 7963,
      "Ġemper": 7964,
      "tros": 7965,
      "erram": 7966,
      "Ġ2006": 7967,
      "Ġgoverning": 7968,
      "Ġschool": 7969,
      "ĠWell": 7970,
      "aven": 7971,
      "ĠTodos": 7972,
      "Ġactividad": 7973,
      "Ġsmo": 7974,
      "Ġrelease": 7975,
      "ĠAlex": 7976,
      "ĠParis": 7977,
      "LINE": 7978,
      "cience": 7979,
      "Ġleyes": 7980,
      "Ġreached": 7981,
      "Ġ102": 7982,
      "é¢ĺ": 7983,
      "Ġdigo": 7984,
      "Ġmayores": 7985,
      "ĠcomunicaciÃ³n": 7986,
      "vue": 7987,
      "/{": 7988,
      "å¸¸": 7989,
      "Ġresto": 7990,
      "Ġdiscre": 7991,
      "ĠfrancÃ©s": 7992,
      "ĠanÃ¡lisis": 7993,
      "ands": 7994,
      "Ġactive": 7995,
      "Ġcontaining": 7996,
      "Ġmundial": 7997,
      "rect": 7998,
      "Ġplease": 7999,
      "Ġpil": 8000,
      "Ġpict": 8001,
      "acing": 8002,
      "ĠÃ©tait": 8003,
      "ĠModel": 8004,
      "ĠImper": 8005,
      "room": 8006,
      "ivity": 8007,
      "ĠBal": 8008,
      "ijote": 8009,
      "Ġforth": 8010,
      "Ġsy": 8011,
      "aka": 8012,
      "ĠahÃŃ": 8013,
      "card": 8014,
      "zando": 8015,
      "Ġsafe": 8016,
      "Ġnullptr": 8017,
      "Ġhero": 8018,
      "ialog": 8019,
      "Ġrat": 8020,
      "seq": 8021,
      "Ġactu": 8022,
      "Ġdiferencia": 8023,
      "itado": 8024,
      "asset": 8025,
      "eme": 8026,
      "Ġrid": 8027,
      "Ġgrat": 8028,
      "____": 8029,
      "ĠAntonio": 8030,
      "Ġfit": 8031,
      "STAT": 8032,
      "ê°": 8033,
      "resource": 8034,
      "ansa": 8035,
      "Ġcoloc": 8036,
      "Ġhip": 8037,
      "Ġindustri": 8038,
      "unch": 8039,
      "Ġassum": 8040,
      "ãģĵ": 8041,
      "ĠCarlos": 8042,
      "chan": 8043,
      "Ġdescon": 8044,
      "Ġimportant": 8045,
      "Ġacon": 8046,
      "ĠBO": 8047,
      "Decl": 8048,
      "Si": 8049,
      "Ġbi": 8050,
      "Ġunknown": 8051,
      "Ġchunk": 8052,
      "ÃŃp": 8053,
      "Statement": 8054,
      "design": 8055,
      "Ġgusto": 8056,
      "Ġpul": 8057,
      "iosos": 8058,
      "present": 8059,
      "Ġfle": 8060,
      "Ġsection": 8061,
      "ĠON": 8062,
      "Ġprofund": 8063,
      "Ġprovide": 8064,
      "Bound": 8065,
      "ĠTal": 8066,
      "ĠpequeÃ±o": 8067,
      "hd": 8068,
      "Ġexception": 8069,
      "Ġloop": 8070,
      "ãĥ¼ãĥ": 8071,
      "Ġvio": 8072,
      "umin": 8073,
      "Ġship": 8074,
      "ĠSil": 8075,
      "CÃ³mo": 8076,
      "Ġlect": 8077,
      "åº¦": 8078,
      "venir": 8079,
      "Ġmedic": 8080,
      "Ġcomplete": 8081,
      "Ġfore": 8082,
      "Ġonsa": 8083,
      "Shape": 8084,
      "Ð°ÑĤÐ¸": 8085,
      "fit": 8086,
      "Ġdiff": 8087,
      "Point": 8088,
      "ĠĠĠĠĠĠĠĠĠĠĠĠĠĠĠĠĠĠ": 8089,
      "Ġperder": 8090,
      "ĠInternet": 8091,
      "Ġcorte": 8092,
      "Ġhapp": 8093,
      "Ġplugin": 8094,
      "Ġconsole": 8095,
      "Â°": 8096,
      "Ø±": 8097,
      "Ġ----": 8098,
      "Ġengine": 8099,
      "Ġestructura": 8100,
      "Ġenable": 8101,
      "teen": 8102,
      "desc": 8103,
      "Ġaw": 8104,
      "Ġfigura": 8105,
      "Ġappeared": 8106,
      "Ġgreater": 8107,
      "Ġestadounid": 8108,
      "Ġpurpose": 8109,
      "Ġcomercio": 8110,
      "Ġclosed": 8111,
      "äºº": 8112,
      "çłģ": 8113,
      "ĠHel": 8114,
      "Ġstrange": 8115,
      "ĠAsamblea": 8116,
      "Ġarquitect": 8117,
      "fos": 8118,
      "Ġcrow": 8119,
      "Ġlogging": 8120,
      "Delete": 8121,
      "Row": 8122,
      "Ġmodels": 8123,
      "Ġsta": 8124,
      "ĠRun": 8125,
      "Ġexperiencia": 8126,
      ":**": 8127,
      "ĠBib": 8128,
      "arp": 8129,
      "ĠCent": 8130,
      "Ġras": 8131,
      "Dict": 8132,
      "Ġmejores": 8133,
      "Ġwrong": 8134,
      "Ġris": 8135,
      "Ġmarav": 8136,
      "Ġmesa": 8137,
      "Ġtaking": 8138,
      "Ġopts": 8139,
      "çľ": 8140,
      "Ġ::": 8141,
      "Ġprogress": 8142,
      "Device": 8143,
      "================================": 8144,
      "XX": 8145,
      "ĠEg": 8146,
      "Ġ++": 8147,
      "Ġpadres": 8148,
      "Ġmont": 8149,
      "ĠSpan": 8150,
      "celona": 8151,
      "vb": 8152,
      "}\")": 8153,
      "Ġstay": 8154,
      "Ġcluster": 8155,
      "Timeout": 8156,
      "aran": 8157,
      "connection": 8158,
      "ãģŁ": 8159,
      "uf": 8160,
      "Ġwel": 8161,
      "ĠTODO": 8162,
      "Ġcoordin": 8163,
      "Ġbrazos": 8164,
      "Ġheaven": 8165,
      "Ġesqu": 8166,
      "Ġfaith": 8167,
      "Ġanimales": 8168,
      "Ġpull": 8169,
      "è¿Ľ": 8170,
      "Ġpadding": 8171,
      "Ġstack": 8172,
      "area": 8173,
      "Ġiz": 8174,
      "Ġcambios": 8175,
      "Ġrepet": 8176,
      "ugging": 8177,
      "esÃŃa": 8178,
      "Ġmarco": 8179,
      "Ġbuilt": 8180,
      "notations": 8181,
      "æĪĸ": 8182,
      "ĵį": 8183,
      "boolean": 8184,
      "ÃŃsima": 8185,
      "itting": 8186,
      "ritÃ¡n": 8187,
      "ĠorganizaciÃ³n": 8188,
      "SA": 8189,
      "ĠclÃ¡s": 8190,
      "ifiers": 8191,
      "à¤¿": 8192,
      "sync": 8193,
      "Ġpython": 8194,
      "ĠUniversidad": 8195,
      "Ġsosten": 8196,
      "igen": 8197,
      "Ġsiete": 8198,
      "Ġllor": 8199,
      "ĠhÃ¤nen": 8200,
      "hellogithub": 8201,
      "åĲĪ": 8202,
      "avas": 8203,
      "Ġcuest": 8204,
      "azo": 8205,
      "ĠCe": 8206,
      "Ã¤t": 8207,
      "ĠjÃ³venes": 8208,
      "tach": 8209,
      "llas": 8210,
      "Ġchief": 8211,
      "ĠOnly": 8212,
      "Ġdando": 8213,
      "ftware": 8214,
      "ĠquedÃ³": 8215,
      "Ġextraordin": 8216,
      "ĠcompaÃ±ÃŃa": 8217,
      "Ġremed": 8218,
      "ony": 8219,
      "arqu": 8220,
      "Ġeres": 8221,
      "(()": 8222,
      "Case": 8223,
      "ett": 8224,
      "Ġtypedef": 8225,
      "Ġli": 8226,
      "Ġsurpr": 8227,
      "ĠcÃ©lulas": 8228,
      "Ġdram": 8229,
      "Ġequival": 8230,
      "inline": 8231,
      "Ġanun": 8232,
      "Ġsalt": 8233,
      "Ġanimal": 8234,
      "lad": 8235,
      "Ġconvent": 8236,
      "Ġseems": 8237,
      "URE": 8238,
      "BE": 8239,
      "uciones": 8240,
      "Ġprueba": 8241,
      "Ġconsol": 8242,
      "bil": 8243,
      "Ġ\"_": 8244,
      "Ġ`.": 8245,
      "Ġpuedes": 8246,
      "ĠBel": 8247,
      "ney": 8248,
      "That": 8249,
      "uous": 8250,
      "Ġveng": 8251,
      "Ġposit": 8252,
      "access": 8253,
      "ampoco": 8254,
      "Ġcurs": 8255,
      "itario": 8256,
      "Ġdesem": 8257,
      "ç¤º": 8258,
      "ailed": 8259,
      "Ġfen": 8260,
      "dez": 8261,
      "umen": 8262,
      "Ġstarted": 8263,
      "Ġblanco": 8264,
      "Ġscar": 8265,
      "Ġmoder": 8266,
      "BUG": 8267,
      "Empty": 8268,
      "Ġdit": 8269,
      "ĠItalia": 8270,
      "ĠLes": 8271,
      "found": 8272,
      "Ġfrequ": 8273,
      "esper": 8274,
      "omo": 8275,
      "storage": 8276,
      "ĠBol": 8277,
      "ogra": 8278,
      "PER": 8279,
      "Ġdific": 8280,
      "Ġenvi": 8281,
      "Ġreach": 8282,
      "Ġresist": 8283,
      "Ġdocs": 8284,
      "Import": 8285,
      "ĠprÃ¡ctica": 8286,
      "Ġinvers": 8287,
      "Ġnucle": 8288,
      "Ġplatform": 8289,
      "Ġpoeta": 8290,
      "å¼Ģ": 8291,
      "ĠNorte": 8292,
      "Ġtalk": 8293,
      "ĠCONDIT": 8294,
      "éĹ´": 8295,
      "ĠQuijote": 8296,
      "teger": 8297,
      "Ġposterior": 8298,
      "iform": 8299,
      "ĠÑĥ": 8300,
      "izados": 8301,
      "Ġgolpe": 8302,
      "Ġham": 8303,
      "Ġbind": 8304,
      "Ġpeace": 8305,
      "SQL": 8306,
      "ĠTras": 8307,
      "Ġoperations": 8308,
      "location": 8309,
      "itness": 8310,
      "Ġbeautiful": 8311,
      "anta": 8312,
      "ington": 8313,
      "Ġstrict": 8314,
      "Ġaprend": 8315,
      "save": 8316,
      "ained": 8317,
      "ĠPorque": 8318,
      "Ġlayer": 8319,
      "Ġobstante": 8320,
      "Ġcell": 8321,
      "Ġpick": 8322,
      "isp": 8323,
      "Ġhabla": 8324,
      "(\\": 8325,
      "via": 8326,
      "zco": 8327,
      "ĠComun": 8328,
      "Ġprincipalmente": 8329,
      "Ġcrit": 8330,
      "ategory": 8331,
      ">&": 8332,
      "Ġestuv": 8333,
      "Ġcolabor": 8334,
      "acters": 8335,
      "ä¹Ł": 8336,
      "Ġtemp": 8337,
      "iciales": 8338,
      "ĠCONDITIONS": 8339,
      "ĠformaciÃ³n": 8340,
      "Ġmount": 8341,
      "Ġbackend": 8342,
      "ĠBASIS": 8343,
      "Ġocho": 8344,
      "Ġdataset": 8345,
      "adem": 8346,
      "Ġservid": 8347,
      "ffers": 8348,
      "Ġopened": 8349,
      "Ġhair": 8350,
      "ĠnÃ¤": 8351,
      "ĠSup": 8352,
      "ĠJer": 8353,
      "Ġstrength": 8354,
      "å»": 8355,
      "Red": 8356,
      "some": 8357,
      "æµ": 8358,
      "Ġalguno": 8359,
      "reas": 8360,
      "ĠAS": 8361,
      "ugins": 8362,
      "Ġvalores": 8363,
      "Pool": 8364,
      "ango": 8365,
      "ĠConst": 8366,
      "rank": 8367,
      "Ġexplicit": 8368,
      "pected": 8369,
      "ĠBarcelona": 8370,
      "ĠdifÃŃcil": 8371,
      "éĥ": 8372,
      "Ġtoward": 8373,
      "Ġneither": 8374,
      "Ġ60": 8375,
      "Ġantiguo": 8376,
      "èĢħ": 8377,
      "Ġdeleg": 8378,
      "show": 8379,
      "åĢ¼": 8380,
      "Ġpena": 8381,
      "hon": 8382,
      "cepciÃ³n": 8383,
      "slot": 8384,
      "'.": 8385,
      "umbr": 8386,
      "ĠĠĠĠĠĠĠĠĠĠĠĠĠĠĠĠĠĠĠĠ": 8387,
      "Ġimm": 8388,
      "Ġslight": 8389,
      "kv": 8390,
      "Ġnodes": 8391,
      "ĠWhere": 8392,
      "ĠpolÃŃtico": 8393,
      "Ġniin": 8394,
      "Ġmenudo": 8395,
      "Logger": 8396,
      "job": 8397,
      "Ġquant": 8398,
      "Ġcod": 8399,
      "Ġ<!--": 8400,
      "Ġadquir": 8401,
      "ĠField": 8402,
      "Ġdestin": 8403,
      "Ġdatabase": 8404,
      "Ġmuestra": 8405,
      "}{": 8406,
      "Ġscale": 8407,
      "Ġhast": 8408,
      "idor": 8409,
      "Ġwarn": 8410,
      "ĠNGX": 8411,
      "network": 8412,
      "Ġcontinued": 8413,
      "åºĶ": 8414,
      "Ġlang": 8415,
      "ĠTor": 8416,
      "Ġjok": 8417,
      "Ġconditions": 8418,
      "Ġmecan": 8419,
      "So": 8420,
      "åŁ": 8421,
      "cles": 8422,
      "Ġencuentran": 8423,
      "defer": 8424,
      "Ġkwargs": 8425,
      "yaml": 8426,
      "Ġsplit": 8427,
      "unal": 8428,
      "ĠText": 8429,
      "force": 8430,
      "Ill": 8431,
      "Scope": 8432,
      "ĠediciÃ³n": 8433,
      "Ġtraining": 8434,
      "Ġdas": 8435,
      "posite": 8436,
      "jeros": 8437,
      "Ġcomment": 8438,
      "Ġadapt": 8439,
      "Ġarriba": 8440,
      "éĥ¨": 8441,
      "operation": 8442,
      "Ġsys": 8443,
      "Ġrule": 8444,
      "aja": 8445,
      "Ġllegado": 8446,
      "bed": 8447,
      "Ġled": 8448,
      "ìĦľ": 8449,
      "hat": 8450,
      "ÃŃficos": 8451,
      "cell": 8452,
      "Ġfight": 8453,
      "tained": 8454,
      "Ġsample": 8455,
      "uerto": 8456,
      "Ġuseful": 8457,
      "Cap": 8458,
      "clock": 8459,
      "ĠPR": 8460,
      "ĠhabrÃŃa": 8461,
      "ĠmÃŃo": 8462,
      "Ġinsert": 8463,
      "Ġraised": 8464,
      "ĠmÃ©dico": 8465,
      "Ġconced": 8466,
      "Ġteatro": 8467,
      "Ġafirm": 8468,
      "Ġinvol": 8469,
      "Ġdependencies": 8470,
      "ĠWest": 8471,
      "Transform": 8472,
      "Ġobtener": 8473,
      "sible": 8474,
      ",âĢĶ": 8475,
      "Ġfinales": 8476,
      "cribe": 8477,
      "eps": 8478,
      "Ġmargin": 8479,
      "Ġvert": 8480,
      "Ġroll": 8481,
      "Ġcultura": 8482,
      "æ±": 8483,
      "()),": 8484,
      "ienta": 8485,
      "password": 8486,
      "filename": 8487,
      "Ġcontenido": 8488,
      "orÃŃas": 8489,
      "Ġrostro": 8490,
      "icha": 8491,
      "estos": 8492,
      "ĠRel": 8493,
      "Ġpred": 8494,
      "texto": 8495,
      "cular": 8496,
      "park": 8497,
      "bad": 8498,
      "Ġlate": 8499,
      "icle": 8500,
      "Ġbell": 8501,
      "expression": 8502,
      "Ä±n": 8503,
      "ĠOp": 8504,
      "Msg": 8505,
      "attention": 8506,
      "Ġsetting": 8507,
      "Ð½Ð¸": 8508,
      "Ġrights": 8509,
      "`](": 8510,
      "ushed": 8511,
      "Ġescape": 8512,
      "Ġcastell": 8513,
      "Ġbits": 8514,
      "Ġhoriz": 8515,
      "ĠIgles": 8516,
      "Ġparser": 8517,
      "Ġjard": 8518,
      "ĠcuÃ¡n": 8519,
      "ipos": 8520,
      "Storage": 8521,
      "Ġpropiedad": 8522,
      "airs": 8523,
      "_),": 8524,
      "ais": 8525,
      "Ġlif": 8526,
      "Ġvon": 8527,
      "Ġlleva": 8528,
      "ĠconstrucciÃ³n": 8529,
      "Ġadecu": 8530,
      "Mut": 8531,
      "cls": 8532,
      "Ġactions": 8533,
      "builder": 8534,
      "yal": 8535,
      "istraciÃ³n": 8536,
      "Ġroad": 8537,
      "Ġclaro": 8538,
      "æ¬": 8539,
      "ĠPen": 8540,
      "iÃ³d": 8541,
      "install": 8542,
      "replace": 8543,
      "Ġwild": 8544,
      "ĠTod": 8545,
      "Ġtrabajos": 8546,
      "Ġespaci": 8547,
      "Ġterritorio": 8548,
      "**,": 8549,
      "Ġfuente": 8550,
      "Ġsurg": 8551,
      "Ġintr": 8552,
      "ĠMap": 8553,
      "hal": 8554,
      "æ¡": 8555,
      "acen": 8556,
      "Memory": 8557,
      "zada": 8558,
      "acc": 8559,
      "ĠResponse": 8560,
      "estruct": 8561,
      "Like": 8562,
      "address": 8563,
      "Ġaprove": 8564,
      "Ġapartado": 8565,
      "Ġcra": 8566,
      "Ġfif": 8567,
      "ĠÃ§": 8568,
      "Ġphys": 8569,
      "Var": 8570,
      "yl": 8571,
      "Ġavent": 8572,
      "ertas": 8573,
      "Ġflex": 8574,
      "ĠRus": 8575,
      "ĠStates": 8576,
      "Loader": 8577,
      "iant": 8578,
      "Ġprovoc": 8579,
      "states": 8580,
      "ĠDem": 8581,
      "ĠHT": 8582,
      "Ġ2008": 8583,
      "Ġambiente": 8584,
      "Ġproyectos": 8585,
      "Ġsilencio": 8586,
      "plicit": 8587,
      "Ġutilizar": 8588,
      "icional": 8589,
      "pute": 8590,
      "Ġtanta": 8591,
      "Ġfuturo": 8592,
      "Ġacord": 8593,
      "Ġ2007": 8594,
      "Ġmam": 8595,
      "Ġcosta": 8596,
      "Ġclim": 8597,
      "Ġflat": 8598,
      "CTION": 8599,
      "ĠUs": 8600,
      "Ġatre": 8601,
      "Ġtrace": 8602,
      "Ġcomunidad": 8603,
      "åĬ¨": 8604,
      "erved": 8605,
      "ĠversiÃ³n": 8606,
      "ĠpÃ¡": 8607,
      "Ġpreci": 8608,
      "akes": 8609,
      "ĠeconomÃŃa": 8610,
      "Ab": 8611,
      "Ġlegisl": 8612,
      "å·¥": 8613,
      "Ġspoke": 8614,
      "NOT": 8615,
      "invalid": 8616,
      "ĠbÃ¡s": 8617,
      "Ġwat": 8618,
      "Ġdemasiado": 8619,
      "è´": 8620,
      "essed": 8621,
      "ĠCommon": 8622,
      "Ġ2005": 8623,
      "Ġimagen": 8624,
      "ĠArt": 8625,
      "ĠAmerican": 8626,
      "erd": 8627,
      "Ġoccasion": 8628,
      "Ġmigr": 8629,
      "Ġextend": 8630,
      "Ġobjetos": 8631,
      "Ġfixed": 8632,
      "Bl": 8633,
      "Ġconstruct": 8634,
      "Ġdaba": 8635,
      "Ġtyping": 8636,
      "Ġdut": 8637,
      "arca": 8638,
      "ĠSÃŃ": 8639,
      "ĠSymbol": 8640,
      "Ġ`--": 8641,
      "ĠCristo": 8642,
      "ining": 8643,
      "ĠUser": 8644,
      "ĠìŀĪ": 8645,
      "props": 8646,
      "Ġfot": 8647,
      "ĠTO": 8648,
      "Location": 8649,
      "ustration": 8650,
      "Ġinfluencia": 8651,
      "Ġderiv": 8652,
      "Ġvalidate": 8653,
      "Ġbow": 8654,
      "samples": 8655,
      "Ġ80": 8656,
      "Ġ\\\"": 8657,
      "Ġmorir": 8658,
      "Ġexists": 8659,
      "Ġdiversos": 8660,
      "Mat": 8661,
      "Prom": 8662,
      "Ġsister": 8663,
      "Ġalter": 8664,
      "ĠOh": 8665,
      "Cluster": 8666,
      "Ġmix": 8667,
      "Ġparty": 8668,
      "iner": 8669,
      "ĠLO": 8670,
      "ĠIndex": 8671,
      "Ġimmediately": 8672,
      "Ġdirection": 8673,
      "èĢĮ": 8674,
      "gi": 8675,
      "Ġcay": 8676,
      "ĠLoc": 8677,
      "Ġestamos": 8678,
      "ceeded": 8679,
      "(-": 8680,
      "Ġabajo": 8681,
      "cidad": 8682,
      "Ġmala": 8683,
      "ĠvÃŃct": 8684,
      "Ġoccup": 8685,
      "MP": 8686,
      "erve": 8687,
      "Ġrose": 8688,
      "ĠÃ¡n": 8689,
      "Stats": 8690,
      "'),": 8691,
      "Build": 8692,
      "Ġtap": 8693,
      "ĠFernando": 8694,
      "hip": 8695,
      "ĠEstas": 8696,
      "å°Ĩ": 8697,
      "Ġdiversas": 8698,
      "mult": 8699,
      "ĠOc": 8700,
      "ĠdejÃ³": 8701,
      "Ġamount": 8702,
      "Ġsujet": 8703,
      "===": 8704,
      "sample": 8705,
      "Ġrazon": 8706,
      "ĠespaÃ±ola": 8707,
      "Ġcaballero": 8708,
      "lers": 8709,
      "ĠGrupo": 8710,
      "Yo": 8711,
      "random": 8712,
      "inputs": 8713,
      "diff": 8714,
      "çŃī": 8715,
      "Ġelabor": 8716,
      "ĠVe": 8717,
      "ĠUnion": 8718,
      "Ð¾Ðº": 8719,
      "Width": 8720,
      "ĠâĶĤ": 8721,
      ">.": 8722,
      "ĠParlamento": 8723,
      "lected": 8724,
      "Ġtierras": 8725,
      "Ġabund": 8726,
      "Ġhicieron": 8727,
      "!Â»": 8728,
      "ĠReino": 8729,
      "Char": 8730,
      "Ġ{};": 8731,
      "properties": 8732,
      "ĠÙ": 8733,
      "idez": 8734,
      "Ġizquier": 8735,
      "Te": 8736,
      "fi": 8737,
      "clud": 8738,
      "Ġbelong": 8739,
      "Ġ![](": 8740,
      "unique": 8741,
      "Ġingres": 8742,
      "counter": 8743,
      "ening": 8744,
      "Ġpant": 8745,
      "Ġod": 8746,
      "ignore": 8747,
      "Ġproducto": 8748,
      "stable": 8749,
      "linux": 8750,
      "ç½ĳ": 8751,
      "Ġ[#": 8752,
      "ĠJap": 8753,
      "Ġconfigur": 8754,
      "USB": 8755,
      "ç³": 8756,
      "ĠsaliÃ³": 8757,
      "Enabled": 8758,
      "Ġcloud": 8759,
      "ĠpÃ©r": 8760,
      "Ġinn": 8761,
      "Ġcreer": 8762,
      "Ġattributes": 8763,
      "pecific": 8764,
      "Ġhappy": 8765,
      "signment": 8766,
      "Pointer": 8767,
      "Ġdispar": 8768,
      "Ġmatrix": 8769,
      "Cla": 8770,
      "Ġip": 8771,
      "idores": 8772,
      "undle": 8773,
      "ystal": 8774,
      "Policy": 8775,
      "Ġrandom": 8776,
      ")`": 8777,
      "Ġnaveg": 8778,
      "ĠmÃ©": 8779,
      "writ": 8780,
      "Ġcrecimiento": 8781,
      "Comple": 8782,
      "ĠLuego": 8783,
      "ĠMen": 8784,
      "Ġestuvo": 8785,
      "Ġfrecu": 8786,
      "ĠpÃ¡rra": 8787,
      "fb": 8788,
      "Ġvuelta": 8789,
      "Selector": 8790,
      "Ġ^": 8791,
      "ÐµÐ½Ð¸": 8792,
      "Ġdificult": 8793,
      "Ġcord": 8794,
      "otion": 8795,
      "Ġparecer": 8796,
      "Ġtesting": 8797,
      "irtual": 8798,
      "metrics": 8799,
      "ban": 8800,
      "Ġcere": 8801,
      "Depend": 8802,
      "ĠpequeÃ±a": 8803,
      "ĠmÃ¡qu": 8804,
      "ìļ©": 8805,
      "using": 8806,
      "Ġstory": 8807,
      "under": 8808,
      "åıĸ": 8809,
      "Self": 8810,
      "Ġbol": 8811,
      "Ġconden": 8812,
      "Ġincrement": 8813,
      "tras": 8814,
      "lying": 8815,
      "Ġoutside": 8816,
      "aimed": 8817,
      "Ġrub": 8818,
      "Ġka": 8819,
      "dule": 8820,
      "Ġflu": 8821,
      "Ġgentle": 8822,
      "Ġdb": 8823,
      "Ġdescend": 8824,
      "Ġasist": 8825,
      "æıĲ": 8826,
      "Ġsett": 8827,
      "ĠUnited": 8828,
      "Close": 8829,
      "menu": 8830,
      "utdown": 8831,
      "Ġensure": 8832,
      "BO": 8833,
      "EC": 8834,
      "ĠÐ·Ð°Ð": 8835,
      "cli": 8836,
      "ĠÃ¡mb": 8837,
      "Ġneigh": 8838,
      "Ġ`/": 8839,
      "labels": 8840,
      ">::": 8841,
      "ÃŃfica": 8842,
      "Ġrech": 8843,
      "ĠName": 8844,
      "Unit": 8845,
      "Ġcompany": 8846,
      "}`": 8847,
      "Ġcruz": 8848,
      "Ġautoridades": 8849,
      "document": 8850,
      "Ġlower": 8851,
      "Ġesposa": 8852,
      "').": 8853,
      "Ġprueb": 8854,
      "Ġcuestiones": 8855,
      "omet": 8856,
      "ç§į": 8857,
      "socket": 8858,
      "ĠGab": 8859,
      "ĠsabÃŃa": 8860,
      "ĠtomÃ³": 8861,
      "ae": 8862,
      "how": 8863,
      "video": 8864,
      "ĠBre": 8865,
      "ishing": 8866,
      "router": 8867,
      "ĠgestiÃ³n": 8868,
      "ĠjamÃ¡s": 8869,
      "ĠOper": 8870,
      "ĠopiniÃ³n": 8871,
      "ln": 8872,
      "may": 8873,
      "Ġprohib": 8874,
      "Ġcarry": 8875,
      "ĠAy": 8876,
      "éĹ®": 8877,
      "onal": 8878,
      "Ġbelle": 8879,
      "Ġesfuerzos": 8880,
      "WS": 8881,
      "Tool": 8882,
      "Ġcru": 8883,
      "voc": 8884,
      "Ġcore": 8885,
      "usal": 8886,
      "sequ": 8887,
      "Ġard": 8888,
      "pattern": 8889,
      "Menu": 8890,
      "rones": 8891,
      "ĠOther": 8892,
      "Ġknowledge": 8893,
      "Ġinspir": 8894,
      "Ġrecibir": 8895,
      "rip": 8896,
      "Ã¡ng": 8897,
      "Ġelle": 8898,
      "adoras": 8899,
      "real": 8900,
      "Ġentered": 8901,
      "Ġweek": 8902,
      "ĠPers": 8903,
      "Ġbeg": 8904,
      "Ġstat": 8905,
      "Ġcasas": 8906,
      "Ġvenir": 8907,
      "Ġmicro": 8908,
      "Ġdesgra": 8909,
      "Ġprecios": 8910,
      "Ġcontem": 8911,
      "ĠcooperaciÃ³n": 8912,
      "Raw": 8913,
      "Ġconcent": 8914,
      "ĠllevÃ³": 8915,
      "ĠAP": 8916,
      "ĠMac": 8917,
      "Ġsignifica": 8918,
      "Ġaccording": 8919,
      "ĠPan": 8920,
      "(__": 8921,
      "Ġprovin": 8922,
      "Ġconciencia": 8923,
      "Ġsaying": 8924,
      "ìł": 8925,
      "Document": 8926,
      "Los": 8927,
      "Ġbear": 8928,
      "ĠCab": 8929,
      "Ġrum": 8930,
      "Ġyourself": 8931,
      "Ġ>>": 8932,
      "ĠdÃ³nde": 8933,
      "Ġincom": 8934,
      "()))": 8935,
      "Ġeasy": 8936,
      "reference": 8937,
      "Ġjnp": 8938,
      "å¹¶": 8939,
      "Bar": 8940,
      "Ġbul": 8941,
      "ĠFue": 8942,
      "Ġusage": 8943,
      "Ã¼r": 8944,
      "ĠCle": 8945,
      "ĠperiÃ³d": 8946,
      "cred": 8947,
      "Ġrequer": 8948,
      "Ġthird": 8949,
      "Ġcarrera": 8950,
      "Ġideal": 8951,
      "wer": 8952,
      "à±": 8953,
      "ology": 8954,
      "åĬ¡": 8955,
      "aking": 8956,
      "à¤¨": 8957,
      "Ġposibilidad": 8958,
      "clear": 8959,
      "ìĬµ": 8960,
      "Props": 8961,
      "Ġlabels": 8962,
      "Ġcloth": 8963,
      "ĠtÃ©rminos": 8964,
      "Ġsuddenly": 8965,
      "Icon": 8966,
      "Ġtum": 8967,
      "Ġestablecer": 8968,
      "pal": 8969,
      "ĠSign": 8970,
      "ĠMÃ¡s": 8971,
      "ĠFinal": 8972,
      "Ġacciones": 8973,
      "Ġbaja": 8974,
      "Ġsqu": 8975,
      "Ã¡is": 8976,
      "ifact": 8977,
      "Ġetern": 8978,
      "ĠelectrÃ³n": 8979,
      "Ġhop": 8980,
      "ĠGal": 8981,
      "Ġrod": 8982,
      "flat": 8983,
      "ienda": 8984,
      "edes": 8985,
      "Ġreceive": 8986,
      "exo": 8987,
      "Ġacerc": 8988,
      "Ġdidn": 8989,
      "Ġautoridad": 8990,
      "Copy": 8991,
      "Ġelemento": 8992,
      "Ġquiz": 8993,
      "ĠGuerra": 8994,
      "ieved": 8995,
      "Ġrespon": 8996,
      "ams": 8997,
      "Ġimages": 8998,
      "ĠInform": 8999,
      "ĠUpdate": 9000,
      "sect": 9001,
      "Ġstructure": 9002,
      "Ġescrito": 9003,
      "ĠconvirtiÃ³": 9004,
      "forward": 9005,
      "Ġsalv": 9006,
      "Ġvigor": 9007,
      "FC": 9008,
      "Session": 9009,
      "cluster": 9010,
      "tf": 9011,
      "Ġbey": 9012,
      "Height": 9013,
      "åºı": 9014,
      "padding": 9015,
      "Ġinterval": 9016,
      "ONE": 9017,
      "ituciÃ³n": 9018,
      "ĠHistoria": 9019,
      "Ġconcern": 9020,
      "Ġmouth": 9021,
      "Ġproperties": 9022,
      "ĠQuery": 9023,
      "tuple": 9024,
      "Ġroute": 9025,
      "ellow": 9026,
      "plan": 9027,
      "ibly": 9028,
      "ancy": 9029,
      "Ġsobr": 9030,
      "Ġtrack": 9031,
      "Ġinstituciones": 9032,
      "duce": 9033,
      "Ġcarb": 9034,
      "ANT": 9035,
      "Ġtama": 9036,
      "Ġtorn": 9037,
      "Ġcontribu": 9038,
      "Listener": 9039,
      "Ġexclus": 9040,
      "cado": 9041,
      "Ġemo": 9042,
      "ĠFre": 9043,
      "Ãºp": 9044,
      "Bit": 9045,
      "Ġhog": 9046,
      "Ġocurr": 9047,
      "hood": 9048,
      "Ġaguas": 9049,
      "wood": 9050,
      "Ġblue": 9051,
      "Ġconsidered": 9052,
      "Ġincorpor": 9053,
      "Ġfabric": 9054,
      "export": 9055,
      "ander": 9056,
      "Ġformer": 9057,
      "åıĤ": 9058,
      "å®¹": 9059,
      "ponses": 9060,
      "ĠIglesia": 9061,
      "Ġvarious": 9062,
      "Ġconsecuencia": 9063,
      "§Ģ": 9064,
      "stances": 9065,
      "éļ": 9066,
      "ĠRos": 9067,
      "Connection": 9068,
      "ĠRobert": 9069,
      "ĠĠĠĠĠĠĠĠĠĠĠĠĠĠĠĠĠĠĠĠĠĠĠĠĠ": 9070,
      "Ġboat": 9071,
      "AE": 9072,
      "mic": 9073,
      "ĠdÃ©cada": 9074,
      "Ġrealmente": 9075,
      "Argument": 9076,
      "Ġsoldados": 9077,
      "Ġenfermedad": 9078,
      "Ġur": 9079,
      "ä»ĸ": 9080,
      "blocks": 9081,
      "Ġgall": 9082,
      "Internal": 9083,
      "Ġpresup": 9084,
      "Ġfeeling": 9085,
      "[-": 9086,
      "option": 9087,
      "Ġshared": 9088,
      "iedades": 9089,
      "Ġrefle": 9090,
      "Ġinher": 9091,
      "Ġ_{": 9092,
      "Ġpool": 9093,
      "Ġallows": 9094,
      "Ġaumento": 9095,
      "ĠbritÃ¡n": 9096,
      "Meta": 9097,
      "channel": 9098,
      "itudes": 9099,
      "Ġwarm": 9100,
      "ĠMientras": 9101,
      "Ġĉĉĉĉĉĉĉ": 9102,
      "Ð½Ñĭ": 9103,
      "Next": 9104,
      "ĠBrit": 9105,
      "cripciÃ³n": 9106,
      "Ġejec": 9107,
      "Configuration": 9108,
      "Ġsano": 9109,
      "Ġnamed": 9110,
      "Ġrect": 9111,
      "ĠTol": 9112,
      "ĠBas": 9113,
      "Ġliving": 9114,
      "Ġconclu": 9115,
      "utf": 9116,
      "Ġasistencia": 9117,
      "ĠProject": 9118,
      "Ġbatalla": 9119,
      "fun": 9120,
      "Ġprison": 9121,
      "tesis": 9122,
      "Ġremote": 9123,
      "Ġpeligro": 9124,
      "ìĬµëĭĪëĭ¤": 9125,
      "Allo": 9126,
      "ingle": 9127,
      "Ġcrisis": 9128,
      "Ġprimeras": 9129,
      "Ġvuestra": 9130,
      "epoch": 9131,
      "road": 9132,
      "Ġindustria": 9133,
      "ii": 9134,
      "enabled": 9135,
      "Ġole": 9136,
      "ĠOrgan": 9137,
      "Ġdeal": 9138,
      "Ã±ar": 9139,
      "Ġcharacters": 9140,
      "ĠChristian": 9141,
      "Ġoccur": 9142,
      "gado": 9143,
      "ĠRecord": 9144,
      "ionary": 9145,
      "Ġbehavior": 9146,
      "Parse": 9147,
      "Ġencima": 9148,
      "éľĢè¦ģ": 9149,
      "}/": 9150,
      "Ú©": 9151,
      "Plugin": 9152,
      "quer": 9153,
      "Job": 9154,
      "chen": 9155,
      "Ġ./": 9156,
      "Ġchurch": 9157,
      "Ġestrateg": 9158,
      "Ġ{{": 9159,
      "ĠÃģfrica": 9160,
      "Ġpretty": 9161,
      "ĠparticipaciÃ³n": 9162,
      "Ġpiedra": 9163,
      "ugust": 9164,
      "Ġgreen": 9165,
      "cidental": 9166,
      "MENT": 9167,
      "iltin": 9168,
      "Reader": 9169,
      "Ġgraph": 9170,
      "è®¡": 9171,
      "Ġprobably": 9172,
      "Ġsettings": 9173,
      "ÑĢÐ¾": 9174,
      "ugg": 9175,
      "ĠdeberÃŃa": 9176,
      "normal": 9177,
      "ĠPortug": 9178,
      "ĠPerÃº": 9179,
      "CONF": 9180,
      "Ġyouth": 9181,
      "ĠrÃ©g": 9182,
      "factory": 9183,
      "aterra": 9184,
      "Ġtall": 9185,
      "ili": 9186,
      "ifi": 9187,
      "ĠMut": 9188,
      "Ġtriun": 9189,
      "Ġaspecto": 9190,
      "unity": 9191,
      "833": 9192,
      "eur": 9193,
      "ilib": 9194,
      "Ġpresid": 9195,
      "ijk": 9196,
      "Ġfalt": 9197,
      "éĥ½": 9198,
      "Ġutter": 9199,
      "Ġperformance": 9200,
      "Ġbeyond": 9201,
      "Ġrot": 9202,
      "Socket": 9203,
      "Ġtransport": 9204,
      "Ġeffort": 9205,
      "Ġpasa": 9206,
      "Ġobjetivos": 9207,
      "Ġones": 9208,
      "adev": 9209,
      "eddings": 9210,
      "learn": 9211,
      "Ġhealth": 9212,
      "Ġemploy": 9213,
      "ĠCong": 9214,
      "Ġpoderos": 9215,
      "Ġmusic": 9216,
      "ĠeconÃ³mica": 9217,
      "drop": 9218,
      "Ġama": 9219,
      "Ġsingular": 9220,
      "latest": 9221,
      "Ġbeginning": 9222,
      "Pues": 9223,
      "SR": 9224,
      "Ġcontents": 9225,
      "pread": 9226,
      "ĠSm": 9227,
      "Thread": 9228,
      "riel": 9229,
      "Ġrazones": 9230,
      "Ġlarga": 9231,
      "Ġ2010": 9232,
      "Ġtemporada": 9233,
      "Ġenfrent": 9234,
      "ĠAlgunos": 9235,
      "checkpoint": 9236,
      "apply": 9237,
      "Ġ2001": 9238,
      "Ġdicen": 9239,
      "Ġopinion": 9240,
      "åŃĹ": 9241,
      "opts": 9242,
      "cieron": 9243,
      "ĠLey": 9244,
      "Ġele": 9245,
      "look": 9246,
      "Ġsegment": 9247,
      "viÃ³": 9248,
      "ĠCPU": 9249,
      "ifdef": 9250,
      "ĠFort": 9251,
      "Ġdream": 9252,
      "Ġgro": 9253,
      "Ġcolumns": 9254,
      "anÃŃa": 9255,
      "Ã±ado": 9256,
      "uerdos": 9257,
      "Ġcircum": 9258,
      "night": 9259,
      "Ġcarried": 9260,
      "ĠÃĥ": 9261,
      "Ġantigua": 9262,
      "ëĵ": 9263,
      "ĠHand": 9264,
      "odr": 9265,
      "Ph": 9266,
      "Ġmatches": 9267,
      "Descriptor": 9268,
      "DO": 9269,
      "ĠSuper": 9270,
      "ĠLuc": 9271,
      "icks": 9272,
      "liot": 9273,
      "validation": 9274,
      ".âĢĶ": 9275,
      "RA": 9276,
      "çĦ": 9277,
      "Ġusers": 9278,
      "Ġcalling": 9279,
      "Ġterms": 9280,
      "otas": 9281,
      "ilio": 9282,
      "Ġdaughter": 9283,
      "ĠpelÃŃcula": 9284,
      "ĠlÃ¡": 9285,
      "ĠVen": 9286,
      "Ġhechos": 9287,
      "Ġpalacio": 9288,
      "Ġfigure": 9289,
      "ethe": 9290,
      "Ġcomport": 9291,
      "Ġriver": 9292,
      "Impl": 9293,
      "Ġworking": 9294,
      "USE": 9295,
      "Ġburn": 9296,
      "SY": 9297,
      "ycle": 9298,
      "ecÃŃan": 9299,
      "Ġejempl": 9300,
      "Ġmerced": 9301,
      "ç³»": 9302,
      "ĠMer": 9303,
      "clip": 9304,
      "aterial": 9305,
      "Ġdisap": 9306,
      "Ġindios": 9307,
      "Ġreferencia": 9308,
      "ĠNumber": 9309,
      "ĠEL": 9310,
      "**.": 9311,
      "ĠSk": 9312,
      "pact": 9313,
      "ĠpropÃ³sito": 9314,
      "Ġcomercial": 9315,
      "Ġsemana": 9316,
      "ÃŃncipe": 9317,
      "Ã¡uo": 9318,
      "Ġnecesidades": 9319,
      "heads": 9320,
      "yml": 9321,
      "éĺ": 9322,
      "Ġfigur": 9323,
      "estre": 9324,
      "Ġ2004": 9325,
      "Ġtoma": 9326,
      "Addr": 9327,
      "],[-": 9328,
      "After": 9329,
      "Ġpin": 9330,
      "abes": 9331,
      "Ġunless": 9332,
      "iosas": 9333,
      "ĠInc": 9334,
      "ĠEsp": 9335,
      "Ġfres": 9336,
      "Ġescribir": 9337,
      "å»º": 9338,
      "Ġlead": 9339,
      "Ġtrabajar": 9340,
      "when": 9341,
      "2021": 9342,
      "Go": 9343,
      "mu": 9344,
      "Ġexcel": 9345,
      "Ġzonas": 9346,
      "glaterra": 9347,
      "ĠÃ©sta": 9348,
      "ĠmÃªme": 9349,
      "Ġpartidos": 9350,
      "ĠmÃ©todo": 9351,
      "ulado": 9352,
      "Ġdistancia": 9353,
      "ĠìĿ´": 9354,
      "ĠPromise": 9355,
      "you": 9356,
      "istory": 9357,
      "period": 9358,
      "Ġqueda": 9359,
      "ĠdiseÃ±o": 9360,
      "zca": 9361,
      "imismo": 9362,
      "Ġ[[": 9363,
      "ATA": 9364,
      "casey": 9365,
      "Ġlimp": 9366,
      "Ġpleas": 9367,
      "Ġaleman": 9368,
      "Ġê°": 9369,
      "æ¨¡åŀĭ": 9370,
      "æĦ": 9371,
      "Ġnotice": 9372,
      "Ġpruebas": 9373,
      "Writer": 9374,
      "Ġslice": 9375,
      "Ġnormas": 9376,
      "Ġreserved": 9377,
      "Layout": 9378,
      "=(": 9379,
      "ĠSQL": 9380,
      "Ġescuela": 9381,
      "Api": 9382,
      "nav": 9383,
      "Ġbinary": 9384,
      "Ġunique": 9385,
      "Ġoperaciones": 9386,
      "FORM": 9387,
      "Ġriesgo": 9388,
      "SÃŃ": 9389,
      "ĠGree": 9390,
      "Ġcampos": 9391,
      "Ġdirectamente": 9392,
      "Ġmiembro": 9393,
      "Ð¾Ð»ÑĮ": 9394,
      "ously": 9395,
      "NoError": 9396,
      "ĠColomb": 9397,
      "ÃĵN": 9398,
      "Ġweak": 9399,
      "Ġmasa": 9400,
      "beta": 9401,
      "sys": 9402,
      "123": 9403,
      "high": 9404,
      "iÃ¨re": 9405,
      "Ġlaugh": 9406,
      "Ġdelight": 9407,
      "Ġpure": 9408,
      "Ġupdated": 9409,
      "cÃŃa": 9410,
      "Has": 9411,
      "Pat": 9412,
      "_:": 9413,
      "--.": 9414,
      "ĠApp": 9415,
      "ĠSource": 9416,
      "security": 9417,
      "ä¹ĭ": 9418,
      "Ãºtbol": 9419,
      "nas": 9420,
      "Ġpush": 9421,
      "control": 9422,
      "events": 9423,
      "Ġsont": 9424,
      "Load": 9425,
      "æł·": 9426,
      "su": 9427,
      "ĠEr": 9428,
      "iller": 9429,
      "Ġfron": 9430,
      "ROM": 9431,
      "Ġderecha": 9432,
      "iterator": 9433,
      "Ġeg": 9434,
      "crystal": 9435,
      "supported": 9436,
      "Jo": 9437,
      "uve": 9438,
      "SSL": 9439,
      "switch": 9440,
      "ĠÐ¼Ð¾Ð¶": 9441,
      "Ġiglesia": 9442,
      "ĠCO": 9443,
      "ĠRoma": 9444,
      "Ġtouch": 9445,
      "ĠBueno": 9446,
      "Ġprocesos": 9447,
      "Ġproxy": 9448,
      "Ġnearly": 9449,
      "Ġmud": 9450,
      "izÃ³": 9451,
      "ĠpodrÃ¡": 9452,
      "Ġtantos": 9453,
      "Ġentra": 9454,
      "*)": 9455,
      "aur": 9456,
      "å¥": 9457,
      "translation": 9458,
      "Ġpip": 9459,
      "Ġmister": 9460,
      "Ġlugares": 9461,
      "Ġrecogn": 9462,
      "ĠeconÃ³mico": 9463,
      "ĠcaracterÃŃsticas": 9464,
      "dt": 9465,
      "Ġstage": 9466,
      "Ġago": 9467,
      "ĠFunction": 9468,
      "Ġrequires": 9469,
      "ĠInglaterra": 9470,
      "Ġconformidad": 9471,
      "kit": 9472,
      "lap": 9473,
      "het": 9474,
      "Ġguerr": 9475,
      "SU": 9476,
      "Ġresources": 9477,
      "ĠThou": 9478,
      "Ġsignal": 9479,
      "Ġquickly": 9480,
      "ospital": 9481,
      "Sync": 9482,
      "Vol": 9483,
      "cert": 9484,
      "Ġmissing": 9485,
      "Ġmist": 9486,
      "ĠSp": 9487,
      "Ġrig": 9488,
      "ĠOutput": 9489,
      "americ": 9490,
      "Ġclasses": 9491,
      "ĠìĤ¬": 9492,
      "éĩį": 9493,
      "ĠpÃ©rd": 9494,
      "PTP": 9495,
      "bles": 9496,
      "Ġts": 9497,
      "channels": 9498,
      "Ġpleasure": 9499,
      "FE": 9500,
      "schemas": 9501,
      "Stack": 9502,
      "holder": 9503,
      "ividad": 9504,
      "åĩ½": 9505,
      "æº": 9506,
      "Ġspl": 9507,
      "Ġ35": 9508,
      "Ġbroad": 9509,
      "Ġsospe": 9510,
      "Ġrele": 9511,
      "Ġbutton": 9512,
      "plicate": 9513,
      "Ġtratamiento": 9514,
      "AVOR": 9515,
      "Ġnegoci": 9516,
      "Ġstandard": 9517,
      "ĠSeguridad": 9518,
      "Long": 9519,
      "hum": 9520,
      "ayo": 9521,
      "Ġapplied": 9522,
      "Style": 9523,
      "Ġcompleto": 9524,
      "Ġgentleman": 9525,
      "nm": 9526,
      "Ġrepar": 9527,
      "Ġmezcl": 9528,
      "frac": 9529,
      "migo": 9530,
      "Ġdemon": 9531,
      "ĠOfic": 9532,
      "255": 9533,
      "aman": 9534,
      "ĠCLI": 9535,
      "ĠVis": 9536,
      "ĠLeon": 9537,
      "jan": 9538,
      "á»": 9539,
      "record": 9540,
      "ĠElla": 9541,
      "Ġartific": 9542,
      "Ġtempl": 9543,
      "AX": 9544,
      "Ġboys": 9545,
      "Ġsolamente": 9546,
      "Ġcamp": 9547,
      "istent": 9548,
      ".</": 9549,
      "Ġdep": 9550,
      "Ġrar": 9551,
      "Ġfresh": 9552,
      "Ġteniendo": 9553,
      "onds": 9554,
      "Parent": 9555,
      "menes": 9556,
      "Ġconcept": 9557,
      "Ãºtil": 9558,
      "Ã²": 9559,
      "Ġlaid": 9560,
      "ÃŃda": 9561,
      "shard": 9562,
      "orithm": 9563,
      "ĠĠĠĠĠĠĠĠĠĠĠĠĠĠĠĠĠĠĠĠĠĠ": 9564,
      "Ġjunt": 9565,
      "âĢĿ,": 9566,
      "Ġtakes": 9567,
      "ĠÃīl": 9568,
      "Date": 9569,
      "ĠClar": 9570,
      "Ġ2020": 9571,
      "alles": 9572,
      "Ãºa": 9573,
      "unsigned": 9574,
      "Ġchance": 9575,
      "ĠJS": 9576,
      "ĠrecibiÃ³": 9577,
      "/**": 9578,
      "ĠHa": 9579,
      "isiones": 9580,
      "urales": 9581,
      "åħ¨": 9582,
      "Ġ2012": 9583,
      "ĠLondon": 9584,
      "jado": 9585,
      "Ġfs": 9586,
      "Ġusize": 9587,
      "tc": 9588,
      "wd": 9589,
      "Ġmembers": 9590,
      "ĠIter": 9591,
      "INTER": 9592,
      "Ġdst": 9593,
      "Ġsolid": 9594,
      "Ġviolencia": 9595,
      "cmp": 9596,
      "é«": 9597,
[...]
