{
  "version": "1.0",
  "truncation": null,
  "padding": null,
  "added_tokens": [
    {
      "id": 0,
      "content": "<pad>",
      "single_word": false,
      "lstrip": false,
      "rstrip": false,
      "normalized": false,
      "special": true
    },
    {
      "id": 1,
      "content": "<unk>",
      "single_word": false,
      "lstrip": false,
      "rstrip": false,
      "normalized": false,
      "special": true
    },
    {
      "id": 2,
      "content": "<bos>",
      "single_word": false,
      "lstrip": false,
      "rstrip": false,
      "normalized": false,
      "special": true
    },
    {
      "id": 3,
      "content": "<eos>",
      "single_word": false,
      "lstrip": false,
      "rstrip": false,
      "normalized": false,
      "special": true
    },
    {
      "id": 4,
      "content": "<sep>",
      "single_word": false,
      "lstrip": false,
      "rstrip": false,
      "normalized": false,
      "special": true
    },
    {
      "id": 5,
      "content": "<code>",
      "single_word": false,
      "lstrip": false,
      "rstrip": false,
      "normalized": false,
      "special": true
    }
  ],
  "normalizer": {
    "type": "NFKC"
  },
  "pre_tokenizer": {
    "type": "ByteLevel",
    "add_prefix_space": true,
    "trim_offsets": true,
    "use_regex": true
  },
  "post_processor": null,
  "decoder": {
    "type": "ByteLevel",
    "add_prefix_space": true,
    "trim_offsets": true,
    "use_regex": true
  },
  "model": {
    "type": "BPE",
    "dropout": null,
    "unk_token": "<unk>",
    "continuing_subword_prefix": null,
    "end_of_word_suffix": null,
    "fuse_unk": false,
    "byte_fallback": false,
    "ignore_merges": false,
    "vocab": {
      "<pad>": 0,
      "<unk>": 1,
      "<bos>": 2,
      "<eos>": 3,
      "<sep>": 4,
      "<code>": 5,
      "!": 6,
      "\"": 7,
      "#": 8,
      "$": 9,
      "%": 10,
      "&": 11,
      "'": 12,
      "(": 13,
      ")": 14,
      "*": 15,
      "+": 16,
      ",": 17,
      "-": 18,
      ".": 19,
      "/": 20,
      "0": 21,
      "1": 22,
      "2": 23,
      "3": 24,
      "4": 25,
      "5": 26,
      "6": 27,
      "7": 28,
      "8": 29,
      "9": 30,
      ":": 31,
      ";": 32,
      "<": 33,
      "=": 34,
      ">": 35,
      "?": 36,
      "@": 37,
      "A": 38,
      "B": 39,
      "C": 40,
      "D": 41,
      "E": 42,
      "F": 43,
      "G": 44,
      "H": 45,
      "I": 46,
      "J": 47,
      "K": 48,
      "L": 49,
      "M": 50,
      "N": 51,
      "O": 52,
      "P": 53,
      "Q": 54,
      "R": 55,
      "S": 56,
      "T": 57,
      "U": 58,
      "V": 59,
      "W": 60,
      "X": 61,
      "Y": 62,
      "Z": 63,
      "[": 64,
      "\\": 65,
      "]": 66,
      "^": 67,
      "_": 68,
      "`": 69,
      "a": 70,
      "b": 71,
      "c": 72,
      "d": 73,
      "e": 74,
      "f": 75,
      "g": 76,
      "h": 77,
      "i": 78,
      "j": 79,
      "k": 80,
      "l": 81,
      "m": 82,
      "n": 83,
      "o": 84,
      "p": 85,
      "q": 86,
      "r": 87,
      "s": 88,
      "t": 89,
      "u": 90,
      "v": 91,
      "w": 92,
      "x": 93,
      "y": 94,
      "z": 95,
      "{": 96,
      "|": 97,
      "}": 98,
      "~": 99,
      "¡": 100,
      "¢": 101,
      "£": 102,
      "¤": 103,
      "¥": 104,
      "¦": 105,
      "§": 106,
      "¨": 107,
      "©": 108,
      "ª": 109,
      "«": 110,
      "¬": 111,
      "®": 112,
      "¯": 113,
      "°": 114,
      "±": 115,
      "²": 116,
      "³": 117,
      "´": 118,
      "µ": 119,
      "¶": 120,
      "·": 121,
      "¸": 122,
      "¹": 123,
      "º": 124,
      "»": 125,
      "¼": 126,
      "½": 127,
      "¾": 128,
      "¿": 129,
      "Â": 130,
      "Ã": 131,
      "Ä": 132,
      "Å": 133,
      "Æ": 134,
      "Ç": 135,
      "È": 136,
      "É": 137,
      "Ê": 138,
      "Ë": 139,
      "Ì": 140,
      "Í": 141,
      "Î": 142,
      "Ï": 143,
      "Ð": 144,
      "Ñ": 145,
      "Ò": 146,
      "Ó": 147,
      "Õ": 148,
      "Ö": 149,
      "×": 150,
      "Ø": 151,
      "Ù": 152,
      "Ú": 153,
      "Û": 154,
      "Ü": 155,
      "ß": 156,
      "à": 157,
      "á": 158,
      "â": 159,
      "ã": 160,
      "ä": 161,
      "å": 162,
      "æ": 163,
      "ç": 164,
      "è": 165,
      "é": 166,
      "ê": 167,
      "ë": 168,
      "ì": 169,
      "í": 170,
      "ï": 171,
      "ð": 172,
      "ó": 173,
      "ĉ": 174,
      "Ċ": 175,
      "č": 176,
      "Ġ": 177,
      "Ģ": 178,
      "ģ": 179,
      "Ĥ": 180,
      "ĥ": 181,
      "Ħ": 182,
      "ħ": 183,
      "Ĩ": 184,
      "ĩ": 185,
      "Ī": 186,
      "ī": 187,
      "Ĭ": 188,
      "ĭ": 189,
      "Į": 190,
      "į": 191,
      "İ": 192,
      "ı": 193,
      "Ĳ": 194,
      "ĳ": 195,
      "Ĵ": 196,
      "ĵ": 197,
      "Ķ": 198,
      "ķ": 199,
      "ĸ": 200,
      "Ĺ": 201,
      "ĺ": 202,
      "Ļ": 203,
      "ļ": 204,
      "Ľ": 205,
      "ľ": 206,
      "Ŀ": 207,
      "ŀ": 208,
      "Ł": 209,
      "ł": 210,
      "Ń": 211,
      "ĠĠ": 212,
      "ĠĠĠĠ": 213,
      "čĊ": 214,
      "ĠĠĠ": 215,
      "er": 216,
      "en": 217,
      "in": 218,
      "on": 219,
      "ĠĠĠĠĠĠĠ": 220,
      "es": 221,
      "or": 222,
      "Ġt": 223,
      "de": 224,
      "at": 225,
      "Ġs": 226,
      "Ġa": 227,
      "el": 228,
      "Ġc": 229,
      "as": 230,
      "al": 231,
      "re": 232,
      "ĠĠĠĠĠĠĠĠ": 233,
      "ar": 234,
      "ĠčĊ": 235,
      "Ġp": 236,
      "an": 237,
      "he": 238,
      "Ġ=": 239,
      "Ġl": 240,
      "Ġde": 241,
      "it": 242,
      "is": 243,
      "ion": 244,
      "ut": 245,
      "Ġf": 246,
      "ro": 247,
      "Ġm": 248,
      "ic": 249,
      "ed": 250,
      "os": 251,
      "ĠĠĠĠĠĠĠĠĠĠĠ": 252,
      "ent": 253,
      "im": 254,
      "ing": 255,
      "le": 256,
      "elf": 257,
      "id": 258,
      "ad": 259,
      "st": 260,
      "Ġin": 261,
      "Ġd": 262,
      "ac": 263,
      "un": 264,
      "et": 265,
      "Ġo": 266,
      "Ġ\"": 267,
      "ig": 268,
      "am": 269,
      "Ġthe": 270,
      "Ġn": 271,
      "Ġb": 272,
      "ch": 273,
      "qu": 274,
      "Ġw": 275,
      "ur": 276,
      "ex": 277,
      "est": 278,
      "ode": 279,
      "pe": 280,
      "Ġ#": 281,
      "om": 282,
      "Ġself": 283,
      "Ġh": 284,
      "iz": 285,
      "se": 286,
      "ct": 287,
      "Ġ(": 288,
      "Ġto": 289,
      "lo": 290,
      "Ġre": 291,
      "tr": 292,
      "il": 293,
      "Ġcon": 294,
      "if": 295,
      "ul": 296,
      "em": 297,
      "Ġ{": 298,
      "put": 299,
      "Ġv": 300,
      "ag": 301,
      "Ġla": 302,
      "odel": 303,
      "ass": 304,
      "Ġan": 305,
      "()": 306,
      "ĠĠĠĠĠĠĠĠĠĠĠĠĠĠĠ": 307,
      "Ġ`": 308,
      "od": 309,
      "--": 310,
      "Ġr": 311,
      "ab": 312,
      "Ġy": 313,
      "ot": 314,
      "Ġen": 315,
      "ãģ": 316,
      "Ã³": 317,
      "ol": 318,
      "Ġel": 319,
      "ĠA": 320,
      "Ġ'": 321,
      "ĠT": 322,
      "one": 323,
      "):": 324,
      "um": 325,
      "ue": 326,
      "Ġ}": 327,
      "to": 328,
      "Ġim": 329,
      "us": 330,
      "ort": 331,
      "fig": 332,
      "Ġg": 333,
      "pt": 334,
      "ert": 335,
      "Ġof": 336,
      "ation": 337,
      "ate": 338,
      "ĠN": 339,
      "ce": 340,
      "ens": 341,
      "con": 342,
      "Ġqu": 343,
      "Ġun": 344,
      "ers": 345,
      "Ġ1": 346,
      "Ġis": 347,
      "Ġdef": 348,
      "ĠS": 349,
      "iv": 350,
      "port": 351,
      "Ġfor": 352,
      "Ġth": 353,
      "ize": 354,
      "ĠC": 355,
      "rom": 356,
      "\",": 357,
      "ay": 358,
      "oc": 359,
      "Ġand": 360,
      "self": 361,
      "pl": 362,
      "ess": 363,
      "ir": 364,
      "age": 365,
      "ap": 366,
      "ĠL": 367,
      "ht": 368,
      "Ġ*": 369,
      "up": 370,
      "ith": 371,
      "ain": 372,
      "Ġ[": 373,
      "ter": 374,
      "Ġex": 375,
      "Ġ-": 376,
      "Ġif": 377,
      "\":": 378,
      "//": 379,
      "__": 380,
      "Ġse": 381,
      "ĠP": 382,
      "orm": 383,
      "ÃŃ": 384,
      "ĠĠĠĠĠĠĠĠĠĠĠĠĠĠĠĠ": 385,
      "ĠI": 386,
      "th": 387,
      "ame": 388,
      "orch": 389,
      "Ġas": 390,
      "ĠNone": 391,
      "ist": 392,
      "ype": 393,
      "iÃ³": 394,
      "00": 395,
      "Ġque": 396,
      "ĠE": 397,
      "urn": 398,
      "lass": 399,
      "py": 400,
      "Ġcom": 401,
      "Ġ0": 402,
      "den": 403,
      "ext": 404,
      "Ġe": 405,
      "and": 406,
      "ãĥ": 407,
      "iÃ³n": 408,
      "ult": 409,
      "..": 410,
      "),": 411,
      "ke": 412,
      "turn": 413,
      "arg": 414,
      "Ġtr": 415,
      "ãĤ": 416,
      "size": 417,
      "Ġimport": 418,
      "',": 419,
      "Ã©": 420,
      "att": 421,
      "Ġal": 422,
      "Ġ|": 423,
      "Ġpro": 424,
      "Ġfrom": 425,
      "all": 426,
      "Ã¡": 427,
      "ect": 428,
      "ant": 429,
      "Ġreturn": 430,
      "out": 431,
      "atch": 432,
      "val": 433,
      "Ġpar": 434,
      "ĠM": 435,
      "ken": 436,
      "Ġ2": 437,
      "=\"": 438,
      "ĠÐ": 439,
      "ma": 440,
      "ib": 441,
      "pro": 442,
      "config": 443,
      "\"\"": 444,
      "idden": 445,
      "ip": 446,
      "ĠD": 447,
      "ight": 448,
      "model": 449,
      "Ġnot": 450,
      "int": 451,
      "str": 452,
      "res": 453,
      "Ġ==": 454,
      "Ġbe": 455,
      "ast": 456,
      "Ġlos": 457,
      "Ġwith": 458,
      "ĠF": 459,
      "av": 460,
      "Ġ)": 461,
      "io": 462,
      "ath": 463,
      "Ġmodel": 464,
      "ub": 465,
      "ask": 466,
      "ial": 467,
      "ict": 468,
      "ror": 469,
      "\")": 470,
      "form": 471,
      "ĠĠĠĠĠ": 472,
      "----": 473,
      "ine": 474,
      "ensor": 475,
      "cess": 476,
      "ck": 477,
      "ĠB": 478,
      "ention": 479,
      "ps": 480,
      "Ġor": 481,
      "end": 482,
      "ow": 483,
      "ans": 484,
      "Ġst": 485,
      "ient": 486,
      "Ð¾": 487,
      "Ġ<": 488,
      "ile": 489,
      "ĠR": 490,
      "type": 491,
      "ĠO": 492,
      "puts": 493,
      "che": 494,
      "Ġtest": 495,
      "ates": 496,
      "assert": 497,
      "ia": 498,
      ").": 499,
      "Ġtorch": 500,
      "test": 501,
      "cod": 502,
      "attention": 503,
      "Ġres": 504,
      "ĠĠĠĠĠĠĠĠĠĠĠĠĠĠĠĠĠĠĠ": 505,
      "Ġes": 506,
      "emb": 507,
      "par": 508,
      "ver": 509,
      "com": 510,
      "],": 511,
      "cl": 512,
      "ment": 513,
      "ug": 514,
      "Ġì": 515,
      "Ġdel": 516,
      "able": 517,
      "name": 518,
      "key": 519,
      "ase": 520,
      "ption": 521,
      "Ġlo": 522,
      "Ġclass": 523,
      "Ġest": 524,
      "Ġ_": 525,
      "po": 526,
      "Ġwh": 527,
      "Ð°": 528,
      "ata": 529,
      "ice": 530,
      "ew": 531,
      "ple": 532,
      "(\"": 533,
      "ang": 534,
      "ack": 535,
      "Ġon": 536,
      "Ðµ": 537,
      "Ġit": 538,
      "Tr": 539,
      "ace": 540,
      "ĠW": 541,
      "Ġconfig": 542,
      ">>": 543,
      "der": 544,
      "states": 545,
      "Ġthat": 546,
      "::": 547,
      "ÑĤ": 548,
      "aciÃ³n": 549,
      "ĠH": 550,
      "act": 551,
      "ding": 552,
      "ly": 553,
      "ou": 554,
      "ids": 555,
      "ener": 556,
      "pos": 557,
      "**": 558,
      "per": 559,
      "coder": 560,
      "Ġval": 561,
      "ha": 562,
      "ide": 563,
      "ure": 564,
      "))": 565,
      "args": 566,
      "ule": 567,
      "use": 568,
      "ec": 569,
      "Ġus": 570,
      "pre": 571,
      "hidden": 572,
      "Ġout": 573,
      "Ġstr": 574,
      "ition": 575,
      "ore": 576,
      "ix": 577,
      "Ġ//": 578,
      "embed": 579,
      "len": 580,
      "mask": 581,
      "torch": 582,
      "gr": 583,
      "ud": 584,
      "Ð¸": 585,
      "Ġ\"\"\"": 586,
      "odule": 587,
      "Ġpr": 588,
      "Ġ->": 589,
      "://": 590,
      "izer": 591,
      "ĠU": 592,
      "ĠG": 593,
      "ĠV": 594,
      "ado": 595,
      "dict": 596,
      "pect": 597,
      "Ġar": 598,
      "Con": 599,
      "ere": 600,
      "Ġlas": 601,
      "pon": 602,
      "Ġhe": 603,
      "text": 604,
      "ire": 605,
      "rror": 606,
      "Ġ@": 607,
      "lay": 608,
      "oo": 609,
      "pr": 610,
      "==": 611,
      "ÃŃa": 612,
      "ãĢ": 613,
      "enc": 614,
      "``": 615,
      "ard": 616,
      "ĠThe": 617,
      "('": 618,
      "Ġ.": 619,
      "ust": 620,
      "Ġint": 621,
      "qual": 622,
      "ject": 623,
      "Model": 624,
      "get": 625,
      "Error": 626,
      "ues": 627,
      "Ġso": 628,
      "alse": 629,
      "co": 630,
      "ill": 631,
      "ction": 632,
      "Ġpor": 633,
      "Ġno": 634,
      "ence": 635,
      "Ġ```": 636,
      "Ġ**": 637,
      "num": 638,
      "ff": 639,
      "path": 640,
      "ðŁ": 641,
      "Ġ+": 642,
      "Ð¾Ð": 643,
      "Ġthis": 644,
      "Ġ3": 645,
      "token": 646,
      "els": 647,
      "ias": 648,
      "Ġuna": 649,
      "IN": 650,
      "vice": 651,
      "Ġwe": 652,
      "Ġsu": 653,
      "Ġass": 654,
      "Ġdes": 655,
      "pec": 656,
      "ault": 657,
      "Ġ..": 658,
      "Tensor": 659,
      "input": 660,
      "Ġby": 661,
      "ie": 662,
      "._": 663,
      "ER": 664,
      "Equal": 665,
      "Ġpre": 666,
      "tps": 667,
      "ense": 668,
      "')": 669,
      "Ġat": 670,
      "ais": 671,
      "image": 672,
      "ache": 673,
      "ica": 674,
      "ansform": 675,
      "ep": 676,
      "Ġnum": 677,
      "are": 678,
      "log": 679,
      "ite": 680,
      "ual": 681,
      "ator": 682,
      "Ð½": 683,
      "app": 684,
      "Ġk": 685,
      "loat": 686,
      "art": 687,
      "ance": 688,
      "iel": 689,
      "hape": 690,
      "In": 691,
      "und": 692,
      "ave": 693,
      "Ġimage": 694,
      "ies": 695,
      "ÑĢ": 696,
      "doc": 697,
      "True": 698,
      "train": 699,
      "ier": 700,
      "\"]": 701,
      "init": 702,
      "Ġinput": 703,
      "Ġë": 704,
      "ĠIn": 705,
      "Ġelse": 706,
      "ON": 707,
      "our": 708,
      "ind": 709,
      "cal": 710,
      "cr": 711,
      "ail": 712,
      "##": 713,
      "icense": 714,
      "we": 715,
      "Ġ},": 716,
      "op": 717,
      "Ġpara": 718,
      "te": 719,
      "ific": 720,
      "ĠTr": 721,
      "ime": 722,
      "':": 723,
      "âĢ": 724,
      "ero": 725,
      "Ġob": 726,
      "Ġuse": 727,
      "class": 728,
      "Ġsh": 729,
      "Ġdo": 730,
      "ðŁļ": 731,
      "gth": 732,
      "Ġch": 733,
      "Ġassert": 734,
      "mo": 735,
      "[\"": 736,
      "ðŁļ¨": 737,
      "ield": 738,
      "--------": 739,
      "Ġdis": 740,
      "Ġle": 741,
      "cessor": 742,
      "Ġhidden": 743,
      "yn": 744,
      "Ġj": 745,
      "ðŁļ¨ðŁļ¨": 746,
      "fer": 747,
      "wargs": 748,
      "Ø§": 749,
      "assertEqual": 750,
      "ĠAr": 751,
      "eat": 752,
      "ada": 753,
      "ign": 754,
      "Ġ=>": 755,
      "Ñģ": 756,
      "iones": 757,
      "ìĿ": 758,
      "Ġpos": 759,
      "idad": 760,
      "https": 761,
      "Ġma": 762,
      "](": 763,
      "code": 764,
      "ob": 765,
      "ive": 766,
      "ension": 767,
      "Ġser": 768,
      "set": 769,
      "oul": 770,
      "Ġcont": 771,
      "ente": 772,
      "Ġcl": 773,
      "output": 774,
      "`,": 775,
      "ann": 776,
      "Ġcomo": 777,
      "Ġ...": 778,
      "Ġad": 779,
      "Ġyou": 780,
      "ould": 781,
      "íķ": 782,
      "ser": 783,
      "head": 784,
      "error": 785,
      "ĠĠĠĠĠĠĠĠĠĠĠĠĠĠĠĠĠĠĠĠĠĠĠ": 786,
      "ning": 787,
      "du": 788,
      "PI": 789,
      "Ġare": 790,
      "Ġconst": 791,
      "ated": 792,
      "ĠPy": 793,
      "Ġsup": 794,
      "low": 795,
      "batch": 796,
      "util": 797,
      "Ġtoken": 798,
      "ait": 799,
      "ve": 800,
      "tern": 801,
      "10": 802,
      "ĠLicense": 803,
      "chema": 804,
      "ool": 805,
      "\">": 806,
      "ÙĦ": 807,
      "ary": 808,
      "ivo": 809,
      "Ã¡s": 810,
      "its": 811,
      "param": 812,
      "Ã±": 813,
      "trib": 814,
      "values": 815,
      "ages": 816,
      "Ãº": 817,
      "ument": 818,
      "Ġent": 819,
      "Ġexpect": 820,
      "Ġ__": 821,
      "rop": 822,
      "Ġper": 823,
      "ong": 824,
      "Config": 825,
      "ity": 826,
      "Ġget": 827,
      "ra": 828,
      "ord": 829,
      "ëĭ": 830,
      "ision": 831,
      "ery": 832,
      "uto": 833,
      "kens": 834,
      "length": 835,
      "Ġap": 836,
      "Ġgr": 837,
      "ach": 838,
      "ros": 839,
      "thon": 840,
      "que": 841,
      "Ġ4": 842,
      ");": 843,
      "point": 844,
      "ging": 845,
      "dim": 846,
      "ts": 847,
      "Ġ>>": 848,
      "from": 849,
      "ded": 850,
      "rc": 851,
      "ĠĠĠĠĠĠĠĠĠ": 852,
      "unction": 853,
      "Ġ>>>": 854,
      "embedding": 855,
      "file": 856,
      "tribut": 857,
      "value": 858,
      "ock": 859,
      "Ġlet": 860,
      "Ġne": 861,
      "yp": 862,
      "ich": 863,
      "own": 864,
      "ĠUn": 865,
      "ĠJ": 866,
      "Ġoutput": 867,
      "ations": 868,
      "ll": 869,
      "js": 870,
      "ĠTh": 871,
      "Test": 872,
      "ios": 873,
      "Ġcan": 874,
      "ĠEn": 875,
      "unt": 876,
      "().": 877,
      "ä¸": 878,
      "amb": 879,
      "inputs": 880,
      "AL": 881,
      "weight": 882,
      "ãĢĤ": 883,
      "read": 884,
      "ciÃ³n": 885,
      "ansformers": 886,
      "Ġmay": 887,
      "ores": 888,
      "eth": 889,
      "ef": 890,
      "16": 891,
      "fo": 892,
      "kwargs": 893,
      "12": 894,
      "layer": 895,
      "Ġco": 896,
      "ptional": 897,
      "ied": 898,
      "Ġattention": 899,
      "plic": 900,
      "Ġwas": 901,
      "Ġlog": 902,
      "attn": 903,
      "</": 904,
      "Ġz": 905,
      "lab": 906,
      "shape": 907,
      "Ġac": 908,
      "Ġ(`": 909,
      "AT": 910,
      "device": 911,
      "Ġvalue": 912,
      "Ġrequ": 913,
      "ĠAn": 914,
      "norm": 915,
      "ados": 916,
      "Ð°Ð": 917,
      "Ġtype": 918,
      "ico": 919,
      "heck": 920,
      "Ġdefault": 921,
      "Ġro": 922,
      "02": 923,
      "ward": 924,
      "ork": 925,
      "Ñĥ": 926,
      "Ġcre": 927,
      "ando": 928,
      "Ġall": 929,
      "])": 930,
      "data": 931,
      "Ġarg": 932,
      "ample": 933,
      "__(": 934,
      "dat": 935,
      "Ġ&": 936,
      "inal": 937,
      "ien": 938,
      "ES": 939,
      "lock": 940,
      "tensor": 941,
      "Ġx": 942,
      "Ġpl": 943,
      "Ġset": 944,
      "API": 945,
      "module": 946,
      "ange": 947,
      "arget": 948,
      "IT": 949,
      "ory": 950,
      "def": 951,
      "Ġdat": 952,
      "For": 953,
      "sh": 954,
      "eg": 955,
      "dex": 956,
      "ĠĠĠĠĠĠĠĠĠĠĠĠĠĠĠĠĠĠĠĠĠĠĠĠĠĠĠĠĠĠĠĠ": 957,
      "Ġkey": 958,
      "ync": 959,
      "ido": 960,
      "ãģ®": 961,
      "Ġgener": 962,
      "Ġname": 963,
      "stance": 964,
      "ull": 965,
      "roup": 966,
      "ost": 967,
      "extension": 968,
      "ft": 969,
      "False": 970,
      "Ġlist": 971,
      "ersion": 972,
      "pen": 973,
      "ĠArch": 974,
      "Ġme": 975,
      "dir": 976,
      "cept": 977,
      "ugging": 978,
      "check": 979,
      "ethod": 980,
      "None": 981,
      "quence": 982,
      "ular": 983,
      "ml": 984,
      "ber": 985,
      "Ġfile": 986,
      "no": 987,
      "ark": 988,
      "jo": 989,
      "ET": 990,
      "32": 991,
      "Ġ/": 992,
      "tes": 993,
      "Ġdata": 994,
      "isma": 995,
      "embeddings": 996,
      "():": 997,
      "ampl": 998,
      "for": 999,
      "ĠmÃ¡s": 1000,
      "state": 1001,
      "'s": 1002,
      "Ġnew": 1003,
      "Ġlen": 1004,
      "ĠArchivo": 1005,
      "ca": 1006,
      "idx": 1007,
      "min": 1008,
      "Ùħ": 1009,
      "load": 1010,
      "ell": 1011,
      "col": 1012,
      "Type": 1013,
      "uil": 1014,
      "item": 1015,
      "cre": 1016,
      "Ġ===": 1017,
      "Ġâ": 1018,
      "docs": 1019,
      "Ġresult": 1020,
      "Ġpass": 1021,
      "Ġ--": 1022,
      "valid": 1023,
      "emp": 1024,
      "Ġtext": 1025,
      "sp": 1026,
      "string": 1027,
      "back": 1028,
      "ures": 1029,
      "list": 1030,
      "Ġab": 1031,
      "do": 1032,
      "Ġ##": 1033,
      "aset": 1034,
      "uple": 1035,
      "EN": 1036,
      "Ġ:": 1037,
      "face": 1038,
      "Ġ5": 1039,
      "Ġwill": 1040,
      "ponse": 1041,
      "Pro": 1042,
      "unc": 1043,
      "schema": 1044,
      "ĠLa": 1045,
      "Ġhave": 1046,
      "layers": 1047,
      "tokens": 1048,
      "Ġhas": 1049,
      "process": 1050,
      "ĠK": 1051,
      "ook": 1052,
      "Ġ})": 1053,
      "ge": 1054,
      "Ġup": 1055,
      "Ġform": 1056,
      "Ñĸ": 1057,
      "64": 1058,
      "AR": 1059,
      "ĠEl": 1060,
      "cur": 1061,
      "Ġinputs": 1062,
      "Ġinter": 1063,
      "wait": 1064,
      "ales": 1065,
      "Ġunder": 1066,
      "====": 1067,
      "ä½": 1068,
      "Ġi": 1069,
      "`.": 1070,
      "ĠY": 1071,
      "cri": 1072,
      "new": 1073,
      "Ġcu": 1074,
      "ak": 1075,
      "ces": 1076,
      "eps": 1077,
      "ther": 1078,
      "ome": 1079,
      "max": 1080,
      "Ġtrain": 1081,
      "ãģĻ": 1082,
      "uct": 1083,
      "Ġrel": 1084,
      "ĠTrue": 1085,
      "AS": 1086,
      "ãĢģ": 1087,
      "Ġspec": 1088,
      "Ã¡n": 1089,
      "ĠØ": 1090,
      "(),": 1091,
      "\"\"\"": 1092,
      "ink": 1093,
      "tt": 1094,
      "Ġman": 1095,
      "cont": 1096,
      "ose": 1097,
      "ptim": 1098,
      "feat": 1099,
      "utils": 1100,
      "so": 1101,
      "},": 1102,
      "Ġrais": 1103,
      "wr": 1104,
      "Py": 1105,
      "line": 1106,
      "ww": 1107,
      "position": 1108,
      "Ġmax": 1109,
      "Ġcheck": 1110,
      "with": 1111,
      "ante": 1112,
      "Ġpy": 1113,
      "ij": 1114,
      "Ġ///": 1115,
      "div": 1116,
      "Ġte": 1117,
      "ãĥ¼": 1118,
      "Ä±": 1119,
      "Ġlay": 1120,
      "ern": 1121,
      "antic": 1122,
      "optional": 1123,
      "Ðº": 1124,
      "01": 1125,
      "me": 1126,
      "proj": 1127,
      "pu": 1128,
      "ĠCon": 1129,
      "ger": 1130,
      "les": 1131,
      "Ð»": 1132,
      "Ġsuper": 1133,
      "ric": 1134,
      "udio": 1135,
      "gener": 1136,
      "ÙĬ": 1137,
      "idth": 1138,
      "ðŁļ¨ðŁļ¨ðŁļ¨ðŁļ¨": 1139,
      "encia": 1140,
      "era": 1141,
      "md": 1142,
      "Ġpad": 1143,
      "çļ": 1144,
      "requ": 1145,
      "ank": 1146,
      "Ġstring": 1147,
      "çļĦ": 1148,
      "Ġshould": 1149,
      "OR": 1150,
      "ally": 1151,
      "Ġag": 1152,
      "ref": 1153,
      "Ġbut": 1154,
      "Ġ</": 1155,
      "Ġwhich": 1156,
      "To": 1157,
      "clu": 1158,
      "dis": 1159,
      "Ġbatch": 1160,
      "pert": 1161,
      "Ñı": 1162,
      "ãĤĴ": 1163,
      "arr": 1164,
      "amente": 1165,
      "float": 1166,
      "ĠSe": 1167,
      "ta": 1168,
      "cale": 1169,
      "fl": 1170,
      "add": 1171,
      "ement": 1172,
      "Ġmu": 1173,
      "los": 1174,
      "Ġparam": 1175,
      "src": 1176,
      "irst": 1177,
      "ames": 1178,
      "url": 1179,
      "iento": 1180,
      "ization": 1181,
      "Ġnn": 1182,
      "vi": 1183,
      "ideo": 1184,
      "trained": 1185,
      "Ġcall": 1186,
      "IC": 1187,
      "json": 1188,
      "ĠFalse": 1189,
      "labels": 1190,
      "iter": 1191,
      "vent": 1192,
      "Ġcol": 1193,
      "alue": 1194,
      "Ġê": 1195,
      "Ġwhen": 1196,
      "ithub": 1197,
      "ized": 1198,
      "ices": 1199,
      "Ġraise": 1200,
      "mage": 1201,
      "Ġfr": 1202,
      "Ġid": 1203,
      "Ã©n": 1204,
      "ash": 1205,
      "Ġsize": 1206,
      "ader": 1207,
      "ys": 1208,
      "Ġhis": 1209,
      "github": 1210,
      "âĶ": 1211,
      "not": 1212,
      "vert": 1213,
      "outputs": 1214,
      "çĶ": 1215,
      "ez": 1216,
      "Ġvar": 1217,
      "ĠThis": 1218,
      "ox": 1219,
      "Ġ'\\": 1220,
      "yle": 1221,
      "Ġtarget": 1222,
      "aciones": 1223,
      "Ġfunction": 1224,
      "Ġcode": 1225,
      "az": 1226,
      "Ġpart": 1227,
      "Ġpath": 1228,
      "Res": 1229,
      "irect": 1230,
      "Ex": 1231,
      "ions": 1232,
      "Ġ>": 1233,
      "Ġdif": 1234,
      "cache": 1235,
      "peed": 1236,
      "].": 1237,
      "tra": 1238,
      "Ġexpected": 1239,
      "ĠÃ": 1240,
      "([": 1241,
      "TER": 1242,
      "ĠÐ²": 1243,
      "encoder": 1244,
      "Ġ\\": 1245,
      "Ø§ÙĦ": 1246,
      "Ġ{\"": 1247,
      "heads": 1248,
      "RA": 1249,
      "lob": 1250,
      "iss": 1251,
      "err": 1252,
      "Ġbool": 1253,
      "af": 1254,
      "())": 1255,
      "Ġmod": 1256,
      ".__": 1257,
      "kip": 1258,
      "python": 1259,
      "Ġson": 1260,
      "ĠĠĠĠĠĠĠĠĠĠĠĠĠĠĠĠĠĠĠĠĠĠĠĠĠĠĠ": 1261,
      "embeds": 1262,
      "processor": 1263,
      "ypes": 1264,
      "ĠDe": 1265,
      "bre": 1266,
      "main": 1267,
      "ĠÂ": 1268,
      "LM": 1269,
      "row": 1270,
      "----------------": 1271,
      "call": 1272,
      "anc": 1273,
      "({": 1274,
      "inter": 1275,
      "Qu": 1276,
      "dantic": 1277,
      "ä»": 1278,
      "Ġact": 1279,
      "ired": 1280,
      "tributed": 1281,
      "ocab": 1282,
      "Ġinst": 1283,
      "Ġerror": 1284,
      "ÑĮ": 1285,
      "Ð¼": 1286,
      "âĶĢ": 1287,
      "instance": 1288,
      "attr": 1289,
      "patch": 1290,
      ".\"": 1291,
      "actor": 1292,
      "Ġí": 1293,
      "Ġmask": 1294,
      "Ġwr": 1295,
      "api": 1296,
      "rent": 1297,
      "Ġone": 1298,
      "Ġcor": 1299,
      "map": 1300,
      "itle": 1301,
      "index": 1302,
      "cu": 1303,
      "mon": 1304,
      "000": 1305,
      "Ġfn": 1306,
      "99": 1307,
      "Ġawait": 1308,
      "Ġem": 1309,
      "pretrained": 1310,
      "ION": 1311,
      "Ġet": 1312,
      "ateg": 1313,
      "Ġ###": 1314,
      "uggingface": 1315,
      "Ġ8": 1316,
      "ĠâĢ": 1317,
      "decoder": 1318,
      "met": 1319,
      "Ġcons": 1320,
      "uc": 1321,
      "org": 1322,
      "ëĭ¤": 1323,
      "ponent": 1324,
      "ãģ«": 1325,
      "plement": 1326,
      "press": 1327,
      "uff": 1328,
      "ida": 1329,
      "ne": 1330,
      "Module": 1331,
      "lic": 1332,
      "utor": 1333,
      "../": 1334,
      "Ġadd": 1335,
      "angu": 1336,
      "ĠĠĠĠĠĠ": 1337,
      "ãģĹ": 1338,
      "Ġsin": 1339,
      "Ġtokenizer": 1340,
      "Ġposition": 1341,
      "Ġdim": 1342,
      "pare": 1343,
      "ĠEst": 1344,
      "over": 1345,
      "fil": 1346,
      "edi": 1347,
      "Ġsub": 1348,
      "ible": 1349,
      "UT": 1350,
      "ĠÐ¿": 1351,
      "ixel": 1352,
      "ãģ¾": 1353,
      "]]": 1354,
      "Ġmodule": 1355,
      "aises": 1356,
      "elect": 1357,
      "ĠIf": 1358,
      "mente": 1359,
      "ropout": 1360,
      "ous": 1361,
      "the": 1362,
      "ST": 1363,
      "Ġav": 1364,
      "Ġ%": 1365,
      "aj": 1366,
      "uration": 1367,
      "Ġcr": 1368,
      "LE": 1369,
      "ura": 1370,
      "ìĹ": 1371,
      "pad": 1372,
      "da": 1373,
      "Ġver": 1374,
      "Ã©s": 1375,
      "De": 1376,
      "vel": 1377,
      "Ġos": 1378,
      "atic": 1379,
      "user": 1380,
      "mp": 1381,
      "spec": 1382,
      "Ġdon": 1383,
      "bl": 1384,
      "Ġdict": 1385,
      "info": 1386,
      "En": 1387,
      "date": 1388,
      "ismo": 1389,
      "by": 1390,
      "Train": 1391,
      "adas": 1392,
      "group": 1393,
      "Īëĭ¤": 1394,
      "huggingface": 1395,
      "Ġlab": 1396,
      "aut": 1397,
      "arning": 1398,
      "amples": 1399,
      "ception": 1400,
      "Ġlayer": 1401,
      "start": 1402,
      "Ġasync": 1403,
      "ternal": 1404,
      "field": 1405,
      "âĶĢâĶĢ": 1406,
      "Ġdevice": 1407,
      "St": 1408,
      "ld": 1409,
      "logits": 1410,
      "ss": 1411,
      "Ġprov": 1412,
      "cript": 1413,
      "grad": 1414,
      "ference": 1415,
      "Ġexcept": 1416,
      "Ġfil": 1417,
      "anguage": 1418,
      "astAPI": 1419,
      "cel": 1420,
      "Øª": 1421,
      "Ġtransformers": 1422,
      "fix": 1423,
      "`):": 1424,
      "fr": 1425,
      "ëĭĪëĭ¤": 1426,
      "mb": 1427,
      "ĠX": 1428,
      "essage": 1429,
      "her": 1430,
      "imit": 1431,
      "ise": 1432,
      "Ġfloat": 1433,
      "Ġused": 1434,
      "Ġ!": 1435,
      "mod": 1436,
      "Ġany": 1437,
      "Ġtime": 1438,
      "empl": 1439,
      "Token": 1440,
      "çĶ¨": 1441,
      "Ġover": 1442,
      "default": 1443,
      "25": 1444,
      "ãģ§": 1445,
      "åı": 1446,
      "ëĬ": 1447,
      "'t": 1448,
      "Str": 1449,
      "paramet": 1450,
      "gs": 1451,
      "icas": 1452,
      "ustom": 1453,
      "ved": 1454,
      "ĠØ§ÙĦ": 1455,
      "11": 1456,
      "icos": 1457,
      "uer": 1458,
      "images": 1459,
      "âĢĻ": 1460,
      "Ġoutputs": 1461,
      "chann": 1462,
      "ĠSt": 1463,
      "ittest": 1464,
      "ING": 1465,
      "Ġvalid": 1466,
      "Ġorig": 1467,
      "append": 1468,
      "bias": 1469,
      "íķĺ": 1470,
      "ama": 1471,
      "format": 1472,
      "man": 1473,
      "utput": 1474,
      "ÙĨ": 1475,
      "resent": 1476,
      "ETTER": 1477,
      "cho": 1478,
      "ĠRe": 1479,
      "of": 1480,
      "ĠLETTER": 1481,
      "ĠCh": 1482,
      "Ġtrue": 1483,
      "Ġhad": 1484,
      "Ġsi": 1485,
      "Ġ6": 1486,
      "Ġpub": 1487,
      "ED": 1488,
      "Ġisinstance": 1489,
      "ification": 1490,
      "ont": 1491,
      "Ġstate": 1492,
      "alueError": 1493,
      "Ð²": 1494,
      "unk": 1495,
      "Ġ]": 1496,
      "Ġrun": 1497,
      "Ġdistributed": 1498,
      "Ġyour": 1499,
      "Ġaut": 1500,
      "ds": 1501,
      "coding": 1502,
      "ok": 1503,
      "[:": 1504,
      "34": 1505,
      "Ġhab": 1506,
      "Ġonly": 1507,
      "Ġentre": 1508,
      "Ã©t": 1509,
      "Ġ(\"": 1510,
      "ãĥ³": 1511,
      "iÃ©n": 1512,
      "vision": 1513,
      "gu": 1514,
      "aus": 1515,
      "à¤": 1516,
      "Ġcomp": 1517,
      "vir": 1518,
      "IS": 1519,
      "Ġwork": 1520,
      "content": 1521,
      "å®": 1522,
      "down": 1523,
      "Ð´": 1524,
      "ms": 1525,
      "Ġ19": 1526,
      "((": 1527,
      "Ġreg": 1528,
      "Ġinit": 1529,
      "aba": 1530,
      "word": 1531,
      "ote": 1532,
      "ian": 1533,
      "Ġloss": 1534,
      "mit": 1535,
      "plit": 1536,
      "ater": 1537,
      "sc": 1538,
      "ãĤĭ": 1539,
      "Ġcreate": 1540,
      "ëĬĶ": 1541,
      "block": 1542,
      "04": 1543,
      "ãģ¯": 1544,
      "Ġ()": 1545,
      "la": 1546,
      "seq": 1547,
      "ìĦ": 1548,
      "NT": 1549,
      "ĠWe": 1550,
      "Ġforward": 1551,
      "red": 1552,
      "Ġloc": 1553,
      "ora": 1554,
      "Ġsequence": 1555,
      "Ġtry": 1556,
      "19": 1557,
      "br": 1558,
      "ider": 1559,
      "dataset": 1560,
      "Ġej": 1561,
      "Ġother": 1562,
      "checkpoint": 1563,
      "Ġcur": 1564,
      "ĠCom": 1565,
      "ĠEx": 1566,
      "ptions": 1567,
      "ines": 1568,
      "Ġ7": 1569,
      "ÑģÑĤ": 1570,
      "*,": 1571,
      "ÙĪ": 1572,
      "ĠAuto": 1573,
      "Ġaf": 1574,
      "ĠĠĠĠĠĠĠĠĠĠĠĠĠĠĠĠĠĠĠĠĠĠĠĠĠĠĠĠĠĠĠ": 1575,
      "ched": 1576,
      "Ġsus": 1577,
      "ĠĠĠĠĠĠĠĠĠĠĠĠĠ": 1578,
      "og": 1579,
      "Ġobject": 1580,
      "ound": 1581,
      "Image": 1582,
      "ë¥": 1583,
      "Ġmatch": 1584,
      "Ã³n": 1585,
      "loss": 1586,
      "Output": 1587,
      "Ġmet": 1588,
      "ify": 1589,
      "utorial": 1590,
      "Ġ$": 1591,
      "An": 1592,
      "play": 1593,
      "Ġimpl": 1594,
      "ike": 1595,
      "Ġresponse": 1596,
      "sl": 1597,
      "rompt": 1598,
      "Ġtrans": 1599,
      "Pre": 1600,
      "Ġprint": 1601,
      "Ġpu": 1602,
      "Processor": 1603,
      "Ġargs": 1604,
      "Ġfield": 1605,
      "Ar": 1606,
      "Ġtuple": 1607,
      "20": 1608,
      "eros": 1609,
      "sub": 1610,
      "ven": 1611,
      "view": 1612,
      "aw": 1613,
      "nn": 1614,
      "right": 1615,
      "æľ": 1616,
      "Ġ[`": 1617,
      "Ġdoc": 1618,
      "tokenizer": 1619,
      "ined": 1620,
      "tain": 1621,
      "features": 1622,
      "Ġfeat": 1623,
      "Ġusing": 1624,
      "aron": 1625,
      "Ã¼": 1626,
      "Ġprocess": 1627,
      "CT": 1628,
      "IG": 1629,
      "PE": 1630,
      "foo": 1631,
      "Ġprim": 1632,
      "DE": 1633,
      "ree": 1634,
      "='": 1635,
      "dropout": 1636,
      "auto": 1637,
      "ĠAl": 1638,
      "ailable": 1639,
      "items": 1640,
      "Ġsupport": 1641,
      "Float": 1642,
      "ĠÑ": 1643,
      "ights": 1644,
      "inc": 1645,
      "ative": 1646,
      "ĠYou": 1647,
      "rol": 1648,
      "style": 1649,
      "Ġmore": 1650,
      "Ġprodu": 1651,
      "channels": 1652,
      "Ġmethod": 1653,
      "ĠTest": 1654,
      "åĲ": 1655,
      "Ġinto": 1656,
      "RE": 1657,
      "Ġnumber": 1658,
      "Ġlib": 1659,
      "uild": 1660,
      "ename": 1661,
      "ply": 1662,
      "attentions": 1663,
      "Ġvm": 1664,
      "ĠÂ«": 1665,
      "lib": 1666,
      "dtype": 1667,
      "endo": 1668,
      "Ġ('": 1669,
      "Ġalg": 1670,
      "time": 1671,
      "ugh": 1672,
      "\"),": 1673,
      "ner": 1674,
      "14": 1675,
      "celer": 1676,
      "ource": 1677,
      "conv": 1678,
      "Ġ[\"": 1679,
      "cor": 1680,
      "}}": 1681,
      "ream": 1682,
      "ars": 1683,
      "post": 1684,
      "22": 1685,
      "ins": 1686,
      "object": 1687,
      "result": 1688,
      "ìļ": 1689,
      "Ġdefaults": 1690,
      "ler": 1691,
      "alid": 1692,
      "run": 1693,
      "ross": 1694,
      "Com": 1695,
      "pack": 1696,
      "denc": 1697,
      "Ġthey": 1698,
      "Ġstart": 1699,
      "reg": 1700,
      "Ã§": 1701,
      "Ġsim": 1702,
      "base": 1703,
      "ick": 1704,
      "Ġshape": 1705,
      "ware": 1706,
      "istem": 1707,
      "Ġmin": 1708,
      "old": 1709,
      "ìĬ": 1710,
      "ITH": 1711,
      "vo": 1712,
      "ãĥĪ": 1713,
      "Ġencoder": 1714,
      "Ġdirect": 1715,
      "ãģ¾ãģĻ": 1716,
      "clude": 1717,
      "function": 1718,
      "ĠAN": 1719,
      "ĠIt": 1720,
      "Ġhand": 1721,
      "Â»": 1722,
      "SE": 1723,
      "Ġelif": 1724,
      "Ãºn": 1725,
      "tester": 1726,
      "####": 1727,
      "Name": 1728,
      "ambiÃ©n": 1729,
      "arch": 1730,
      "18": 1731,
      "igu": 1732,
      "Ġ10": 1733,
      "medi": 1734,
      "Ð°Ñ": 1735,
      "Ñĭ": 1736,
      "place": 1737,
      "ë¡": 1738,
      "bar": 1739,
      "Ġpast": 1740,
      "Re": 1741,
      "Ġfirst": 1742,
      "Ġeach": 1743,
      "ìĹĲ": 1744,
      "();": 1745,
      "be": 1746,
      "Ġdtype": 1747,
      "Ġrange": 1748,
      "Ġexport": 1749,
      "ipel": 1750,
      "Ġtensor": 1751,
      "Ġprop": 1752,
      "lm": 1753,
      "params": 1754,
      "Ġutil": 1755,
      "Ġ{\\": 1756,
      "assertR": 1757,
      "import": 1758,
      "ãĤ¹": 1759,
      "Ġfl": 1760,
      "erc": 1761,
      "ptimizer": 1762,
      "Ġsobre": 1763,
      "trans": 1764,
      "56": 1765,
      "ional": 1766,
      "Ġvalues": 1767,
      "ina": 1768,
      "Class": 1769,
      "query": 1770,
      "ĠWITH": 1771,
      "03": 1772,
      "ìĿ´": 1773,
      "weights": 1774,
      "array": 1775,
      "ake": 1776,
      "indow": 1777,
      "Ġmult": 1778,
      "link": 1779,
      "ë¥¼": 1780,
      "less": 1781,
      "Ø©": 1782,
      "ìĿĦ": 1783,
      "\"],": 1784,
      "method": 1785,
      "Ġpue": 1786,
      "ayer": 1787,
      "'),": 1788,
      "['": 1789,
      "Ġend": 1790,
      "ador": 1791,
      "assertRaises": 1792,
      "ãģ¦": 1793,
      "Ġprocessor": 1794,
      "Ð¾Ð²": 1795,
      "FloatTensor": 1796,
      "Ġcas": 1797,
      "tutorial": 1798,
      "eter": 1799,
      "ither": 1800,
      "Id": 1801,
      "vocab": 1802,
      "IL": 1803,
      "work": 1804,
      "========": 1805,
      "ĠZ": 1806,
      "inear": 1807,
      "bject": 1808,
      "Par": 1809,
      "ĠLos": 1810,
      ".\"\"\"": 1811,
      "ules": 1812,
      "my": 1813,
      "Ġhead": 1814,
      "Ġload": 1815,
      "Ġattn": 1816,
      "Ġquery": 1817,
      "ql": 1818,
      "lobal": 1819,
      "img": 1820,
      "Ġcomput": 1821,
      "uffer": 1822,
      "keys": 1823,
      "off": 1824,
      "Ġoper": 1825,
      "Ġseg": 1826,
      "Ġ#[": 1827,
      "Ġlanguage": 1828,
      "expect": 1829,
      "Tokenizer": 1830,
      "Ġrequired": 1831,
      "ones": 1832,
      "Ġìŀ": 1833,
      "fast": 1834,
      "Ġpo": 1835,
      "viron": 1836,
      "Ġed": 1837,
      "().__": 1838,
      "www": 1839,
      "Ġclient": 1840,
      "Ġcopy": 1841,
      "led": 1842,
      "15": 1843,
      "tensors": 1844,
      "ese": 1845,
      "ute": 1846,
      "ÐµÑĢ": 1847,
      "Ġpers": 1848,
      "cent": 1849,
      "Ġneed": 1850,
      "ĠAp": 1851,
      "mark": 1852,
      "CH": 1853,
      "})": 1854,
      "emplate": 1855,
      "Trained": 1856,
      "ipeline": 1857,
      "Un": 1858,
      "ttp": 1859,
      "loc": 1860,
      "Ġreal": 1861,
      "13": 1862,
      "ior": 1863,
      "ings": 1864,
      "imiento": 1865,
      "PU": 1866,
      "prob": 1867,
      "Ġ12": 1868,
      "Ġwhere": 1869,
      "struct": 1870,
      "Ġmo": 1871,
      "ĠPar": 1872,
      "ĠÃ©": 1873,
      "./": 1874,
      "RO": 1875,
      "wh": 1876,
      "Ġsign": 1877,
      "tp": 1878,
      "ush": 1879,
      "']": 1880,
      "Ġformat": 1881,
      "Ġlimit": 1882,
      "ĠPro": 1883,
      "width": 1884,
      "ATIN": 1885,
      "Ġ[]": 1886,
      "ful": 1887,
      "Ġbase": 1888,
      "Ã©r": 1889,
      "ten": 1890,
      "åĪ": 1891,
      "ĠLATIN": 1892,
      "mas": 1893,
      "Ġtip": 1894,
      "Ġexist": 1895,
      "Ġlabels": 1896,
      "MA": 1897,
      "ech": 1898,
      "return": 1899,
      "vm": 1900,
      "open": 1901,
      "Ġpatch": 1902,
      "idos": 1903,
      "Ġspecific": 1904,
      "pa": 1905,
      "Ġ9": 1906,
      "Ġmode": 1907,
      "Ø¯": 1908,
      "Ġobj": 1909,
      "Ġwidth": 1910,
      "Ġargument": 1911,
      "ĠValueError": 1912,
      "Ġimages": 1913,
      "Ġsistem": 1914,
      "Ð¿": 1915,
      "types": 1916,
      "gen": 1917,
      "nect": 1918,
      "ãģ¨": 1919,
      "ĠìĿ": 1920,
      "Ġdecoder": 1921,
      "fore": 1922,
      "ÐµÐ½": 1923,
      "Ġot": 1924,
      "={": 1925,
      "wo": 1926,
      "ĠPr": 1927,
      "Ġha": 1928,
      "Ġu": 1929,
      "ategy": 1930,
      "mos": 1931,
      "TP": 1932,
      "any": 1933,
      "ors": 1934,
      "Ġpadding": 1935,
      "Ġpuede": 1936,
      "dev": 1937,
      "Ġ{'": 1938,
      "Ø±": 1939,
      "Ġsp": 1940,
      "core": 1941,
      "With": 1942,
      "Ġmust": 1943,
      "ano": 1944,
      "ðŁļ¨ðŁļ¨ðŁļ¨ðŁļ¨ðŁļ¨ðŁļ¨ðŁļ¨ðŁļ¨": 1945,
      "100": 1946,
      "}.": 1947,
      "Ġdoes": 1948,
      "ìł": 1949,
      "ĠIS": 1950,
      "annot": 1951,
      "box": 1952,
      "sum": 1953,
      "Ref": 1954,
      "Cl": 1955,
      "Ġprob": 1956,
      "Ġthem": 1957,
      "processing": 1958,
      "Ġfue": 1959,
      "Ġoff": 1960,
      "ĠâĢĶ": 1961,
      "Ġind": 1962,
      "Ġlast": 1963,
      "ightning": 1964,
      "Ġher": 1965,
      "sup": 1966,
      "Ġapplic": 1967,
      "50": 1968,
      "html": 1969,
      "wen": 1970,
      "arn": 1971,
      "Ġht": 1972,
      "(&": 1973,
      "17": 1974,
      "...": 1975,
      ")]": 1976,
      "ras": 1977,
      "Ġ[[": 1978,
      "Ġread": 1979,
      "mult": 1980,
      "eturn": 1981,
      "Path": 1982,
      "miss": 1983,
      "ĠCo": 1984,
      "display": 1985,
      "Ġback": 1986,
      "Ġnorm": 1987,
      "Ġrep": 1988,
      "atus": 1989,
      "iple": 1990,
      "des": 1991,
      "ãĤĮ": 1992,
      "Layer": 1993,
      "rel": 1994,
      "Ġhim": 1995,
      "åħ": 1996,
      "ÃŃs": 1997,
      "iciÃ³n": 1998,
      "hel": 1999,
      "prisma": 2000,
      "itional": 2001,
      "Ã¡t": 2002,
      "Ġoriginal": 2003,
      "Ġwere": 2004,
      "fg": 2005,
      "Result": 2006,
      "Ġbas": 2007,
      "ä½¿": 2008,
      "ativ": 2009,
      "ERT": 2010,
      "training": 2011,
      "Ġitem": 2012,
      "Ġsrc": 2013,
      "Ġcomple": 2014,
      "Ġam": 2015,
      "emory": 2016,
      "son": 2017,
      "skip": 2018,
      "ansformer": 2019,
      "Ġsame": 2020,
      "ely": 2021,
      "Ġfol": 2022,
      "pendenc": 2023,
      "Ġtokens": 2024,
      "create": 2025,
      "ables": 2026,
      "ĠSee": 2027,
      "sw": 2028,
      "ë¡ľ": 2029,
      "Ser": 2030,
      "ãģĦ": 2031,
      "Object": 2032,
      "Ġlocal": 2033,
      "Ġdec": 2034,
      "Ġtheir": 2035,
      "height": 2036,
      "iente": 2037,
      "join": 2038,
      "]:": 2039,
      "Ġvari": 2040,
      "ĠÐ·": 2041,
      "Ġeste": 2042,
      "AM": 2043,
      "order": 2044,
      "Ġ202": 2045,
      "aseModel": 2046,
      "ody": 2047,
      "Ġinform": 2048,
      "apt": 2049,
      "Ġmon": 2050,
      "æĸ": 2051,
      "Ġmen": 2052,
      "lean": 2053,
      "vol": 2054,
      "Ġthere": 2055,
      "ĠModel": 2056,
      "version": 2057,
      "PT": 2058,
      "Ġsa": 2059,
      "(-": 2060,
      "ario": 2061,
      "poch": 2062,
      "book": 2063,
      "pend": 2064,
      "ild": 2065,
      "Ġtien": 2066,
      "split": 2067,
      "List": 2068,
      "Ġelement": 2069,
      "ĠtambiÃ©n": 2070,
      "Ġtraining": 2071,
      "Ġcontain": 2072,
      "Ġour": 2073,
      "ÃŃan": 2074,
      "atr": 2075,
      "fn": 2076,
      "Ġhttp": 2077,
      "Ġline": 2078,
      "apping": 2079,
      "Ġcontin": 2080,
      "ÑĤÐ¸": 2081,
      "celerator": 2082,
      "Ġcar": 2083,
      "Ġ16": 2084,
      "Ġpued": 2085,
      "Ġgo": 2086,
      "ng": 2087,
      "step": 2088,
      "Ġ!=": 2089,
      "ausal": 2090,
      "round": 2091,
      "Ġwould": 2092,
      "0000": 2093,
      "Ġeither": 2094,
      "irt": 2095,
      "Ġsoft": 2096,
      "Th": 2097,
      "Is": 2098,
      "Ġ{}": 2099,
      "Ġå": 2100,
      "Ġcual": 2101,
      "Ġtrainer": 2102,
      "Ch": 2103,
      "Ġhel": 2104,
      "std": 2105,
      "pytorch": 2106,
      "pth": 2107,
      "Ġdos": 2108,
      "Ġ):": 2109,
      "za": 2110,
      "ĠCON": 2111,
      "ALL": 2112,
      "Valid": 2113,
      "\");": 2114,
      "tx": 2115,
      "count": 2116,
      "ĠFor": 2117,
      "ino": 2118,
      "`]": 2119,
      "ead": 2120,
      "ays": 2121,
      "ãĥ«": 2122,
      "Ġfinal": 2123,
      "ãģŁ": 2124,
      "emplo": 2125,
      "aclass": 2126,
      "LIC": 2127,
      "entes": 2128,
      "Ġpa": 2129,
      "mediate": 2130,
      "Ġcap": 2131,
      "bert": 2132,
      "video": 2133,
      "displaystyle": 2134,
      "Ġdet": 2135,
      "Ġespec": 2136,
      "Ġext": 2137,
      "gram": 2138,
      "24": 2139,
      "äº": 2140,
      "Ġtod": 2141,
      "Ġhttps": 2142,
      "Ġpol": 2143,
      "Se": 2144,
      "Ã¨": 2145,
      "Ġmed": 2146,
      "ttention": 2147,
      "ender": 2148,
      "Ġimplement": 2149,
      "Ġgroup": 2150,
      "client": 2151,
      "ÐµÑĤ": 2152,
      "Ġdur": 2153,
      "docstring": 2154,
      "Ġexpress": 2155,
      "amiento": 2156,
      "var": 2157,
      "Ġdeb": 2158,
      "parse": 2159,
      "ci": 2160,
      "argo": 2161,
      "Ġq": 2162,
      "Ġcache": 2163,
      "78": 2164,
      "models": 2165,
      "go": 2166,
      "abil": 2167,
      "ĠÐ´": 2168,
      "310": 2169,
      "Ġthan": 2170,
      "Ġhref": 2171,
      "top": 2172,
      "available": 2173,
      "expected": 2174,
      "30": 2175,
      "`:": 2176,
      "unittest": 2177,
      "ãģĮ": 2178,
      "last": 2179,
      "Ġafter": 2180,
      "incip": 2181,
      "cls": 2182,
      "LI": 2183,
      "Speed": 2184,
      "tim": 2185,
      "Ġpixel": 2186,
      "ĠQ": 2187,
      "Ġsys": 2188,
      "Ġ],": 2189,
      "Ġdist": 2190,
      "Ġexp": 2191,
      "è¿": 2192,
      "pty": 2193,
      "Ġbefore": 2194,
      "ĠHe": 2195,
      "Ġtitle": 2196,
      "Ġpas": 2197,
      "Ġvo": 2198,
      "eces": 2199,
      "Ġtan": 2200,
      "Ġmy": 2201,
      "Ġvis": 2202,
      "Ġmain": 2203,
      "ãģª": 2204,
      "ä½¿çĶ¨": 2205,
      "CK": 2206,
      "epSpeed": 2207,
      "Ġbet": 2208,
      "ingle": 2209,
      "peech": 2210,
      "normal": 2211,
      "resol": 2212,
      "lex": 2213,
      "Long": 2214,
      "ux": 2215,
      "parameters": 2216,
      "Ġwrit": 2217,
      "epspeed": 2218,
      "transformers": 2219,
      "Ġles": 2220,
      "Ġbeen": 2221,
      "TTP": 2222,
      "ista": 2223,
      "Ġuser": 2224,
      "vironment": 2225,
      "ĠÐ½": 2226,
      "ager": 2227,
      "Ġconvert": 2228,
      "Linear": 2229,
      "Ġhac": 2230,
      "comp": 2231,
      "cond": 2232,
      "Ġop": 2233,
      "ĠÐ¾": 2234,
      "ê³": 2235,
      "ik": 2236,
      "ĠWh": 2237,
      "Ġpytest": 2238,
      "assertTrue": 2239,
      "File": 2240,
      "title": 2241,
      "IONS": 2242,
      "attern": 2243,
      "ÃŃn": 2244,
      "Ġmake": 2245,
      "audio": 2246,
      "Ġcase": 2247,
      "erg": 2248,
      "ivers": 2249,
      "Ġalso": 2250,
      "write": 2251,
      "allel": 2252,
      "past": 2253,
      "ľ¨": 2254,
      "blank": 2255,
      "izes": 2256,
      "ĠOF": 2257,
      "OT": 2258,
      "ical": 2259,
      "[-": 2260,
      "yst": 2261,
      "modeling": 2262,
      "Ġblock": 2263,
      "å¤": 2264,
      "ĠÑģ": 2265,
      "ish": 2266,
      "ax": 2267,
      "æķ": 2268,
      "andom": 2269,
      "OUT": 2270,
      "pol": 2271,
      "Ġconfiguration": 2272,
      "ĠQu": 2273,
      "tribute": 2274,
      "Ġsome": 2275,
      "ĠAny": 2276,
      "ĠPython": 2277,
      "antes": 2278,
      "Ġperson": 2279,
      "Ġprincip": 2280,
      "Ġversion": 2281,
      "mand": 2282,
      "lot": 2283,
      "tract": 2284,
      "eval": 2285,
      "prepare": 2286,
      "pose": 2287,
      "ializer": 2288,
      "pyright": 2289,
      "ĠAPI": 2290,
      "Gener": 2291,
      "rope": 2292,
      "uda": 2293,
      "ãģĵ": 2294,
      "Det": 2295,
      "ä¾": 2296,
      "istr": 2297,
      "Īĺ": 2298,
      "Ġinv": 2299,
      "°Ģ": 2300,
      "Ġseq": 2301,
      "Ġpod": 2302,
      "Ġselect": 2303,
      "ey": 2304,
      "Ġfunc": 2305,
      "cription": 2306,
      "ãĥ¼ãĤ": 2307,
      "FastAPI": 2308,
      "cul": 2309,
      "tmp": 2310,
      "feature": 2311,
      "Ġits": 2312,
      "oader": 2313,
      "Ø§Ø": 2314,
      "close": 2315,
      "ry": 2316,
      "ernel": 2317,
      "tuple": 2318,
      "æĪ": 2319,
      "ĠĠĠĠĠĠĠĠĠĠĠĠ": 2320,
      "ÃŃt": 2321,
      "cat": 2322,
      "Ġdataset": 2323,
      "Ġfin": 2324,
      "obj": 2325,
      "bytes": 2326,
      "ĠFr": 2327,
      "ito": 2328,
      "span": 2329,
      "quant": 2330,
      "ets": 2331,
      "ĠAll": 2332,
      "Ã±o": 2333,
      "wrap": 2334,
      "88": 2335,
      "Ã£": 2336,
      "vite": 2337,
      "Ġwho": 2338,
      "ID": 2339,
      "Ġsol": 2340,
      "Ġsur": 2341,
      ",\"": 2342,
      "Ãª": 2343,
      "The": 2344,
      "ĠOk": 2345,
      "Ġcurrent": 2346,
      "Ġlogits": 2347,
      "bit": 2348,
      "ious": 2349,
      "SON": 2350,
      "ãĥĩ": 2351,
      "ĠOr": 2352,
      "Ġexample": 2353,
      "Ġcheckpoint": 2354,
      "Ġ`(": 2355,
      "eze": 2356,
      "ĠTo": 2357,
      "ĠOR": 2358,
      "ĠÃł": 2359,
      "Ã£o": 2360,
      "exp": 2361,
      "Ġlong": 2362,
      "orld": 2363,
      "PreTrained": 2364,
      "label": 2365,
      "Ġthen": 2366,
      "Ġfollow": 2367,
      "Ġesta": 2368,
      "LongTensor": 2369,
      "ags": 2370,
      "umn": 2371,
      "Ġcos": 2372,
      "Ð·": 2373,
      "part": 2374,
      "ĠApache": 2375,
      "Ġmuch": 2376,
      "names": 2377,
      "Ġsoftware": 2378,
      "[:,": 2379,
      "Client": 2380,
      "sm": 2381,
      "AD": 2382,
      "(**": 2383,
      "target": 2384,
      "arse": 2385,
      "ÃŃas": 2386,
      "ĠHugging": 2387,
      "steps": 2388,
      "pli": 2389,
      "LO": 2390,
      "epoch": 2391,
      "pixel": 2392,
      "License": 2393,
      "prefix": 2394,
      "Ġpero": 2395,
      "assertIs": 2396,
      "special": 2397,
      "Ġden": 2398,
      "unto": 2399,
      "Ġobtain": 2400,
      "Ġbr": 2401,
      "OD": 2402,
      "Ġlle": 2403,
      "hand": 2404,
      "factor": 2405,
      "only": 2406,
      "achine": 2407,
      "local": 2408,
      "iales": 2409,
      "Ġutiliz": 2410,
      "ek": 2411,
      "gle": 2412,
      "*):": 2413,
      "Text": 2414,
      "Ġ+=": 2415,
      "Ġsoc": 2416,
      "AN": 2417,
      "MALL": 2418,
      "Ġlength": 2419,
      ">,": 2420,
      "Ġsour": 2421,
      "Ġlogger": 2422,
      "irtual": 2423,
      "ĠÐº": 2424,
      "http": 2425,
      "Ġjust": 2426,
      "respon": 2427,
      "ä¸Ģ": 2428,
      "other": 2429,
      "prec": 2430,
      "ifier": 2431,
      "Attention": 2432,
      "Ġpe": 2433,
      "ĠRes": 2434,
      "ires": 2435,
      "ails": 2436,
      "Ġdesar": 2437,
      "uf": 2438,
      "del": 2439,
      "Ġlike": 2440,
      "ystem": 2441,
      "context": 2442,
      "Ġten": 2443,
      "Form": 2444,
      "Ġ../": 2445,
      "gan": 2446,
      "uciÃ³n": 2447,
      "ctx": 2448,
      "Norm": 2449,
      "ĠAs": 2450,
      "Ġheight": 2451,
      "rs": 2452,
      "TAL": 2453,
      "Ġhow": 2454,
      "oth": 2455,
      "ession": 2456,
      "ieron": 2457,
      "crib": 2458,
      "ignore": 2459,
      "Ùĥ": 2460,
      "bool": 2461,
      "gine": 2462,
      "ested": 2463,
      "ĠFastAPI": 2464,
      "ÑĢÐ¸": 2465,
      "vid": 2466,
      "ton": 2467,
      "ution": 2468,
      "Ġder": 2469,
      "Ġnue": 2470,
      "update": 2471,
      "iment": 2472,
      "decode": 2473,
      "forward": 2474,
      "mlp": 2475,
      "ĠIN": 2476,
      "ferent": 2477,
      "UN": 2478,
      "let": 2479,
      "mut": 2480,
      "reed": 2481,
      "examples": 2482,
      "ather": 2483,
      "ĠANY": 2484,
      "Ġtwo": 2485,
      "Ġrepresent": 2486,
      "Ġgu": 2487,
      "sequence": 2488,
      "rate": 2489,
      "Ġci": 2490,
      "ĠðŁ": 2491,
      "84": 2492,
      "Ð°Ð½": 2493,
      "dd": 2494,
      "itor": 2495,
      "ĠÙħ": 2496,
      "offset": 2497,
      "Ġnext": 2498,
      "05": 2499,
      "Ġll": 2500,
      "Ġhere": 2501,
      "ating": 2502,
      "keep": 2503,
      "ĠSMALL": 2504,
      "Ġmodels": 2505,
      "Ġdie": 2506,
      "ausalLM": 2507,
      "ìŀ": 2508,
      "36": 2509,
      "alias": 2510,
      "Ġcontext": 2511,
      "kv": 2512,
      "ason": 2513,
      "bin": 2514,
      "Ġsig": 2515,
      "scale": 2516,
      "Ġquant": 2517,
      "76": 2518,
      "¨ë": 2519,
      "Ġnp": 2520,
      "oe": 2521,
      "à°": 2522,
      "raw": 2523,
      "orÃŃa": 2524,
      "ãĥ¼ãĥ": 2525,
      "Ġlaw": 2526,
      "Ġins": 2527,
      "ĠPre": 2528,
      "parent": 2529,
      "bone": 2530,
      "ural": 2531,
      "Ġgover": 2532,
      "rect": 2533,
      "Dict": 2534,
      "Ġoc": 2535,
      "mt": 2536,
      "ãģĻãĤĭ": 2537,
      "Ĥ¬": 2538,
      "ai": 2539,
      "éĢ": 2540,
      "pydantic": 2541,
      "Ġtot": 2542,
      "arge": 2543,
      "acter": 2544,
      "validate": 2545,
      "expert": 2546,
      "ì§": 2547,
      "IND": 2548,
      "ìĦľ": 2549,
      "75": 2550,
      "estion": 2551,
      "Face": 2552,
      "eta": 2553,
      "dum": 2554,
      "can": 2555,
      "Ġtyp": 2556,
      "ĠÐ¸": 2557,
      "ìĬµ": 2558,
      "Ġprovide": 2559,
      "idual": 2560,
      "Ð¹": 2561,
      "Ùģ": 2562,
      "enses": 2563,
      "ĠÐ¼": 2564,
      "Mix": 2565,
      "Ġkn": 2566,
      "By": 2567,
      "Ġti": 2568,
      "adores": 2569,
      "Ġabout": 2570,
      "\\\\": 2571,
      "Ġ200": 2572,
      "generate": 2573,
      "><": 2574,
      "è¦": 2575,
      "pter": 2576,
      "ĠVersion": 2577,
      "current": 2578,
      "iendo": 2579,
      "Ġindex": 2580,
      "RL": 2581,
      "Ġwriting": 2582,
      "æĺ": 2583,
      "ĠType": 2584,
      "NTI": 2585,
      "find": 2586,
      "ugin": 2587,
      "Ġfeature": 2588,
      "Ġvideo": 2589,
      "idades": 2590,
      "Ġtests": 2591,
      "Ġejemplo": 2592,
      "ences": 2593,
      "ister": 2594,
      "Ñħ": 2595,
      "func": 2596,
      "Ġdifer": 2597,
      "ĠSome": 2598,
      "det": 2599,
      "Ġrest": 2600,
      "Ġforma": 2601,
      "ìĿĺ": 2602,
      "Ġurl": 2603,
      "common": 2604,
      "Ġgre": 2605,
      "Ã±os": 2606,
      "roll": 2607,
      "Ġfalse": 2608,
      "ä»¥": 2609,
      "Ġ};": 2610,
      "Ñĩ": 2611,
      "Ġhl": 2612,
      "long": 2613,
      "--------------------------------": 2614,
      "Input": 2615,
      "ends": 2616,
      "ĠReturn": 2617,
      "Ġbo": 2618,
      "Ġprisma": 2619,
      "ãģķ": 2620,
      "ĠLas": 2621,
      "save": 2622,
      "Ġgran": 2623,
      "node": 2624,
      "Ġni": 2625,
      "ĠEr": 2626,
      "very": 2627,
      "ARRA": 2628,
      "ìļ©": 2629,
      "ialize": 2630,
      "hether": 2631,
      "ÑĤÑĮ": 2632,
      "Ġnow": 2633,
      "Ġëª": 2634,
      "rl": 2635,
      "UL": 2636,
      "oad": 2637,
      "Ġhum": 2638,
      "Ġnormal": 2639,
      "âĶĢâĶĢâĶĢâĶĢ": 2640,
      "Ġskip": 2641,
      "Ġcam": 2642,
      "Case": 2643,
      "annel": 2644,
      "Ġpermiss": 2645,
      "Ð¾Ð»": 2646,
      "__()": 2647,
      "replace": 2648,
      "into": 2649,
      "aban": 2650,
      "izaciÃ³n": 2651,
      "Ġsource": 2652,
      "aces": 2653,
      "Ġparte": 2654,
      "Ø¹": 2655,
      "Ġopen": 2656,
      "_{": 2657,
      "eno": 2658,
      "Ġ),": 2659,
      "project": 2660,
      "Ġaudio": 2661,
      "Ġrec": 2662,
      "asta": 2663,
      "Ġsl": 2664,
      "Ġdest": 2665,
      "move": 2666,
      "Ġinclu": 2667,
      "Ġcent": 2668,
      "ĠCopyright": 2669,
      "Param": 2670,
      "Ġiter": 2671,
      "Ġdi": 2672,
      "support": 2673,
      "Ġ{*": 2674,
      "pytest": 2675,
      "Ġbias": 2676,
      "Ġmar": 2677,
      "aph": 2678,
      "Ġcore": 2679,
      "aje": 2680,
      "Ġya": 2681,
      "Ġ*}": 2682,
      "logÃŃa": 2683,
      "80": 2684,
      "queeze": 2685,
      "Ġrequest": 2686,
      "ÃŃst": 2687,
      "Ġ,": 2688,
      "ampling": 2689,
      "Ġapplicable": 2690,
      "duc": 2691,
      "igo": 2692,
      "oria": 2693,
      "Ġgrad": 2694,
      "Ġmessage": 2695,
      "Ġ100": 2696,
      "Ġweights": 2697,
      "ĠìĿ´": 2698,
      "Ġexc": 2699,
      "Ġsee": 2700,
      "ĠTe": 2701,
      "Ġalgun": 2702,
      "86": 2703,
      "ENSE": 2704,
      "Ġsaid": 2705,
      "ĠLic": 2706,
      "ĠCAPI": 2707,
      "external": 2708,
      "}\"": 2709,
      "Ġvi": 2710,
      "AB": 2711,
      "ĠBAS": 2712,
      "Ġtu": 2713,
      "Ġvocab": 2714,
      "ĠWARRA": 2715,
      "ensed": 2716,
      "Ġaplic": 2717,
      "Ġagreed": 2718,
      "96": 2719,
      "ray": 2720,
      "ĠSelf": 2721,
      "oogle": 2722,
      "DIT": 2723,
      "ĠArgs": 2724,
      "ĠCAPITAL": 2725,
      "Ġ../../": 2726,
      "mock": 2727,
      "Ġproces": 2728,
      "NTIES": 2729,
      "ĠWARRANTIES": 2730,
      "Ġpueden": 2731,
      "untime": 2732,
      "Ġpres": 2733,
      "encode": 2734,
      "va": 2735,
      "root": 2736,
      "LICENSE": 2737,
      "scal": 2738,
      "åı¯": 2739,
      "Ġsistema": 2740,
      "Ġestr": 2741,
      "Ġcompli": 2742,
      "!(": 2743,
      "Ġdefin": 2744,
      "\"))": 2745,
      "Ġdown": 2746,
      "prompt": 2747,
      "Ġpermissions": 2748,
      "Ġtotal": 2749,
      "ana": 2750,
      "testing": 2751,
      "adata": 2752,
      "Ġdesde": 2753,
      "Ġda": 2754,
      "ĠLicensed": 2755,
      "empor": 2756,
      "Ġimplied": 2757,
      "ĠUnless": 2758,
      "Data": 2759,
      "np": 2760,
      "Classification": 2761,
      "Ġcompliance": 2762,
      "hub": 2763,
      "ĠGener": 2764,
      "200": 2765,
      "licenses": 2766,
      "async": 2767,
      "char": 2768,
      "Ġdocument": 2769,
      "Ġref": 2770,
      "Ġtop": 2771,
      "ĠWITHOUT": 2772,
      "åĬ": 2773,
      "Ġthread": 2774,
      "apache": 2775,
      "Ġresol": 2776,
      "ĠKIND": 2777,
      "ĠCONDIT": 2778,
      "lect": 2779,
      "propert": 2780,
      "Ġhelp": 2781,
      "range": 2782,
      "component": 2783,
      "Ġcontent": 2784,
      "Ġlimitations": 2785,
      "CausalLM": 2786,
      "mean": 2787,
      "Ñİ": 2788,
      "ĠCONDITIONS": 2789,
      "ĠBASIS": 2790,
      "ĠìŀĪ": 2791,
      "\"{": 2792,
      "Ġsm": 2793,
      "ĠestÃ¡": 2794,
      "Ġemb": 2795,
      "Ã©c": 2796,
      "è¡": 2797,
      "06": 2798,
      "abled": 2799,
      "Ġtask": 2800,
      "encias": 2801,
      "ments": 2802,
      "ìĬµëĭĪëĭ¤": 2803,
      "ĠPor": 2804,
      "=\"_": 2805,
      "Ġdatos": 2806,
      "Ã¶": 2807,
      "ä½ł": 2808,
      "ress": 2809,
      "squeeze": 2810,
      "ãĤ¤": 2811,
      "Ġdifferent": 2812,
      "Ġgoverning": 2813,
      "String": 2814,
      "first": 2815,
      "erved": 2816,
      "Ã³g": 2817,
      "ivos": 2818,
      "eters": 2819,
      "Ġsal": 2820,
      "ĠÑĤ": 2821,
      "ynam": 2822,
      "';": 2823,
      "ciones": 2824,
      "Ġ====": 2825,
      "ĠImage": 2826,
      "åľ¨": 2827,
      "_(": 2828,
      "Ġchar": 2829,
      "QL": 2830,
      "Ġcuando": 2831,
      "iva": 2832,
      "Ġgeneral": 2833,
      "rough": 2834,
      "Not": 2835,
      "ĠìĤ¬": 2836,
      "bas": 2837,
      "itt": 2838,
      "ĠHuggingFace": 2839,
      "Ġallow": 2840,
      "Ġstruct": 2841,
      "Ø¨": 2842,
      "Ġthese": 2843,
      "ĠĠĠĠĠĠĠĠĠĠĠĠĠĠĠĠĠĠĠĠĠĠĠĠ": 2844,
      "generation": 2845,
      "require": 2846,
      "tractor": 2847,
      "ENT": 2848,
      "ilar": 2849,
      "extra": 2850,
      "Ġcal": 2851,
      "ÙĤ": 2852,
      "Ġprec": 2853,
      "env": 2854,
      "indices": 2855,
      "39": 2856,
      "cause": 2857,
      "Ġ'@": 2858,
      "¸°": 2859,
      "older": 2860,
      "iles": 2861,
      "Ġ?": 2862,
      "afe": 2863,
      "ities": 2864,
      "Ġvan": 2865,
      "orig": 2866,
      "imal": 2867,
      "ivation": 2868,
      "modules": 2869,
      "Ġbien": 2870,
      "Ġconoc": 2871,
      "Ġwhile": 2872,
      "ãĤ¯": 2873,
      "itu": 2874,
      "Ġcada": 2875,
      "msg": 2876,
      "orn": 2877,
      "Ġunittest": 2878,
      "td": 2879,
      "vis": 2880,
      "Match": 2881,
      "ique": 2882,
      "Ġfuer": 2883,
      "sizes": 2884,
      "igh": 2885,
      "fastapi": 2886,
      "mentation": 2887,
      "Ġsent": 2888,
      "Ġnull": 2889,
      "Ġglobal": 2890,
      "Tester": 2891,
      "`)": 2892,
      "mode": 2893,
      "termin": 2894,
      "egr": 2895,
      "empo": 2896,
      "55": 2897,
      "42": 2898,
      "Ã³m": 2899,
      "Ġìł": 2900,
      "request": 2901,
      "ĠOptional": 2902,
      "buffer": 2903,
      "cfg": 2904,
      "Ġapply": 2905,
      "©ëĭĪëĭ¤": 2906,
      "ĠPydantic": 2907,
      "sample": 2908,
      "message": 2909,
      "loop": 2910,
      "TestCase": 2911,
      "Ġpoint": 2912,
      "Ġhasta": 2913,
      "mer": 2914,
      "Ġter": 2915,
      "hed": 2916,
      "Ġinstall": 2917,
      "Vision": 2918,
      "gular": 2919,
      "Mixin": 2920,
      "ocket": 2921,
      "undo": 2922,
      "Ġcould": 2923,
      "=[": 2924,
      "cle": 2925,
      "Ø¬": 2926,
      "example": 2927,
      "Ġsc": 2928,
      "íķľ": 2929,
      "zero": 2930,
      "Ġembeddings": 2931,
      "Ġstd": 2932,
      "ĠâĪ": 2933,
      "CO": 2934,
      "Ġæ": 2935,
      "Ġparser": 2936,
      "Kwargs": 2937,
      "odo": 2938,
      "ified": 2939,
      "Iter": 2940,
      "\"):": 2941,
      "match": 2942,
      "pac": 2943,
      "Ġlook": 2944,
      "aria": 2945,
      "iven": 2946,
      "Ġwant": 2947,
      "ĠDeepSpeed": 2948,
      "<'": 2949,
      "Ã±a": 2950,
      "Ġnon": 2951,
      "Ġencoding": 2952,
      ".{": 2953,
      "ãĤĬ": 2954,
      "Ġbre": 2955,
      "ĠIm": 2956,
      "Ġcustom": 2957,
      "task": 2958,
      "used": 2959,
      "duce": 2960,
      "tax": 2961,
      "Ġ20": 2962,
      "ector": 2963,
      "status": 2964,
      "Ġtodo": 2965,
      "Ġschema": 2966,
      "seg": 2967,
      "Ð¾Ð´": 2968,
      "Ġum": 2969,
      "Ġcls": 2970,
      "Ġëª¨ë": 2971,
      "ì§Ģ": 2972,
      "ML": 2973,
      "ctions": 2974,
      "resh": 2975,
      "flow": 2976,
      "points": 2977,
      "ynamic": 2978,
      "Ġfun": 2979,
      "efault": 2980,
      "ped": 2981,
      "Torch": 2982,
      "odoc": 2983,
      "event": 2984,
      "shot": 2985,
      "full": 2986,
      "Ġvision": 2987,
      "response": 2988,
      "Ġwhat": 2989,
      "Ġnat": 2990,
      "ĠTrain": 2991,
      "rank": 2992,
      "ench": 2993,
      "Ġteam": 2994,
      "ancia": 2995,
      "Url": 2996,
      "Machine": 2997,
      "Ġtiene": 2998,
      "Ġ15": 2999,
      "autodoc": 3000,
      "accelerator": 3001,
      "fp": 3002,
      "cuda": 3003,
      "\"},": 3004,
      "Ġfe": 3005,
      "eries": 3006,
      "unic": 3007,
      "argument": 3008,
      "iedad": 3009,
      "ĠStr": 3010,
      "irtualMachine": 3011,
      "Ġmock": 3012,
      "Ġer": 3013,
      "Ġobjet": 3014,
      "ĠNo": 3015,
      "Ð±": 3016,
      "å¾": 3017,
      "convert": 3018,
      "Ġautom": 3019,
      "static": 3020,
      "Ġbecause": 3021,
      "âĸ": 3022,
      "build": 3023,
      "Ġinstance": 3024,
      "}\")": 3025,
      "ForCausalLM": 3026,
      "Ġart": 3027,
      "dependenc": 3028,
      "29": 3029,
      "35": 3030,
      "Ġ'./": 3031,
      "ugar": 3032,
      "curs": 3033,
      "Ġparameter": 3034,
      "abc": 3035,
      "Ð¾Ð¼": 3036,
      "db": 3037,
      "ĠcÃ³": 3038,
      "ãĥĥ": 3039,
      "?:": 3040,
      "Ġ['": 3041,
      "sn": 3042,
      "encoding": 3043,
      "Ġpresent": 3044,
      "sd": 3045,
      "Ġconsider": 3046,
      "Im": 3047,
      "former": 3048,
      "Ġkwargs": 3049,
      "vic": 3050,
      "net": 3051,
      "${": 3052,
      "=-": 3053,
      "wn": 3054,
      "req": 3055,
      "idas": 3056,
      "Ġpredict": 3057,
      "uilder": 3058,
      "Ġneces": 3059,
      "Ġevent": 3060,
      "Ġproble": 3061,
      "Ġgen": 3062,
      "ĠnÃº": 3063,
      "vit": 3064,
      "Ġge": 3065,
      "ibil": 3066,
      "Ġwithout": 3067,
      "ower": 3068,
      "ĠìĪĺ": 3069,
      "Ġdonde": 3070,
      "ĠĠĠĠĠĠĠĠĠĠĠĠĠĠĠĠĠĠĠĠĠĠĠĠĠĠĠĠĠĠĠĠĠĠĠ": 3071,
      "izers": 3072,
      "ImageProcessor": 3073,
      "74": 3074,
      "****": 3075,
      "ãģĹãģ¦": 3076,
      "Ġhan": 3077,
      "Ġmut": 3078,
      "ÅŁ": 3079,
      "abase": 3080,
      "Ġotros": 3081,
      "########": 3082,
      "arios": 3083,
      "ung": 3084,
      "Ġcab": 3085,
      "sign": 3086,
      "Ġhist": 3087,
      "oper": 3088,
      "atched": 3089,
      "ĠSie": 3090,
      ")?": 3091,
      "Ġtiempo": 3092,
      "PreTrainedModel": 3093,
      "Ġíķ": 3094,
      "Ġequ": 3095,
      "Ġbl": 3096,
      "ament": 3097,
      "Ġserver": 3098,
      "Be": 3099,
      "Ġdu": 3100,
      "xy": 3101,
      "ë¦": 3102,
      "Ġctx": 3103,
      "Ġstyle": 3104,
      "nd": 3105,
      "Ġactual": 3106,
      "Arg": 3107,
      "Ġ18": 3108,
      "Ġprompt": 3109,
      "font": 3110,
      "Ġtypes": 3111,
      "abric": 3112,
      "copy": 3113,
      "Ġbel": 3114,
      "template": 3115,
      "ÄŁ": 3116,
      "predict": 3117,
      "exception": 3118,
      "æķ°": 3119,
      "Ġil": 3120,
      "tests": 3121,
      "Ġmemory": 3122,
      "stru": 3123,
      "omin": 3124,
      "resize": 3125,
      "(_": 3126,
      "color": 3127,
      "Net": 3128,
      "ìĿĢ": 3129,
      "Ġtem": 3130,
      ")),": 3131,
      "errors": 3132,
      "ween": 3133,
      "sql": 3134,
      "ambda": 3135,
      "Ġorder": 3136,
      "sv": 3137,
      "las": 3138,
      "ting": 3139,
      "duct": 3140,
      "38": 3141,
      "Ġfound": 3142,
      "Ġthrough": 3143,
      "uth": 3144,
      "sole": 3145,
      "Ġinstead": 3146,
      "uss": 3147,
      "\".": 3148,
      "istas": 3149,
      "It": 3150,
      "trainer": 3151,
      "è¨": 3152,
      "quest": 3153,
      "Ġdiv": 3154,
      "ren": 3155,
      "(`": 3156,
      "VirtualMachine": 3157,
      "II": 3158,
      "Ġfiles": 3159,
      "host": 3160,
      "ĠasÃŃ": 3161,
      "yntax": 3162,
      "ava": 3163,
      "source": 3164,
      "(*": 3165,
      "Ġpack": 3166,
      "action": 3167,
      "ĠAngular": 3168,
      "Ð¾Ð¶": 3169,
      "Ġprepare": 3170,
      "rec": 3171,
      "chunk": 3172,
      "defined": 3173,
      "Ġcomponent": 3174,
      "Ġera": 3175,
      "fic": 3176,
      "pop": 3177,
      "Encoder": 3178,
      "Ùĩ": 3179,
      "Ġcamb": 3180,
      "Ġproject": 3181,
      "ientes": 3182,
      "math": 3183,
      "pace": 3184,
      "amed": 3185,
      "Ġlogging": 3186,
      "Ġenum": 3187,
      "ÑĢÐ°Ð": 3188,
      "ĠìĤ¬ìļ©": 3189,
      "fields": 3190,
      "PP": 3191,
      "ti": 3192,
      "Ġreserved": 3193,
      "ê°Ģ": 3194,
      "Ġdefine": 3195,
      "cpu": 3196,
      "Ġcolor": 3197,
      "ME": 3198,
      "Ġcorrect": 3199,
      "ection": 3200,
      "serv": 3201,
      "'))": 3202,
      "ãĥª": 3203,
      "ĠPyResult": 3204,
      "Up": 3205,
      "px": 3206,
      "ĠPrisma": 3207,
      "iar": 3208,
      "Ġeval": 3209,
      "hf": 3210,
      "Ġsum": 3211,
      "ĠCol": 3212,
      "lar": 3213,
      "Ġprogram": 3214,
      "indows": 3215,
      "Ġfollowing": 3216,
      "Ġsolo": 3217,
      "classes": 3218,
      "ready": 3219,
      "EX": 3220,
      "tras": 3221,
      "ä¸Ń": 3222,
      "boxes": 3223,
      "custom": 3224,
      "bug": 3225,
      "ling": 3226,
      "Ġve": 3227,
      "has": 3228,
      "amp": 3229,
      "è¦ģ": 3230,
      "Ġ`\"": 3231,
      "Ġ-->": 3232,
      "puest": 3233,
      "sha": 3234,
      "è¯": 3235,
      "mbed": 3236,
      "Ġcontrol": 3237,
      "Col": 3238,
      "ĠLe": 3239,
      "================": 3240,
      "rary": 3241,
      "EST": 3242,
      "padding": 3243,
      "ÑĤÐµ": 3244,
      "internal": 3245,
      "optim": 3246,
      "patches": 3247,
      "ĠErr": 3248,
      "pass": 3249,
      "ĠJSON": 3250,
      "Ġfeatures": 3251,
      "æĺ¯": 3252,
      "dem": 3253,
      "uter": 3254,
      "Ġsingle": 3255,
      "ato": 3256,
      "try": 3257,
      "Value": 3258,
      "Ġbytes": 3259,
      "Ġrights": 3260,
      "unque": 3261,
      "acional": 3262,
      "Ġing": 3263,
      "User": 3264,
      "Ġdecl": 3265,
      "til": 3266,
      "iver": 3267,
      "ecut": 3268,
      "Options": 3269,
      "Ġconv": 3270,
      "Ġ${": 3271,
      "aloader": 3272,
      "79": 3273,
      "ëĵ": 3274,
      "33": 3275,
      "optimizer": 3276,
      "Ġdark": 3277,
      "58": 3278,
      "center": 3279,
      "select": 3280,
      "ĠÐ±": 3281,
      "Ġagain": 3282,
      "sg": 3283,
      "åŃ": 3284,
      "ĠÃ¡": 3285,
      "ough": 3286,
      "Ġfast": 3287,
      "ĠOpen": 3288,
      "ran": 3289,
      "include": 3290,
      "Ġaqu": 3291,
      "ĠOn": 3292,
      "push": 3293,
      "files": 3294,
      "uilt": 3295,
      "IO": 3296,
      "Ġpartic": 3297,
      "intermediate": 3298,
      "bo": 3299,
      "uel": 3300,
      "wise": 3301,
      "dataclass": 3302,
      "Validation": 3303,
      "ĠTeam": 3304,
      "li": 3305,
      "ught": 3306,
      "atio": 3307,
      "apshot": 3308,
      "Ġbuild": 3309,
      "cast": 3310,
      "server": 3311,
      "ĠBaseModel": 3312,
      "Ġllam": 3313,
      "Ġarch": 3314,
      "Ġold": 3315,
      "Ġ14": 3316,
      "Ġ*/": 3317,
      "TO": 3318,
      "ptr": 3319,
      "Ġbox": 3320,
      "Ġvol": 3321,
      "âĢĿ": 3322,
      "coded": 3323,
      "!--": 3324,
      "uest": 3325,
      "izar": 3326,
      "transpose": 3327,
      "aded": 3328,
      "Decoder": 3329,
      "Ġsuch": 3330,
      "ãĥ¢": 3331,
      "Cont": 3332,
      "CE": 3333,
      "\"])": 3334,
      "Ġtodos": 3335,
      "TH": 3336,
      "ted": 3337,
      "itect": 3338,
      "configuration": 3339,
      "Bert": 3340,
      "emma": 3341,
      "Ġ32": 3342,
      "ye": 3343,
      "åĢ": 3344,
      "Ġrequire": 3345,
      "slice": 3346,
      "ĠAutoModel": 3347,
      "oft": 3348,
      "_,": 3349,
      "Ġcalled": 3350,
      "Ġoptimizer": 3351,
      "Ġdimension": 3352,
      "Generation": 3353,
      "raises": 3354,
      "Ġvez": 3355,
      "hn": 3356,
      "Ġrele": 3357,
      "Ġexper": 3358,
      "\"}": 3359,
      "Ġcond": 3360,
      "ìĬ¤": 3361,
      "ëĲ": 3362,
      "Ġperform": 3363,
      "å°": 3364,
      "ĠĠĠĠĠĠĠĠĠĠĠĠĠĠĠĠĠ": 3365,
      "Ġant": 3366,
      "ALU": 3367,
      "next": 3368,
      "const": 3369,
      "Ġword": 3370,
      "layernorm": 3371,
      "scores": 3372,
      "mbedding": 3373,
      "tom": 3374,
      "ÃŃf": 3375,
      "Ġjson": 3376,
      "Ġtanto": 3377,
      "cum": 3378,
      "ëł": 3379,
      "26": 3380,
      "ĭ¤": 3381,
      "angular": 3382,
      "ances": 3383,
      "Ð»Ñı": 3384,
      "(|": 3385,
      "ãĥĹ": 3386,
      "Ġheader": 3387,
      "Ġalt": 3388,
      "Ø³": 3389,
      "etime": 3390,
      "Ġresults": 3391,
      "Ġca": 3392,
      "acken": 3393,
      "Base": 3394,
      "izing": 3395,
      "Ġfull": 3396,
      "Ġproduct": 3397,
      "chedul": 3398,
      "()`": 3399,
      "ivate": 3400,
      "true": 3401,
      "mary": 3402,
      "Ġyo": 3403,
      "Ġparameters": 3404,
      "ident": 3405,
      "ìĸ": 3406,
      "ground": 3407,
      "ĠGPU": 3408,
      "atrix": 3409,
      "Ġknow": 3410,
      "Ġscal": 3411,
      "Query": 3412,
      "Ġrefer": 3413,
      "ĠÐ²Ð¸": 3414,
      "Ð½Ð¾": 3415,
      "Ġpost": 3416,
      "fect": 3417,
      "Ġpipeline": 3418,
      "une": 3419,
      "ĠØª": 3420,
      "metric": 3421,
      "alf": 3422,
      "uture": 3423,
      "experts": 3424,
      "linear": 3425,
      "Ġauto": 3426,
      "Ġeff": 3427,
      "Ġpour": 3428,
      "Ġ&&": 3429,
      "Ġnom": 3430,
      "Ġorgan": 3431,
      "Ġstand": 3432,
      "Ãºl": 3433,
      "59": 3434,
      "Ġspecial": 3435,
      "Ġmultiple": 3436,
      "gl": 3437,
      "sche": 3438,
      "meta": 3439,
      "blocks": 3440,
      "Ġpap": 3441,
      "Ġpublic": 3442,
      "warning": 3443,
      "ãĥ©": 3444,
      "Ġweight": 3445,
      "ĥ½": 3446,
      "Ġbetween": 3447,
      "nection": 3448,
      "callback": 3449,
      "ually": 3450,
      "Exception": 3451,
      "datasets": 3452,
      "Ġright": 3453,
      "77": 3454,
      "ature": 3455,
      "ph": 3456,
      "bs": 3457,
      "kernel": 3458,
      "Ġtransform": 3459,
      "ĠReturns": 3460,
      "Ġmuy": 3461,
      "grid": 3462,
      "Ġconf": 3463,
      "ĠDes": 3464,
      "masks": 3465,
      "ipe": 3466,
      "Python": 3467,
      "Wh": 3468,
      "thread": 3469,
      "ele": 3470,
      "oment": 3471,
      "Ġident": 3472,
      "Ġfu": 3473,
      "Ġê²": 3474,
      "ðŁļ¨ðŁļ¨ðŁļ¨ðŁļ¨ðŁļ¨ðŁļ¨ðŁļ¨ðŁļ¨ðŁļ¨ðŁļ¨ðŁļ¨ðŁļ¨ðŁļ¨ðŁļ¨ðŁļ¨ðŁļ¨": 3475,
      "png": 3476,
      "è¡Į": 3477,
      "Ġprovided": 3478,
      "ÑĤÐ¾": 3479,
      "ĠĠĠĠĠĠĠĠĠĠĠĠĠĠĠĠĠĠĠĠĠĠĠĠĠĠĠĠĠĠĠĠĠĠĠĠĠĠĠĠĠĠĠĠĠĠĠĠĠĠĠĠĠĠĠĠĠĠĠĠĠĠĠĠ": 3480,
      "BaseModel": 3481,
      "ŀĭ": 3482,
      "ãģķãĤĮ": 3483,
      "âĢĶ": 3484,
      "Self": 3485,
      "normalize": 3486,
      "ìľ": 3487,
      "ĠHTTP": 3488,
      "Ġtipo": 3489,
      "į¸": 3490,
      "ĠpaÃŃs": 3491,
      ".\")": 3492,
      "ols": 3493,
      "Ġway": 3494,
      "Ġqui": 3495,
      "Ġfail": 3496,
      "54": 3497,
      "08": 3498,
      "Ġparent": 3499,
      "Ġmayor": 3500,
      "gress": 3501,
      "uch": 3502,
      "ita": 3503,
      "Ġboth": 3504,
      "sys": 3505,
      "dec": 3506,
      "ĠaÃ±os": 3507,
      "ves": 3508,
      "¦Ĥ": 3509,
      "ĠAnd": 3510,
      "Call": 3511,
      "level": 3512,
      "Ġbreak": 3513,
      "Ġvery": 3514,
      "irs": 3515,
      "è®": 3516,
      "ides": 3517,
      "\").": 3518,
      "Ġgiven": 3519,
      "Ġmat": 3520,
      ".*": 3521,
      "empty": 3522,
      "lement": 3523,
      "Info": 3524,
      "ased": 3525,
      "anos": 3526,
      "////": 3527,
      "Ã¡l": 3528,
      "Ġpassed": 3529,
      "Ġcount": 3530,
      "></": 3531,
      "ello": 3532,
      "Ġneg": 3533,
      "Ġoptim": 3534,
      "Ð°Ðº": 3535,
      "Co": 3536,
      "description": 3537,
      "ways": 3538,
      "TypeError": 3539,
      "Ġvous": 3540,
      "'],": 3541,
      "amba": 3542,
      "Ġdetermin": 3543,
      "Ġtrav": 3544,
      "Ġinitial": 3545,
      "rescale": 3546,
      "Ġëª¨ëį¸": 3547,
      "Ġê°": 3548,
      "][": 3549,
      "ĠnÃºm": 3550,
      "OutputWith": 3551,
      "Ġsiglo": 3552,
      "safe": 3553,
      "åŀĭ": 3554,
      "ìĹĲìĦľ": 3555,
      "lama": 3556,
      "ĠBut": 3557,
      "rot": 3558,
      "å¼": 3559,
      "ditional": 3560,
      "Ġshe": 3561,
      ")}": 3562,
      "ics": 3563,
      "utf": 3564,
      "íķł": 3565,
      "Ĭ¸": 3566,
      "Ġproduc": 3567,
      "AI": 3568,
      "Ġevery": 3569,
      "PO": 3570,
      "entro": 3571,
      "ĠInit": 3572,
      "ĠINT": 3573,
      "æľī": 3574,
      "ĠWhen": 3575,
      "sim": 3576,
      "aa": 3577,
      "Ġbu": 3578,
      "ital": 3579,
      "cope": 3580,
      "Ġecon": 3581,
      "Ġmil": 3582,
      "amos": 3583,
      "ĠTensor": 3584,
      "ãģĭ": 3585,
      "depth": 3586,
      "repr": 3587,
      "ĠList": 3588,
      "validation": 3589,
      "Ġmi": 3590,
      "Ġdev": 3591,
      ".,": 3592,
      "Ġposs": 3593,
      "ats": 3594,
      "stage": 3595,
      "Ġ24": 3596,
      "ìĭ": 3597,
      "^{": 3598,
      "ĠinformaciÃ³n": 3599,
      "ĠTransformers": 3600,
      "tributes": 3601,
      "Ġupdate": 3602,
      "jor": 3603,
      "arm": 3604,
      "ientos": 3605,
      "IZ": 3606,
      "Ġwarning": 3607,
      "Ġë°": 3608,
      "uso": 3609,
      "ĠseÃ±": 3610,
      "åº": 3611,
      "ĠestÃ¡n": 3612,
      "ba": 3613,
      "Ġframe": 3614,
      "quier": 3615,
      "Ġintern": 3616,
      "iT": 3617,
      "Ġadapt": 3618,
      "body": 3619,
      "google": 3620,
      "rust": 3621,
      "Ġmismo": 3622,
      "ĠEs": 3623,
      "positions": 3624,
      "Ġcorrespon": 3625,
      "ĠCheck": 3626,
      "mar": 3627,
      "Ġkeep": 3628,
      "Ġapp": 3629,
      "Feat": 3630,
      "Ġide": 3631,
      "comple": 3632,
      "(\"/": 3633,
      "Ġhet": 3634,
      "cs": 3635,
      "cion": 3636,
      "toMatch": 3637,
      "gradient": 3638,
      "napshot": 3639,
      "ãģį": 3640,
      "Ġrandom": 3641,
      "ĠSan": 3642,
      "ĠRust": 3643,
      "Ġlugar": 3644,
      "por": 3645,
      "ĠSi": 3646,
      "Field": 3647,
      "validator": 3648,
      "Ġsure": 3649,
      "Context": 3650,
      "Ġarguments": 3651,
      "21": 3652,
      "ĠâĢľ": 3653,
      "ĠhabÃŃa": 3654,
      "Ġred": 3655,
      "Ġstep": 3656,
      "swer": 3657,
      "groups": 3658,
      "ODO": 3659,
      "ena": 3660,
      "ture": 3661,
      "Ġextra": 3662,
      "ê³ł": 3663,
      "28": 3664,
      "Ġport": 3665,
      "Ġgetattr": 3666,
      "ãĤī": 3667,
      "Ä±n": 3668,
      "lines": 3669,
      "script": 3670,
      "strategy": 3671,
      "Ġsave": 3672,
      "à¦": 3673,
      "Ġmap": 3674,
      "icro": 3675,
      "enta": 3676,
      "Ġsom": 3677,
      "Ġtyping": 3678,
      "Ġgeneration": 3679,
      "ë¦¬": 3680,
      "Ġhay": 3681,
      "Ġlengu": 3682,
      "css": 3683,
      "Ġids": 3684,
      "Ġetc": 3685,
      "parallel": 3686,
      "37": 3687,
      "íĬ¸": 3688,
      "ĠSh": 3689,
      "001": 3690,
      "Ġsigu": 3691,
      "\\.": 3692,
      "Ġitems": 3693,
      "cos": 3694,
      "Ġconj": 3695,
      "Ġeven": 3696,
      "mapping": 3697,
      "\"`": 3698,
      "sol": 3699,
      "blob": 3700,
      "stack": 3701,
      "Ġcontr": 3702,
      "Ġ||": 3703,
      "dist": 3704,
      "Ġmight": 3705,
      "Ġdeepspeed": 3706,
      "ccess": 3707,
      "acion": 3708,
      "igr": 3709,
      "Int": 3710,
      "ĠNote": 3711,
      "Ġprev": 3712,
      "ãĥĨ": 3713,
      "Ġye": 3714,
      "property": 3715,
      "09": 3716,
      "icros": 3717,
      "US": 3718,
      "Ġtim": 3719,
      "ĠUnpack": 3720,
      "Ġenc": 3721,
      "tol": 3722,
      "Ġdescrib": 3723,
      "Ġdr": 3724,
      "Ġnames": 3725,
      "Sequence": 3726,
      "illa": 3727,
      "Ð¾Ð±": 3728,
      "deepspeed": 3729,
      "stream": 3730,
      "zeros": 3731,
      "ons": 3732,
      "Ġatt": 3733,
      "ases": 3734,
      "Of": 3735,
      "Reg": 3736,
      "Ã³r": 3737,
      "Ã©l": 3738,
      "Ġchange": 3739,
      "ĠØ¨": 3740,
      "Ġtemplate": 3741,
      "gate": 3742,
      "Ġfind": 3743,
      "ittle": 3744,
      "åĩ": 3745,
      "Ġmodelo": 3746,
      "\"].": 3747,
      "Ġ>=": 3748,
      "Ġpal": 3749,
      "Ġmost": 3750,
      "ä¸ª": 3751,
      "oy": 3752,
      "Embedding": 3753,
      "au": 3754,
      "Ġplace": 3755,
      "ëı": 3756,
      "ily": 3757,
      "LA": 3758,
      "Ð¾Ð³": 3759,
      "Ã§Ã£o": 3760,
      ",)": 3761,
      "lr": 3762,
      "ond": 3763,
      "ĠMark": 3764,
      "Ġ<!--": 3765,
      "clone": 3766,
      "thing": 3767,
      "ency": 3768,
      "YPE": 3769,
      "global": 3770,
      "Ġown": 3771,
      "cret": 3772,
      "ãĤĪ": 3773,
      "ĠAt": 3774,
      "Ġannot": 3775,
      "dump": 3776,
      "Ġret": 3777,
      "ideos": 3778,
      "ãģĹãģ¾ãģĻ": 3779,
      "imension": 3780,
      "æ¨": 3781,
      "íķ´": 3782,
      "ĠUs": 3783,
      "Ġdependenc": 3784,
      "Vec": 3785,
      "Ġinfo": 3786,
      "Ġdid": 3787,
      "ĠMy": 3788,
      "ĠField": 3789,
      "fe": 3790,
      "Ġfix": 3791,
      "Ġâľ": 3792,
      "uras": 3793,
      "essages": 3794,
      "UM": 3795,
      "ãĥ¢ãĥĩ": 3796,
      "olot": 3797,
      "Ġerrors": 3798,
      "ja": 3799,
      "olotl": 3800,
      "ques": 3801,
      "ĠìĦ": 3802,
      "At": 3803,
      "Ġtal": 3804,
      "Ġuno": 3805,
      "__)": 3806,
      "uerra": 3807,
      "Ġestado": 3808,
      "pool": 3809,
      "lip": 3810,
      "Ġenerg": 3811,
      "this": 3812,
      "Conditional": 3813,
      "uz": 3814,
      "Ġà¤": 3815,
      "SS": 3816,
      "ÑĪ": 3817,
      "reate": 3818,
      "fail": 3819,
      "ãģĤ": 3820,
      "ĠPara": 3821,
      "romise": 3822,
      "Pl": 3823,
      "ë©": 3824,
      "men": 3825,
      "Ġstream": 3826,
      "ove": 3827,
      "oci": 3828,
      "\"/": 3829,
      "side": 3830,
      "Ġmedi": 3831,
      "ui": 3832,
      "ĠNot": 3833,
      "Args": 3834,
      "Ġestos": 3835,
      "ValueError": 3836,
      "ĠAd": 3837,
      "Ġ102": 3838,
      "Ġmany": 3839,
      "07": 3840,
      "Ġsmall": 3841,
      "Dat": 3842,
      "23": 3843,
      "fd": 3844,
      "plication": 3845,
      "This": 3846,
      "27": 3847,
      "Ġtom": 3848,
      "fin": 3849,
      "Ġìķ": 3850,
      "ored": 3851,
      "Ġgenerated": 3852,
      "Ġhasattr": 3853,
      "ĠâĶ": 3854,
      "Ġbin": 3855,
      "Ġalready": 3856,
      "implement": 3857,
      "backbone": 3858,
      "Ġhom": 3859,
      "ĠWhether": 3860,
      "Ġentr": 3861,
      "Cache": 3862,
      "rollo": 3863,
      "ALUES": 3864,
      "HT": 3865,
      "Set": 3866,
      "Ġune": 3867,
      "Ġfields": 3868,
      "Ġsem": 3869,
      "cross": 3870,
      "~~": 3871,
      "ê¸°": 3872,
      "SERT": 3873,
      "rand": 3874,
      "Ġmsg": 3875,
      "Ġdesc": 3876,
      "Item": 3877,
      "Code": 3878,
      "iciones": 3879,
      "win": 3880,
      "Ġlleg": 3881,
      "reshape": 3882,
      "logger": 3883,
      "Ġdurante": 3884,
      "Ġvalor": 3885,
      "ĠfunciÃ³n": 3886,
      "space": 3887,
      "ĠlÃŃ": 3888,
      "Ġmer": 3889,
      "opt": 3890,
      "Ġerr": 3891,
      "ĠTODO": 3892,
      "Ġcontinue": 3893,
      "Ġpattern": 3894,
      "Ġlayers": 3895,
      "Ġlabel": 3896,
      "Hand": 3897,
      "Ġmas": 3898,
      "ãĥ¢ãĥĩãĥ«": 3899,
      "Ġbir": 3900,
      "ĠDO": 3901,
      "HTTP": 3902,
      "functional": 3903,
      "itos": 3904,
      "à¥": 3905,
      "Ð°ÑĨ": 3906,
      "number": 3907,
      "OutputWithP": 3908,
      "itar": 3909,
      "als": 3910,
      "202": 3911,
      "Ġbeh": 3912,
      "tre": 3913,
      "Ġnode": 3914,
      "Ġdesarroll": 3915,
      "Ġmoment": 3916,
      "typ": 3917,
      "Ġâľħ": 3918,
      "Ġinic": 3919,
      "Ġdans": 3920,
      "icrosoft": 3921,
      "}\\": 3922,
      "transformer": 3923,
      "strict": 3924,
      "Ġchunk": 3925,
      "ĠĠĠĠĠĠĠĠĠĠ": 3926,
      "NAM": 3927,
      "ĠdÃ©": 3928,
      "eger": 3929,
      "ĠCl": 3930,
      "Ġkeys": 3931,
      "resolve": 3932,
      "svg": 3933,
      "èĥ½": 3934,
      "ĠìŀĪìĬµëĭĪëĭ¤": 3935,
      "ĠSin": 3936,
      "Ġmater": 3937,
      "Ġlightning": 3938,
      "Ġembargo": 3939,
      "Ġamb": 3940,
      "ĠError": 3941,
      "Ġgreat": 3942,
      "udad": 3943,
      "required": 3944,
      "Ð¶": 3945,
      "ĠCan": 3946,
      "Ġespac": 3947,
      "ConditionalGeneration": 3948,
      "Ġshow": 3949,
      "ForConditionalGeneration": 3950,
      "Ġemp": 3951,
      "med": 3952,
      "Ġoptions": 3953,
      "ĠSer": 3954,
      "expand": 3955,
      "ĠAutoTokenizer": 3956,
      "Ø§Øª": 3957,
      "ĠÐ·Ð°Ð": 3958,
      "comput": 3959,
      "ced": 3960,
      "ìľ¼": 3961,
      "ride": 3962,
      "ä¹": 3963,
      "otal": 3964,
      "__,": 3965,
      "filename": 3966,
      "gn": 3967,
      "Ġthose": 3968,
      "Ġje": 3969,
      "urs": 3970,
      "Ġmis": 3971,
      "Feature": 3972,
      "ĠSchema": 3973,
      "ĠString": 3974,
      "Ġhero": 3975,
      "ê²": 3976,
      "ished": 3977,
      "cap": 3978,
      "Ġwell": 3979,
      "nown": 3980,
      "ĠÙĦ": 3981,
      "apped": 3982,
      "Log": 3983,
      "none": 3984,
      "çĽ": 3985,
      "oolean": 3986,
      "ĠINTO": 3987,
      "Ġmundo": 3988,
      "Ġ201": 3989,
      "FA": 3990,
      "ĠTrainer": 3991,
      "));": 3992,
      "nb": 3993,
      "__.": 3994,
      "ValidationError": 3995,
      "Many": 3996,
      "ĠVALUES": 3997,
      "extract": 3998,
      "ping": 3999,
      "44": 4000,
      "Ġmanera": 4001,
      "Ġein": 4002,
      "cheduler": 4003,
      "Ġmov": 4004,
      "ĠÎ": 4005,
      "å®ļ": 4006,
      "Ġ''": 4007,
      "ival": 4008,
      "Ġeen": 4009,
      "Ġsecond": 4010,
      "Ġsupported": 4011,
      "PY": 4012,
      "íķĺëĬĶ": 4013,
      "ç»": 4014,
      "chat": 4015,
      "Al": 4016,
      "Ġotras": 4017,
      "Ġcert": 4018,
      "Ġraw": 4019,
      "Response": 4020,
      "LayerNorm": 4021,
      "Ã¡ct": 4022,
      "Map": 4023,
      "hash": 4024,
      "Ġbeing": 4025,
      "xim": 4026,
      "åĽ": 4027,
      "Ġmem": 4028,
      "umber": 4029,
      "Component": 4030,
      "ObjectRef": 4031,
      "Ġgenerate": 4032,
      "ä½ľ": 4033,
      "hor": 4034,
      "puÃ©s": 4035,
      "ĠInd": 4036,
      "Ġwrite": 4037,
      "Ġesto": 4038,
      "ĠJo": 4039,
      "Instance": 4040,
      "Wr": 4041,
      "olÃ³g": 4042,
      "Ġview": 4043,
      "åĮ": 4044,
      "unsqueeze": 4045,
      "iding": 4046,
      "Ġbar": 4047,
      "parametr": 4048,
      "extractor": 4049,
      "Ġhandle": 4050,
      "Ġignore": 4051,
      "Ġemail": 4052,
      "On": 4053,
      "lang": 4054,
      "Validator": 4055,
      "fc": 4056,
      "As": 4057,
      "Or": 4058,
      "Ġax": 4059,
      "Ġsepar": 4060,
      "Ġporque": 4061,
      "UR": 4062,
      "Ġpermit": 4063,
      "ØŃ": 4064,
      "åı¯ä»¥": 4065,
      "Ð°ÑĤÐ¸": 4066,
      "Ø®": 4067,
      "ĠURL": 4068,
      ">(": 4069,
      "ird": 4070,
      "openapi": 4071,
      "ĠINSERT": 4072,
      "ĠpolÃŃt": 4073,
      "ĠÐ¿ÑĢ": 4074,
      "Ġlittle": 4075,
      "Ġuso": 4076,
      "dependencies": 4077,
      "ral": 4078,
      "Ġeps": 4079,
      "\"/>": 4080,
      "like": 4081,
      "roz": 4082,
      "Ġreturned": 4083,
      "exec": 4084,
      "Ġcontinu": 4085,
      "Ġbro": 4086,
      "Ġchang": 4087,
      "register": 4088,
      "UB": 4089,
      "[]": 4090,
      "Ġ\"/": 4091,
      "Ġgrand": 4092,
      "idd": 4093,
      "Ġstill": 4094,
      "compile": 4095,
      "CTED": 4096,
      "ĠRo": 4097,
      "Any": 4098,
      "?\"": 4099,
      "Ġprimer": 4100,
      "Ġotro": 4101,
      "ĠEX": 4102,
      "Ġstack": 4103,
      "ĠteorÃŃa": 4104,
      "erta": 4105,
      "Ġ:,": 4106,
      "vari": 4107,
      "demÃ¡s": 4108,
      "Check": 4109,
      "case": 4110,
      "FF": 4111,
      "dirname": 4112,
      "lat": 4113,
      "Ġtrad": 4114,
      "aving": 4115,
      "Ġscript": 4116,
      "Ġenv": 4117,
      "Pr": 4118,
      "tf": 4119,
      "notated": 4120,
      "etch": 4121,
      "atten": 4122,
      "inner": 4123,
      "Ġdoesn": 4124,
      "ants": 4125,
      "rem": 4126,
      "posit": 4127,
      "Ġenvironment": 4128,
      "éĸ": 4129,
      "itud": 4130,
      "ume": 4131,
      "ĠData": 4132,
      "ift": 4133,
      "Ġcaracter": 4134,
      "LIP": 4135,
      "DP": 4136,
      "quences": 4137,
      "probs": 4138,
      "ãģĨ": 4139,
      "ĠCall": 4140,
      "tocol": 4141,
      "48": 4142,
      "ackend": 4143,
      "slow": 4144,
      "utton": 4145,
      "ĠPyTorch": 4146,
      "Ġduring": 4147,
      "If": 4148,
      "Ġoffset": 4149,
      "IR": 4150,
      "ga": 4151,
      "Ġscale": 4152,
      "hi": 4153,
      "ara": 4154,
      ".\",": 4155,
      "Ġtake": 4156,
      "ula": 4157,
      "**,": 4158,
      "icy": 4159,
      "moe": 4160,
      "Ġmean": 4161,
      "Ġtoo": 4162,
      "æĸĩ": 4163,
      "Ġdesarrollo": 4164,
      "Ġterr": 4165,
      "Transformers": 4166,
      "ĠĠĠĠĠĠĠĠĠĠĠĠĠĠĠĠĠĠĠĠĠĠĠĠĠĠĠĠĠĠĠĠĠĠĠĠĠĠĠ": 4167,
      "Ġprincipal": 4168,
      "Dimension": 4169,
      "Ġaunque": 4170,
      "Ġhigh": 4171,
      "allow": 4172,
      "oco": 4173,
      "itions": 4174,
      "Ġ});": 4175,
      "Ġcommand": 4176,
      "Ġpage": 4177,
      "Ġrespon": 4178,
      "Ġchild": 4179,
      "Ġavailable": 4180,
      "And": 4181,
      "Ġnatural": 4182,
      "imin": 4183,
      "ĠMar": 4184,
      "inst": 4185,
      "ivel": 4186,
      "](../": 4187,
      "acy": 4188,
      "Ġadded": 4189,
      "lease": 4190,
      "95": 4191,
      "exist": 4192,
      "FN": 4193,
      "snr": 4194,
      "IM": 4195,
      "iff": 4196,
      "Ġleft": 4197,
      ":]": 4198,
      "Ð³": 4199,
      "pattern": 4200,
      "íķ©ëĭĪëĭ¤": 4201,
      "lin": 4202,
      "Ġresidual": 4203,
      "annelDimension": 4204,
      "score": 4205,
      "left": 4206,
      "Bytes": 4207,
      "bf": 4208,
      "ãģı": 4209,
      "Ġattribute": 4210,
      "Ġmade": 4211,
      "Ġupon": 4212,
      "table": 4213,
      "ìĦ±": 4214,
      "ĠOrder": 4215,
      "unwrap": 4216,
      "frame": 4217,
      "gray": 4218,
      "toBe": 4219,
      "Ġborder": 4220,
      "Ġintegr": 4221,
      "ä¾ĭ": 4222,
      "bad": 4223,
      "Ġstates": 4224,
      "Ġzij": 4225,
      "urg": 4226,
      "imum": 4227,
      "Ġyield": 4228,
      "Ġfueron": 4229,
      "Fast": 4230,
      "MS": 4231,
      "parametrize": 4232,
      "Ġ``": 4233,
      "Ġdir": 4234,
      "ade": 4235,
      "hero": 4236,
      "Ġflex": 4237,
      "ife": 4238,
      "Ġworld": 4239,
      "rÃŃa": 4240,
      "æ³": 4241,
      "HE": 4242,
      "ĠQwen": 4243,
      "aved": 4244,
      "activation": 4245,
      "Ġplan": 4246,
      "ured": 4247,
      "We": 4248,
      "FT": 4249,
      "ĠÑĥ": 4250,
      "Ġund": 4251,
      "åĲĪ": 4252,
      "ìĸ´": 4253,
      "Ġsort": 4254,
      "icamente": 4255,
      "Ġsistemas": 4256,
      "non": 4257,
      "stand": 4258,
      "Ġciudad": 4259,
      "Ġtable": 4260,
      "Content": 4261,
      "(__": 4262,
      "istant": 4263,
      "iddle": 4264,
      "dad": 4265,
      "efore": 4266,
      "Ġhacer": 4267,
      "Ġbuffer": 4268,
      "Ġens": 4269,
      "masked": 4270,
      "compress": 4271,
      "ators": 4272,
      "IGN": 4273,
      "}{": 4274,
      "Ġexpert": 4275,
      "æĪĲ": 4276,
      ".\\": 4277,
      "Ø°": 4278,
      "èª": 4279,
      "ificaciÃ³n": 4280,
      "?.": 4281,
      "ientras": 4282,
      "hook": 4283,
      "ĿĮ": 4284,
      "ä¸į": 4285,
      "peat": 4286,
      "Ġintermediate": 4287,
      "Ġvalidate": 4288,
      "ĠInc": 4289,
      "Mult": 4290,
      "irectory": 4291,
      "ë³": 4292,
      "Ġsplit": 4293,
      "queries": 4294,
      "Argument": 4295,
      "Ùī": 4296,
      "ses": 4297,
      "cep": 4298,
      "erte": 4299,
      "original": 4300,
      "Schema": 4301,
      "ever": 4302,
      "ĠâĿĮ": 4303,
      "PECTED": 4304,
      "Ġrequires": 4305,
      "Ġoperation": 4306,
      "Ã¤": 4307,
      "anch": 4308,
      "Ġparams": 4309,
      "ĠnÃºmero": 4310,
      "Ġrender": 4311,
      "ecciÃ³n": 4312,
      "Ġempty": 4313,
      "Moe": 4314,
      "implementation": 4315,
      "ism": 4316,
      "ged": 4317,
      "Ġcfg": 4318,
      "Ġlat": 4319,
      "batches": 4320,
      "Ġcallback": 4321,
      "Ġ'../": 4322,
      "Ġpob": 4323,
      "olo": 4324,
      "exc": 4325,
      "Ġëĭ¤": 4326,
      "ãĥ³ãĤ": 4327,
      "Ġgob": 4328,
      "Ġsimilar": 4329,
      "Ġmulti": 4330,
      "mes": 4331,
      "memory": 4332,
      "Ġcompute": 4333,
      "Ð»Ð¸": 4334,
      "pan": 4335,
      "Ġcult": 4336,
      "ential": 4337,
      "Ġalways": 4338,
      "cuss": 4339,
      "rad": 4340,
      "98": 4341,
      "ØĮ": 4342,
      "Ġfoo": 4343,
      "odos": 4344,
      "Ġinfl": 4345,
      "window": 4346,
      "Ġincl": 4347,
      "ĠConfig": 4348,
      "iler": 4349,
      "Ġfmt": 4350,
      "Ġsea": 4351,
      "checkpointing": 4352,
      "íĻ": 4353,
      "Ġba": 4354,
      "dataloader": 4355,
      "ëĵľ": 4356,
      "ĠID": 4357,
      "Ġprimera": 4358,
      "paÃ±": 4359,
      "Ġcannot": 4360,
      "ĠEu": 4361,
      "60": 4362,
      "Ġsw": 4363,
      "ookie": 4364,
      "Ġremove": 4365,
      "ru": 4366,
      "ĠmÃ©t": 4367,
      "sent": 4368,
      "Ġexec": 4369,
      "Ġuses": 4370,
      "anz": 4371,
      "Ġimplementation": 4372,
      "Ġë§": 4373,
      "Ġmasks": 4374,
      "ratio": 4375,
      "vec": 4376,
      "classification": 4377,
      "Ġcaso": 4378,
      "Ġpred": 4379,
      "ĠðŁ¤": 4380,
      "éĩ": 4381,
      "ä¼": 4382,
      "Ġmerc": 4383,
      "Ġ/>": 4384,
      "estig": 4385,
      "iguous": 4386,
      "await": 4387,
      "bg": 4388,
      "Ġindices": 4389,
      "depend": 4390,
      "Ġgood": 4391,
      "eos": 4392,
      "Ġprefix": 4393,
      "Ġgrup": 4394,
      "multi": 4395,
      "ĠtravÃ©s": 4396,
      "ona": 4397,
      "Ġvalidation": 4398,
      "uego": 4399,
      "ĠOpenAPI": 4400,
      "reason": 4401,
      "Ġ\"--": 4402,
      "wer": 4403,
      "{\"": 4404,
      "Ġnote": 4405,
      "No": 4406,
      "odes": 4407,
      "freq": 4408,
      "Ġelect": 4409,
      "LS": 4410,
      "å¿": 4411,
      "crement": 4412,
      "Inter": 4413,
      "iene": 4414,
      "rt": 4415,
      "Ġmark": 4416,
      "Dir": 4417,
      "Ġcapt": 4418,
      "Ð°Ð»": 4419,
      "Ġfont": 4420,
      "Ġreference": 4421,
      "Ã©tica": 4422,
      "ples": 4423,
      ")))": 4424,
      "ãģĵãģ¨": 4425,
      "erate": 4426,
      "Ġdecir": 4427,
      "ĠThere": 4428,
      "usal": 4429,
      "ĠSet": 4430,
      "header": 4431,
      "åĲĮ": 4432,
      "Ġdiferentes": 4433,
      "ĠÙĪ": 4434,
      "cop": 4435,
      "Ġdirectory": 4436,
      "ĠtÃ©r": 4437,
      "66": 4438,
      "Ġgl": 4439,
      "ÃŃcul": 4440,
      "ĠEste": 4441,
      ")):": 4442,
      "->": 4443,
      "Ġroot": 4444,
      "Ġinf": 4445,
      "Ġsample": 4446,
      "ĠFl": 4447,
      "wd": 4448,
      "inference": 4449,
      "adr": 4450,
      "Ġ17": 4451,
      "CHE": 4452,
      "Ġ\"<": 4453,
      "Ġnivel": 4454,
      "ĠCop": 4455,
      "Ġtemp": 4456,
      "Ġorden": 4457,
      "Service": 4458,
      "Ġmes": 4459,
      "Ġindiv": 4460,
      "Ġpot": 4461,
      "isiÃ³n": 4462,
      "Ġarr": 4463,
      "Ġvariable": 4464,
      "Ġmit": 4465,
      "graph": 4466,
      "Ġtres": 4467,
      "uning": 4468,
      "unter": 4469,
      "abs": 4470,
      "summary": 4471,
      "Ġusu": 4472,
      "Request": 4473,
      "Ġlink": 4474,
      "Ġdefined": 4475,
      "Ð¾Ðº": 4476,
      "Ġpackage": 4477,
      "filter": 4478,
      "Ġ64": 4479,
      "total": 4480,
      "Ġencoded": 4481,
      "engine": 4482,
      "lette": 4483,
      "null": 4484,
      "ndarray": 4485,
      "Ġexception": 4486,
      "Conv": 4487,
      "æŀ": 4488,
      "Ġ13": 4489,
      "Ġlarge": 4490,
      "mac": 4491,
      "Ġce": 4492,
      "arec": 4493,
      "Ġsignal": 4494,
      "Ġcross": 4495,
      "æī": 4496,
      "ĠØ§ÙĦÙħ": 4497,
      "Ġgradient": 4498,
      "èĩ": 4499,
      "Ġstride": 4500,
      "Ð¸Ð¼": 4501,
      "Return": 4502,
      "æŃ": 4503,
      "Ġpydantic": 4504,
      "helper": 4505,
      "ustr": 4506,
      "short": 4507,
      "ness": 4508,
      "Ġsystem": 4509,
      "way": 4510,
      "Ġ11": 4511,
      "Ġale": 4512,
      "Ġactiv": 4513,
      "Ġrank": 4514,
      "tro": 4515,
      "atform": 4516,
      "lora": 4517,
      "ãĤĤ": 4518,
      "mul": 4519,
      "Ġmill": 4520,
      "flex": 4521,
      "Ġinclude": 4522,
      "Ġvers": 4523,
      "Ġvia": 4524,
      "digo": 4525,
      "57": 4526,
      "unded": 4527,
      "æ¨¡": 4528,
      "Ġestable": 4529,
      "Ġtensors": 4530,
      "ãĥ¡": 4531,
      "Ġstrict": 4532,
      "pap": 4533,
      "ãĤ¢": 4534,
      "Ġpython": 4535,
      "Ġestruct": 4536,
      "ĠPer": 4537,
      "Ġcho": 4538,
      "Ġefect": 4539,
      "ÐµÐ´": 4540,
      "ĠÃ©l": 4541,
      "print": 4542,
      "Ġç": 4543,
      "40": 4544,
      "ÐµÐ¼": 4545,
      "ari": 4546,
      "ãĤģ": 4547,
      "åī": 4548,
      "ativa": 4549,
      "causal": 4550,
      "ãĥ¬": 4551,
      "'\\": 4552,
      "ODE": 4553,
      "ionary": 4554,
      "false": 4555,
      "æı": 4556,
      "Ġproper": 4557,
      "Ġvoc": 4558,
      "Ġundefined": 4559,
      "active": 4560,
      "ULT": 4561,
      "dated": 4562,
      "å®ĥ": 4563,
      "68": 4564,
      "folder": 4565,
      "tings": 4566,
      "Ġproceso": 4567,
      ",'": 4568,
      "Ġvida": 4569,
      "thw": 4570,
      "**.": 4571,
      "Ġavo": 4572,
      "adev": 4573,
      "inas": 4574,
      "Ãºs": 4575,
      "AC": 4576,
      "ÃŃo": 4577,
      ")?;": 4578,
      ")[": 4579,
      "Ġcaus": 4580,
      "agn": 4581,
      "ëıĦ": 4582,
      "âĶĢâĶĢâĶĢâĶĢâĶĢâĶĢâĶĢâĶĢ": 4583,
      "Ġ`[": 4584,
      "Default": 4585,
      "zo": 4586,
      "child": 4587,
      "Ãºltim": 4588,
      "Ġnuev": 4589,
      "ĠOption": 4590,
      "cuent": 4591,
      "gre": 4592,
      "iteral": 4593,
      "Ġtmp": 4594,
      "å¦Ĥ": 4595,
      "|>": 4596,
      "llama": 4597,
      "multiple": 4598,
      "You": 4599,
      "small": 4600,
      "Ġcualquier": 4601,
      "ĠPl": 4602,
      "Ġbest": 4603,
      "ici": 4604,
      "Ġmenos": 4605,
      "Ġarray": 4606,
      "ĠÃºltim": 4607,
      "icient": 4608,
      "options": 4609,
      "oring": 4610,
      "Ġloop": 4611,
      "QU": 4612,
      "arlette": 4613,
      "Ġimp": 4614,
      "Ġrelative": 4615,
      "','": 4616,
      "Ġinformation": 4617,
      "Ġmal": 4618,
      "Ġrecurs": 4619,
      "Ġdise": 4620,
      "tag": 4621,
      "Ġkernel": 4622,
      "ìĿ¸": 4623,
      "Ġsino": 4624,
      "contr": 4625,
      "ibles": 4626,
      "inos": 4627,
      "ĠSeg": 4628,
      "Ġcolle": 4629,
      "ãģ§ãģį": 4630,
      "resolution": 4631,
      "dr": 4632,
      "ood": 4633,
      "Ġapr": 4634,
      "Ġmetric": 4635,
      "ĠMarkdown": 4636,
      "bash": 4637,
      "eded": 4638,
      "Hello": 4639,
      "Ġonce": 4640,
      "ĠPath": 4641,
      "istral": 4642,
      "Ð¾Ð»ÑĮ": 4643,
      "gt": 4644,
      "åĨ": 4645,
      "inf": 4646,
      "IGHT": 4647,
      "frames": 4648,
      "components": 4649,
      "Ġsocial": 4650,
      "Ġbus": 4651,
      "ãĥŃ": 4652,
      "Ġpoder": 4653,
      "Ġautomatic": 4654,
      "Key": 4655,
      "OS": 4656,
      "Øµ": 4657,
      "mite": 4658,
      "Ġprocessing": 4659,
      "Ġfund": 4660,
      "Ġhost": 4661,
      "Ġ({": 4662,
      "actory": 4663,
      "Ã¡tica": 4664,
      "GE": 4665,
      "ë§": 4666,
      "Ġdere": 4667,
      "Ġsch": 4668,
      "ĠÐ¼Ð¾Ð¶": 4669,
      "Ġreason": 4670,
      "INE": 4671,
      "Ġbody": 4672,
      "plied": 4673,
      "videos": 4674,
      "VE": 4675,
      "å¸": 4676,
      "Ġconsist": 4677,
      "vers": 4678,
      "Ġdig": 4679,
      "column": 4680,
      "Ġsido": 4681,
      "Ġindic": 4682,
      "Ġestas": 4683,
      "precated": 4684,
      "Ġvoid": 4685,
      "'):": 4686,
      "Ġparse": 4687,
      "ìļĶ": 4688,
      "Sub": 4689,
      "ember": 4690,
      "yes": 4691,
      "Ġparticular": 4692,
      "lete": 4693,
      "ãĥķ": 4694,
      "ĠUser": 4695,
      "Ð½Ñĭ": 4696,
      "after": 4697,
      "package": 4698,
      "Parameter": 4699,
      "ãĥ¼ãĤ¿": 4700,
      "ìľ¼ë¡ľ": 4701,
      "unding": 4702,
      "()),": 4703,
      "Ġconjunto": 4704,
      "Tests": 4705,
      "pi": 4706,
      "Ġembedding": 4707,
      "94": 4708,
      "reduce": 4709,
      "Trainer": 4710,
      "samples": 4711,
      "mem": 4712,
      "Ġlibrary": 4713,
      "Â».": 4714,
      "Ġol": 4715,
      "oto": 4716,
      "Ġ).": 4717,
      "unch": 4718,
      "Ġwait": 4719,
      "ĠPIL": 4720,
      "Ġweb": 4721,
      "builder": 4722,
      "Ġclos": 4723,
      "Snapshot": 4724,
      "uck": 4725,
      "ĠNe": 4726,
      "enchmark": 4727,
      "flash": 4728,
      "apply": 4729,
      "udo": 4730,
      "Ġmethods": 4731,
      "Ġalgunos": 4732,
      "reshold": 4733,
      ")).": 4734,
      "ĠCar": 4735,
      "Script": 4736,
      "ĠtÃ©rmin": 4737,
      ")`": 4738,
      "ela": 4739,
      "role": 4740,
      "Ġinfer": 4741,
      "201": 4742,
      "ĠsÃŃ": 4743,
      "Ġìĺ": 4744,
      "ĠUse": 4745,
      "From": 4746,
      "Ġfam": 4747,
      "Ġtienen": 4748,
      "gpu": 4749,
      "Ġequal": 4750,
      "ima": 4751,
      "ERS": 4752,
      "strip": 4753,
      "ĠEsp": 4754,
      "Ġusar": 4755,
      "Ġtodas": 4756,
      "Auth": 4757,
      "Ġreturns": 4758,
      "Ġquantization": 4759,
      "Ġslice": 4760,
      "Ġotra": 4761,
      "Ġanother": 4762,
      "Ġprof": 4763,
      "ATION": 4764,
      "ijk": 4765,
      "uy": 4766,
      "ĮĢ": 4767,
      "uble": 4768,
      "ĠdespuÃ©s": 4769,
      "lightning": 4770,
      "Ġds": 4771,
      "'}": 4772,
      "Video": 4773,
      "Ġfa": 4774,
      "Node": 4775,
      "ouse": 4776,
      ")`,": 4777,
      "ĲĨ": 4778,
      "Ġdire": 4779,
      "::{": 4780,
      "âĸĪ": 4781,
      "Ġexperiment": 4782,
      "');": 4783,
      "Ġdirectly": 4784,
      "VL": 4785,
      "Ġestud": 4786,
      "white": 4787,
      "mm": 4788,
      "aps": 4789,
      "Ġmejor": 4790,
      "Ġmediante": 4791,
      "70": 4792,
      "ãģ§ãģĻ": 4793,
      "ething": 4794,
      "çĲĨ": 4795,
      "odal": 4796,
      "ĠValid": 4797,
      "Ġscores": 4798,
      "ĠPreTrained": 4799,
      "Ġë³": 4800,
      "FO": 4801,
      "isis": 4802,
      "stride": 4803,
      "SQL": 4804,
      "Ġdepend": 4805,
      "lear": 4806,
      "pha": 4807,
      "=_": 4808,
      "Enum": 4809,
      "LL": 4810,
      "ability": 4811,
      "ieren": 4812,
      "PPING": 4813,
      "ives": 4814,
      "comm": 4815,
      "Ġnever": 4816,
      "ĠØ£": 4817,
      "earch": 4818,
      "íĦ": 4819,
      "entity": 4820,
      "Ġpossible": 4821,
      "bot": 4822,
      "edge": 4823,
      "Ġexplic": 4824,
      "Ġfilename": 4825,
      "å¯": 4826,
      "iera": 4827,
      "æİ": 4828,
      "ABLE": 4829,
      "Ġfp": 4830,
      "EXT": 4831,
      "65": 4832,
      "ron": 4833,
      "ĠBy": 4834,
      "ĠDo": 4835,
      "Ġespecial": 4836,
      "DX": 4837,
      "ĠmÃ¡": 4838,
      "æĸ¹": 4839,
      "cumul": 4840,
      "Ġexpl": 4841,
      "Time": 4842,
      "pipeline": 4843,
      "Ġtab": 4844,
      "ĠUna": 4845,
      "ĠcÃ³digo": 4846,
      "adapter": 4847,
      "123": 4848,
      "hello": 4849,
      "Ġfactor": 4850,
      "Loader": 4851,
      "ĠNOT": 4852,
      "ĠìĹ": 4853,
      "Ġexpres": 4854,
      "ĠenergÃŃa": 4855,
      "cd": 4856,
      "Ġtempor": 4857,
      "Ġëį": 4858,
      "txt": 4859,
      "Ġ'.": 4860,
      "FOR": 4861,
      "kg": 4862,
      "Ġ<=": 4863,
      "Ġmetadata": 4864,
      "avior": 4865,
      "ĠArg": 4866,
      "Strategy": 4867,
      "ĠQuij": 4868,
      "papers": 4869,
      "enz": 4870,
      "dense": 4871,
      "Ġcost": 4872,
      "ÐºÐ¾": 4873,
      "Ġservic": 4874,
      "ĠEsta": 4875,
      "âĸĪâĸĪ": 4876,
      "=(": 4877,
      "Ġ\"__": 4878,
      "Ġ'<": 4879,
      "leanup": 4880,
      "ops": 4881,
      "Ġanim": 4882,
      "Ġfilter": 4883,
      "ived": 4884,
      "ublic": 4885,
      "elig": 4886,
      "Ġlevel": 4887,
      "eq": 4888,
      "ä¿": 4889,
      "Ġìľ": 4890,
      "è¿Ļ": 4891,
      "itch": 4892,
      "Ġmientras": 4893,
      "Ġconse": 4894,
      "Ð½Ñı": 4895,
      "Ġpop": 4896,
      "ÑģÑı": 4897,
      "ĠQuijote": 4898,
      "speech": 4899,
      "ĠAdd": 4900,
      "una": 4901,
      "orte": 4902,
      "ĠÑĩ": 4903,
      "vider": 4904,
      "rowser": 4905,
      "voluciÃ³n": 4906,
      "ĠPromise": 4907,
      "Ġstrategy": 4908,
      "Ġintro": 4909,
      "dig": 4910,
      "parameter": 4911,
      "Ġ/**": 4912,
      "ĠAND": 4913,
      "language": 4914,
      "Ġinference": 4915,
      "Ġcrate": 4916,
      "ë©´": 4917,
      "Ã©cn": 4918,
      "Ġpaper": 4919,
      "world": 4920,
      "iza": 4921,
      "ãĤ¹ãĥĪ": 4922,
      "ĠaplicaciÃ³n": 4923,
      "ĠEsto": 4924,
      "ATE": 4925,
      "Ġmant": 4926,
      "conds": 4927,
      "Ġrece": 4928,
      "epochs": 4929,
      "ä¸ĭ": 4930,
      "Server": 4931,
      "crop": 4932,
      "Ġpool": 4933,
      "Ġ`@": 4934,
      "Ġcompat": 4935,
      "ĠDis": 4936,
      "Ġ_,": 4937,
      "Ġhash": 4938,
      "Ġnombre": 4939,
      "ĠÑĸ": 4940,
      "gos": 4941,
      "Ġsha": 4942,
      "ìĦ¸": 4943,
      "Ġtras": 4944,
      "king": 4945,
      "Ã¡f": 4946,
      "INT": 4947,
      "cape": 4948,
      "State": 4949,
      "Ġguerra": 4950,
      "sig": 4951,
      "arp": 4952,
      "Ġlines": 4953,
      "Ġzip": 4954,
      "generated": 4955,
      "Ġatol": 4956,
      "Ġcomm": 4957,
      "ÐµÐ½Ð¸": 4958,
      "ĠĠĠĠĠĠĠĠĠĠĠĠĠĠ": 4959,
      "ĠGet": 4960,
      "aves": 4961,
      "Ġboxes": 4962,
      "most": 4963,
      "random": 4964,
      "ĠÙĬ": 4965,
      "Ġrespect": 4966,
      "31": 4967,
      "igger": 4968,
      "sy": 4969,
      "remove": 4970,
      "large": 4971,
      "Ġapplication": 4972,
      "Open": 4973,
      "ãģĿ": 4974,
      "Ġexamples": 4975,
      "Ġchannel": 4976,
      "metadata": 4977,
      "CON": 4978,
      "Ġalgor": 4979,
      "(\\": 4980,
      "eo": 4981,
      "connect": 4982,
      "åł": 4983,
      "Ġkind": 4984,
      "1234": 4985,
      "Ġcolumn": 4986,
      "ĠXX": 4987,
      "127": 4988,
      "ìķ": 4989,
      "toEqual": 4990,
      "ialization": 4991,
      "logo": 4992,
      "Ġcompar": 4993,
      "assertFalse": 4994,
      "Ġsab": 4995,
      "igual": 4996,
      "90": 4997,
      "irm": 4998,
      "\"><": 4999,
      "ĠSancho": 5000,
      "ĠJohn": 5001,
      "console": 5002,
      "Ġsat": 5003,
      "Ġthrow": 5004,
      "oss": 5005,
      "Dis": 5006,
      "KE": 5007,
      "metrics": 5008,
      "Ġdone": 5009,
      "ĠØ¹": 5010,
      "gel": 5011,
      "JSON": 5012,
      "Ġcir": 5013,
      "plac": 5014,
      "viders": 5015,
      "·¸": 5016,
      "Ġsay": 5017,
      "slate": 5018,
      "Mode": 5019,
      "fill": 5020,
      "uv": 5021,
      "}'": 5022,
      "à±": 5023,
      ">',": 5024,
      "Ġcome": 5025,
      "graf": 5026,
      "ison": 5027,
      "ayload": 5028,
      "(()": 5029,
      "BN": 5030,
      "Ġfall": 5031,
      "Ġph": 5032,
      "router": 5033,
      "ãģ¤": 5034,
      "MP": 5035,
      "Ġpes": 5036,
      "Ġantes": 5037,
      "Ġpartir": 5038,
      "Ð¾Ð³Ð¾": 5039,
      "UD": 5040,
      "MAPPING": 5041,
      "bits": 5042,
      "celerate": 5043,
      "ìŀħ": 5044,
      "scaling": 5045,
      "Ġgrandes": 5046,
      "Ġê°Ģ": 5047,
      "ÙĦÙī": 5048,
      "Ġta": 5049,
      "Ġspecified": 5050,
      "Ġprom": 5051,
      "Ã¨re": 5052,
      "ëŁ": 5053,
      "environment": 5054,
      "Ġrecon": 5055,
      "Ġuntil": 5056,
      "Ġconten": 5057,
      "Detr": 5058,
      "Ġcontra": 5059,
      "help": 5060,
      "drop": 5061,
      "Ġavec": 5062,
      "starts": 5063,
      "åĪĨ": 5064,
      "bb": 5065,
      "Ġfig": 5066,
      "Ġ{{": 5067,
      "...,": 5068,
      "Ġ([": 5069,
      "Ġbyte": 5070,
      "DeepSpeed": 5071,
      "Ġscaling": 5072,
      "ĠEXPECTED": 5073,
      ".$": 5074,
      "holder": 5075,
      "Ġtener": 5076,
      "clip": 5077,
      "Ġcontaining": 5078,
      "shared": 5079,
      "password": 5080,
      ";':": 5081,
      "Ġsimple": 5082,
      "known": 5083,
      "ĠÐ½Ðµ": 5084,
      "Ġsyntax": 5085,
      "arded": 5086,
      "eza": 5087,
      "Ġ}}": 5088,
      "stract": 5089,
      "ixed": 5090,
      "èĩª": 5091,
      "loader": 5092,
      "ÑĨ": 5093,
      "Ġthree": 5094,
      "TesterMixin": 5095,
      "]],": 5096,
      "ality": 5097,
      "arÃ¡": 5098,
      "Ġembed": 5099,
      "before": 5100,
      "exit": 5101,
      "Run": 5102,
      "ua": 5103,
      "Ġsignific": 5104,
      "TransformersKwargs": 5105,
      "ĠDefault": 5106,
      "ãĥī": 5107,
      "Ġstage": 5108,
      "issing": 5109,
      "THON": 5110,
      "Ġdrop": 5111,
      "setup": 5112,
      "Ġdentro": 5113,
      "Ð»ÑĮ": 5114,
      "íĦ°": 5115,
      "loud": 5116,
      "Ġhacia": 5117,
      "å¼ı": 5118,
      "bos": 5119,
      "Ġfine": 5120,
      "Ġyet": 5121,
      "Ġrunning": 5122,
      "IX": 5123,
      "relative": 5124,
      "CR": 5125,
      "Ġconstr": 5126,
      "Ġvisual": 5127,
      "ĠÐ°": 5128,
      "Ġbased": 5129,
      "ê³¼": 5130,
      "CHECK": 5131,
      "Ada": 5132,
      "Ġche": 5133,
      "Inline": 5134,
      "ativo": 5135,
      "èĢ": 5136,
      "Ġdem": 5137,
      "ĠSup": 5138,
      "nested": 5139,
      "Ð¾Ð½": 5140,
      "iano": 5141,
      "Ġenumerate": 5142,
      "Ġ);": 5143,
      "document": 5144,
      "contiguous": 5145,
      "Ġobjects": 5146,
      "called": 5147,
      "Warning": 5148,
      "Ġpunto": 5149,
      "oot": 5150,
      "stop": 5151,
      "je": 5152,
      "Ġdebe": 5153,
      "Ġcommon": 5154,
      "').": 5155,
      "Ġmot": 5156,
      "ini": 5157,
      "ãĤ³": 5158,
      "bol": 5159,
      "ampler": 5160,
      "Ð¾Ñģ": 5161,
      "ĠThey": 5162,
      "äºĨ": 5163,
      "Ġcomb": 5164,
      "lower": 5165,
      "Ã¡nd": 5166,
      "Ġpobl": 5167,
      "debug": 5168,
      "Ġdivers": 5169,
      "alt": 5170,
      "Ġfill": 5171,
      "Ġdin": 5172,
      "IP": 5173,
      "Ġsitu": 5174,
      "Ã¼r": 5175,
      "Event": 5176,
      "Fail": 5177,
      "Ġwindow": 5178,
      "facebook": 5179,
      "Ġsince": 5180,
      "Auto": 5181,
      "Ġseem": 5182,
      "ÑĸÐ´": 5183,
      "application": 5184,
      "Ġattentions": 5185,
      "Fl": 5186,
      "ê°": 5187,
      "Ġenable": 5188,
      "ĠCor": 5189,
      "Handler": 5190,
      "gres": 5191,
      "Ġnos": 5192,
      "ĠIntern": 5193,
      "Ġpropert": 5194,
      "button": 5195,
      "pg": 5196,
      "Ġevalu": 5197,
      "tree": 5198,
      "ĠDE": 5199,
      "Ġesc": 5200,
      "Ġmor": 5201,
      "handle": 5202,
      "Ġusize": 5203,
      "Ġexact": 5204,
      "LAS": 5205,
      "ĠCreate": 5206,
      "ĠMo": 5207,
      "Ġencuent": 5208,
      "warn": 5209,
      "ĠÑı": 5210,
      "Ġdeclar": 5211,
      "Ġinject": 5212,
      "ìłķ": 5213,
      "89": 5214,
      "éģ": 5215,
      "Ġ'__": 5216,
      "ESS": 5217,
      "Ŀ¼": 5218,
      "ements": 5219,
      "Le": 5220,
      "ete": 5221,
      "Ġ1024": 5222,
      "make": 5223,
      "Ġspecify": 5224,
      "paÃ±ol": 5225,
      "PAT": 5226,
      "Ac": 5227,
      "yect": 5228,
      "ains": 5229,
      "Ġstatic": 5230,
      "ierno": 5231,
      "æĢ": 5232,
      "xl": 5233,
      "Ġencontr": 5234,
      "Ġrelig": 5235,
      "Ġinvestig": 5236,
      "Mask": 5237,
      "ĠDict": 5238,
      "assertIn": 5239,
      "precision": 5240,
      "Ġoption": 5241,
      "Ġabove": 5242,
      "Qwen": 5243,
      "exto": 5244,
      "Ġcontains": 5245,
      "ĠĠĠĠĠĠĠĠĠĠĠĠĠĠĠĠĠĠĠĠĠ": 5246,
      "ĠEd": 5247,
      "Ġtec": 5248,
      "Ġquien": 5249,
      "Ġneeds": 5250,
      "Ġzero": 5251,
      "teri": 5252,
      "zip": 5253,
      "velop": 5254,
      "abilidad": 5255,
      "apper": 5256,
      "Ġplus": 5257,
      "arly": 5258,
      "Ñī": 5259,
      "auth": 5260,
      "âĸģ": 5261,
      "ĠDat": 5262,
      "Ġpropor": 5263,
      "etr": 5264,
      "assertIsInstance": 5265,
      "ending": 5266,
      "Ġben": 5267,
      "Ġpens": 5268,
      "500": 5269,
      "ĠSQL": 5270,
      "Ð°Ð¼": 5271,
      "ĠTypeError": 5272,
      "What": 5273,
      "!(\"": 5274,
      "Ġfut": 5275,
      "ĠISBN": 5276,
      "ViT": 5277,
      "Ġign": 5278,
      "Ġrow": 5279,
      "curity": 5280,
      "Stream": 5281,
      "collect": 5282,
      "256": 5283,
      "SequenceClassification": 5284,
      "Ġcant": 5285,
      "oca": 5286,
      "Ġworks": 5287,
      "Ġelementos": 5288,
      "ÐµÑĤÐµ": 5289,
      "46": 5290,
      "72": 5291,
      "Ġur": 5292,
      "Ġtre": 5293,
      "transform": 5294,
      "derr": 5295,
      "Ġir": 5296,
      "ĠSam": 5297,
      "Size": 5298,
      "OutputWithPast": 5299,
      "Ġapro": 5300,
      "Ġlarg": 5301,
      "={\"": 5302,
      "OL": 5303,
      "æĮ": 5304,
      "seed": 5305,
      "vant": 5306,
      "Ġturn": 5307,
      "ĠCustom": 5308,
      "ForSequenceClassification": 5309,
      "ãĥĳ": 5310,
      "sem": 5311,
      "trace": 5312,
      "abajo": 5313,
      "ĠeconÃ³m": 5314,
      "final": 5315,
      "hip": 5316,
      "åį": 5317,
      "events": 5318,
      "ìĪĺ": 5319,
      "());": 5320,
      "Ġ[-": 5321,
      "Ġcateg": 5322,
      "Ġimag": 5323,
      "Ġlambda": 5324,
      "aint": 5325,
      "eff": 5326,
      "fs": 5327,
      "ç¨": 5328,
      "ugins": 5329,
      "=\"#": 5330,
      "){": 5331,
      "ÙĬØ©": 5332,
      "anced": 5333,
      "Ġproperly": 5334,
      "lambda": 5335,
      "Ġmedio": 5336,
      "ĠBase": 5337,
      "Ġ42": 5338,
      "atial": 5339,
      "imes": 5340,
      "Ġcompr": 5341,
      "ĠBO": 5342,
      "ĠespaÃ±ol": 5343,
      "ÐºÐ¸": 5344,
      "emente": 5345,
      "ä¸Ĭ": 5346,
      "Ġcame": 5347,
      "('.": 5348,
      "email": 5349,
      "iece": 5350,
      "85": 5351,
      "acidad": 5352,
      "generator": 5353,
      "schemas": 5354,
      "ites": 5355,
      "chos": 5356,
      "ä¸º": 5357,
      "Ġ199": 5358,
      "scheduler": 5359,
      "199": 5360,
      "---": 5361,
      "research": 5362,
      "Ð¾ÑĢ": 5363,
      "ĠÃ©t": 5364,
      "repo": 5365,
      "Ð°ÑĤÑĮ": 5366,
      "uccess": 5367,
      "Ġvariables": 5368,
      "InlineSnapshot": 5369,
      "onces": 5370,
      "Ġpropiedad": 5371,
      "Load": 5372,
      "Ġeffect": 5373,
      "ìĭľ": 5374,
      "ìĻ": 5375,
      "Ġstandard": 5376,
      "Ãł": 5377,
      "ĠĠĠĠĠĠĠĠĠĠĠĠĠĠĠĠĠĠĠĠĠĠĠĠĠ": 5378,
      "Ġrescale": 5379,
      "Ð½Ð¸": 5380,
      ">`": 5381,
      "Ġfastapi": 5382,
      "Audio": 5383,
      "=\"/": 5384,
      "ĠPyObjectRef": 5385,
      "ibility": 5386,
      "leg": 5387,
      "UST": 5388,
      "ç¤": 5389,
      "single": 5390,
      "ĠtÃ©cn": 5391,
      "Ġappro": 5392,
      "Ã¡nt": 5393,
      "ĠEspa": 5394,
      "Ġprivate": 5395,
      "Ġmodules": 5396,
      "********": 5397,
      "::<": 5398,
      "Ġshort": 5399,
      "Ġprovider": 5400,
      "structor": 5401,
      "ĠÃºn": 5402,
      "orrow": 5403,
      "ĠiÃ§": 5404,
      "ĠTestClient": 5405,
      "BERT": 5406,
      "Ġcreated": 5407,
      "][\"": 5408,
      "verse": 5409,
      "My": 5410,
      "ucciÃ³n": 5411,
      "ĠForm": 5412,
      "Ġbelow": 5413,
      "di": 5414,
      "mat": 5415,
      "Ġocc": 5416,
      "Ġput": 5417,
      "terior": 5418,
      "TEST": 5419,
      "ln": 5420,
      "requires": 5421,
      "pp": 5422,
      "Ġast": 5423,
      "Ġdataclass": 5424,
      "INGS": 5425,
      "uid": 5426,
      "ze": 5427,
      "Ġaument": 5428,
      "classmethod": 5429,
      "Ġdep": 5430,
      "ĠÐĴ": 5431,
      "ĠFace": 5432,
      "Ġconfigur": 5433,
      "Ġentonces": 5434,
      "Ġaccess": 5435,
      "projection": 5436,
      "rg": 5437,
      "Ġcat": 5438,
      "invalid": 5439,
      "Ġdescribe": 5440,
      "Ġrename": 5441,
      "dep": 5442,
      "Ġaspect": 5443,
      "Ġ:]": 5444,
      "ĠÂ¿": 5445,
      "Adapter": 5446,
      "Ġ[`~": 5447,
      "ickle": 5448,
      "ilo": 5449,
      "mica": 5450,
      "'])": 5451,
      "utes": 5452,
      "ĠSim": 5453,
      "Ãºbl": 5454,
      "tools": 5455,
      "45": 5456,
      "íģ": 5457,
      "'ll": 5458,
      "ble": 5459,
      "ÃŃsticas": 5460,
      "åīį": 5461,
      "here": 5462,
      "Ġday": 5463,
      "Ġinteger": 5464,
      "Ġmodeling": 5465,
      "Ġcomputed": 5466,
      "MM": 5467,
      "send": 5468,
      "æĽ": 5469,
      "annotation": 5470,
      "ivas": 5471,
      "Ð¾ÑĤ": 5472,
      "ĠGu": 5473,
      "ĠCache": 5474,
      "Ġbuilt": 5475,
      "Ġhub": 5476,
      "colab": 5477,
      "Former": 5478,
      "acciÃ³n": 5479,
      "defaults": 5480,
      "lation": 5481,
      "Ġio": 5482,
      "jos": 5483,
      "Ġcour": 5484,
      "Ġthink": 5485,
      "operation": 5486,
      "ĠRob": 5487,
      "ĠAc": 5488,
      "Mock": 5489,
      "¬¸": 5490,
      "Ġchat": 5491,
      "arange": 5492,
      "lÃ©s": 5493,
      "é¡": 5494,
      "ĠImport": 5495,
      "enciÃ³n": 5496,
      "dustr": 5497,
      "Ġdepth": 5498,
      "Ġmais": 5499,
      "ĠAnnotated": 5500,
      "Ġmuchos": 5501,
      "Ġsession": 5502,
      "sampling": 5503,
      "Ġdropout": 5504,
      "Ġunsafe": 5505,
      "ĠðŁ¤Ĺ": 5506,
      "plugin": 5507,
      "Ġpip": 5508,
      "Ġhf": 5509,
      "Ġiss": 5510,
      "Ġespacio": 5511,
      "merge": 5512,
      "Ġsegu": 5513,
      "Ġasyncio": 5514,
      "ĠSo": 5515,
      "backward": 5516,
      "bres": 5517,
      "card": 5518,
      "Message": 5519,
      "qkv": 5520,
      "imientos": 5521,
      "ump": 5522,
      "Ġparallel": 5523,
      "ĠThen": 5524,
      "Ġperformance": 5525,
      "rist": 5526,
      "Ġmath": 5527,
      "002": 5528,
      "Ġtrack": 5529,
      "Ġavoid": 5530,
      "Ġside": 5531,
      "ĠaÃ±o": 5532,
      "Ġhard": 5533,
      "Ġrot": 5534,
      "Method": 5535,
      "izado": 5536,
      "ãĥķãĤ": 5537,
      "ĠIs": 5538,
      "Ġìĥ": 5539,
      "erse": 5540,
      "ĠBe": 5541,
      "ç¤º": 5542,
      "ĠâĪĴ": 5543,
      "fabric": 5544,
      "bfloat": 5545,
      "Ġleg": 5546,
      "ãģĹãģŁ": 5547,
      "Ġpersonas": 5548,
      "PYTHON": 5549,
      "Ġscope": 5550,
      "Ġtrat": 5551,
      "Ã¡tico": 5552,
      "ÑĶ": 5553,
      "uring": 5554,
      "Ġtrabajo": 5555,
      "else": 5556,
      "ĠUnion": 5557,
      "swering": 5558,
      "Element": 5559,
      "Ġ`/": 5560,
      "87": 5561,
      "greg": 5562,
      "Ġ####": 5563,
      "]`,": 5564,
      "Ġnested": 5565,
      "Ġoptional": 5566,
      "Ġwithin": 5567,
      "cc": 5568,
      "Ġpadded": 5569,
      "Ġnuevo": 5570,
      "Ã©e": 5571,
      "embre": 5572,
      "Ġposible": 5573,
      "ĠRec": 5574,
      "400": 5575,
      "ĠÙģ": 5576,
      "fit": 5577,
      "encial": 5578,
      "Ġidx": 5579,
      "ĠBatch": 5580,
      "ificar": 5581,
      "Ġnecess": 5582,
      "Ġdetails": 5583,
      "ĠÐ¾Ð±": 5584,
      "Ġrepo": 5585,
      "Ġvon": 5586,
      "Llama": 5587,
      "iny": 5588,
      ">()": 5589,
      "ĴĮ": 5590,
      "writ": 5591,
      "oma": 5592,
      "limit": 5593,
      "ĠÐŁ": 5594,
      "ĠinglÃ©s": 5595,
      "outer": 5596,
      "Ġcuy": 5597,
      "eng": 5598,
      "ãĤŃ": 5599,
      "Ġgot": 5600,
      "FAULT": 5601,
      "è§": 5602,
      "ley": 5603,
      "handler": 5604,
      "'re": 5605,
      "Ġtipos": 5606,
      "################": 5607,
      "big": 5608,
      "ĠãĤĴ": 5609,
      "IZE": 5610,
      "ĠCode": 5611,
      "Ġaction": 5612,
      "RAW": 5613,
      "virt": 5614,
      "cut": 5615,
      "iere": 5616,
      "ks": 5617,
      "Ġmac": 5618,
      "\"></": 5619,
      "Format": 5620,
      "ĠCallable": 5621,
      "æ¨¡åŀĭ": 5622,
      "Ġigual": 5623,
      "Ġconnection": 5624,
      "ãĥ§": 5625,
      "ĠMicrosoft": 5626,
      "Ġese": 5627,
      "Ġpan": 5628,
      "Foo": 5629,
      "aar": 5630,
      "seek": 5631,
      "Ġappe": 5632,
      "cii": 5633,
      "Ġ256": 5634,
      "ìłģ": 5635,
      "Ġfuncion": 5636,
      "ĠØ¥": 5637,
      "sdp": 5638,
      "Ø·": 5639,
      "preprocess": 5640,
      "ãĢį": 5641,
      "Ġclasses": 5642,
      "Ġdatasets": 5643,
      "ĠCPU": 5644,
      "ãĢĮ": 5645,
      "master": 5646,
      "Ġclassification": 5647,
      "flat": 5648,
      "Ġsegmentation": 5649,
      "Ġfinally": 5650,
      "ared": 5651,
      "ters": 5652,
      "ĠØ§ÙĦØª": 5653,
      "equal": 5654,
      "ving": 5655,
      "Ð°Ñĩ": 5656,
      "ĠëĮĢ": 5657,
      "Ġattr": 5658,
      "ĠÐ´Ð»Ñı": 5659,
      "Ġwarnings": 5660,
      "adow": 5661,
      "eda": 5662,
      "ĠGPT": 5663,
      "Ġmeans": 5664,
      "missing": 5665,
      "Ġunivers": 5666,
      "some": 5667,
      "å¤ļ": 5668,
      "Contain": 5669,
      "ordin": 5670,
      "Ġhace": 5671,
      "Ġobserv": 5672,
      "vitejs": 5673,
      "export": 5674,
      "\"][": 5675,
      "Ġgrid": 5676,
      "Ġstop": 5677,
      "Ġmec": 5678,
      "Ġrad": 5679,
      "Ġmasked": 5680,
      "Ġautomatically": 5681,
      "PAR": 5682,
      "Ġcomplet": 5683,
      "IA": 5684,
      "Ġdatabase": 5685,
      "integr": 5686,
      "akes": 5687,
      "Ġcases": 5688,
      "Ġdocumentation": 5689,
      "compute": 5690,
      "sing": 5691,
      "ierra": 5692,
      "culo": 5693,
      "Ġreduc": 5694,
      "ROR": 5695,
      "Ġfre": 5696,
      "uite": 5697,
      "should": 5698,
      "{\\": 5699,
      "ìĻĢ": 5700,
      "Ġshall": 5701,
      "Ġ50": 5702,
      "ĠvocÃª": 5703,
      "ĠfÃŃs": 5704,
      "Implement": 5705,
      "Ad": 5706,
      "Tip": 5707,
      "ĠTransformer": 5708,
      "ĠCopied": 5709,
      "omÃŃa": 5710,
      "NAME": 5711,
      "Ġinner": 5712,
      "ĠHow": 5713,
      "çī": 5714,
      "Ġmicro": 5715,
      "ifica": 5716,
      "ÙħÙĪ": 5717,
      "73": 5718,
      "Ġ128": 5719,
      "just": 5720,
      "Ġbos": 5721,
      "ĠCont": 5722,
      "Ġprocessed": 5723,
      "Index": 5724,
      "ãĥ¼ãĥī": 5725,
      "ÃŃstica": 5726,
      "Var": 5727,
      "Ġlight": 5728,
      "ĠExample": 5729,
      "rotary": 5730,
      "_.": 5731,
      "Ġfav": 5732,
      "ella": 5733,
      "Ġconsum": 5734,
      "results": 5735,
      "åĻ": 5736,
      "ĠVer": 5737,
      "clos": 5738,
      "delta": 5739,
      "]),": 5740,
      "Ġnous": 5741,
      "åĻ¨": 5742,
      "ë¶": 5743,
      "Ġpode": 5744,
      "Ġmens": 5745,
      "Ġtasks": 5746,
      "Ġhistoria": 5747,
      "rest": 5748,
      "loy": 5749,
      "Trans": 5750,
      "eRO": 5751,
      "Ġslow": 5752,
      "users": 5753,
      "ĠInst": 5754,
      "channel": 5755,
      "åł´": 5756,
      "TypeOf": 5757,
      "ls": 5758,
      "Ġellos": 5759,
      "Ġmapping": 5760,
      "Ġ[],": 5761,
      "angolo": 5762,
      "iet": 5763,
      "Ġrem": 5764,
      "Ġbeg": 5765,
      "æľĢ": 5766,
      "Sh": 5767,
      "[[": 5768,
      "agment": 5769,
      "Ġstat": 5770,
      "annotations": 5771,
      "gpt": 5772,
      "ieve": 5773,
      "Â»,": 5774,
      "segmentation": 5775,
      "Ġextract": 5776,
      "----------------------------------------------------------------": 5777,
      "Ġtransport": 5778,
      "Ġdebug": 5779,
      "!\"": 5780,
      "istry": 5781,
      "icht": 5782,
      "toMatchInlineSnapshot": 5783,
      "Ġpalab": 5784,
      "asource": 5785,
      "Ġcomunic": 5786,
      "Ġwhether": 5787,
      "commit": 5788,
      "soft": 5789,
      "flatten": 5790,
      "çĶŁ": 5791,
      "LOCK": 5792,
      "?;": 5793,
      "usion": 5794,
      "Ġalign": 5795,
      "æŀľ": 5796,
      "Get": 5797,
      "imodal": 5798,
      "andb": 5799,
      "ited": 5800,
      "ĠquÃ©": 5801,
      "Ġobt": 5802,
      "datetime": 5803,
      "Process": 5804,
      "duction": 5805,
      "ãģŁãĤģ": 5806,
      "åĢĭ": 5807,
      "Ġremain": 5808,
      "ĠĠĠĠĠĠĠĠĠĠĠĠĠĠĠĠĠĠĠĠĠĠ": 5809,
      "Ġmisma": 5810,
      "ĠParam": 5811,
      "Ġ'/": 5812,
      "Ġcomun": 5813,
      "ÑĥÐ²": 5814,
      "Ġestablec": 5815,
      "Dec": 5816,
      "ĠÑĢ": 5817,
      "elo": 5818,
      "assets": 5819,
      "**:": 5820,
      "Ġjo": 5821,
      "Ġ\"@": 5822,
      "Ġcomerc": 5823,
      "udes": 5824,
      "Ġaddress": 5825,
      "Ġdej": 5826,
      "Ġ{%": 5827,
      "Seq": 5828,
      "tiangolo": 5829,
      "OW": 5830,
      "ĠĠĠĠĠĠĠĠĠĠĠĠĠĠĠĠĠĠĠĠ": 5831,
      "Ġprote": 5832,
      "Ġempres": 5833,
      "8000": 5834,
      "Op": 5835,
      "Ġfew": 5836,
      "Ġaccelerator": 5837,
      "Import": 5838,
      "Ġatr": 5839,
      "agger": 5840,
      "grafÃŃa": 5841,
      "Ġvector": 5842,
      "pred": 5843,
      "ä¸Ģä¸ª": 5844,
      "Ġresolve": 5845,
      "Ã¢": 5846,
      "untos": 5847,
      "cuencia": 5848,
      "Ġay": 5849,
      "inline": 5850,
      "Ġneeded": 5851,
      "Color": 5852,
      "åĮĸ": 5853,
      "ãĥ³ãĤ°": 5854,
      "Ġhalf": 5855,
      "Ġìĸ": 5856,
      "åĬł": 5857,
      ">\",": 5858,
      "ĠCu": 5859,
      "Ø§Ùħ": 5860,
      "¯¸": 5861,
      "Ġimportante": 5862,
      "æĪĳ": 5863,
      "ì²": 5864,
      "Ġsil": 5865,
      "apes": 5866,
      "Ġzelf": 5867,
      "struction": 5868,
      "ĠSIGN": 5869,
      "alla": 5870,
      "ĠOne": 5871,
      "ĠToken": 5872,
      "ĠpaÃŃses": 5873,
      "Details": 5874,
      "ĠçļĦ": 5875,
      "Ġsection": 5876,
      "curr": 5877,
      "itecture": 5878,
      "Ġbajo": 5879,
      "]))": 5880,
      "posed": 5881,
      "Ġhandler": 5882,
      "ret": 5883,
      "anas": 5884,
      "Ġven": 5885,
      "ierto": 5886,
      "Ġdictionary": 5887,
      "ĶĦ": 5888,
      "Ġdar": 5889,
      "Ġmillones": 5890,
      "ĠComput": 5891,
      "Ġlife": 5892,
      "Ġ(!": 5893,
      "Ġeu": 5894,
      "Ġ}),": 5895,
      "ãĤ·": 5896,
      "ĠPR": 5897,
      "Ġworker": 5898,
      "Ġclas": 5899,
      "Ġentry": 5900,
      "ĠUnivers": 5901,
      "Head": 5902,
      "anto": 5903,
      "ĠÑĦ": 5904,
      "lator": 5905,
      "Ġpatches": 5906,
      "Ġblocks": 5907,
      "atro": 5908,
      "tral": 5909,
      "ropa": 5910,
      "ĠEstados": 5911,
      "Ġtrab": 5912,
      "Serializer": 5913,
      "93": 5914,
      "eric": 5915,
      "Ġcomenz": 5916,
      "Ġopt": 5917,
      "Ġ\"\\": 5918,
      "ĠsegÃºn": 5919,
      "æĿ": 5920,
      "ìŀħëĭĪëĭ¤": 5921,
      "ĠsetUp": 5922,
      "vicorn": 5923,
      "Ġfact": 5924,
      "Ġrelacion": 5925,
      "berta": 5926,
      "supported": 5927,
      "Ġtro": 5928,
      "icion": 5929,
      "Ġdestac": 5930,
      "Man": 5931,
      "cil": 5932,
      "ë²": 5933,
      "where": 5934,
      "Ġarqu": 5935,
      "Ð¾Ð·": 5936,
      "Ø§Ø³": 5937,
      "manager": 5938,
      "Ġequip": 5939,
      "Ġsche": 5940,
      "Ġmessages": 5941,
      "guide": 5942,
      "Ġzijn": 5943,
      "Checkpoint": 5944,
      "ĠcÃ©l": 5945,
      "/\"": 5946,
      "Ġless": 5947,
      "Ġacross": 5948,
      "enn": 5949,
      "ah": 5950,
      "Ġì¶": 5951,
      "properties": 5952,
      "Ġindustr": 5953,
      "*.": 5954,
      "ĠCO": 5955,
      "Ġ25": 5956,
      "ĠAlg": 5957,
      "ĠAutoModelForCausalLM": 5958,
      "itive": 5959,
      "Ġinterpol": 5960,
      "rozen": 5961,
      "ĠEspaÃ±a": 5962,
      "ëŀ": 5963,
      "åħ¥": 5964,
      "ĠRun": 5965,
      "Ġê¸°": 5966,
      "ĠOnly": 5967,
      ")`):": 5968,
      "Dep": 5969,
      "dom": 5970,
      "He": 5971,
      "cular": 5972,
      "Ġcollections": 5973,
      "ĠDRAW": 5974,
      "paths": 5975,
      "Ġ30": 5976,
      "ĠBOX": 5977,
      "puesta": 5978,
      "ane": 5979,
      "Ġinstr": 5980,
      "ulas": 5981,
      "gether": 5982,
      "ÑģÐ¿": 5983,
      "ience": 5984,
      "ords": 5985,
      "ORT": 5986,
      "hfo": 5987,
      "Ġ////": 5988,
      "ĠDRAWINGS": 5989,
      "ns": 5990,
      "startswith": 5991,
      "Ġlr": 5992,
      "Ġdecor": 5993,
      "lengths": 5994,
      "quantization": 5995,
      "iqu": 5996,
      "å¹": 5997,
      "Ġhapp": 5998,
      "Ġdetect": 5999,
      "NS": 6000,
      "iend": 6001,
      "Ġwon": 6002,
      "ĠIP": 6003,
      "zas": 6004,
      "Ġfabric": 6005,
      "Ġboolean": 6006,
      "ĠIter": 6007,
      "Ġhecho": 6008,
      "Ð°Ð´": 6009,
      "Ġprevious": 6010,
      "Ġproporcion": 6011,
      "distributed": 6012,
      "ãĤĬãģ¾ãģĻ": 6013,
      "å¿ħ": 6014,
      "jer": 6015,
      "Ø²": 6016,
      "izaje": 6017,
      "ä»¶": 6018,
      "Ġ\"_": 6019,
      "ories": 6020,
      "Ġspeech": 6021,
      "Ġmerge": 6022,
      "]`": 6023,
      "Ġcast": 6024,
      "iling": 6025,
      "ĠInt": 6026,
      "ĠmayorÃŃa": 6027,
      "Ġraz": 6028,
      "Ã³s": 6029,
      "eft": 6030,
      "ĠíĮ": 6031,
      "Tuple": 6032,
      "ĠTambiÃ©n": 6033,
      "ummy": 6034,
      "Ġquestion": 6035,
      "ĠSw": 6036,
      "flags": 6037,
      "atura": 6038,
      "Ġalias": 6039,
      "MSNorm": 6040,
      "ëĿ¼": 6041,
      "////////": 6042,
      "icode": 6043,
      "ĠMult": 6044,
      "location": 6045,
      "anza": 6046,
      "Ġattributes": 6047,
      "land": 6048,
      "Ġdoor": 6049,
      "ĠInitialize": 6050,
      "åł´åĲĪ": 6051,
      "iled": 6052,
      "ĠDep": 6053,
      "Raw": 6054,
      "Ġau": 6055,
      "Regex": 6056,
      "temp": 6057,
      "xc": 6058,
      "Ġfuture": 6059,
      "'.": 6060,
      "Doc": 6061,
      "Ġreport": 6062,
      "abbr": 6063,
      "Ġgive": 6064,
      "Ġpersonal": 6065,
      "orno": 6066,
      "aise": 6067,
      "Ġllev": 6068,
      "mute": 6069,
      "ëĤ": 6070,
      "ĠÙĨ": 6071,
      "ares": 6072,
      "Ġplay": 6073,
      "Ġchanges": 6074,
      "parser": 6075,
      "perio": 6076,
      "Ġê²ĥ": 6077,
      "Hero": 6078,
      "real": 6079,
      "ãĤ¿": 6080,
      "AA": 6081,
      "Ġdomin": 6082,
      "environ": 6083,
      "Ġeas": 6084,
      "Ġtrunc": 6085,
      "ards": 6086,
      "ibilidad": 6087,
      "92": 6088,
      "ascii": 6089,
      "orth": 6090,
      "ools": 6091,
      "badge": 6092,
      "Ġpeque": 6093,
      "Ð¾Ð»ÑĮÐ·": 6094,
      "ources": 6095,
      "PUT": 6096,
      "Ġloaded": 6097,
      ">)": 6098,
      "issues": 6099,
      "åĳ": 6100,
      "icial": 6101,
      "007": 6102,
      "Ġtimeout": 6103,
      "Ġspace": 6104,
      "Ġarte": 6105,
      "Ġzu": 6106,
      "Pipeline": 6107,
      "ĠÐ²Ñĭ": 6108,
      "iddleware": 6109,
      "/)": 6110,
      "Ġì§": 6111,
      "Ġrom": 6112,
      "Ġfunctions": 6113,
      "Ġresized": 6114,
      "alpha": 6115,
      "Ġhij": 6116,
      "irse": 6117,
      "endizaje": 6118,
      "void": 6119,
      "Ġbetter": 6120,
      "responses": 6121,
      "Ġdas": 6122,
      "Ġanal": 6123,
      "ĠCH": 6124,
      "Ġrequests": 6125,
      "éĢļ": 6126,
      "Ġalgorit": 6127,
      "Ġplant": 6128,
      "PR": 6129,
      "Ġou": 6130,
      "Ġaccept": 6131,
      "ìĹ¬": 6132,
      "untimeError": 6133,
      "ãĥ§ãĥ³": 6134,
      "æĹ": 6135,
      "erÃŃa": 6136,
      "Ġcrop": 6137,
      "Ġinvalid": 6138,
      "ãĤ»": 6139,
      "Ġstatus": 6140,
      "Ġsupports": 6141,
      "xx": 6142,
      "Ġfac": 6143,
      "Ġrope": 6144,
      "ked": 6145,
      "unda": 6146,
      "ìĿ¼": 6147,
      "Ġdenomin": 6148,
      "Ġensure": 6149,
      "comment": 6150,
      "Prisma": 6151,
      "Ġtag": 6152,
      "omb": 6153,
      "erty": 6154,
      "anti": 6155,
      "Iterator": 6156,
      "Ġrepr": 6157,
      "initial": 6158,
      "Ġcuer": 6159,
      "Ġinflu": 6160,
      "Seg": 6161,
      "Ġcup": 6162,
      "Ġdate": 6163,
      "ĠAm": 6164,
      "progress": 6165,
      "Ġejecut": 6166,
      "åĭ": 6167,
      "Ġrounded": 6168,
      "Ġincluy": 6169,
      "Names": 6170,
      "[...,": 6171,
      "Ġproblema": 6172,
      "cli": 6173,
      "Ð°Ð½Ð¸": 6174,
      "toml": 6175,
      "97": 6176,
      "gather": 6177,
      "lots": 6178,
      "çĤ": 6179,
      "Ġpur": 6180,
      "ãģĵãĤĮ": 6181,
      "Ġpermite": 6182,
      "ĠEuropa": 6183,
      "qa": 6184,
      "iese": 6185,
      "PATH": 6186,
      "sock": 6187,
      "}`": 6188,
      "ene": 6189,
      "Ġniet": 6190,
      "ĠcÃ³mo": 6191,
      "VA": 6192,
      "ãģł": 6193,
      "ĠThese": 6194,
      "Ġlogin": 6195,
      "Ġagainst": 6196,
      "ç«": 6197,
      "Ġìĭ": 6198,
      "Ġcambio": 6199,
      "enabled": 6200,
      "Ġts": 6201,
      "ĠException": 6202,
      "ength": 6203,
      "REE": 6204,
      "Plugin": 6205,
      "reference": 6206,
      "ĠSE": 6207,
      "Ġalong": 6208,
      "ĠRE": 6209,
      "ĠiÃ§in": 6210,
      "car": 6211,
      "åĪ°": 6212,
      "Ġhor": 6213,
      "Ġveces": 6214,
      "ëĲĺ": 6215,
      "æ³ķ": 6216,
      "]):": 6217,
      "Ġremo": 6218,
      "Ġcampo": 6219,
      "Ġeran": 6220,
      "){.": 6221,
      "Ġinsert": 6222,
      "'},": 6223,
      "iencia": 6224,
      "Ġextern": 6225,
      "socket": 6226,
      "ëŁ¬": 6227,
      "peak": 6228,
      "Ġproblemas": 6229,
      "Ġflo": 6230,
      "Ġtoda": 6231,
      "Ġsearch": 6232,
      "ĠMan": 6233,
      "Ä±r": 6234,
      "Ġlonger": 6235,
      "Ġpriv": 6236,
      "Array": 6237,
      "SIZE": 6238,
      "]=\"": 6239,
      "enas": 6240,
      "ono": 6241,
      "ĠNew": 6242,
      "Ġinterpre": 6243,
      "ãģ§ãģįãģ¾ãģĻ": 6244,
      "Ġlora": 6245,
      "Ġperi": 6246,
      "Ġmodern": 6247,
      "armup": 6248,
      "83": 6249,
      "å·": 6250,
      "Ġsuff": 6251,
      "Ġ/*": 6252,
      "uestra": 6253,
      "53": 6254,
      "owned": 6255,
      ">.": 6256,
      "ĠLlama": 6257,
      "Ġsuccess": 6258,
      "undial": 6259,
      "Ġsetup": 6260,
      "Ġmodo": 6261,
      "ately": 6262,
      "Ġ...,": 6263,
      "VisionConfig": 6264,
      "jet": 6265,
      "ought": 6266,
      "security": 6267,
      "Ð¾ÑģÑĤ": 6268,
      "background": 6269,
      "Ġadapter": 6270,
      "ĠAI": 6271,
      "Ġprot": 6272,
      "Ġdistint": 6273,
      "tasks": 6274,
      "Ġequival": 6275,
      "UP": 6276,
      "detr": 6277,
      "\"\\": 6278,
      "Ġprecision": 6279,
      "ĠWeb": 6280,
      "Ã©rica": 6281,
      "ĠlÃŃne": 6282,
      "entr": 6283,
      "Ġadditional": 6284,
      "repeat": 6285,
      "Fr": 6286,
      "NOT": 6287,
      "ĠBar": 6288,
      "nt": 6289,
      "ismos": 6290,
      "ste": 6291,
      "ĠVal": 6292,
      "Ġconsole": 6293,
      "Ġren": 6294,
      "ĠrÃ©": 6295,
      "ief": 6296,
      "Ġcombin": 6297,
      "Ġsiguiente": 6298,
      "Ġcalls": 6299,
      "Ġproyect": 6300,
      "ĠListing": 6301,
      "Ġtempfile": 6302,
      "Speech": 6303,
      "Ã©rc": 6304,
      "Ð½Ñĸ": 6305,
      "62": 6306,
      "brid": 6307,
      "cha": 6308,
      "Ġesper": 6309,
      "ĠOrderDetails": 6310,
      "æıĲ": 6311,
      "Ø´": 6312,
      "Ġaff": 6313,
      "uridad": 6314,
      "Ġsocket": 6315,
      "Ġaway": 6316,
      "rep": 6317,
      "å¤§": 6318,
      "DAT": 6319,
      "PyTorch": 6320,
      "ÐµÐ½ÑĤ": 6321,
      "ãĤ¤ãĥ³": 6322,
      "Ġtemper": 6323,
      "hing": 6324,
      "ĠCLI": 6325,
      "Ġestaba": 6326,
      "USTPYTHON": 6327,
      "Loc": 6328,
      "Ġsto": 6329,
      "Ġsiendo": 6330,
      "books": 6331,
      "Ġdebido": 6332,
      "Ġwater": 6333,
      "words": 6334,
      "52": 6335,
      "enum": 6336,
      "decor": 6337,
      "Ġlearning": 6338,
      "åŃĺ": 6339,
      "íĸ": 6340,
      "Ġè": 6341,
      "Ã¡r": 6342,
      "Ġupdated": 6343,
      "Ġhimself": 6344,
      "AND": 6345,
      "æĢ§": 6346,
      "Ġreco": 6347,
      "ĠGr": 6348,
      "ÑĢÐ¸ÑģÑĤ": 6349,
      "RMSNorm": 6350,
      "æł": 6351,
      "Ġdistrib": 6352,
      "ullan": 6353,
      "Ġvarios": 6354,
      "ĠÐ½Ð°": 6355,
      "CF": 6356,
      "ĠĠĠĠĠĠĠĠĠĠĠĠĠĠĠĠĠĠĠĠĠĠĠĠĠĠĠĠĠĠĠĠĠĠĠĠĠĠĠĠĠĠĠ": 6357,
      "ChannelDimension": 6358,
      "Ġrecib": 6359,
      "timeout": 6360,
      "Ġmissing": 6361,
      "edia": 6362,
      "ãģ¿": 6363,
      "Ġtrait": 6364,
      "____": 6365,
      "ĠModule": 6366,
      "cciÃ³n": 6367,
      "Ġsel": 6368,
      "ÑĹ": 6369,
      "orage": 6370,
      "Training": 6371,
      "Ġannotations": 6372,
      "çµ": 6373,
      "runtime": 6374,
      "annels": 6375,
      "dataclasses": 6376,
      "íĻĶ": 6377,
      "ea": 6378,
      "vanced": 6379,
      "ĠSP": 6380,
      "ĠLu": 6381,
      "Ġstro": 6382,
      "Ð°Ð¹": 6383,
      "rele": 6384,
      "URL": 6385,
      "half": 6386,
      "second": 6387,
      "Ġcrec": 6388,
      "69": 6389,
      ":\\": 6390,
      ")\"": 6391,
      "Ġconverted": 6392,
      "arÃŃa": 6393,
      "ajes": 6394,
      "ĠGeneration": 6395,
      "Ġcompon": 6396,
      "calls": 6397,
      "ĠNode": 6398,
      "Ġclose": 6399,
      "Ð°Ð²": 6400,
      "Ġcuenta": 6401,
      "ernels": 6402,
      "yield": 6403,
      "Ġpues": 6404,
      "Meta": 6405,
      "Ġsever": 6406,
      "Ġloading": 6407,
      "jpg": 6408,
      "now": 6409,
      "leep": 6410,
      "Ġcharacter": 6411,
      "Ġdit": 6412,
      "Ġgar": 6413,
      "ĠWav": 6414,
      "classifier": 6415,
      "æľ¬": 6416,
      "ĠdÃ©c": 6417,
      "unity": 6418,
      "Ġgenerator": 6419,
      "LP": 6420,
      "kes": 6421,
      "Ġ((": 6422,
      "ientÃŃf": 6423,
      "ĠÙħÙĨ": 6424,
      "Hub": 6425,
      "buf": 6426,
      "63": 6427,
      "xf": 6428,
      "estamp": 6429,
      "copes": 6430,
      "ring": 6431,
      "byte": 6432,
      "Ġfunciones": 6433,
      "findMany": 6434,
      "ĠDec": 6435,
      "Ġtrabaj": 6436,
      "ni": 6437,
      "Number": 6438,
      "Ġke": 6439,
      "ÑĢÑĥ": 6440,
      "SDP": 6441,
      "Ġmodelos": 6442,
      "uan": 6443,
      "Ġnumpy": 6444,
      "idu": 6445,
      "ĠGod": 6446,
      "pair": 6447,
      "fetch": 6448,
      "sort": 6449,
      "¸ı": 6450,
      "Ġdescription": 6451,
      "ãģ¦ãģĦ": 6452,
      "ï¸ı": 6453,
      "ale": 6454,
      "ĠVite": 6455,
      "Ġaxolotl": 6456,
      "Ġning": 6457,
      "ĠReg": 6458,
      "Ġcapital": 6459,
      "Ġbehavior": 6460,
      "KEN": 6461,
      "ãĤ£": 6462,
      "Ġsql": 6463,
      "Ġqued": 6464,
      "Ġestudio": 6465,
      "Ġses": 6466,
      "Ġresample": 6467,
      "igration": 6468,
      "ç¨ĭ": 6469,
      "Ġ'âĸģ": 6470,
      "ĠRUSTPYTHON": 6471,
      "67": 6472,
      "sq": 6473,
      "agr": 6474,
      "ĠTHE": 6475,
      "ĠCY": 6476,
      "maps": 6477,
      "ĠÐ±Ñĥ": 6478,
      "Ã¡lisis": 6479,
      "Ġnormalize": 6480,
      "æĦ": 6481,
      "ãĥ¥": 6482,
      "Ġoverr": 6483,
      "================================": 6484,
      "ä¾Ŀ": 6485,
      "ULL": 6486,
      "ìĿĮ": 6487,
      "ulo": 6488,
      "numpy": 6489,
      "ĠLog": 6490,
      "Ġ2025": 6491,
      "Implemented": 6492,
      "Gemma": 6493,
      "ĠSu": 6494,
      "store": 6495,
      "ĠĠĠĠĠĠĠĠĠĠĠĠĠĠĠĠĠĠ": 6496,
      "`](": 6497,
      "Matrix": 6498,
      "reset": 6499,
      "ĠproducciÃ³n": 6500,
      "Batch": 6501,
      "Next": 6502,
      "ĠìľĦ": 6503,
      "ĠâĨ": 6504,
      "Ġverify": 6505,
      "tributeError": 6506,
      "ÑĦ": 6507,
      "Ġcertain": 6508,
      "Ġbackbone": 6509,
      "}/": 6510,
      "Ġblo": 6511,
      "esto": 6512,
      "Ġrtol": 6513,
      "Ġdisplay": 6514,
      "Ġ---": 6515,
      "exists": 6516,
      "ige": 6517,
      "ĠHere": 6518,
      "ĠVec": 6519,
      "ĠespecÃŃf": 6520,
      "Ġfundament": 6521,
      "å¸¸": 6522,
      "GB": 6523,
      "extend": 6524,
      "ĠprÃ¡ct": 6525,
      "warnings": 6526,
      "rgb": 6527,
      "Ø£": 6528,
      "ĠOver": 6529,
      "Ð°ÑĪ": 6530,
      "GPT": 6531,
      "Ġsy": 6532,
      "Ġclear": 6533,
      "Pydantic": 6534,
      "CLIP": 6535,
      "FI": 6536,
      "Ġconcep": 6537,
      "}\",": 6538,
      "ĠLo": 6539,
      "fixture": 6540,
      "Prop": 6541,
      "Ġfar": 6542,
      "Ġauth": 6543,
      "KEY": 6544,
      "Ġlater": 6545,
      "Ġvalores": 6546,
      "Ġê·¸": 6547,
      "ĠíĻ": 6548,
      "Ġchannels": 6549,
      "late": 6550,
      "Ġsomething": 6551,
      "UBLE": 6552,
      "![": 6553,
      "hora": 6554,
      "Ġvel": 6555,
      "super": 6556,
      "Failure": 6557,
      "built": 6558,
      "ĠTYPE": 6559,
      "ĠpoblaciÃ³n": 6560,
      "Ġwer": 6561,
      "Ġtogether": 6562,
      "Ġgobierno": 6563,
      "Ġtecno": 6564,
      "Ġabsol": 6565,
      "ĠInitial": 6566,
      "product": 6567,
      "assertList": 6568,
      "Group": 6569,
      "æĶ": 6570,
      "crimin": 6571,
      "Ġyears": 6572,
      "search": 6573,
      "ãģ£": 6574,
      "Ġusers": 6575,
      "override": 6576,
      "Ġcum": 6577,
      "ĠMon": 6578,
      "ĠMask": 6579,
      "iana": 6580,
      "igrate": 6581,
      "Resampling": 6582,
      "[:-": 6583,
      "Ġprincipales": 6584,
      ".*.": 6585,
      "once": 6586,
      "ĠNow": 6587,
      "Ġ40": 6588,
      "Ġinterface": 6589,
      "éĥ": 6590,
      "elem": 6591,
      "omas": 6592,
      "ĠEngl": 6593,
      "ä»¬": 6594,
      "structure": 6595,
      "Ġlenguaje": 6596,
      "Ġdescub": 6597,
      "ĠĠĠĠĠĠĠĠĠĠĠĠĠĠĠĠĠĠĠĠĠĠĠĠĠĠĠĠ": 6598,
      "stdout": 6599,
      "vars": 6600,
      "Ġdynamic": 6601,
      "ĠHub": 6602,
      "Ġservid": 6603,
      "fully": 6604,
      "RIL": 6605,
      "Ġbit": 6606,
      "Ġ`.": 6607,
      "Ġelements": 6608,
      "ðŁļ¨ðŁļ¨ðŁļ¨ðŁļ¨ðŁļ¨ðŁļ¨ðŁļ¨ðŁļ¨ðŁļ¨ðŁļ¨ðŁļ¨ðŁļ¨ðŁļ¨ðŁļ¨ðŁļ¨ðŁļ¨ðŁļ¨ðŁļ¨ðŁļ¨ðŁļ¨ðŁļ¨ðŁļ¨ðŁļ¨ðŁļ¨ðŁļ¨ðŁļ¨ðŁļ¨ðŁļ¨ðŁļ¨ðŁļ¨ðŁļ¨ðŁļ¨": 6609,
      "æ¬": 6610,
      "border": 6611,
      "Ġconstru": 6612,
      "()))": 6613,
      "ãĤµ": 6614,
      "Ã¡p": 6615,
      "Ġparts": 6616,
      "headers": 6617,
      "Ġmucho": 6618,
      "82": 6619,
      "wav": 6620,
      "ĠGlm": 6621,
      "()).": 6622,
      "Ġcin": 6623,
      "Ġuma": 6624,
      "ĠKey": 6625,
      "ceso": 6626,
      "ãģĮãģĤ": 6627,
      "UDA": 6628,
      "RILLIC": 6629,
      "Ġthings": 6630,
      "ĠÑĨ": 6631,
      "assertListEqual": 6632,
      "clear": 6633,
      "ĠCYRILLIC": 6634,
      "Ġenabled": 6635,
      "igned": 6636,
      "day": 6637,
      "Question": 6638,
      "STR": 6639,
      "sdpa": 6640,
      "tz": 6641,
      "ips": 6642,
      "è©": 6643,
      "Ġautor": 6644,
      "ĠMin": 6645,
      "Ġapplied": 6646,
      "éĥ¨": 6647,
      "fter": 6648,
      "accept": 6649,
      "Ġreduce": 6650,
      "Ġallowed": 6651,
      "sqlite": 6652,
      "ĠÐ¿ÑĢÐ¸": 6653,
      "dynamic": 6654,
      "æĥ": 6655,
      "éĿ": 6656,
      "ì¹": 6657,
      "ĠcientÃŃf": 6658,
      "Ġreplace": 6659,
      "Ã©d": 6660,
      "Transformer": 6661,
      "åıĤ": 6662,
      "Arguments": 6663,
      "lp": 6664,
      "ĠÑī": 6665,
      "Ġalgunas": 6666,
      "Ġwords": 6667,
      "Ġlargo": 6668,
      "Down": 6669,
      "entic": 6670,
      "Ġmuest": 6671,
      "named": 6672,
      "Ġluego": 6673,
      "cussion": 6674,
      "ĠBl": 6675,
      "Ġprue": 6676,
      "address": 6677,
      "nan": 6678,
      "assistant": 6679,
      "Ġescr": 6680,
      "area": 6681,
      "Ġentity": 6682,
      "Des": 6683,
      "vez": 6684,
      "Ġinitializer": 6685,
      "Ġ2024": 6686,
      "Ġclean": 6687,
      "åħ¶": 6688,
      "similar": 6689,
      "ãĥģ": 6690,
      "Ġplugin": 6691,
      "ĠResponse": 6692,
      "supports": 6693,
      "ãĤĪãģĨ": 6694,
      "Ġmemoria": 6695,
      "Ġage": 6696,
      "ĠMr": 6697,
      "Ġcaball": 6698,
      "oringModel": 6699,
      "Ð°ÑĨÑĸ": 6700,
      "ĠÑıÐº": 6701,
      "Ġstroke": 6702,
      "onas": 6703,
      "Ġindepend": 6704,
      "ĠWith": 6705,
      "128": 6706,
      "acters": 6707,
      "Ġkullan": 6708,
      "ocker": 6709,
      "worker": 6710,
      "hr": 6711,
      "Ġsampling": 6712,
      "Ġseen": 6713,
      "ãģĭãĤī": 6714,
      "Ġinside": 6715,
      "Ð°ÑĨÐ¸": 6716,
      "Ġimpro": 6717,
      "Ġsequences": 6718,
      "FeatureEx": 6719,
      "'{": 6720,
      ".'": 6721,
      "Ġtell": 6722,
      "edDict": 6723,
      "Ġaplicaciones": 6724,
      "ĠÃ¡re": 6725,
      "Ġmovimiento": 6726,
      "ĠAss": 6727,
      "ational": 6728,
      "004": 6729,
      "Ġsuite": 6730,
      "ĠDOUBLE": 6731,
      "delete": 6732,
      "offload": 6733,
      "ĵį": 6734,
      "äºĽ": 6735,
      "ç½": 6736,
      "atter": 6737,
      "Ġpower": 6738,
      "empre": 6739,
      "Ġdatetime": 6740,
      "deep": 6741,
      "Ġbound": 6742,
      "Ġparticip": 6743,
      "Ä±nÄ±": 6744,
      "ĠâĶĤ": 6745,
      "ably": 6746,
      "tokenization": 6747,
      "pull": 6748,
      "};": 6749,
      "ÑĢÐ°Ð¼": 6750,
      "81": 6751,
      "ulary": 6752,
      "END": 6753,
      "ĠIndices": 6754,
      "iado": 6755,
      "Ġcarr": 6756,
      "ĠAdemÃ¡s": 6757,
      "Ġcover": 6758,
      "æľĥ": 6759,
      "Ġmuchas": 6760,
      "âĢĶ,": 6761,
      "CA": 6762,
      "Ġvent": 6763,
      "Ġalcan": 6764,
      "Answering": 6765,
      "ĠÑį": 6766,
      "Ġcorresponding": 6767,
      "Ġidea": 6768,
      "entry": 6769,
      "Ġstrings": 6770,
      "ĠademÃ¡s": 6771,
      "Ġ\".": 6772,
      "å®Ł": 6773,
      "Ġëį°": 6774,
      "ee": 6775,
      "pat": 6776,
      "ĠdÃŃa": 6777,
      "ĠBr": 6778,
      "Init": 6779,
      "Ġexisting": 6780,
      "simple": 6781,
      "Ġnecessary": 6782,
      "eras": 6783,
      "ĠMock": 6784,
      "Ġindividual": 6785,
      "uro": 6786,
      "hy": 6787,
      "kw": 6788,
      "ë°": 6789,
      "Ġfon": 6790,
      "ĠOS": 6791,
      "ModelTester": 6792,
      "Ġactivation": 6793,
      "arguments": 6794,
      "Ġrendered": 6795,
      "åĴĮ": 6796,
      "Ġlinear": 6797,
      "ĠIl": 6798,
      "atron": 6799,
      "sentence": 6800,
      "pkg": 6801,
      "ently": 6802,
      "Ġterritor": 6803,
      "ĠtÃ©rmino": 6804,
      "ople": 6805,
      "light": 6806,
      "Ġcer": 6807,
      "ĠUp": 6808,
      "Ġleast": 6809,
      "ãģ§ãģ¯": 6810,
      "Ùĭ": 6811,
      "Ł¥": 6812,
      "Ġnamed": 6813,
      "Ġrouter": 6814,
      "Ġcorrectly": 6815,
      "Ġmomento": 6816,
      "Function": 6817,
      "Ġsust": 6818,
      "Ġ{},": 6819,
      "ĠClass": 6820,
      "Back": 6821,
      "icon": 6822,
      "Ġraised": 6823,
      "ativos": 6824,
      "æĽ´": 6825,
      "CHECKING": 6826,
      "aur": 6827,
      "bil": 6828,
      "acity": 6829,
      "Ġeos": 6830,
      "command": 6831,
      "Ġproperty": 6832,
      "ĠÑģÑĤ": 6833,
      "track": 6834,
      "ĠWindows": 6835,
      "username": 6836,
      "Ġfamil": 6837,
      "sin": 6838,
      "ħį": 6839,
      "ago": 6840,
      "Ð¾Ð¿": 6841,
      "ãĤĴä½¿çĶ¨": 6842,
      "00000000": 6843,
      "åĥ": 6844,
      "usiÃ³n": 6845,
      "003": 6846,
      "feed": 6847,
      "session": 6848,
      "atar": 6849,
      "xa": 6850,
      "Ġdb": 6851,
      "Ġcantidad": 6852,
      "Ġcalcul": 6853,
      "Ġgrupo": 6854,
      "bro": 6855,
      "Ġescal": 6856,
      "Ġdispon": 6857,
      "Ġsociedad": 6858,
      "Block": 6859,
      "sor": 6860,
      "Ġmos": 6861,
      "Ġprotocol": 6862,
      "imo": 6863,
      "ãĢģ`": 6864,
      "offsets": 6865,
      "zelf": 6866,
      "Ġdich": 6867,
      "ĠAb": 6868,
      "inity": 6869,
      "Ġengine": 6870,
      "Ġtransformer": 6871,
      "Ġnothing": 6872,
      "ĠmÃ©todo": 6873,
      "Ð°Ð¿": 6874,
      "ema": 6875,
      "ĠHT": 6876,
      "frac": 6877,
      "Ġrealiz": 6878,
      "TEXT": 6879,
      "Ġeg": 6880,
      "ÐµÐ¹": 6881,
      "pression": 6882,
      "emos": 6883,
      "gression": 6884,
      "ĠAS": 6885,
      "__.__": 6886,
      "Ġsteps": 6887,
      "ìŀĲ": 6888,
      "åĩº": 6889,
      "Dataset": 6890,
      "ODEL": 6891,
      "ckpt": 6892,
      "ĠWil": 6893,
      "ours": 6894,
      "Ġreleased": 6895,
      "fa": 6896,
      "heid": 6897,
      "Ġella": 6898,
      "Ġforce": 6899,
      "ãĥĸ": 6900,
      "ĠXV": 6901,
      "Ġauthor": 6902,
      "igen": 6903,
      "Ġcausal": 6904,
      "Ġanswer": 6905,
      "Ġlogr": 6906,
      "Ġdocs": 6907,
      "ipy": 6908,
      "Ġ\"$": 6909,
      "come": 6910,
      "Detection": 6911,
      "Ġtrace": 6912,
      "ĠMod": 6913,
      "ãģĵãģ®": 6914,
      "Ġantigu": 6915,
      "ÑģÐ¿Ð¾Ð»ÑĮÐ·": 6916,
      "note": 6917,
      "azy": 6918,
      "board": 6919,
      "Ġsug": 6920,
      "Ġproto": 6921,
      "Ġusando": 6922,
      "lig": 6923,
      "Ġ\"#": 6924,
      "messages": 6925,
      "visual": 6926,
      "ĠPrismaClient": 6927,
      "æĦı": 6928,
      "FUN": 6929,
      "Ġlow": 6930,
      "Ġbook": 6931,
      "Ġthought": 6932,
      "Ã¨s": 6933,
      "Callback": 6934,
      "Ø«": 6935,
      "iso": 6936,
      "Ġist": 6937,
      "ively": 6938,
      "Ġmaximum": 6939,
      "ı¬": 6940,
      "aml": 6941,
      "ĠUnidos": 6942,
      "criptor": 6943,
      "Ġsorted": 6944,
      "ued": 6945,
      "Ġdue": 6946,
      ")**": 6947,
      "ulos": 6948,
      "Ġlearn": 6949,
      "Ġheaders": 6950,
      "Ġusuario": 6951,
      "expr": 6952,
      "ĠkÃ¶": 6953,
      "READ": 6954,
      "Ġmus": 6955,
      "ĠST": 6956,
      "å½": 6957,
      "elen": 6958,
      "section": 6959,
      "Ġals": 6960,
      "Ġelemento": 6961,
      "ìļ°": 6962,
      "NE": 6963,
      "Ġdeep": 6964,
      "ĠLet": 6965,
      "Ġsecret": 6966,
      "ĠDoc": 6967,
      "ĠBert": 6968,
      "posiciÃ³n": 6969,
      "Ġobjeto": 6970,
      "ĠAct": 6971,
      "Ġaltern": 6972,
      "assertNot": 6973,
      "Ġcompile": 6974,
      "Ġnueva": 6975,
      "emporary": 6976,
      "Ġpoints": 6977,
      "Spec": 6978,
      "elle": 6979,
      "Ġconnect": 6980,
      "Ġeduc": 6981,
      "ev": 6982,
      "æį": 6983,
      "Ĥ¨": 6984,
      "Ġimports": 6985,
      "µ¬": 6986,
      "Ġ!==": 6987,
      "inv": 6988,
      "see": 6989,
      "sep": 6990,
      "ĠACT": 6991,
      "ãĥĿ": 6992,
      "Ġpi": 6993,
      "Union": 6994,
      "Ġcare": 6995,
      "serializer": 6996,
      "ĠAutoProcessor": 6997,
      "MLP": 6998,
      "diff": 6999,
      "{{": 7000,
      "Ġ&'": 7001,
      "ImageResampling": 7002,
      "ĠkÃ¶nn": 7003,
      "ÑĥÐ½": 7004,
      "ĠÃ©p": 7005,
      "diÃ³": 7006,
      "iert": 7007,
      "éľ": 7008,
      "Ġsaved": 7009,
      "ocus": 7010,
      "ĠLightning": 7011,
      "eca": 7012,
      "Ġciv": 7013,
      "Ġarm": 7014,
      "åı¯èĥ½": 7015,
      "Ġesp": 7016,
      "permute": 7017,
      "pus": 7018,
      "Ġintent": 7019,
      "äºİ": 7020,
      "Ð°Ñģ": 7021,
      "ART": 7022,
      "Params": 7023,
      "ĠÑĤÐ°Ðº": 7024,
      "Ġtemporal": 7025,
      "bers": 7026,
      "Ġcomment": 7027,
      "ĠÐ¿ÐµÑĢ": 7028,
      "Ġagr": 7029,
      "wards": 7030,
      "ĠChrist": 7031,
      "answer": 7032,
      "Ġservice": 7033,
      "cumulation": 7034,
      "Ġpou": 7035,
      "Ġnet": 7036,
      "åŁ": 7037,
      "pointer": 7038,
      "ĠHis": 7039,
      "ĠíĨ": 7040,
      "ĠÏ": 7041,
      "eder": 7042,
      "ê²Į": 7043,
      "Ġelectr": 7044,
      "directory": 7045,
      "Ġbot": 7046,
      "Ġaprendizaje": 7047,
      "åĥı": 7048,
      "aries": 7049,
      "ulaciÃ³n": 7050,
      "~~~~": 7051,
      "éľĢ": 7052,
      "Ġpoco": 7053,
      ".)": 7054,
      "ĠAlgun": 7055,
      "factory": 7056,
      "({'": 7057,
      "Ġextension": 7058,
      "ĠTraining": 7059,
      "Mod": 7060,
      "ades": 7061,
      "grama": 7062,
      "ĠGran": 7063,
      "Ġselected": 7064,
      "`).": 7065,
      "Ġëı": 7066,
      "metros": 7067,
      "partition": 7068,
      "43": 7069,
      "future": 7070,
      "Ġrather": 7071,
      "ained": 7072,
      "Ġexecut": 7073,
      "Ident": 7074,
      "Ġpointer": 7075,
      "partial": 7076,
      "ĠpolÃŃtica": 7077,
      "Ġfs": 7078,
      "acing": 7079,
      "ĠHTML": 7080,
      "enter": 7081,
      "ÐºÐ¾ÑĢÐ¸ÑģÑĤ": 7082,
      "47": 7083,
      "91": 7084,
      "Rec": 7085,
      "TYPE": 7086,
      "`].": 7087,
      "matic": 7088,
      "force": 7089,
      "cached": 7090,
      "''": 7091,
      "Ġsend": 7092,
      "ĠFoo": 7093,
      "Ġmetrics": 7094,
      "Mo": 7095,
      "system": 7096,
      "periment": 7097,
      "ĠìĺĪ": 7098,
      "61": 7099,
      "iniz": 7100,
      "intro": 7101,
      "Ġcuatro": 7102,
      "Ġflags": 7103,
      "Ġfrequ": 7104,
      "Ġverdad": 7105,
      "pip": 7106,
      "Ġhook": 7107,
      "Ġenough": 7108,
      "Version": 7109,
      "ë§Į": 7110,
      "ì¹ĺ": 7111,
      "Ġna": 7112,
      "Ġbuf": 7113,
      "Ġruntime": 7114,
      "interface": 7115,
      "æĬ": 7116,
      "ĠZeRO": 7117,
      "EFT": 7118,
      "web": 7119,
      "ä¼ļ": 7120,
      "FC": 7121,
      "cmd": 7122,
      "erv": 7123,
      "capt": 7124,
      "Ġknown": 7125,
      "Ġfailed": 7126,
      "]).": 7127,
      "burg": 7128,
      "Ġcatch": 7129,
      "Ġcasos": 7130,
      "encoded": 7131,
      "Ġsiempre": 7132,
      "OC": 7133,
      "ended": 7134,
      "Ġbig": 7135,
      "Ġcoun": 7136,
      "loads": 7137,
      "oint": 7138,
      "Ġ512": 7139,
      "cremental": 7140,
      "urales": 7141,
      "ĠAle": 7142,
      "ĠcomÃºn": 7143,
      "Ġheads": 7144,
      "ĠInitializing": 7145,
      "ĠDef": 7146,
      "obile": 7147,
      "Ġresultado": 7148,
      "Ġcuales": 7149,
      "atos": 7150,
      "ERROR": 7151,
      "Def": 7152,
      "acer": 7153,
      "ĠComo": 7154,
      "Ø§Ø³Øª": 7155,
      "platform": 7156,
      "Ġbackground": 7157,
      "51": 7158,
      "xb": 7159,
      "Ġlead": 7160,
      "ForImage": 7161,
      "attributes": 7162,
      "Ġpush": 7163,
      "(['": 7164,
      "tolist": 7165,
      "Ġpopular": 7166,
      "Ġbenef": 7167,
      "Ġplease": 7168,
      "Ġ`)": 7169,
      "ĠrÃ¡p": 7170,
      "ĠSch": 7171,
      "åĽŀ": 7172,
      "ÃŃculas": 7173,
      "Ġdan": 7174,
      "ocr": 7175,
      "ĠrelaciÃ³n": 7176,
      "callbacks": 7177,
      "install": 7178,
      "Ġincluso": 7179,
      "fct": 7180,
      "tion": 7181,
      "Ġtw": 7182,
      "Ġcapacidad": 7183,
      "ĠDate": 7184,
      "ixels": 7185,
      "ĠTrans": 7186,
      "Ġmatches": 7187,
      "Ġcomponente": 7188,
      "eager": 7189,
      "uit": 7190,
      "Ġdom": 7191,
      "Ġwandb": 7192,
      "Ġhouse": 7193,
      "ãĤ¨": 7194,
      "uilding": 7195,
      "Ġstructure": 7196,
      "LU": 7197,
      "ĠText": 7198,
      "ãĥ¼ãĤ¯": 7199,
      "ĠìłĦ": 7200,
      "Del": 7201,
      "FIG": 7202,
      "Json": 7203,
      "Ġincor": 7204,
      "ensiÃ³n": 7205,
      "ĠPero": 7206,
      "Ġdependencies": 7207,
      "Ġmaterial": 7208,
      "Ġunos": 7209,
      "llib": 7210,
      "Ġable": 7211,
      "proxy": 7212,
      "åĭķ": 7213,
      "Add": 7214,
      "Ġintelig": 7215,
      "Ġguide": 7216,
      "ĠâĨĴ": 7217,
      ")])": 7218,
      "Ġincre": 7219,
      "Ġimportlib": 7220,
      "ìłľ": 7221,
      "PRO": 7222,
      "}:": 7223,
      "ç¢": 7224,
      "Ġthough": 7225,
      "numel": 7226,
      "Ġuseful": 7227,
      "loading": 7228,
      "ĠÂ¡": 7229,
      "bbox": 7230,
      "Ġíķĺ": 7231,
      "Ġvir": 7232,
      "Ġvisible": 7233,
      "adrid": 7234,
      "Ġestructura": 7235,
      "Ġarquitect": 7236,
      "ç´": 7237,
      "ļł": 7238,
      "Ġbatched": 7239,
      "andid": 7240,
      "uciones": 7241,
      "expectedFailure": 7242,
      "Ġterm": 7243,
      "Ġapo": 7244,
      "plan": 7245,
      "Ġcomport": 7246,
      "Ġextends": 7247,
      "ĠĠĠĠĠĠĠĠĠĠĠĠĠĠĠĠĠĠĠĠĠĠĠĠĠĠ": 7248,
      "Ġparec": 7249,
      "ynch": 7250,
      "execute": 7251,
      "windows": 7252,
      "Ġaux": 7253,
      "Ġhip": 7254,
      "ĠAC": 7255,
      "Ġ[(": 7256,
      "isiones": 7257,
      "ĠInter": 7258,
      "ëĤĺ": 7259,
      "ìħ": 7260,
      "Ãºblica": 7261,
      "All": 7262,
      "Date": 7263,
      "VAL": 7264,
      "ativas": 7265,
      "ĠCuando": 7266,
      "Ġcomme": 7267,
      "eds": 7268,
      "Ġwent": 7269,
      "Ġtermin": 7270,
      "Ġconvers": 7271,
      "Ã¡ndose": 7272,
      "Cross": 7273,
      "Loss": 7274,
      "Ġps": 7275,
      "ilon": 7276,
      "ĠgÃ©n": 7277,
      "Ġreadonly": 7278,
      "Ġìĭľ": 7279,
      "Lightning": 7280,
      "ole": 7281,
      "ĠNumber": 7282,
      "Ġfavor": 7283,
      "Select": 7284,
      "ìĬ¤íĬ¸": 7285,
      "åĲ«": 7286,
      "Ġcut": 7287,
      "ĠmÃºs": 7288,
      "estr": 7289,
      "Ġvirtual": 7290,
      "ĠRep": 7291,
      "Ġloader": 7292,
      "basic": 7293,
      "ĠÐ¼Ð¾Ð¶ÐµÑĤÐµ": 7294,
      "ëĲľ": 7295,
      "å°Ĩ": 7296,
      "ĠcaracterÃŃsticas": 7297,
      "123456": 7298,
      "Ġignored": 7299,
      "Ã³l": 7300,
      "choices": 7301,
      "Ġprojection": 7302,
      "was": 7303,
      "æĻ": 7304,
      "Ð¸Ñģ": 7305,
      "Ġflag": 7306,
      "assertRaisesRegex": 7307,
      "Ġëĭ¤ìĿĮ": 7308,
      ":#": 7309,
      "ially": 7310,
      "ãĥĥãĥĪ": 7311,
      "ipynb": 7312,
      "Builder": 7313,
      "Ġsock": 7314,
      "ìĿ´íĦ°": 7315,
      "Ġwhole": 7316,
      "DN": 7317,
      "Ġgc": 7318,
      "aking": 7319,
      "ãĥĩãĥ¼ãĤ¿": 7320,
      "ĠìĦ¤": 7321,
      "gelu": 7322,
      "....": 7323,
      "Ã¡nica": 7324,
      "emplos": 7325,
      "éĢĻ": 7326,
      "OP": 7327,
      "staticmethod": 7328,
      "xd": 7329,
      "Ġconcept": 7330,
      "DEFAULT": 7331,
      "Ġprocesos": 7332,
      "æ¡": 7333,
      "alia": 7334,
      "egatron": 7335,
      "Ġdic": 7336,
      "ATT": 7337,
      "49": 7338,
      "qwen": 7339,
      "tags": 7340,
      "Ġì²": 7341,
      "scope": 7342,
      "çİ": 7343,
      "Ġvot": 7344,
      "Ġ_{": 7345,
      "ë¯¸": 7346,
      "Ġcha": 7347,
      "FUNCT": 7348,
      "'m": 7349,
      "Ġ'-": 7350,
      "Ġoperations": 7351,
      "Ġmatem": 7352,
      "Ġì¶Ķ": 7353,
      "micro": 7354,
      "Ġpipe": 7355,
      "Ġgal": 7356,
      "Ġ1001": 7357,
      "Ġyoung": 7358,
      "cm": 7359,
      "plain": 7360,
      "remote": 7361,
      "Ġreconoc": 7362,
      "½Ķ": 7363,
      "ĠFrancia": 7364,
      "Types": 7365,
      "Ġreplac": 7366,
      "ĠseÃ±or": 7367,
      "Ag": 7368,
      "Ġcarg": 7369,
      "exclude": 7370,
      "Ġcomplex": 7371,
      "ModelOutput": 7372,
      "Ġhabit": 7373,
      ":`": 7374,
      "];": 7375,
      "ilos": 7376,
      "Ġqueries": 7377,
      "Ġtimes": 7378,
      "bose": 7379,
      "ĠanÃ¡lisis": 7380,
      "Ã©es": 7381,
      "æİ¥": 7382,
      "Ġ22": 7383,
      "Ø°Ø¬": 7384,
      "QuestionAnswering": 7385,
      "Have": 7386,
      "uj": 7387,
      "inary": 7388,
      "Ġlock": 7389,
      "Ġexclude": 7390,
      "Ġestar": 7391,
      "localhost": 7392,
      "Ġpeople": 7393,
      "Ġviol": 7394,
      "ĠNotImplemented": 7395,
      "ìĦ¸ìļĶ": 7396,
      "Ġfel": 7397,
      "istic": 7398,
      "Ġround": 7399,
      "GET": 7400,
      "Ġ\"\"": 7401,
      "ĠGe": 7402,
      "dummy": 7403,
      "orker": 7404,
      "bined": 7405,
      "stat": 7406,
      "ĠCr": 7407,
      "\")]": 7408,
      "Ġdataloader": 7409,
      "Ġformas": 7410,
      "Ġobjetivo": 7411,
      "ĠÃģ": 7412,
      "vector": 7413,
      "Ġhol": 7414,
      "ĠĠĠĠĠĠĠĠĠĠĠĠĠĠĠĠĠĠĠĠĠĠĠĠĠĠĠĠĠ": 7415,
      "Ġ000": 7416,
      "empt": 7417,
      "512": 7418,
      "æ±": 7419,
      "Per": 7420,
      "§ĭ": 7421,
      "Ġfort": 7422,
      "ĠMe": 7423,
      "Ġvarias": 7424,
      "ĠHist": 7425,
      "å¿ħè¦ģ": 7426,
      "Ġtar": 7427,
      "ĠLoad": 7428,
      "ĠOb": 7429,
      "initializer": 7430,
      "ĠclÃ¡s": 7431,
      "Ġemple": 7432,
      "Ġseguridad": 7433,
      "Ġmilitar": 7434,
      "éĸ¢": 7435,
      "Ġveloc": 7436,
      "Ġdevelop": 7437,
      "este": 7438,
      "ĠPos": 7439,
      "Ġê²½": 7440,
      "__',": 7441,
      "ÐµÑģ": 7442,
      "Ġclase": 7443,
      "Ġbinary": 7444,
      "icional": 7445,
      "Ġconocimiento": 7446,
      "Ã©rcito": 7447,
      "arqu": 7448,
      "Ġcommit": 7449,
      "ĠInput": 7450,
      "Ġexplicit": 7451,
      "ots": 7452,
      "Ġpair": 7453,
      "izo": 7454,
      "ĠChannelDimension": 7455,
      "Ġcompet": 7456,
      "Ġrecursos": 7457,
      "Ġservicios": 7458,
      "dt": 7459,
      "Ã±as": 7460,
      "signal": 7461,
      "Ġframework": 7462,
      "ctor": 7463,
      "Ġ`'": 7464,
      "mbol": 7465,
      "Ð°ÑĶ": 7466,
      "Ġnuevas": 7467,
      "matmul": 7468,
      "threshold": 7469,
      "sequences": 7470,
      "ĠpodrÃŃa": 7471,
      "documentation": 7472,
      "Ġconcepto": 7473,
      "VIC": 7474,
      "ĠdiseÃ±o": 7475,
      "tool": 7476,
      "<|": 7477,
      "secret": 7478,
      "ĠÐ¸ÑģÐ¿Ð¾Ð»ÑĮÐ·": 7479,
      "complete": 7480,
      "è¾": 7481,
      "team": 7482,
      "íķĺê¸°": 7483,
      "ĠValidation": 7484,
      "Ġpen": 7485,
      "isper": 7486,
      "emm": 7487,
      "fsdp": 7488,
      "option": 7489,
      "ĠEm": 7490,
      "ÐºÐ°": 7491,
      "Ġregister": 7492,
      "Ġcasi": 7493,
      "çŃ": 7494,
      "quare": 7495,
      "æĸ°": 7496,
      "TOKEN": 7497,
      "ius": 7498,
      "ooling": 7499,
      "ĠSchemaValidator": 7500,
      "Post": 7501,
      "Ġãģ®": 7502,
      "Ġbg": 7503,
      "Ġ[{": 7504,
      "anco": 7505,
      "Ġinc": 7506,
      "ãģĬ": 7507,
      "Ġgroups": 7508,
      "ļłï¸ı": 7509,
      "600": 7510,
      "ders": 7511,
      "zar": 7512,
      "question": 7513,
      "Ġenf": 7514,
      "Ġacuer": 7515,
      "Ġkeyword": 7516,
      "Ġ2020": 7517,
      "ĠcÃ©lulas": 7518,
      "71": 7519,
      "IME": 7520,
      "uper": 7521,
      "ÑĸÐ²": 7522,
      "Ġíģ": 7523,
      "Ġverwen": 7524,
      "++": 7525,
      "adamente": 7526,
      "ãģĽ": 7527,
      "ĠPart": 7528,
      "Environment": 7529,
      "Ġtransition": 7530,
      "Ġseveral": 7531,
      "Ġbi": 7532,
      "agged": 7533,
      "Ġcorr": 7534,
      "Ġgoing": 7535,
      "Ġbegin": 7536,
      "Ġpretrained": 7537,
      "Ġ\\`": 7538,
      "Ġsociales": 7539,
      ":**": 7540,
      "Some": 7541,
      "Ext": 7542,
      "pers": 7543,
      "Ð¸Ð½": 7544,
      "TokenClassification": 7545,
      "ĠhabÃŃan": 7546,
      "ĠResult": 7547,
      "dfn": 7548,
      "ĠSp": 7549,
      "ĠEj": 7550,
      "outh": 7551,
      "utdown": 7552,
      "Ġhuggingface": 7553,
      "processed": 7554,
      "41": 7555,
      "anded": 7556,
      "ayout": 7557,
      "Ġescu": 7558,
      "ÐºÐ»": 7559,
      "ìłĦ": 7560,
      "GPU": 7561,
      "Ġsaw": 7562,
      "Ġlig": 7563,
      "rout": 7564,
      "Ġinternal": 7565,
      "è¨Ń": 7566,
      "Ġshared": 7567,
      "Invalid": 7568,
      "Ġê³": 7569,
      "ãĥĹãĥŃ": 7570,
      "ĠÙĥ": 7571,
      "Ġcad": 7572,
      "Ġepoch": 7573,
      "DecoderLayer": 7574,
      "VER": 7575,
      "bold": 7576,
      "using": 7577,
      "\"][\"": 7578,
      "buck": 7579,
      "ivamente": 7580,
      "nie": 7581,
      "Ġcop": 7582,
      "agic": 7583,
      "Ġecu": 7584,
      "Ð¾Ð¹": 7585,
      "Ġobjetos": 7586,
      "Custom": 7587,
      "è·": 7588,
      "------------": 7589,
      "Ġvoor": 7590,
      "æ¬¡": 7591,
      "ORE": 7592,
      "mel": 7593,
      "Ġinm": 7594,
      "union": 7595,
      "Ġimportantes": 7596,
      "Ġhaber": 7597,
      "Ø±ÙĬ": 7598,
      "åĨħ": 7599,
      "ky": 7600,
      "aster": 7601,
      "ĠAsÃŃ": 7602,
      "Ġhumano": 7603,
      "Ġliter": 7604,
      "ĠDet": 7605,
      "Ġâļłï¸ı": 7606,
      "iers": 7607,
      "lt": 7608,
      "avg": 7609,
      "')).": 7610,
      "ITE": 7611,
      "ĠRequest": 7612,
      "npm": 7613,
      "Ġeurope": 7614,
      "oice": 7615,
      "xe": 7616,
      "ForTokenClassification": 7617,
      "Ġdiff": 7618,
      "Ġotherwise": 7619,
      "Ø¶": 7620,
      "ĠmÃ³": 7621,
      "ĠØ§ÙĦÙĨ": 7622,
      "sliding": 7623,
      "Ġpredicted": 7624,
      "Ġannotation": 7625,
      "IF": 7626,
      "ĠaÃºn": 7627,
      "uned": 7628,
      "sr": 7629,
      "Ġlado": 7630,
      "ãģĳ": 7631,
      "Ġestim": 7632,
      "prim": 7633,
      "Ãµ": 7634,
      "Ġnorte": 7635,
      "ãģ©": 7636,
      "ĠJe": 7637,
      "ĠThat": 7638,
      "download": 7639,
      "acionales": 7640,
      "FeatureExtractor": 7641,
      "matrix": 7642,
      "Ġencode": 7643,
      "ĠGoogle": 7644,
      "cording": 7645,
      "Ġmedida": 7646,
      "ãĥĲ": 7647,
      "BIC": 7648,
      "thers": 7649,
      "Status": 7650,
      "genes": 7651,
      "ImageProcessorFast": 7652,
      "lineno": 7653,
      "ĠSub": 7654,
      "ookies": 7655,
      "Ġpodr": 7656,
      "ĠRefer": 7657,
      "awn": 7658,
      "policy": 7659,
      "categ": 7660,
      "»º": 7661,
      "Ġ255": 7662,
      "uge": 7663,
      "ĠSequence": 7664,
      "Ġcambios": 7665,
      "æīĢ": 7666,
      "arias": 7667,
      "Ġhaving": 7668,
      "decay": 7669,
      "softmax": 7670,
      "icio": 7671,
      "ents": 7672,
      "Ġconfl": 7673,
      "Ġunknown": 7674,
      "Ġeyes": 7675,
      "ellas": 7676,
      "Option": 7677,
      "pet": 7678,
      "Quant": 7679,
      "Ġ^": 7680,
      "ĠObject": 7681,
      "tokenizers": 7682,
      "ucion": 7683,
      "Ġexpression": 7684,
      "ette": 7685,
      "izada": 7686,
      "ĠRem": 7687,
      "ĠOl": 7688,
      "control": 7689,
      "íķĺê³ł": 7690,
      "ÙħÙĪØ°Ø¬": 7691,
      "/{": 7692,
      "na": 7693,
      "Ġtakes": 7694,
      "acc": 7695,
      "ãģĪ": 7696,
      "Ġinspect": 7697,
      "Ġcentral": 7698,
      "çĽ¸": 7699,
      "800": 7700,
      "zz": 7701,
      "æ¸": 7702,
      "ëª": 7703,
      "ķĮ": 7704,
      "Ġaus": 7705,
      "Ġinher": 7706,
      "illo": 7707,
      "grÃ¡f": 7708,
      "crate": 7709,
      "Ġrequer": 7710,
      "Ġgrupos": 7711,
      "tab": 7712,
      "toHave": 7713,
      "Ġcomplete": 7714,
      "Identifier": 7715,
      "ynchron": 7716,
      "PS": 7717,
      "Ġhall": 7718,
      "uegos": 7719,
      "ĠDur": 7720,
      "Ġissue": 7721,
      "Ġenfer": 7722,
      "ĠLO": 7723,
      "mlink": 7724,
      "predictions": 7725,
      "Ġdependency": 7726,
      "typed": 7727,
      "backend": 7728,
      "Ġbaj": 7729,
      "dimension": 7730,
      "ĠØ¹ÙĦÙī": 7731,
      "å¹¶": 7732,
      "ĠPh": 7733,
      "derive": 7734,
      "Ġsetting": 7735,
      "Ġiterator": 7736,
      "enable": 7737,
      "itHub": 7738,
      "Ġhot": 7739,
      "rows": 7740,
      "Ġutilis": 7741,
      "Parser": 7742,
      "Ġface": 7743,
      "stderr": 7744,
      "unit": 7745,
      "ĠPlease": 7746,
      "PL": 7747,
      "Ġband": 7748,
      "poon": 7749,
      "Ġmodular": 7750,
      "UTE": 7751,
      "ĠmÃ©todos": 7752,
      "Ġmel": 7753,
      "Ġbits": 7754,
      "Ġaproxim": 7755,
      "git": 7756,
      "çł": 7757,
      "arer": 7758,
      "Ġgate": 7759,
      "Ġstore": 7760,
      "workers": 7761,
      "Thread": 7762,
      "Ãµes": 7763,
      "DB": 7764,
      "Directory": 7765,
      "Ġorigen": 7766,
      "Ġexiste": 7767,
      "Ġcrear": 7768,
      "gar": 7769,
      "amma": 7770,
      "Ġ`<": 7771,
      "contain": 7772,
      "ĠlÃŃnea": 7773,
      "300": 7774,
      "onal": 7775,
      "Ġfal": 7776,
      "Ġfilos": 7777,
      "ÅŁt": 7778,
      "sed": 7779,
      "Ġ[{\"": 7780,
      "ãĤª": 7781,
      "æĸ¹æ³ķ": 7782,
      "ĠCorpor": 7783,
      "Property": 7784,
      "ãĤĵ": 7785,
      "allclose": 7786,
      "codes": 7787,
      "ETR": 7788,
      "Ġorigin": 7789,
      "Ġdijo": 7790,
      "Level": 7791,
      "Ġretr": 7792,
      "Ġprimeros": 7793,
      "ĠÐ²Ð¸ÐºÐ¾ÑĢÐ¸ÑģÑĤ": 7794,
      "Ġ'',": 7795,
      "Ġentrada": 7796,
      "Ġcel": 7797,
      "Ġobra": 7798,
      "æĪĸ": 7799,
      "ÑĤÐ¾ÑĢ": 7800,
      "Ġchoice": 7801,
      "Act": 7802,
      "bel": 7803,
      "Ġresize": 7804,
      "Ð¼ÐµÐ½ÑĤ": 7805,
      "Copyright": 7806,
      "Ġmerg": 7807,
      "Ð½Ð°Ñĩ": 7808,
      "Ġpaths": 7809,
      "Ġmostr": 7810,
      ">\"": 7811,
      "Ã³t": 7812,
      "Ã©x": 7813,
      "è§£": 7814,
      "oso": 7815,
      "Ġtesting": 7816,
      "ĠStarlette": 7817,
      "ki": 7818,
      "acia": 7819,
      "erram": 7820,
      "Ġintroduc": 7821,
      "ĠÐ±ÑĥÐ´": 7822,
      "Ġ**[": 7823,
      "Ġarchitecture": 7824,
      "'d": 7825,
      "Ġescrib": 7826,
      "Ġcalling": 7827,
      "attribute": 7828,
      "Ġacc": 7829,
      "Ġabr": 7830,
      "Ġrelease": 7831,
      "è£": 7832,
      "aged": 7833,
      "settings": 7834,
      "Ġprediction": 7835,
      "Ġevents": 7836,
      "Ġcomponentes": 7837,
      "Ġsit": 7838,
      "Ġluz": 7839,
      "ĠCal": 7840,
      "ãĥ³ãĤ¹": 7841,
      "Ġ2022": 7842,
      "One": 7843,
      "ìĥ": 7844,
      "record": 7845,
      "ao": 7846,
      "cision": 7847,
      "Ġlui": 7848,
      "Ġhon": 7849,
      "Ġgap": 7850,
      "Ġ1000": 7851,
      "hfoption": 7852,
      "beta": 7853,
      "flo": 7854,
      "Ġmujer": 7855,
      "Ġoverride": 7856,
      "IGIT": 7857,
      "Ġviewer": 7858,
      "ç§": 7859,
      "aped": 7860,
      "ĠLab": 7861,
      "Ġeager": 7862,
      "Ġalmac": 7863,
      "Ġ```\"\"\"": 7864,
      "Provider": 7865,
      "Ġrealidad": 7866,
      "pectro": 7867,
      "Ġcharacters": 7868,
      "Ġtales": 7869,
      "cover": 7870,
      "Ġìŀĳ": 7871,
      "ä¾Ľ": 7872,
      "Ġpel": 7873,
      "Ġsegundo": 7874,
      "rms": 7875,
      "ĠPol": 7876,
      "ä»ĸ": 7877,
      "Ġpositional": 7878,
      "Jo": 7879,
      "ker": 7880,
      "tiny": 7881,
      "orÃŃas": 7882,
      "Ġdeprecated": 7883,
      "ej": 7884,
      "Ġmind": 7885,
      "iving": 7886,
      "íģ¬": 7887,
      "ĠkÃ¶nnen": 7888,
      "sync": 7889,
      "ĠlÃ³g": 7890,
      "Ġ`--": 7891,
      "ĠLib": 7892,
      "Ġ*,": 7893,
      "termy": 7894,
      "Ġep": 7895,
      "ignment": 7896,
      "usercontent": 7897,
      "bsz": 7898,
      "Ġom": 7899,
      "Ġ21": 7900,
      "Ġregular": 7901,
      "ĠQuery": 7902,
      "cp": 7903,
      "vil": 7904,
      "Ġlang": 7905,
      "Logger": 7906,
      "hen": 7907,
      "Ġcompare": 7908,
      "logging": 7909,
      "Ġedition": 7910,
      "Ġbases": 7911,
      "Ġsatis": 7912,
      "Ġunique": 7913,
      "ĠRed": 7914,
      "Engine": 7915,
      "Ġhumanos": 7916,
      "ĠÙģÙĬ": 7917,
      "Rel": 7918,
      "ìĽ": 7919,
      "Ġadmin": 7920,
      "ĠÃ§": 7921,
      "íķĺìĹ¬": 7922,
      "LASS": 7923,
      "BU": 7924,
      "Ġfen": 7925,
      "ffn": 7926,
      "aterial": 7927,
      "ĠÃ©poca": 7928,
      "Lab": 7929,
      "ĠMDX": 7930,
      "ĠProviders": 7931,
      "exceptions": 7932,
      "Ġesa": 7933,
      "Ġframes": 7934,
      "Ġgrouped": 7935,
      "Ġselection": 7936,
      "Ġgrande": 7937,
      "lava": 7938,
      "ĠPa": 7939,
      "spam": 7940,
      ")](": 7941,
      "githubusercontent": 7942,
      "ĠmÃ¡qu": 7943,
      "OM": 7944,
      "Ġspeed": 7945,
      "Ġnight": 7946,
      "rown": 7947,
      "enos": 7948,
      "ĠShe": 7949,
      "detail": 7950,
      "æĤ¨": 7951,
      "Ġ'_": 7952,
      "ensa": 7953,
      "ĠImperio": 7954,
      "Fil": 7955,
      "shield": 7956,
      "Ã©tico": 7957,
      "Ø®Ø¯": 7958,
      "Ġcivil": 7959,
      "ĠMadrid": 7960,
      "Ġpassing": 7961,
      "ä»£": 7962,
      "uffers": 7963,
      "Ġocup": 7964,
      "entials": 7965,
      "uint": 7966,
      "ualmente": 7967,
      "Ġfrente": 7968,
      "*)": 7969,
      "kt": 7970,
      "Ġprograma": 7971,
      "ĠdefineConfig": 7972,
      "Ġrespons": 7973,
      "VALID": 7974,
      "Ġlin": 7975,
      "Ġho": 7976,
      "ãģ«ãģ¯": 7977,
      "Ġ\"{": 7978,
      "click": 7979,
      "Ġcuerpo": 7980,
      "Ġello": 7981,
      "Ã©m": 7982,
      "Ġavatar": 7983,
      "ĠSPDX": 7984,
      "release": 7985,
      "ybrid": 7986,
      "Ġcod": 7987,
      "interpol": 7988,
      "ê°ľ": 7989,
      "ç½®": 7990,
      "omatic": 7991,
      "uls": 7992,
      "ĠÐ¾ÑĤ": 7993,
      "ĠÐ·Ð°Ð¿": 7994,
      "å¢": 7995,
      "anim": 7996,
      "padded": 7997,
      "Ġquantized": 7998,
      "è¨Ģ": 7999,
      "term": 8000,
      "ĠEstos": 8001,
      "Debug": 8002,
      "Ġcontents": 8003,
      "ä¹Ł": 8004,
      "¤ĳ": 8005,
      "axolotl": 8006,
      "Ġê°Ļ": 8007,
      "Processing": 8008,
      "Ġfur": 8009,
      "ĠserÃ¡": 8010,
      "afet": 8011,
      "Alias": 8012,
      "Create": 8013,
      "ĠÐ¿Ð°": 8014,
      "Ġoverridden": 8015,
      "Source": 8016,
      "mamba": 8017,
      "Ġtutorial": 8018,
      "aring": 8019,
      "pository": 8020,
      ")ãĢĤ": 8021,
      "ìĺ": 8022,
      "Ġrate": 8023,
      "Ġreferences": 8024,
      "erramient": 8025,
      ")],": 8026,
      "Success": 8027,
      "mail": 8028,
      "ARK": 8029,
      "glob": 8030,
      "lens": 8031,
      "Ġmarg": 8032,
      "Ġ23": 8033,
      "ĠOutput": 8034,
      "Struct": 8035,
      "quantized": 8036,
      "hasattr": 8037,
      "âĸĪâĸĪâĸĪâĸĪ": 8038,
      "ĠíĮĮ": 8039,
      "ĠAttention": 8040,
      "integer": 8041,
      "Ġitself": 8042,
      "pected": 8043,
      "tesis": 8044,
      "Ġfuera": 8045,
      "bound": 8046,
      "ycle": 8047,
      "Ġfour": 8048,
      "Ġrend": 8049,
      "ĠHero": 8050,
      "dims": 8051,
      "ĠÐ·Ð°": 8052,
      "dependency": 8053,
      "Ã©xico": 8054,
      "åıĸ": 8055,
      "ĠIDs": 8056,
      "TRA": 8057,
      "\\`": 8058,
      "high": 8059,
      "asa": 8060,
      "arDown": 8061,
      "Ġ'{": 8062,
      "ä½ķ": 8063,
      "EG": 8064,
      "Gr": 8065,
      "best": 8066,
      "ÑĥÑİ": 8067,
      "éĩı": 8068,
      "Ġsir": 8069,
      "Ġwel": 8070,
      "iform": 8071,
      "ĠparÃ¡": 8072,
      "counter": 8073,
      "](#": 8074,
      "ModuleList": 8075,
      "ÑĢÐ°Ð¼ÐµÑĤ": 8076,
      "Temporary": 8077,
      "Ġpet": 8078,
      "Ġdecode": 8079,
      "acht": 8080,
      "Ġclave": 8081,
      "Ġlibre": 8082,
      "lers": 8083,
      "ĠFile": 8084,
      "ĠBig": 8085,
      "Ġprevent": 8086,
      "Resol": 8087,
      "ĠItem": 8088,
      "Ġjustify": 8089,
      "based": 8090,
      "Ġservidor": 8091,
      "Ġëį°ìĿ´íĦ°": 8092,
      "=[\"": 8093,
      "zen": 8094,
      "ĠTH": 8095,
      "ĠEach": 8096,
      "ĠRuntimeError": 8097,
      "ĠCorporation": 8098,
      "lap": 8099,
      "Ġexcl": 8100,
      "Ġposts": 8101,
      "Ġsentido": 8102,
      "ĠRoPE": 8103,
      "Bound": 8104,
      "Ġnave": 8105,
      "ibe": 8106,
      "forms": 8107,
      "ÙĬÙĦ": 8108,
      "NAMES": 8109,
      "eles": 8110,
      "almente": 8111,
      "alloc": 8112,
      "ForQuestionAnswering": 8113,
      "ãģĻãĤĭãģĵãģ¨": 8114,
      "Ġhuman": 8115,
      "otary": 8116,
      "=\"\"\"": 8117,
      "Convert": 8118,
      "Ġplatform": 8119,
      "geb": 8120,
      "ĠcuÃ¡nt": 8121,
      "lished": 8122,
      "±»": 8123,
      "Ġasoci": 8124,
      "Count": 8125,
      "ĠInternet": 8126,
      "atted": 8127,
      "ĠDS": 8128,
      "Ġìłķ": 8129,
      "Ġpon": 8130,
      "oles": 8131,
      "typeof": 8132,
      "activ": 8133,
      "utilities": 8134,
      "tribution": 8135,
      "Ġprincipio": 8136,
      "Ġrecent": 8137,
      "grouped": 8138,
      "First": 8139,
      "Ġear": 8140,
      "Ġserve": 8141,
      "Ġ%}": 8142,
      "running": 8143,
      "Ġedit": 8144,
      "ÐµÐ½Ð½Ñı": 8145,
      "volut": 8146,
      "ä½łåı¯ä»¥": 8147,
      "ìķ¼": 8148,
      "ĠBatchFeature": 8149,
      "Ġapoy": 8150,
      "Lock": 8151,
      "Ġahora": 8152,
      "Ġdecoded": 8153,
      "Ġpreprocess": 8154,
      "Ġserie": 8155,
      "ĠEstado": 8156,
      "Ġdocstring": 8157,
      "caten": 8158,
      "Ġciencia": 8159,
      "Ġcort": 8160,
      "Ġfo": 8161,
      "Ġyear": 8162,
      "IB": 8163,
      "Ġmad": 8164,
      "Ġratio": 8165,
      "Ð°Ð·": 8166,
      "radient": 8167,
      "criminator": 8168,
      "å»º": 8169,
      "ili": 8170,
      "ĠUI": 8171,
      "Ġcenter": 8172,
      "ãĥĥãĤ¯": 8173,
      "-.": 8174,
      "aÃ§Ã£o": 8175,
      "Ġtama": 8176,
      "Ġdemand": 8177,
      "ĠUvicorn": 8178,
      "Ġagua": 8179,
      "ĠChar": 8180,
      "Ġcompiler": 8181,
      "Ġmeta": 8182,
      "aten": 8183,
      "tegr": 8184,
      "ĠConvert": 8185,
      "OutputWithPooling": 8186,
      "ãĥ¬ãĥ¼ãĥ": 8187,
      "ÑĥÐ½Ðº": 8188,
      "Router": 8189,
      "Ġtree": 8190,
      "asic": 8191,
      "Ġbrowser": 8192,
      "Ġ...]": 8193,
      "ĠexpectTypeOf": 8194,
      "Ġpuedes": 8195,
      "longest": 8196,
      "ãģķãĤĮãģŁ": 8197,
      "idente": 8198,
      "etas": 8199,
      "Ġeine": 8200,
      "ARD": 8201,
      "inov": 8202,
      "Multi": 8203,
      "mk": 8204,
      "endenc": 8205,
      "Ġrust": 8206,
      "Ġmakes": 8207,
      "Ġresolved": 8208,
      "Ġcontenido": 8209,
      "done": 8210,
      "Ġsec": 8211,
      "Ġjug": 8212,
      "Ġnamespace": 8213,
      "ĠPreTrainedConfig": 8214,
      "ACK": 8215,
      "CP": 8216,
      "ĠDon": 8217,
      "ĠWhat": 8218,
      "green": 8219,
      "semantic": 8220,
      "yaml": 8221,
      "ssr": 8222,
      "Ġcurr": 8223,
      "Ġderiv": 8224,
      "ëĵ¤": 8225,
      "ners": 8226,
      "ĠInf": 8227,
      "Ġpropiedades": 8228,
      "LINE": 8229,
      "Pool": 8230,
      "Ġinteract": 8231,
      "Ġserial": 8232,
      "Ġtokenize": 8233,
      "ĠJos": 8234,
      "éł": 8235,
      "rupt": 8236,
      "ĠcomunicaciÃ³n": 8237,
      "elled": 8238,
      "Ġ\"#/": 8239,
      "Lazy": 8240,
      "seconds": 8241,
      "df": 8242,
      "ASE": 8243,
      "Ġpint": 8244,
      "Ġredes": 8245,
      "ĠEt": 8246,
      "chedule": 8247,
      "Ġalgo": 8248,
      "insert": 8249,
      "Read": 8250,
      "Gu": 8251,
      "iaciÃ³n": 8252,
      "Ġpat": 8253,
      "ĠcrÃŃt": 8254,
      "signature": 8255,
      "New": 8256,
      "éĹ": 8257,
      "Ġbes": 8258,
      "otes": 8259,
      "ĠÐµ": 8260,
      "ĠperÃŃ": 8261,
      "à¤¾": 8262,
      "Ġrealizar": 8263,
      "Ass": 8264,
      "]`):": 8265,
      "Ġusa": 8266,
      "interval": 8267,
      "ĠtenÃŃa": 8268,
      "Adam": 8269,
      "Ġpatr": 8270,
      "Ġfocus": 8271,
      "()}": 8272,
      "Ġgir": 8273,
      "Ġ[])": 8274,
      "ĠPost": 8275,
      "Ġcollect": 8276,
      "ĠDeep": 8277,
      "tmpdirname": 8278,
      "Mut": 8279,
      "Ġothers": 8280,
      "Ġëĭ": 8281,
      "disable": 8282,
      "veloper": 8283,
      "Ġprincipios": 8284,
      "amento": 8285,
      "quired": 8286,
      "__\":": 8287,
      "ÑĢÐ°Ð·": 8288,
      "FORM": 8289,
      "ĠOSError": 8290,
      "=\\": 8291,
      "ully": 8292,
      "ormente": 8293,
      "Ã©ase": 8294,
      "('/": 8295,
      "Ġenter": 8296,
      "shields": 8297,
      "RES": 8298,
      "ç®": 8299,
      "Ġbal": 8300,
      "connection": 8301,
      "Ġeq": 8302,
      "ĠGemma": 8303,
      "uce": 8304,
      "Ġmir": 8305,
      "benchmark": 8306,
      "Ġsafe": 8307,
      "provider": 8308,
      "')),": 8309,
      "Ġik": 8310,
      "Ġprovides": 8311,
      "devices": 8312,
      "Ġspatial": 8313,
      "ĠìķĬ": 8314,
      "ically": 8315,
      "istent": 8316,
      "Ġë¬¸": 8317,
      "ienen": 8318,
      "Ġunderstand": 8319,
      "Ġåľ¨": 8320,
      "åºĶ": 8321,
      "microsoft": 8322,
      "Ġcub": 8323,
      "Ġrecom": 8324,
      "Ġva": 8325,
      "iterator": 8326,
      "Parallel": 8327,
      "Ġguard": 8328,
      "ĵįä½ľ": 8329,
      "ĠDios": 8330,
      "anner": 8331,
      "FUNCTIONS": 8332,
      "Ġsizes": 8333,
      "Ġpie": 8334,
      "ĠfÃ¼r": 8335,
      "amientos": 8336,
      "Ġconstructor": 8337,
      "Ã¡g": 8338,
      "Ġ28": 8339,
      "Ġgrie": 8340,
      "Ġproduce": 8341,
      "CL": 8342,
      "Ġ])": 8343,
      "Ġsnapshot": 8344,
      "Ġaround": 8345,
      "Ġ216": 8346,
      "ĠDIGIT": 8347,
      "Ġoperator": 8348,
      "Ġrecord": 8349,
      "yntaxError": 8350,
      "ola": 8351,
      "ĠNorm": 8352,
      "Ġthreshold": 8353,
      "avat": 8354,
      "Ġllamado": 8355,
      "ĭãĥ³ãĤ°": 8356,
      "emo": 8357,
      "ided": 8358,
      "Ġdisable": 8359,
      "ĠÐ²Ð°ÑĪ": 8360,
      "ĠImportError": 8361,
      "REEK": 8362,
      "compat": 8363,
      "batched": 8364,
      "Ġmol": 8365,
      "ĠAccess": 8366,
      "ĠWill": 8367,
      "ĠEntre": 8368,
      "Ġacuerdo": 8369,
      "å±": 8370,
      "defin": 8371,
      "PreTrainedConfig": 8372,
      "Ġìłľ": 8373,
      "Manager": 8374,
      "ĠEnglish": 8375,
      ">;": 8376,
      "tures": 8377,
      "ĠÅŁ": 8378,
      "ĠÙĩ": 8379,
      "Ð¸ÑĤÑĮ": 8380,
      "Ġpassword": 8381,
      "shortest": 8382,
      "æĪĳä»¬": 8383,
      "Ġdescubr": 8384,
      "ĠÃ³": 8385,
      "adding": 8386,
      "Ġ'''": 8387,
      "Length": 8388,
      "¯å¾": 8389,
      "accumulation": 8390,
      "uster": 8391,
      "packages": 8392,
      "Ġtypename": 8393,
      "sam": 8394,
      "Ġsens": 8395,
      "ãĤ¸": 8396,
      "Ġestados": 8397,
      "Ġcodecs": 8398,
      "evalu": 8399,
      "âĶĢâĶĢâĶĢâĶĢâĶĢâĶĢâĶĢâĶĢâĶĢâĶĢâĶĢâĶĢâĶĢâĶĢâĶĢâĶĢ": 8400,
      "hot": 8401,
      "Ġà°": 8402,
      "ixture": 8403,
      "ĠÃ¡r": 8404,
      "æĮģ": 8405,
      "æĻĤ": 8406,
      "UID": 8407,
      "Ġgan": 8408,
      "Ġacceso": 8409,
      "ãĥ³ãĥĪ": 8410,
      "Ġpersona": 8411,
      "Ġvocabulary": 8412,
      "Ġindividu": 8413,
      "Ġderechos": 8414,
      "Ġtaken": 8415,
      "íĸī": 8416,
      "Pos": 8417,
      "ĠAnt": 8418,
      "Ġcheckpoints": 8419,
      "Wrapper": 8420,
      "Ġservicio": 8421,
      "Header": 8422,
      "Ġenl": 8423,
      "iy": 8424,
      "ming": 8425,
      "Ġsint": 8426,
      "profile": 8427,
      "generic": 8428,
      "Ġ2023": 8429,
      "wrapper": 8430,
      "ĠĠĠĠĠĠĠĠĠĠĠĠĠĠĠĠĠĠĠĠĠĠĠĠĠĠĠĠĠĠ": 8431,
      "trunc": 8432,
      "Ġcached": 8433,
      "Ġë°©": 8434,
      "ĠavatarUrl": 8435,
      "two": 8436,
      "Ġterc": 8437,
      "rece": 8438,
      "ĠRead": 8439,
      "Ġespecialmente": 8440,
      "aim": 8441,
      "Ġsac": 8442,
      "positional": 8443,
      "metro": 8444,
      "Ã¡ticas": 8445,
      "Ġcosas": 8446,
      "Ġinitialization": 8447,
      "Ġherramient": 8448,
      "Ġvista": 8449,
      "ĠSS": 8450,
      "Ġextr": 8451,
      "monitor": 8452,
      "çĶŁæĪĲ": 8453,
      "VICE": 8454,
      "Over": 8455,
      "istro": 8456,
      "ĠserÃŃa": 8457,
      "Ġmanager": 8458,
      "subclass": 8459,
      "Ġdeben": 8460,
      "Ġthreading": 8461,
      "requests": 8462,
      "Ġmerced": 8463,
      "Ġcm": 8464,
      "filer": 8465,
      "conf": 8466,
      "Ġpartes": 8467,
      "Ġsurg": 8468,
      "Web": 8469,
      "ĠbÃ¡s": 8470,
      "estiÃ³n": 8471,
      "ĠNue": 8472,
      "Ġimportant": 8473,
      "ube": 8474,
      "scheme": 8475,
      "æĹ¶": 8476,
      "Ġbat": 8477,
      "Ġbad": 8478,
      "Ġoblig": 8479,
      "dedor": 8480,
      "teriores": 8481,
      "Ġdataclasses": 8482,
      "ising": 8483,
      "ĠCre": 8484,
      "ãĤ§": 8485,
      "Ġassistant": 8486,
      "Ġglobals": 8487,
      "ened": 8488,
      "alone": 8489,
      "ila": 8490,
      "Ġtrust": 8491,
      "ĠÐ¢": 8492,
      "Ã¡ticos": 8493,
      "Child": 8494,
      "avatars": 8495,
      "éĻ": 8496,
      "Ġtrigger": 8497,
      "Ġdimensions": 8498,
      "æį®": 8499,
      "æ¯": 8500,
      "()]": 8501,
      "Ġevid": 8502,
      "arece": 8503,
      "Ġë§¤": 8504,
      "Ġcompatibility": 8505,
      "ìħĺ": 8506,
      "900": 8507,
      "job": 8508,
      "é«": 8509,
      "Ġalmost": 8510,
      "ached": 8511,
      "Ġconstitu": 8512,
      "ÑĢÐ¸Ð¼": 8513,
      "Ġdevices": 8514,
      "Ġweak": 8515,
      "Ġdeclare": 8516,
      "Masked": 8517,
      "Ġamo": 8518,
      "impl": 8519,
      "Ġdado": 8520,
      "Ġshown": 8521,
      "Ġargparse": 8522,
      "}}}": 8523,
      "224": 8524,
      "Ġroll": 8525,
      "ĠCONT": 8526,
      "TextConfig": 8527,
      "Async": 8528,
      "adam": 8529,
      "aced": 8530,
      "ĠTuple": 8531,
      "ĠLEFT": 8532,
      "oop": 8533,
      "ä»»": 8534,
      "ãĤĪãģĨãģ«": 8535,
      "Dropout": 8536,
      "raise": 8537,
      "ty": 8538,
      "Ġelimin": 8539,
      "(--": 8540,
      "Flow": 8541,
      "ĠSH": 8542,
      "Ġlibr": 8543,
      "ĠìĥĿ": 8544,
      "ĠdÃ©cada": 8545,
      "aux": 8546,
      "gemma": 8547,
      "Typ": 8548,
      "æĵįä½ľ": 8549,
      "ende": 8550,
      "Ġ`__": 8551,
      "illas": 8552,
      "Ġcomputing": 8553,
      "aaaa": 8554,
      "Ġinterpret": 8555,
      "ĠOther": 8556,
      "ĠAg": 8557,
      "ÃŃm": 8558,
      "Ġorient": 8559,
      "ĠRIGHT": 8560,
      "âĢľ": 8561,
      "Ġ??": 8562,
      "Ġ\"^": 8563,
      "urch": 8564,
      "ĠWorld": 8565,
      "ĠCons": 8566,
      "Ġprimero": 8567,
      "æĺİ": 8568,
      "SU": 8569,
      "Ġbackend": 8570,
      "ĠCam": 8571,
      "without": 8572,
      "ëł¥": 8573,
      ".--": 8574,
      "loaded": 8575,
      "Ġactive": 8576,
      "Ãºlti": 8577,
      "Ġshows": 8578,
      "AP": 8579,
      "piece": 8580,
      "lem": 8581,
      "anges": 8582,
      "Ġë¶": 8583,
      "ãĥ¼ãĥĪ": 8584,
      "ĠAttributeError": 8585,
      "ĠexpresiÃ³n": 8586,
      "teriormente": 8587,
      "Ġenfermed": 8588,
      "icios": 8589,
      "porte": 8590,
      "Ġ<<": 8591,
      "Ġ858": 8592,
      "ĠServer": 8593,
      "enu": 8594,
      "ãĥŀ": 8595,
      "ĠGer": 8596,
      "Ġnuevos": 8597,
      "è½": 8598,
      "quire": 8599,
      "ĠevoluciÃ³n": 8600,
      "Ġjunto": 8601,
      "Ġactually": 8602,
      "emplates": 8603,
      "times": 8604,
      "ĠDesde": 8605,
      "Order": 8606,
      ")},": 8607,
      "xff": 8608,
      "èµ": 8609,
      "Ġ\"-": 8610,
      "ÐµÐ·": 8611,
      "ĠìŀĲ": 8612,
      "ĠSimple": 8613,
      "èĪ": 8614,
      "Ġviv": 8615,
      "logÃŃas": 8616,
      "ĠëĤ": 8617,
      "Ġedge": 8618,
      "mostr": 8619,
      "Ġusuarios": 8620,
      "Ġpooled": 8621,
      "ĠtamaÃ±o": 8622,
      "Pass": 8623,
      "diction": 8624,
      "downcast": 8625,
      "Ġbackward": 8626,
      "VLM": 8627,
      "^^": 8628,
      "arding": 8629,
      "Ġgel": 8630,
      "Ġoften": 8631,
      "oust": 8632,
      "Ġamong": 8633,
      "assertIsNot": 8634,
      "Embeddings": 8635,
      "Ġquick": 8636,
      "ĠMÃ©xico": 8637,
      "ĠíĶĦ": 8638,
      "Ġpropio": 8639,
      "Ġversions": 8640,
      "Ġplaceholder": 8641,
      "Ġinstrument": 8642,
      "neg": 8643,
      "Ġmagn": 8644,
      "ONE": 8645,
      "Ġobser": 8646,
      "Start": 8647,
      "Ġnuest": 8648,
      "ĠLanguage": 8649,
      "configs": 8650,
      "Ð¸ÑĤ": 8651,
      "Ġrelativ": 8652,
      "ëĬ¥": 8653,
      "Ġremoved": 8654,
      "ĠDurante": 8655,
      "lint": 8656,
      "uuid": 8657,
      "parts": 8658,
      "plicit": 8659,
      "Ġinstal": 8660,
      "fmt": 8661,
      "aca": 8662,
      "Ġthing": 8663,
      "addr": 8664,
      "Ġafect": 8665,
      "ëŀĺ": 8666,
      "éľĢè¦ģ": 8667,
      "poonful": 8668,
      "Er": 8669,
      "Hash": 8670,
      "ĺë¦¬": 8671,
      "prev": 8672,
      "ĠGREEK": 8673,
      "PyObject": 8674,
      "Ġvelocidad": 8675,
      "uk": 8676,
      "roy": 8677,
      "Ġland": 8678,
      "izados": 8679,
      "abor": 8680,
      "ategies": 8681,
      "uffix": 8682,
      "modal": 8683,
      "ĠregiÃ³n": 8684,
      "subTest": 8685,
      "Ġsemantic": 8686,
      "`ãĢĤ": 8687,
      "è«": 8688,
      "è³": 8689,
      "Ġtend": 8690,
      "ĠAunque": 8691,
      "ibr": 8692,
      "9934": 8693,
      "geno": 8694,
      "ĠseÃ±al": 8695,
      "Body": 8696,
      "Sim": 8697,
      "Ġìĭ¤": 8698,
      "Ġpartition": 8699,
      "Ġfloats": 8700,
      "Ġencuentra": 8701,
      "Ap": 8702,
      "Ġapar": 8703,
      "åº¦": 8704,
      "pixels": 8705,
      "arrow": 8706,
      "Ġwhite": 8707,
      "skipTest": 8708,
      "ĠINFO": 8709,
      "ãģķãģĦ": 8710,
      "NO": 8711,
      "pipe": 8712,
      "zos": 8713,
      "Ġdummy": 8714,
      "Ġtool": 8715,
      "ĠDynamic": 8716,
      "Ġgraph": 8717,
      "Ġlengths": 8718,
      "sleep": 8719,
      "Ġtables": 8720,
      "adora": 8721,
      "Ġpositions": 8722,
      "Ġexecute": 8723,
      "Ġspeak": 8724,
      "Ġdst": 8725,
      "Ã©tr": 8726,
      "Ġalguna": 8727,
      "computed": 8728,
      "SH": 8729,
      "intern": 8730,
      "Ġtexto": 8731,
      "Ġevit": 8732,
      "ipto": 8733,
      "Ġlayout": 8734,
      "ĠÃ¼": 8735,
      "åĪĹ": 8736,
      "Generic": 8737,
      "Ġutilizar": 8738,
      "Ġchildren": 8739,
      "ĠLLM": 8740,
      "egin": 8741,
      "Ġtuvo": 8742,
      "ĠëķĮ": 8743,
      "Ġpredictions": 8744,
      "Ġ\"\",": 8745,
      "\",\"": 8746,
      "005": 8747,
      "Ġupper": 8748,
      "Ãªme": 8749,
      "matches": 8750,
      "Ġë³´": 8751,
      "CI": 8752,
      "esta": 8753,
      "plus": 8754,
      "Ġ[('": 8755,
      "ges": 8756,
      "gpus": 8757,
      "vp": 8758,
      "Ġdemostr": 8759,
      "Ġprintln": 8760,
      "Ġ'../../": 8761,
      "Ġtruncation": 8762,
      "-[": 8763,
      "Ġsost": 8764,
      "ĠSig": 8765,
      "ĠThread": 8766,
      "166": 8767,
      "Ã§Ãµes": 8768,
      "optimization": 8769,
      "Ġëª¨ëį¸ìĿĦ": 8770,
      "ForImageClassification": 8771,
      "Ġpict": 8772,
      "ĠfÃ¡": 8773,
      "amin": 8774,
      "Ġvuel": 8775,
      "Ġ./": 8776,
      "PyObjectRef": 8777,
      "Ġinstances": 8778,
      "Ġvalidator": 8779,
      "Only": 8780,
      "ĠRobert": 8781,
      "Ġprior": 8782,
      "additional": 8783,
      "ìŀ¥": 8784,
      "Ġclub": 8785,
      "define": 8786,
      "Ġsuperior": 8787,
      "Ġinicial": 8788,
      "âķ": 8789,
      "ĠBu": 8790,
      "Ġkv": 8791,
      "åħ¨": 8792,
      "Ġproducto": 8793,
      "slots": 8794,
      "escape": 8795,
      "elves": 8796,
      "ĠPe": 8797,
      "Ġpaso": 8798,
      "Ġnaturaleza": 8799,
      "Ġdicho": 8800,
      "adcast": 8801,
      "Ġbenchmark": 8802,
      "Ġhizo": 8803,
      "ĠMake": 8804,
      "layout": 8805,
      "codec": 8806,
      "({\"": 8807,
      "8859": 8808,
      "Ġ8589934": 8809,
      "Box": 8810,
      "JS": 8811,
      "ì¡": 8812,
      "ĠĠĠĠĠĠĠĠĠĠĠĠĠĠĠĠĠĠĠĠĠĠĠĠĠĠĠĠĠĠĠĠĠĠĠĠĠĠĠĠĠĠĠĠĠĠĠĠĠĠĠĠĠĠĠĠĠĠĠĠĠĠĠĠĠĠĠĠĠĠĠĠĠĠĠĠĠĠĠĠĠĠĠĠĠĠĠĠĠĠĠĠĠĠĠĠĠĠĠĠĠĠĠĠĠĠĠĠĠĠĠĠĠĠĠĠĠĠĠĠĠĠĠĠĠĠĠĠ": 8813,
      "à±į": 8814,
      "sqrt": 8815,
      "LD": 8816,
      "Ġconduct": 8817,
      "Ġproced": 8818,
      "è¡¨": 8819,
      "çķ": 8820,
      "Ġlaunch": 8821,
      "ĠBERT": 8822,
      "Ġmatching": 8823,
      "when": 8824,
      "Ġallows": 8825,
      "BytesIO": 8826,
      "éĩį": 8827,
      "vas": 8828,
      "xml": 8829,
      "Ġaan": 8830,
      "ĠII": 8831,
      "plex": 8832,
      "Ġconocido": 8833,
      "equ": 8834,
      "every": 8835,
      "ĠJava": 8836,
      "ä½Ĩ": 8837,
      "Ġflu": 8838,
      "ãģĹãģ¦ãģĦ": 8839,
      "æŃ¤": 8840,
      "itter": 8841,
      "Ġdatasource": 8842,
      "Ġcause": 8843,
      "rozens": 8844,
      "Ġpesar": 8845,
      "åıĤæķ°": 8846,
      "Ġalmacen": 8847,
      "Null": 8848,
      "lv": 8849,
      "Ġscore": 8850,
      "ĠnÃ£o": 8851,
      "Ġprove": 8852,
      "([[": 8853,
      "GEN": 8854,
      "bid": 8855,
      "iam": 8856,
      "Ġpickle": 8857,
      "ĠALL": 8858,
      "anta": 8859,
      "Ġresultados": 8860,
      "è¿Ľ": 8861,
      "700": 8862,
      "La": 8863,
      "Mapping": 8864,
      "ĠStart": 8865,
      "ãĤ¹ãĤ¯": 8866,
      "ying": 8867,
      "íĺ": 8868,
      "Ġconversion": 8869,
      "Ġimg": 8870,
      "ĠSize": 8871,
      "Ġtri": 8872,
      "Ġ80": 8873,
      "ifest": 8874,
      "Ã¡m": 8875,
      "ÐµÐ»": 8876,
      "roberta": 8877,
      "Ġrespuesta": 8878,
      "Ġ39": 8879,
      "255": 8880,
      "å®¹": 8881,
      "048": 8882,
      "Reader": 8883,
      "Ġefecto": 8884,
      "'ve": 8885,
      "ertos": 8886,
      "Ġacept": 8887,
      "Ġfree": 8888,
      "etry": 8889,
      "Ġanterior": 8890,
      "Ġdoing": 8891,
      "mania": 8892,
      "Ġvisit": 8893,
      "dumps": 8894,
      "ĠeconomÃŃa": 8895,
      "ë¶Ģ": 8896,
      "tuning": 8897,
      "ĠCUDA": 8898,
      "Ġalto": 8899,
      "Ġanything": 8900,
      "Annotated": 8901,
      "details": 8902,
      "mathbf": 8903,
      "ãģıãģł": 8904,
      "Ġearly": 8905,
      "Ġmanually": 8906,
      "topk": 8907,
      "åĬĽ": 8908,
      "æĿ¥": 8909,
      "DATA": 8910,
      "ãģıãģłãģķãģĦ": 8911,
      "experiment": 8912,
      "Ġutiliza": 8913,
      "precation": 8914,
      "Ã©ct": 8915,
      "Ġshadow": 8916,
      "volucion": 8917,
      "ãģĿãģ®": 8918,
      "IST": 8919,
      "Val": 8920,
      "çľ": 8921,
      "Ġprincipalmente": 8922,
      "Ġtp": 8923,
      "etimes": 8924,
      "ĠÃ¶": 8925,
      "Precision": 8926,
      "ĠZh": 8927,
      "bind": 8928,
      "Ġtrop": 8929,
      "ĠAB": 8930,
      "angle": 8931,
      "Ġsuces": 8932,
      "Ġready": 8933,
      "Found": 8934,
      "VERS": 8935,
      "iness": 8936,
      "Ġple": 8937,
      "Ġllama": 8938,
      "VisionModel": 8939,
      "Ġlanz": 8940,
      "Ġhund": 8941,
      "ĠLin": 8942,
      "ĠinvestigaciÃ³n": 8943,
      "dar": 8944,
      "ilation": 8945,
      "averse": 8946,
      "undle": 8947,
      "theta": 8948,
      "Ġ978": 8949,
      "è¯·": 8950,
      "çī¹": 8951,
      "Ġ60": 8952,
      "Ġcondiciones": 8953,
      "ĠtÃ©rminos": 8954,
      "iÃ¨re": 8955,
      "sampler": 8956,
      "Ġnoc": 8957,
      "quad": 8958,
      "specific": 8959,
      "Ġê²½ìļ°": 8960,
      "]}": 8961,
      "ĺĲ": 8962,
      "Ġpert": 8963,
      "lev": 8964,
      "ĠFrom": 8965,
      "ĠclassName": 8966,
      "ãĥ¼ãĥ«": 8967,
      "Ġíķ¨": 8968,
      "dijo": 8969,
      "ĠmÃºsica": 8970,
      "Ġvotre": 8971,
      "è·¯å¾": 8972,
      "rozenset": 8973,
      "dic": 8974,
      "ìĨ": 8975,
      "ingu": 8976,
      "Ġnacional": 8977,
      "ĠEN": 8978,
      "brand": 8979,
      "baz": 8980,
      "dif": 8981,
      "esis": 8982,
      "Ġenvi": 8983,
      "ĠAut": 8984,
      "Ġexit": 8985,
      "Ġë©": 8986,
      "Ġmenor": 8987,
      "typing": 8988,
      "ĠìĹ¬": 8989,
      "integrations": 8990,
      ")\\": 8991,
      "Ġassoci": 8992,
      "overflow": 8993,
      "eb": 8994,
      "é¢": 8995,
      "quential": 8996,
      "Ġante": 8997,
      "Ġproxy": 8998,
      "translation": 8999,
      "Unique": 9000,
      "Ġincluding": 9001,
      "ĠBaseModelOutputWithPooling": 9002,
      "çĤº": 9003,
      "jas": 9004,
      "ĩī": 9005,
      "rededor": 9006,
      "isa": 9007,
      "ĠdÃŃas": 9008,
      "chars": 9009,
      "Ġmaking": 9010,
      "Ġperman": 9011,
      "Ġcoordin": 9012,
      "puesto": 9013,
      "ĠHowever": 9014,
      "æ±Ĥ": 9015,
      "zer": 9016,
      "alcon": 9017,
      "0001": 9018,
      "Ø§ÙĨ": 9019,
      ":\",": 9020,
      "tec": 9021,
      "éĽ": 9022,
      "ionError": 9023,
      "Ġmatrix": 9024,
      "Ġseed": 9025,
      "Ġaccording": 9026,
      "Ġcrist": 9027,
      "ãĥĪãĥ¼ãĤ¯": 9028,
      "typescript": 9029,
      "Ġexactly": 9030,
      "Ġproyecto": 9031,
      "plica": 9032,
      "Ã¡mica": 9033,
      "Depth": 9034,
      "ÑģÑĤÑĮ": 9035,
      "Ð°Ð½Ð½Ñı": 9036,
      "III": 9037,
      "ackends": 9038,
      "Ġhombre": 9039,
      "extraction": 9040,
      "olÃ³gica": 9041,
      "GI": 9042,
      "Suite": 9043,
      "·ãĥ§ãĥ³": 9044,
      "incl": 9045,
      "Ġhi": 9046,
      "Ġever": 9047,
      "MAX": 9048,
      "Ġuit": 9049,
      "Ġampl": 9050,
      "Ġfuerzas": 9051,
      "Ġsiguientes": 9052,
      "æĸĩä»¶": 9053,
      "urrent": 9054,
      "Ġvec": 9055,
      "Ġ`${": 9056,
      "AutoModel": 9057,
      "Ġãģ¯": 9058,
      "reject": 9059,
      "Ġdice": 9060,
      "Ġwom": 9061,
      "reader": 9062,
      "shapes": 9063,
      "ddp": 9064,
      "Ġartific": 9065,
      "Ġproductos": 9066,
      "Ġìĸ´": 9067,
      "TS": 9068,
      "Ġpud": 9069,
      "Ġhier": 9070,
      "Ġìļ": 9071,
      "ãĥ¼ãĤ¹": 9072,
      "ĠChina": 9073,
      "Ġmenudo": 9074,
      "ĠFrench": 9075,
      "dst": 9076,
      "ĠAfter": 9077,
      "ĠHand": 9078,
      "Ġkw": 9079,
      "Ġclar": 9080,
      "ĠíĽ": 9081,
      "Ġexists": 9082,
      "Ġboy": 9083,
      "Max": 9084,
      "direct": 9085,
      "idge": 9086,
      "stant": 9087,
      "Ġ{})": 9088,
      "Ġpract": 9089,
      "Ġdog": 9090,
      "âĶģ": 9091,
      "Ġpathlib": 9092,
      "inese": 9093,
      "Ġlooked": 9094,
      "æķ°æį®": 9095,
      "åĮħ": 9096,
      "ĠÐ¿ÑĢÐ¾": 9097,
      "canc": 9098,
      "ialog": 9099,
      "Ġlibert": 9100,
      "Ġhistor": 9101,
      "ĠArgument": 9102,
      "ombia": 9103,
      "ota": 9104,
      ").__": 9105,
      "INFO": 9106,
      "spaces": 9107,
      "ĠalgÃºn": 9108,
      "ãĥĪãĥ¬ãĥ¼ãĥ": 9109,
      "ĠaquÃŃ": 9110,
      "Ġbytearray": 9111,
      "èĢĮ": 9112,
      "Ġreligios": 9113,
      "leave": 9114,
      "accelerate": 9115,
      "ÃŃculo": 9116,
      "ected": 9117,
      "Ġfront": 9118,
      "aza": 9119,
      "ssl": 9120,
      "Ġdiferencia": 9121,
      "closed": 9122,
      "\";": 9123,
      "bet": 9124,
      "Ġrepeat": 9125,
      "åĪ¥": 9126,
      "Ġcourse": 9127,
      "Ġdesign": 9128,
      "ä¸ĢåĢĭ": 9129,
      "ĠÃºltimo": 9130,
      "æıĲä¾Ľ": 9131,
      "Ãºltiples": 9132,
      "aga": 9133,
      "Ġpartial": 9134,
      "ãģªãģĦ": 9135,
      "axis": 9136,
      "Me": 9137,
      "Ġconc": 9138,
      "ocal": 9139,
      "à¤°": 9140,
      "Ġpalabras": 9141,
      "Ġì§Ģ": 9142,
      "Func": 9143,
      "Ġellas": 9144,
      "embers": 9145,
      "getattr": 9146,
      "Ġprefer": 9147,
      "Ġcuanto": 9148,
      "ĠØ¥ÙĦÙī": 9149,
      "Ġfacil": 9150,
      "ĠLOG": 9151,
      "Ġ\",": 9152,
      "Ġzoo": 9153,
      "mesh": 9154,
      "free": 9155,
      "irection": 9156,
      "tropy": 9157,
      "ĠìĥĿìĦ±": 9158,
      "gers": 9159,
      "ĠEg": 9160,
      "Ġusage": 9161,
      "Ġley": 9162,
      "ofÃŃa": 9163,
      "Ġindent": 9164,
      "Ġalgoritmo": 9165,
      "report": 9166,
      "769": 9167,
      "sqlmodel": 9168,
      "ĠtÃ©cnicas": 9169,
      "Pol": 9170,
      "warmup": 9171,
      "ç±»": 9172,
      "Listing": 9173,
      "Ġë²": 9174,
      "Ð¾Ð¼Ñĥ": 9175,
      "unid": 9176,
      "resiÃ³n": 9177,
      "ĠOAuth": 9178,
      "Ġsoon": 9179,
      "curacy": 9180,
      "Ġmiemb": 9181,
      "hib": 9182,
      "ĠBLOCK": 9183,
      "Ġhowever": 9184,
      "&&": 9185,
      "except": 9186,
      "umb": 9187,
      "price": 9188,
      "aker": 9189,
      "Ġbounding": 9190,
      "éĸĭ": 9191,
      "ÑĢÐ°Ð¼ÐµÑĤÑĢ": 9192,
      "zone": 9193,
      "Ġvac": 9194,
      "normalized": 9195,
      "MIN": 9196,
      "Ġmateria": 9197,
      "Ġlower": 9198,
      "Ġord": 9199,
      "ĠtestMatrix": 9200,
      "Ġminutes": 9201,
      "<'_,": 9202,
      "Ġllamada": 9203,
      "ĠÑīÐ¾": 9204,
      "Ġbarr": 9205,
      "Ġtook": 9206,
      "Ġtech": 9207,
      "íķĺìĦ¸ìļĶ": 9208,
      "Ġsegunda": 9209,
      "Ġpapel": 9210,
      "Part": 9211,
      "anlab": 9212,
      "Control": 9213,
      "ĠUsing": 9214,
      "Ġment": 9215,
      "Ġcolon": 9216,
      "Ġinstalled": 9217,
      "written": 9218,
      "Ġdio": 9219,
      "ĠPal": 9220,
      "choice": 9221,
      "pooler": 9222,
      "ãĥĪãĥ¬ãĥ¼ãĥĭãĥ³ãĤ°": 9223,
      "air": 9224,
      "ĠÃ³r": 9225,
      "unst": 9226,
      "ĠAR": 9227,
      "ĠMax": 9228,
      "Ġëĵ": 9229,
      "ICAL": 9230,
      "ĠComponent": 9231,
      "Ġeverything": 9232,
      "Ġideas": 9233,
      "Ġimagen": 9234,
      "isor": 9235,
      "()[": 9236,
      "shift": 9237,
      "ĠConv": 9238,
      "Ġlocation": 9239,
      "detach": 9240,
      "Ġaleman": 9241,
      "MT": 9242,
      "ssm": 9243,
      "Ġexisten": 9244,
      "Ġcomponents": 9245,
      "Container": 9246,
      "Ġ26": 9247,
      "Ġpreview": 9248,
      "ĠëĶ": 9249,
      "Ġjob": 9250,
      "ä¸İ": 9251,
      "LOAD": 9252,
      "ĠconstrucciÃ³n": 9253,
      "ĠAlemania": 9254,
      ":'": 9255,
      "ĠSur": 9256,
      "Ġobras": 9257,
      "Ġfuerza": 9258,
      "Ġcultura": 9259,
      "FILE": 9260,
      "'].": 9261,
      "HO": 9262,
      "Ġlif": 9263,
      "ÐµÐº": 9264,
      "login": 9265,
      "Proxy": 9266,
      "Throw": 9267,
      "origin": 9268,
      "ĢìĪĺ": 9269,
      "atal": 9270,
      "ifile": 9271,
      "ĠCSS": 9272,
      "ĠGPUs": 9273,
      "Ġdirig": 9274,
      "Ġurllib": 9275,
      "Ġsuperfic": 9276,
      "Ġbeta": 9277,
      "pin": 9278,
      "Ġrev": 9279,
      "Ġprogress": 9280,
      "ĠÐĿ": 9281,
      "ROL": 9282,
      "Ġfinales": 9283,
      "Ġciudades": 9284,
      "ĠmÃ¡xim": 9285,
      "Ġatrib": 9286,
      "LazyModule": 9287,
      "cb": 9288,
      "kernels": 9289,
      "Ġhome": 9290,
      "Ġsep": 9291,
      "CTION": 9292,
      "react": 9293,
      "Ġwindows": 9294,
      "usage": 9295,
      "ĠDel": 9296,
      "quantize": 9297,
      "Ġadministr": 9298,
      "Ġfem": 9299,
      "endswith": 9300,
      "Ġschool": 9301,
      "legacy": 9302,
      "isinstance": 9303,
      "ĠCargo": 9304,
      "Ġplugins": 9305,
      "CHOR": 9306,
      "Ġ123": 9307,
      "multifile": 9308,
      "Ġmecan": 9309,
      "âĶģâĶģ": 9310,
      "eur": 9311,
      "Ã´": 9312,
      "chen": 9313,
      "Ġstud": 9314,
      "private": 9315,
      "Ġcliente": 9316,
      "acias": 9317,
      "plugins": 9318,
      "Ġreset": 9319,
      "Ġêµ¬": 9320,
      "Ġflash": 9321,
      "Ġdetection": 9322,
      "Ġarchivo": 9323,
      "ĠAlgunos": 9324,
      "Ġsatisf": 9325,
      "nc": 9326,
      "seen": 9327,
      "Ġsubclass": 9328,
      "Ġobtener": 9329,
      "Extension": 9330,
      "CLI": 9331,
      "then": 9332,
      "ĠVous": 9333,
      "ARY": 9334,
      "Ġstarted": 9335,
      "complex": 9336,
      "Ġstacked": 9337,
      "ä¾ĭå¦Ĥ": 9338,
      "ãģĮãģĤãĤĬãģ¾ãģĻ": 9339,
      "ĠíĨł": 9340,
      "xB": 9341,
      "Ġprepar": 9342,
      "tty": 9343,
      "Each": 9344,
      "align": 9345,
      "rounding": 9346,
      "Ġbs": 9347,
      "Ġtra": 9348,
      "ĠVideo": 9349,
      "logy": 9350,
      "Ġbranch": 9351,
      "Ġthreads": 9352,
      "12345678": 9353,
      "å¢ĥ": 9354,
      "Ġdelete": 9355,
      "Ġgit": 9356,
      "author": 9357,
      ")=\"": 9358,
      "Ġconvirt": 9359,
      "Ġgeneric": 9360,
      "ĠANCHOR": 9361,
      "<()": 9362,
      "Lo": 9363,
      "ĠCI": 9364,
      "('\\": 9365,
      "getitem": 9366,
      "Ġdescr": 9367,
      "Ġlogic": 9368,
      "Ġconsult": 9369,
      "Ġcomportamiento": 9370,
      "orden": 9371,
      "Ġdays": 9372,
      "sec": 9373,
      "ĠSm": 9374,
      "ĠPipeline": 9375,
      "006": 9376,
      "Ġdisposit": 9377,
      "Ġclim": 9378,
      "ORCH": 9379,
      "ĠEstas": 9380,
      "}}\\": 9381,
      "Ġimplemented": 9382,
      "Ġencuentran": 9383,
      "COD": 9384,
      "gunt": 9385,
      "Ġinline": 9386,
      "Ġbug": 9387,
      "ĠADN": 9388,
      "Ġnear": 9389,
      "ellos": 9390,
      "ä»¥ä¸ĭ": 9391,
      "Ġstdout": 9392,
      "åĽł": 9393,
      "èªŀ": 9394,
      "ho": 9395,
      "Ġlik": 9396,
      "Ġdecoding": 9397,
      "iÃ©nd": 9398,
      "Ġsignature": 9399,
      "Ġå¦Ĥ": 9400,
      "compiler": 9401,
      "Ġestad": 9402,
      "ForMasked": 9403,
      "Ġliber": 9404,
      "'})": 9405,
      "]])": 9406,
      "elper": 9407,
      "Ġdass": 9408,
      "__\",": 9409,
      "ĠGitHub": 9410,
      "Ġvarious": 9411,
      "ä¿¡": 9412,
      "çĦ": 9413,
      "Ġmachine": 9414,
      "Ãºt": 9415,
      "Entropy": 9416,
      "Ġcompatible": 9417,
      "Ġcountry": 9418,
      "Ġsamples": 9419,
      "Ġdies": 9420,
      "izaciones": 9421,
      "Ð½Ð°": 9422,
      "Ġworking": 9423,
      "imports": 9424,
      ",),": 9425,
      "mix": 9426,
      "Ĳâķ": 9427,
      "ĠcÃ¡l": 9428,
      "ĠUN": 9429,
      "ĠProcess": 9430,
      "ä½łçļĦ": 9431,
      "ÑĥÐ²Ð°ÑĤÐ¸": 9432,
      "ĠHistoria": 9433,
      "Ġ'--": 9434,
      "Ġneut": 9435,
      "ÙĪÙĦ": 9436,
      "EP": 9437,
      "FIL": 9438,
      "Payload": 9439,
      "Ġach": 9440,
      "Ġcere": 9441,
      "ricos": 9442,
      "scatter": 9443,
      "Ġequipo": 9444,
      "dp": 9445,
      "¹Ħ": 9446,
      "ĠTLS": 9447,
      "though": 9448,
      "residual": 9449,
      "ĠBo": 9450,
      "textContent": 9451,
      "ĠÐºÐ¾": 9452,
      "Ġproblem": 9453,
      "ĠnÃºmeros": 9454,
      "Drop": 9455,
      "blo": 9456,
      "Ġknew": 9457,
      "fixtures": 9458,
      "Ġseemed": 9459,
      "ë¬¸": 9460,
      "Ġefic": 9461,
      "ffff": 9462,
      "Ġabstract": 9463,
      "Ġappear": 9464,
      "ĠAmÃ©rica": 9465,
      "pectrogram": 9466,
      "begin": 9467,
      "ctools": 9468,
      "Ġheart": 9469,
      "Ġcli": 9470,
      "ĠColombia": 9471,
      "writer": 9472,
      "ĠelectrÃ³n": 9473,
      "ĠperÃŃodo": 9474,
      "Dr": 9475,
      "Ã®": 9476,
      "Ġtur": 9477,
      "ises": 9478,
      "Ġisn": 9479,
      "Ġexternal": 9480,
      "peration": 9481,
      "](./": 9482,
      "queue": 9483,
      "llm": 9484,
      "Ġfrances": 9485,
      "æ³¨": 9486,
      "ĠtecnologÃŃa": 9487,
      "fake": 9488,
      "element": 9489,
      "Ġmlp": 9490,
      ">>,": 9491,
      "Sync": 9492,
      "idera": 9493,
      "aming": 9494,
      "Ġ',": 9495,
      "pyfunction": 9496,
      "astic": 9497,
      "ĠJap": 9498,
      "Target": 9499,
      "ãģ°": 9500,
      "ĠØ§ÙĦØ£": 9501,
      "Ġattempt": 9502,
      "ë©°": 9503,
      "database": 9504,
      "shard": 9505,
      "Ġchecks": 9506,
      "emporal": 9507,
      "ãĥ©ãĥ¡": 9508,
      "Ġinitialized": 9509,
      "ĠNotImplementedError": 9510,
      "ãĥ©ãĥ¡ãĥ¼ãĤ¿": 9511,
      "mr": 9512,
      "ster": 9513,
      "Ġdirectamente": 9514,
      "Ġcabo": 9515,
      "ä¹ĭ": 9516,
      "Ð¾ÐºÑĥ": 9517,
      "Ġcrecimiento": 9518,
      "Do": 9519,
      "Ġadqu": 9520,
      "contin": 9521,
      "Ġëª¨ëĵ": 9522,
      "ĠIPv": 9523,
      "Rob": 9524,
      "ille": 9525,
      "Ġíĺ": 9526,
      "scopes": 9527,
      "Ġlad": 9528,
      "Ġfire": 9529,
[...]
